0A
0C
F0
07
0E
F1
10
F0
00
13
0A
F3
18
0C
E2
F0
02
F2
0C
05
FE
FC
ED
FB
12
FF
F1
ED
07
08
10
ED
0B
17
13
F5
E9
12
10
F2
08
EF
06
F9
F8
E6
10
06
14
05
16
F8
FF
0B
F8
F2
F5
05
F7
15
07
F0
F9
03
F3
0F
EF
FC
E4
EC
09
F7
0F
0B
FD
17
11
1B
04
0C
07
06
FD
0F
EB
07
E5
03
E9
F1
06
0D
14
17
0E
F9
F9
EF
0D
09
22
11
08
F8
F5
0E
FE
23
FB
F6
16
F9
02
0C
00
FF
08
16
05
0E
1B
04
FE
E9
EA
0D
0A
F6
0A
16
02
0A
0D
11
1F
20
09
E3
EB
06
11
FB
09
FC
19
FB
03
02
0B
00
F7
EA
01
F9
F6
0C
07
14
09
00
16
10
04
08
FE
F7
F3
18
FE
0F
08
F2
12
06
F6
FE
0A
F3
0B
05
F2
F7
01
F5
14
F2
F4
11
FB
13
03
F0
FE
06
F5
13
FC
F8
0B
07
F1
F7
F1
E5
F2
FE
F0
EF
0C
FB
FE
11
FF
EF
00
05
1F
19
0D
07
EE
FA
08
FD
0A
01
FE
FB
FE
03
E8
01
02
E6
FB
00
06
FD
12
E5
F6
E4
E7
FD
22
09
06
18
E5
F5
F8
0B
0C
EF
F4
F7
00
E7
F9
01
03
F8
F0
F6
FA
0D
F9
FC
F7
DF
06
0B
18
19
10
14
0A
F7
DE
F7
F1
F3
F4
FF
FB
08
F0
EE
00
FD
06
0B
F1
00
F2
D5
E6
F8
EC
0A
1E
0D
09
03
F3
ED
F8
F0
07
F4
FF
FD
10
0A
F1
1A
F3
03
FA
F4
02
FD
F0
E2
E9
E4
FA
F6
0E
08
16
14
E5
F2
E8
F7
01
F2
ED
0B
16
08
07
11
FD
0B
EB
FD
FC
FC
00
F2
EC
FB
F8
FC
0C
FE
25
2F
37
04
C9
09
EB
FE
08
FA
13
0D
0C
11
FC
F1
E8
EC
F6
DF
F0
F6
00
EC
09
23
19
15
19
02
11
E9
D0
05
F3
0E
F2
08
11
0A
17
05
11
0C
FF
04
F7
E9
E7
10
0B
06
E7
0A
08
0A
0D
07
EC
F3
DC
E4
F0
1E
F2
01
FD
0D
FF
05
0D
14
FD
01
1A
F5
05
17
FE
ED
1B
0E
05
FB
05
0D
04
07
DD
FD
0F
10
F0
09
FB
06
07
1A
08
19
10
23
09
12
F9
0C
F7
FB
05
1F
00
EE
FD
07
EC
01
DA
04
09
F8
0D
00
F9
0F
1C
03
06
1C
1F
06
09
05
03
11
01
F4
11
FC
FB
05
03
09
ED
FA
F3
F0
F9
11
05
04
E9
FB
FC
1F
09
07
19
08
09
12
08
1D
03
F3
F6
EE
FD
03
FD
F0
F6
06
F2
EA
EE
EC
EC
10
0A
F8
F5
10
F4
01
0D
10
EA
EB
1E
1B
FA
E1
F2
FF
08
F4
14
F7
E8
EB
F9
E1
FC
F9
FD
F2
01
13
01
05
00
F5
0F
F9
13
05
1B
17
F3
EE
02
06
0D
00
F6
08
FC
E7
F8
F1
0B
F8
EE
DE
F2
0A
E9
07
F5
01
F5
FE
08
1B
18
10
06
E6
ED
FA
05
0E
06
08
03
E3
09
09
FD
F5
08
FA
0F
E8
FF
E4
08
05
0E
FF
FD
08
F8
F2
01
F2
FE
05
0F
02
F9
EC
EE
DC
E6
09
05
08
F8
07
FF
EF
F9
E4
F6
F8
09
0E
0A
0D
07
FB
DA
03
ED
FB
F5
15
12
E7
05
F7
E0
FF
10
14
F0
F3
FD
E8
F1
05
13
13
FA
FA
0B
0E
EF
EA
DF
D4
DB
FD
02
FD
19
15
F5
EB
E8
0D
00
EC
27
1A
E8
04
0A
EA
01
FD
04
EB
F1
15
08
E3
02
E9
DE
FA
F6
00
F2
01
08
F4
F3
ED
01
00
08
11
03
07
20
EB
F7
F2
FA
F1
EC
FB
12
FB
E9
E7
00
EA
E7
09
F6
FB
13
F9
FD
07
F7
00
FB
0A
05
FB
0E
FC
0A
13
F4
0B
FA
02
01
00
F3
F0
0A
DB
EE
0C
0B
E0
14
F5
01
EC
ED
EE
FE
F0
F2
14
F1
FC
00
EC
05
F9
FD
F3
09
00
15
FC
FC
03
F3
F2
00
EC
FE
FE
FF
09
F5
FC
07
EB
F3
0D
F9
15
02
EE
FC
18
F7
15
F4
19
FF
19
F6
13
F1
F0
FE
0E
02
F3
FE
F6
FC
FD
0B
0A
09
05
03
12
10
12
0A
13
F7
00
1B
0F
12
1C
26
18
14
1F
02
07
F9
EC
14
03
0F
14
EC
F2
15
17
13
F3
E2
05
17
F3
02
E8
F3
06
06
F0
1D
1F
19
1C
26
10
1C
E2
07
F2
07
0E
10
ED
E7
FC
E9
05
ED
F9
FF
0D
FE
F7
F4
0C
05
FD
FC
06
00
04
11
13
08
14
09
06
0E
0A
16
F7
E7
F7
D5
E3
F3
EC
01
EE
F4
E5
FD
D5
F1
09
1B
FD
E6
01
0E
2C
10
1B
F9
04
F2
00
11
F2
EA
F9
DD
03
F5
01
05
F2
0B
F3
EB
EF
FF
0A
12
07
FE
F1
0E
17
32
3D
1A
12
0B
0D
0F
0A
F1
0B
FA
FE
FF
F9
07
03
FB
04
02
0C
03
F7
14
10
09
08
1F
19
14
2A
37
15
1F
01
09
EE
E7
E6
03
00
FE
08
0D
06
16
00
10
F5
F3
EE
0F
06
24
11
1B
0E
2A
26
12
15
FE
01
FE
F8
05
F3
0E
0B
00
18
13
21
0F
F9
14
F6
04
0E
06
05
F4
F4
11
1B
0B
16
04
12
19
06
01
F8
ED
1A
F8
FB
13
FE
FC
08
17
14
14
0A
F4
F5
01
08
00
03
EF
ED
D6
F5
08
2E
09
FB
17
1A
02
FB
15
F8
11
12
23
1D
27
0E
F2
FC
02
FD
0A
FD
F2
F9
EE
EF
D7
E6
07
F8
1C
0D
11
0A
FD
F8
0A
18
17
04
23
13
25
FC
F1
FB
F3
1A
10
EB
04
F6
03
06
E6
F2
15
18
F0
10
FD
FF
0D
06
FB
0F
F9
2D
03
1C
F2
E4
C8
D2
F3
06
FF
06
F0
0F
0B
FC
FB
ED
0D
05
18
06
14
04
FA
0E
02
0B
FD
0C
FD
0F
F7
CF
D3
DA
E4
FB
01
EE
0B
EE
00
21
0C
EA
03
01
22
F5
12
EB
05
07
F1
04
E8
FD
F4
F1
EC
C4
D0
E5
F9
F3
E7
F0
0B
1F
20
15
F3
FF
FA
00
FD
0D
1A
E4
FA
ED
F0
E4
0D
F3
EC
E9
C4
DF
E7
00
FB
F6
FF
F0
10
FE
FE
0D
28
E0
FA
00
0C
17
FE
05
EB
F6
E9
F5
E4
F2
D9
EE
CD
F0
F4
F4
FA
04
06
FE
10
F7
0D
F9
08
EA
0D
FA
1C
F2
0C
1A
0D
EF
F5
DB
FC
EA
EB
DF
D8
E6
ED
0C
F7
02
FE
16
19
09
07
07
14
0B
12
EB
02
20
FD
0F
02
04
EC
E2
07
FE
F8
F5
EC
F5
F9
00
0C
0F
10
03
04
F6
05
F2
F8
F7
EE
ED
F6
F9
FC
FD
05
F3
08
11
08
01
F7
10
FF
09
F8
0C
F8
F9
0B
0E
F2
FD
06
0B
FF
F3
FD
13
F5
ED
09
16
11
08
01
0B
F7
07
FD
1F
0A
0A
1C
00
FD
12
F7
EA
04
F3
09
F1
0F
02
0E
F9
0D
11
FC
12
03
F5
0D
FE
07
06
02
FC
FA
FA
F3
00
13
0D
07
EF
EE
00
F6
05
06
F7
FE
18
FF
F2
F7
07
FD
08
F6
01
0B
06
FD
09
F2
00
ED
08
FB
10
EF
F2
FD
00
EF
E0
FB
FB
13
09
F4
F0
07
F7
04
08
08
12
0A
06
0E
06
FE
10
F7
0C
08
0D
04
0A
00
15
F7
F6
EA
EA
FA
07
F6
F1
F3
08
0B
F0
FD
1A
10
03
10
0A
1B
19
10
F9
19
01
FE
13
17
18
18
F8
F5
EB
12
04
FA
EE
FF
F8
04
1A
14
0B
08
FE
29
1C
14
20
00
0D
19
F7
1D
27
14
FA
0A
06
F5
0A
F9
F6
0B
0C
F2
09
09
0A
F9
18
1C
06
15
0D
F8
1D
08
0A
0C
16
FF
F8
FC
0A
03
2E
0A
F4
F3
0E
09
F1
02
03
09
F5
10
03
EF
01
F3
FC
0F
0B
0F
00
F7
06
08
F6
F3
F6
FF
EE
02
0D
EE
FA
07
04
F5
0A
F7
0F
E6
08
EC
0E
0C
04
FF
F7
04
00
17
FE
08
0A
07
06
0C
15
ED
FD
FF
02
08
06
0A
0D
F7
06
FF
06
F7
03
06
F8
08
26
1F
11
0D
11
0F
0C
EF
FF
FB
E5
DA
EE
EE
F8
0D
FB
0C
F6
FB
10
F0
04
00
0C
1D
FA
16
FC
18
0A
33
1B
35
12
1B
FE
11
25
14
F5
10
12
08
13
10
F5
01
04
EA
FF
FA
04
0B
0A
17
14
0A
1C
0D
23
03
F9
03
05
F9
FE
11
1B
1D
06
00
F4
07
FB
EC
0A
00
EB
F7
F7
F2
F0
F9
09
FD
E7
F0
04
E4
0A
0B
F6
14
F9
F2
04
23
0D
12
23
0A
E7
03
08
E7
FA
DF
F5
02
04
FC
F8
EC
F8
F3
FC
FD
FE
F5
F5
F9
FF
18
21
0C
F3
11
1A
E4
DA
EB
D0
E1
E7
F5
F3
08
FB
FB
E8
03
14
0E
F4
0E
0E
FC
F9
0F
07
17
0B
F5
0B
27
1A
F9
F6
ED
EE
ED
FE
08
01
FC
F7
20
1F
0F
09
0D
16
FD
12
0E
12
FF
02
01
01
24
11
01
07
0F
22
0A
EA
02
F3
FF
FF
00
0E
0E
15
33
04
09
18
05
09
FC
0B
10
09
FA
15
11
17
14
08
0E
1A
10
0B
FD
13
FA
F6
05
08
EE
1A
0C
22
F4
F7
13
1A
07
08
FC
06
1A
FF
0B
0B
15
0D
0E
24
FA
EE
07
1B
09
F8
FA
F2
E2
01
FC
FA
13
0C
0A
0F
01
03
1C
00
11
15
1C
F6
1B
0D
FE
0C
11
EE
0E
F5
FB
0E
F6
E3
E2
D8
E8
EC
12
F7
15
08
0D
F6
11
F9
EE
F6
13
EE
11
0C
12
F0
FD
0C
EB
FC
EB
14
DD
EF
CD
E1
EA
F7
05
07
14
14
ED
FB
F3
E6
EE
FE
1E
EB
F8
FA
2B
06
1B
F3
05
E5
DB
E6
E9
FA
D7
D7
0A
0D
FB
09
F8
EF
EE
E9
F1
E6
FD
0D
01
FA
18
0F
02
13
1A
F4
F5
EF
E1
ED
03
FF
08
F9
E7
ED
E6
DC
F9
0C
F3
E2
EA
EA
E3
04
F8
19
F7
FB
14
24
0A
FB
FE
FB
FA
F3
F3
03
FA
FD
EB
ED
DC
FB
07
FE
FE
E9
E1
E5
ED
E4
F6
0C
05
17
28
1C
22
01
F3
EC
0D
0D
FA
18
04
00
15
02
F0
F5
EB
0D
EF
DE
DF
D5
E1
04
E6
FB
0F
0A
33
11
18
05
EB
05
11
FC
02
08
24
19
12
0B
14
F6
11
F8
E8
BD
D6
E2
F0
ED
F1
F7
07
14
23
24
1A
0F
F9
FE
11
F8
10
05
F6
F3
18
0D
01
FA
0D
F1
C0
D1
CE
E3
EA
E2
06
0A
00
05
10
FD
F6
0B
19
05
0E
06
F3
F1
12
F2
13
16
08
0A
EA
DD
B6
E1
DA
F6
FA
E6
07
F8
E4
06
0D
06
02
1D
15
1C
03
19
0A
F7
10
08
F0
16
F2
02
D2
CD
CC
D4
F6
DF
0B
FD
1A
14
E4
13
00
E6
04
0C
09
F9
EB
05
0A
00
F6
15
F8
F6
01
D9
C1
E2
C7
DB
F6
F0
F1
F0
04
00
FB
F2
00
E0
F5
F9
F3
07
09
F7
F8
13
F5
F4
0D
FB
07
ED
DA
E9
DB
D3
F8
01
FB
05
E8
F2
13
FC
E6
F9
F4
16
F4
F5
06
02
05
12
09
1A
0D
12
19
EF
E1
D6
D5
E8
DC
F4
DB
EF
F8
0E
05
14
E0
03
ED
EB
EA
13
F2
04
17
05
10
1C
0B
0D
20
0E
01
13
04
F3
01
11
24
EE
EA
FB
FF
08
FE
01
F2
F8
FF
F1
16
05
1B
10
F0
F8
E3
00
19
0B
FA
0B
19
14
F2
07
07
11
0D
FB
FF
F0
08
FB
14
FF
13
09
16
F5
27
FF
02
12
19
E9
F5
18
F1
01
06
FA
F6
0F
ED
10
02
FA
FD
11
F1
12
0E
F7
0E
0B
FB
FE
F3
0A
F7
1A
EB
04
F6
03
FF
02
04
07
FA
FD
FA
0E
10
FE
FA
F1
FE
00
0A
09
F7
0B
FA
EB
03
F9
FB
FF
F9
02
E4
FD
00
01
E1
F9
F0
E8
09
F1
00
0D
F1
F0
F1
F9
F8
F4
08
FA
F2
F9
08
0A
FA
FB
F2
FF
F4
0C
11
FC
01
F9
F4
15
03
FF
FC
F6
09
EB
FF
0B
0A
08
F1
E8
E0
FF
E9
FF
E6
EF
F0
02
02
1B
1F
13
12
0E
11
0D
03
F5
0B
14
ED
EF
05
1A
24
2C
1A
0A
FE
F2
05
FB
01
FA
EF
ED
02
FB
EC
EE
02
05
E7
01
FA
ED
F5
E8
09
FE
05
1B
0A
0F
14
07
04
FA
F7
02
0D
F9
16
07
0A
00
09
FD
D9
E8
EE
F4
FE
F9
FD
FD
F6
E4
17
03
09
1A
06
06
0C
09
FC
F8
ED
F8
F9
0B
17
EE
E9
08
EA
D9
E6
0D
0F
0D
08
0A
14
E1
0D
03
19
13
14
10
04
F3
E8
EC
EA
04
0C
FA
00
FC
F3
F5
E6
E6
FA
FA
18
F4
0E
F5
0C
F1
17
0E
07
0B
F4
0E
EC
00
F0
E2
F4
0C
0A
1D
0D
EE
E6
D1
E2
E7
E9
F7
17
F9
F6
05
FC
EC
FF
02
05
EE
0A
EA
EF
E6
F7
F8
EF
FB
08
1D
F0
FD
D4
F9
DC
00
FB
FD
21
2B
F9
ED
F4
EF
EF
FA
03
EF
F9
F4
E5
E2
09
E7
18
22
21
08
EB
03
D2
E5
FA
EE
0B
00
F4
03
F1
1D
FF
E6
FC
E7
DA
DC
F8
FC
13
F4
F1
FC
2A
22
0E
0A
04
F6
F2
DF
E2
04
ED
F4
EB
F3
DA
0F
08
FA
EF
EF
DD
DE
F1
0B
08
01
12
2E
2C
2D
08
04
F9
06
11
EB
FC
FC
02
0A
13
F1
EB
0E
FA
FF
DF
F1
FA
FB
F2
05
12
03
0D
1A
23
0F
07
10
0C
F9
06
10
02
0A
F2
F5
F6
E7
ED
E9
F0
EB
E0
F2
05
DE
01
00
EA
E4
06
04
05
0D
FE
04
0E
15
0A
08
F4
02
F9
F1
07
F1
00
11
F2
1A
F6
02
04
FF
F8
F9
E1
F2
0E
FB
16
F8
03
08
0B
0F
F4
E3
EA
09
18
07
E6
0D
01
EE
08
17
FD
FD
0B
E7
E7
E9
E9
FC
F2
06
08
E4
E7
11
17
05
0A
EE
F8
0F
F2
01
DD
01
F3
ED
F9
FD
08
0C
F2
06
E2
F2
E9
F0
E4
E4
EF
08
0A
0A
F9
ED
EE
0F
07
EC
EA
1A
F8
E3
E7
E0
F5
0D
F5
0E
FE
E7
0A
F1
01
0C
ED
ED
EB
FB
0D
02
F7
F3
F5
F4
EB
F8
FE
07
F6
FB
F4
08
16
02
EB
00
F4
E8
F0
05
E4
06
04
F4
0A
0D
E8
EF
EC
F7
F8
EB
EE
07
EB
03
FB
01
0D
19
FC
0C
15
10
F7
EE
00
F8
02
FE
F9
FF
07
EF
F8
FF
06
F1
F9
0E
06
F0
0A
1C
F7
F3
FE
E6
06
EF
0F
F1
F0
EE
E6
0B
14
0D
06
0A
FA
09
F4
FB
FC
01
F3
F5
EC
FB
F9
0F
EF
FB
F7
FB
04
1D
FD
F5
06
13
F2
07
0F
1B
F8
FA
FF
12
02
E8
F9
FE
0C
08
11
05
0A
F4
E4
F6
FE
05
F9
04
0C
0E
07
FB
01
FE
04
F7
01
06
01
EF
09
0A
FF
FE
0B
15
0F
03
EB
F4
F5
14
25
0D
FE
F8
FD
0E
0F
FB
0B
25
01
07
19
F9
F7
F5
0B
0D
0F
08
17
23
14
12
16
FE
05
22
04
09
0F
EC
FD
DF
33
11
0F
19
36
10
F8
EE
09
00
0B
ED
FF
0F
F5
07
12
FB
18
0D
F8
F0
F1
EB
10
11
06
07
04
04
F5
EE
EE
F1
F1
EC
F3
FA
0B
27
1F
0F
14
0F
03
EF
F8
F6
0A
EC
0F
FA
07
F5
F8
0F
EC
F8
F2
EE
DE
10
FA
EF
E0
EF
02
27
00
09
06
EA
ED
0D
EE
ED
05
F5
F7
FD
F4
02
04
F5
0B
FE
EF
04
FA
0B
FC
02
0A
09
F8
F0
F0
F8
F9
0E
0B
F0
F3
03
ED
FD
FE
EF
F5
0C
0F
F3
ED
0A
FA
0C
0E
FF
ED
F0
FA
03
0D
0F
01
04
F4
06
EE
FC
F3
F9
14
07
0E
06
15
06
04
F7
FF
13
0F
FD
EE
03
F3
00
04
EF
E9
D9
E2
F3
11
05
18
E4
F4
E7
10
FB
F9
F2
05
08
01
01
16
0A
10
0C
18
12
1D
0B
04
F9
1A
0A
0C
FC
1C
00
1E
18
20
00
0D
1A
EC
F4
0A
14
17
F7
EF
12
0A
28
22
FF
F9
24
05
0C
0D
05
03
01
0B
07
F9
F6
17
09
1B
2F
1E
F6
05
F7
FD
04
FD
2F
25
0B
10
07
0A
01
17
13
03
FE
11
0C
FD
0F
15
0E
00
F7
2D
1B
0F
10
12
FF
F2
FD
FA
FC
0F
09
F3
F1
09
07
F2
FA
13
FC
10
06
06
0E
0F
FC
07
0E
0E
08
38
25
0F
FB
F5
E6
FA
14
EF
0D
08
FF
F7
13
13
07
18
0F
FE
0E
F8
0F
13
FF
00
05
19
2E
33
24
02
EF
D5
E2
F0
02
0E
DF
10
FE
F8
18
F2
04
F1
07
01
17
13
0B
F8
0F
0D
09
03
16
10
04
04
F6
F6
07
16
05
08
FA
04
01
02
03
FC
EA
0C
08
EC
EC
F2
FD
FB
E8
F6
E3
07
12
FF
1B
02
F1
ED
0C
10
E2
06
FE
02
07
0D
E5
08
0B
EC
F2
F9
F3
E4
F4
F4
DF
DB
CE
CF
EE
09
0F
EA
FC
E7
F9
FD
F3
F9
F6
00
03
ED
16
FB
14
1B
F4
12
FD
04
F8
05
E7
EE
D1
CE
FA
F6
0D
EB
F4
F0
EF
F8
EE
07
07
FF
01
12
1C
15
0A
26
F7
FE
06
09
F4
0E
ED
F5
E3
D0
E6
FB
FB
EE
EE
FA
04
ED
EA
10
07
0C
13
17
05
0C
22
0E
09
09
10
00
15
F0
F1
E3
05
E0
EA
FE
EA
F5
10
E7
F1
08
EB
F6
EB
EA
FD
0C
07
0B
FA
12
FD
EA
0F
0B
06
0E
FD
0E
F3
0D
09
F1
F2
F7
F1
06
04
F9
F6
DF
EC
E5
CB
EA
FF
0C
F1
F9
01
FD
08
EB
02
05
08
F7
02
16
ED
F8
FD
FF
00
F9
0E
E1
F8
DA
C0
CA
B2
C8
CD
EB
FA
F4
F6
03
14
F8
10
F1
F9
18
06
1C
E2
0C
17
11
FA
F6
1C
FE
03
E6
F2
D1
BC
AF
B4
AD
C2
E7
F4
05
F8
06
05
F7
0D
F6
00
07
CE
10
E6
07
13
18
11
0E
07
04
E4
F1
F9
F9
E7
D5
D9
CE
F5
F4
02
01
F9
11
14
EC
F7
11
D1
EE
0A
FB
E7
0B
21
03
14
19
08
11
F1
06
16
00
ED
01
ED
F9
F0
0D
FB
FE
08
0C
F5
1B
D8
11
16
10
0D
0D
26
02
17
0E
0C
00
09
10
08
0A
13
0D
FF
07
F1
0E
EE
0C
04
F8
09
04
DD
08
18
EF
F8
F3
F3
08
FA
F0
01
11
FD
FA
0C
FE
14
0C
F3
07
ED
F3
ED
F2
EA
10
16
E4
E6
03
F3
0B
FA
08
EE
F7
F8
FA
09
1A
15
18
FD
0C
EB
EF
08
0C
F9
EE
F2
F6
05
F7
0F
D6
EE
F9
FF
03
FC
0D
28
14
10
F8
FA
03
F3
0B
0F
08
0C
16
F4
03
F4
12
FE
F3
08
F1
E3
F6
E3
21
FA
F1
F5
F3
FB
15
17
0D
12
1C
0A
09
10
FF
F3
03
FA
02
12
05
F5
05
07
03
FF
F1
F7
05
04
03
07
02
EA
EB
29
15
31
1F
FF
13
FD
0D
1D
EF
09
1A
FF
F2
0D
F3
0E
F8
08
F9
FF
01
FF
09
00
09
00
17
FF
13
24
02
18
16
F9
0D
0C
08
21
F8
08
04
EC
21
25
F3
09
09
F9
02
F0
11
00
00
04
FF
E3
FD
ED
F5
F5
FF
08
F9
E8
F6
03
F7
ED
DE
E5
02
EC
E6
E5
10
F6
FA
00
F6
0C
00
EB
00
14
04
08
F2
12
02
00
FE
DB
04
04
EE
F4
07
F5
EE
F6
F2
02
FC
FD
EE
14
0A
06
FD
0F
EC
F2
16
FA
02
F3
FB
E8
02
E5
22
1D
11
16
0C
0B
1F
05
0D
17
0B
0B
FE
0F
11
FD
0E
08
FD
F9
FF
FB
FD
EE
DD
F6
F3
FD
00
FF
11
0D
EE
08
10
F2
F1
14
15
02
F9
EE
F7
F6
05
FD
EB
05
02
ED
FD
EA
D8
FB
E2
FB
FC
06
EA
05
CE
DF
E4
F1
19
1A
0C
03
05
FB
0D
F4
F5
24
0C
1C
12
FC
FE
D7
E2
ED
E7
EE
D7
F3
F7
F5
EF
E8
E8
FA
F0
FA
DA
F7
F2
F5
11
FC
F9
EE
F9
17
20
13
12
0D
F0
F9
E8
F7
F4
E2
DE
DA
ED
EA
FD
E4
07
0E
18
02
0D
0F
0F
14
04
03
FC
04
0F
14
1A
18
F4
FA
02
EB
EF
F9
FB
1C
F2
0F
F8
01
FC
04
FF
EE
0F
05
14
12
1F
0E
F9
07
08
14
1B
12
00
06
F5
07
0C
F9
FE
16
F7
EE
FD
F8
EE
01
FD
F6
13
F4
E9
12
1C
F4
0B
FE
0C
00
01
06
F8
16
03
04
F9
01
01
10
EC
FC
FF
F5
0B
08
F9
DC
FE
F1
1B
08
FD
10
F6
FD
FE
04
08
14
07
FF
14
12
F9
F4
EA
0B
F8
FC
EE
EB
F8
EF
03
FC
D9
F9
13
16
09
0B
FE
06
00
0C
02
10
05
09
1D
07
09
09
15
FA
0A
F8
03
09
E8
EF
D0
F6
E7
02
23
11
12
17
10
09
08
0E
02
17
0C
08
FF
E7
0A
17
10
1A
0B
02
F8
ED
03
F0
FE
ED
F6
06
12
1C
13
00
0E
EB
FF
14
22
FF
07
08
F2
F1
19
16
1D
1C
16
08
06
FE
06
DD
01
1C
F7
25
03
25
27
F2
F0
E3
F7
00
0B
F9
11
FE
F1
00
18
1A
1D
05
21
0A
03
0C
F0
01
14
0F
0B
11
11
08
0D
FC
FE
DF
EE
EF
10
1D
06
0F
FB
10
06
09
28
16
18
1A
0D
FF
F9
ED
0A
F6
0B
1F
11
F9
FE
FB
08
E8
F3
03
01
06
04
01
ED
00
FF
09
0D
1B
22
13
0B
10
FE
F8
F4
F5
0E
0E
20
FC
E8
F2
ED
FE
00
0A
06
F6
0A
04
00
11
F9
0A
14
27
0B
08
F9
0C
F0
0D
05
03
1F
00
F3
F8
FE
12
F8
F8
01
EF
F3
0B
04
FD
03
01
09
19
1B
05
FE
01
F4
F8
06
10
FD
18
0D
07
1D
F6
0A
ED
E6
E7
E6
07
EE
DE
F4
02
FA
03
0F
EF
EE
F8
E8
DB
EA
EF
F4
F8
04
16
0F
13
14
FA
04
EF
E1
E6
DF
EB
EA
D5
D9
04
F2
07
F4
F5
EA
D6
D9
D9
F3
D8
E3
FB
FF
F8
08
0A
F6
E8
DF
E5
EC
E7
EF
F8
EF
EB
DC
DC
E4
0E
E6
F1
EB
F2
D3
E8
D5
E1
F8
EC
E9
0D
03
12
F3
FC
F0
E3
DE
F9
DD
E0
EC
FB
F6
06
EE
E1
FD
F5
F5
DB
CD
E0
EC
DA
EA
DD
F4
F7
01
F9
FA
0A
FD
06
F2
E7
00
02
FB
F5
E2
E8
FD
F3
ED
F0
E1
F6
F0
D9
D1
F0
F9
DE
F5
FB
EE
09
08
F7
EF
01
F0
F4
F4
FE
0B
F0
E9
05
F8
F3
E0
DA
0C
FA
00
E0
E6
07
FE
F4
1A
0D
14
F7
0A
FA
FC
E8
04
F6
F3
F9
FB
00
F4
F8
E9
F3
E8
F4
ED
0C
15
FF
09
07
F5
FF
30
03
08
EF
0E
10
ED
17
00
FD
FB
E0
0A
E4
00
EC
EB
0D
00
F4
0B
0A
00
04
1D
06
EE
0A
0D
00
F8
FA
F4
10
08
06
E2
07
08
21
0F
1F
12
22
05
1C
0A
F8
14
EF
03
00
18
F8
17
F5
24
0A
05
12
00
F5
11
ED
0A
0A
12
0D
1C
0B
0F
13
1D
25
11
2C
03
14
0C
10
1C
0F
09
F7
F1
04
15
00
EE
0E
14
FA
FD
0C
F2
07
EF
10
0D
00
F1
08
F7
ED
EF
F2
FE
13
EC
0E
12
11
F3
13
0B
09
13
08
ED
0C
FA
E1
E7
E5
F3
F5
E9
FA
FF
F4
EF
F9
FC
E8
E6
E4
E7
DA
E4
06
0A
FF
0D
06
FA
09
05
EF
FB
ED
E9
F2
03
0F
F4
07
F8
DD
EB
D7
0A
EA
F1
F2
08
EC
E3
F3
F0
1C
F4
FC
F6
FE
10
E6
F0
05
F1
0D
EB
0C
F9
11
EF
09
EC
11
01
F4
FE
F0
0D
F9
05
03
E1
F2
04
0E
FB
0F
FB
22
03
F9
05
06
F8
F3
04
F9
12
F7
EF
12
FD
F1
F7
07
F0
FE
00
EF
E1
EB
FA
10
06
14
0A
F9
07
08
0E
FD
0D
1A
09
08
F7
12
F5
F7
FA
0D
ED
08
DF
E9
F3
00
D8
02
F2
0C
07
E9
01
05
18
03
09
29
10
F1
EC
02
E8
F8
FF
FF
03
19
EF
06
FE
E9
EA
F9
E8
E9
01
09
14
F8
09
0C
12
00
16
FA
0B
FF
0E
01
05
0C
0E
05
FB
FA
F1
EC
F7
08
00
F0
01
E5
FC
F2
F9
0A
F6
0C
F4
FF
1A
06
EC
0B
F8
F5
09
E9
EA
FD
0A
FD
FF
03
F8
EF
E6
F1
DD
FE
04
09
01
10
E2
F3
F9
1A
EC
0A
FE
05
11
13
ED
EB
F6
09
0B
11
0B
0A
13
E7
EC
DA
EF
DB
F5
FA
06
F0
22
F1
FB
FA
F5
F9
06
10
F8
F1
FF
0A
EC
E7
02
16
1A
05
FC
09
DF
E7
DD
E0
E7
00
06
11
16
F4
FD
0C
15
F8
12
F9
02
13
F9
F5
EA
F8
F5
1D
11
15
25
1B
EB
D6
E2
D2
FB
06
13
03
12
00
F5
0D
FE
F9
FB
0B
0D
00
F9
EF
E4
EC
06
05
21
2D
32
18
EF
E0
E6
F0
0C
14
02
EF
F8
FC
0E
F8
13
17
01
F9
03
F3
05
F6
E0
FD
09
0A
10
20
1A
12
E5
05
FA
04
21
F4
04
01
F7
1D
17
0F
FB
09
F5
0C
02
14
F1
F3
E6
EC
FF
21
20
22
FF
F0
F1
07
04
04
08
07
07
11
ED
11
28
F9
F0
1B
0F
11
0F
00
F8
F2
F1
04
19
25
23
18
1F
FC
F6
00
03
0E
0F
0B
18
EF
F4
0F
F2
05
FA
16
1C
21
01
FA
EB
E4
06
1E
2E
23
20
13
F7
FD
07
08
10
10
0E
0B
F0
FF
02
F8
FE
0B
FF
F1
17
07
0D
F1
F0
F8
0E
17
25
11
17
0A
FD
F3
08
F8
F9
00
EF
04
DD
F7
E3
04
08
F7
F8
EF
EF
08
14
F7
05
1A
0F
19
22
0C
E6
F7
EA
14
03
08
1C
FD
16
13
12
10
ED
FE
19
F7
05
0D
FC
FB
04
08
EC
0A
0A
10
0F
01
F3
EF
F3
F8
08
00
0A
06
F8
12
14
FC
17
F9
F9
F9
F2
01
EC
EB
0E
E5
03
EB
F6
F5
EE
F2
FD
F6
F4
0E
F1
05
13
14
0C
09
02
0B
11
05
FB
F9
EE
02
EA
EA
FC
E6
F2
E7
EE
EB
EC
F4
E6
EC
F3
E6
F3
14
21
12
19
1C
F4
0D
F3
06
0D
04
F9
FF
F9
F3
00
F8
08
E2
F0
FD
00
F2
E3
E9
FF
0E
F4
01
1C
22
0B
12
04
07
F1
0B
E7
FE
04
FE
06
F2
01
E9
04
FC
03
FD
FB
EF
F3
F6
F0
F1
FF
0A
0F
1F
02
0A
08
0A
F4
F5
F1
E9
03
03
DF
EB
E4
FC
E7
EC
E8
F0
EE
EC
FE
F0
0B
1D
F9
18
01
28
FA
FF
02
13
01
13
14
EB
0D
E5
F5
DA
F7
F4
F0
04
09
06
F2
E8
DF
FC
11
15
11
0C
FA
0A
0B
EC
FC
0C
04
04
F7
EF
08
1E
04
09
08
01
F9
ED
01
05
F9
FA
0D
EA
0B
03
F9
FC
1B
00
F4
F1
00
07
FF
FA
09
0C
14
00
05
12
21
FF
08
FB
11
19
09
F6
1F
2A
0E
F4
F9
02
10
F2
F5
0E
F3
F2
15
15
13
FB
09
EC
F4
10
FD
06
F1
F6
11
F6
FB
13
FC
F5
FA
EE
EE
EE
0F
00
F6
F2
12
07
0B
F4
F9
FA
F1
F0
F8
EA
EA
E5
D8
E9
F5
01
06
06
EE
E2
FE
02
EB
E0
FC
EE
10
ED
EC
F2
04
0B
F7
07
F8
E5
D5
C8
E4
C6
EA
D2
E6
0D
F8
14
F1
F7
00
DA
EB
FD
F4
14
0A
F9
FE
F6
FA
FC
0F
08
F8
F7
F0
CF
D7
EA
DE
DF
DF
EE
FD
F8
F6
02
05
0B
E0
D8
FE
02
1A
06
0F
F7
0C
EA
FB
00
01
0B
E6
CE
DE
E3
F9
DD
DC
E9
E2
E5
0D
FF
00
F0
08
16
39
49
03
ED
FF
0C
EC
02
F2
E7
E7
03
F4
0B
E7
F0
F0
EB
FC
F4
01
06
00
FB
FE
25
F9
13
1D
14
08
FC
F9
0D
E3
04
E8
F9
E9
F0
F8
DA
EB
FC
03
F3
F5
EE
F7
05
FD
EB
0B
0E
EB
EA
F6
1E
2D
0D
05
E4
F3
E4
D2
EC
D4
D8
DE
F6
F9
04
FE
EF
EF
0B
0C
08
F3
04
F1
E9
EF
DC
F4
17
27
1A
0A
EF
06
F5
E5
D4
F8
E6
F2
F6
F0
06
00
E0
12
EB
00
EA
F6
FF
ED
11
09
00
ED
01
0B
F4
E5
08
EA
EC
F1
D1
0D
E9
E2
F6
F5
FC
EC
12
11
0B
04
F6
F4
0A
F9
14
E8
14
0C
39
27
10
0A
F1
F1
F6
E1
0E
09
FB
FE
1C
F9
0C
11
F2
EE
0F
FA
F1
F9
10
1C
F4
13
0C
FB
27
38
01
FA
E8
F5
FC
0E
1E
34
FD
05
15
00
00
08
E6
DE
F0
E5
F9
F3
FF
02
0C
02
15
22
32
0D
06
F0
F4
EF
0A
0C
0B
0C
00
28
11
0E
16
01
DF
F2
E4
03
DD
F8
0E
FE
F0
10
FE
F6
08
2E
17
01
E8
00
18
1A
19
08
2C
12
1C
2A
15
06
F7
FF
11
05
F8
F0
07
FB
FA
FA
00
F5
04
3A
19
FE
0B
DD
10
22
24
0A
14
20
14
1B
06
27
24
1A
0E
0E
00
F9
ED
E6
0B
10
16
F1
EC
34
04
02
07
F1
08
07
2D
25
24
0F
15
20
27
13
06
FC
0A
1D
04
0D
14
F9
02
FC
EA
FC
10
2A
FF
0B
F6
0F
0B
0E
1B
F9
FF
0A
F5
07
03
35
1F
02
10
F5
07
0C
FC
0C
14
02
0A
FB
27
27
2B
FE
F1
F4
10
21
0C
FF
0F
0A
00
11
15
15
11
03
15
FE
11
0C
15
F6
16
03
0D
F2
15
2B
1C
F8
F9
02
22
FD
11
12
0C
13
F0
14
16
07
0E
06
15
13
0A
F8
FC
00
F0
09
F5
06
27
17
FF
FE
F6
F0
0C
0E
05
06
15
05
06
0A
01
11
F9
EC
17
08
FD
F7
06
F8
FA
E1
F1
0E
1F
09
EF
F8
E7
05
0D
0A
EC
0A
F6
FF
E6
D8
EE
F7
D3
ED
F1
F0
0D
0B
F8
E7
E8
E4
E6
06
31
0C
0D
02
16
01
F6
FB
DF
D7
E5
D2
DB
E9
DE
E6
F3
02
FC
E7
05
03
FB
F6
FF
00
F9
0F
13
10
F1
0E
01
00
EB
FA
ED
EB
DA
DB
E2
E1
E2
05
E0
F1
E8
E5
E7
DF
EE
F5
08
0D
0E
25
01
FF
01
FB
08
F4
EE
F1
FB
D7
EA
FF
FB
FD
06
F2
0A
02
EA
F9
DD
02
06
12
E7
11
1F
1A
16
F1
06
F2
F8
F0
F2
EB
EC
EB
00
F3
FB
0D
03
05
EB
EC
01
FA
F2
FB
05
13
0F
17
16
03
EE
FA
04
EF
11
10
F1
F9
FF
0F
FB
EC
FB
F6
F0
E9
FB
EF
ED
F4
04
19
07
22
11
1C
14
05
FC
03
EF
00
EF
FA
02
22
05
21
08
FB
04
F4
10
1A
1A
15
1B
FE
01
0A
F9
EB
0B
FE
06
06
0C
02
EC
06
05
06
10
EC
EB
01
F6
E3
1A
E6
09
04
10
03
05
FD
00
05
EE
E1
ED
FA
E7
F4
12
13
EC
FD
FF
0C
0E
10
F1
10
14
0C
03
FB
F8
00
EC
F4
FF
FF
00
ED
FF
EC
F7
05
FE
0D
FC
0B
0B
FE
09
EF
13
EC
06
0B
FF
F1
14
0C
0D
FF
0D
EE
10
F3
1E
01
F3
04
F8
11
05
FE
F6
ED
FA
03
06
05
FD
15
F1
17
06
1A
23
01
15
F5
09
00
EE
F0
FA
F1
FC
EE
EC
0A
10
01
F3
F9
F5
05
F0
19
0F
FF
EC
04
1D
01
09
24
10
F4
DE
C9
E6
ED
EE
11
20
21
10
18
02
FE
02
10
12
0E
FE
FC
F3
00
DA
07
F8
EF
08
EB
05
F9
14
00
0C
FE
F8
0E
16
F2
11
F9
0F
1C
2F
0A
09
F5
F5
0C
F4
E8
EE
09
01
13
14
07
02
FA
FC
01
E2
DE
FE
FF
0D
11
04
F5
12
13
1E
0B
18
F4
1B
ED
00
FA
11
07
EA
02
05
12
04
0B
0F
FC
F6
0C
08
09
2A
02
FD
0E
09
23
18
0B
08
16
F8
FA
EC
DC
10
1A
13
02
19
19
FB
13
0D
FC
01
17
20
25
0F
10
15
0C
06
05
F8
FA
18
13
14
23
F1
FC
07
FD
12
1B
16
04
23
0B
24
23
23
1B
10
1C
10
0D
09
F8
EC
06
EB
F0
F0
0C
0E
0F
F9
02
FC
F3
FC
0F
0C
F6
1C
0A
0F
1B
0F
0A
08
17
16
0D
FB
F6
04
F7
09
F1
12
1C
09
0B
13
F9
FD
1E
04
04
FA
12
13
11
0D
EB
E6
05
08
F9
00
ED
FC
04
E4
00
F9
FC
17
13
F7
FF
18
FD
17
FC
02
09
FC
F2
ED
E1
E5
EA
F8
E9
F6
01
01
F6
E3
F6
EC
07
F8
1E
16
FC
F8
1B
10
09
02
EE
F9
EE
FB
04
DC
EE
E0
D7
DB
E3
FF
E9
EE
EE
F0
F4
E6
D3
ED
28
EC
EE
12
FC
1A
18
FC
F5
0A
E9
F6
E7
DC
D9
EF
F4
00
06
F9
EF
FF
E4
00
E8
D9
CD
DA
17
15
07
F4
06
02
14
E4
F9
E7
E0
EB
DE
EF
F5
07
F4
F2
EF
F3
0A
02
0C
FE
FA
DF
E9
F3
12
11
17
EE
07
E8
E0
E9
E6
01
F5
02
FD
F0
F0
F6
04
F1
F8
F0
F1
FA
F4
EB
F8
EB
E1
E9
FF
F8
19
EA
01
E4
C1
EA
E4
DA
EB
0E
07
FD
F4
F7
EF
F4
EB
F4
E6
09
EE
F1
E8
F1
E7
22
1B
FC
EF
E0
EA
FD
D0
D1
F2
E4
F1
EF
FB
FF
F7
F8
F3
FE
EA
ED
F7
EC
E6
ED
EA
FF
EE
27
14
02
17
01
EB
FA
E6
E2
E1
F3
F3
F9
EE
F8
07
ED
E1
FC
FB
F9
F1
F7
ED
EF
0B
F6
17
26
22
1F
14
01
F1
FC
02
08
FE
EB
0A
FE
EC
0F
06
10
E4
03
ED
E5
FE
F7
FC
0B
08
FF
03
07
0B
1D
03
02
1B
17
21
19
18
F8
F8
0D
F6
0E
02
02
FF
FD
17
08
0B
12
1D
0F
1B
0D
10
F7
0C
1B
F1
08
1E
0C
1C
FB
0A
FC
0C
FA
0E
F3
01
1E
1A
F9
12
1C
03
0B
EB
FD
1E
20
20
01
19
15
FE
F4
1A
EE
2A
25
0F
0E
16
10
F6
01
FF
13
03
05
12
1D
18
FD
0B
0C
09
2F
1C
F4
0B
11
0C
13
FD
F7
35
1B
24
04
F1
16
0C
0F
0D
06
F0
01
FB
02
09
0E
1B
27
2C
1C
1A
18
18
04
0D
07
08
29
23
16
1C
04
F9
E9
F5
0C
0B
06
09
11
0A
03
05
02
FD
15
0F
01
2D
EC
10
F6
EF
02
E4
0D
0B
09
20
1E
1F
09
00
22
25
09
06
07
17
0A
1A
11
0F
15
11
0E
23
F3
1A
F6
0D
F7
0A
04
1A
FF
07
21
19
0F
0C
03
01
28
1A
25
19
28
30
20
29
0F
FD
FA
05
06
EF
F1
0A
F3
0D
02
03
F1
0D
01
F5
18
FB
F7
FD
12
FB
F9
16
03
10
EE
03
F3
08
1B
F1
06
F1
F3
FF
05
02
FE
FE
F9
0D
10
11
F0
03
0B
08
F2
F7
F6
0B
0A
F4
11
09
04
FC
0B
FD
06
EC
FB
FC
14
0D
ED
F9
05
FC
00
FC
FA
0F
06
20
0E
F4
EC
F3
F0
F5
E0
E8
DA
F6
0D
14
05
F6
FF
0C
EF
FC
EC
E4
15
02
FE
02
05
F9
14
E7
EC
EE
E5
EB
DE
DC
D2
DE
F4
D9
E8
FB
10
14
FD
F2
0C
0C
FA
06
00
0A
F2
FC
F4
D6
ED
EC
DF
FA
E7
EA
FC
00
ED
F4
F9
F1
E8
E0
FA
E4
08
09
20
15
05
0F
0B
07
ED
07
EB
F5
EF
08
E1
F8
02
FA
06
0F
04
E5
E8
0A
DD
FE
E5
F2
05
09
07
FD
FE
07
01
F7
F9
0F
17
0A
04
F4
08
03
1A
08
06
00
F6
02
ED
FC
E7
0D
FA
18
E0
0F
1C
01
07
FD
05
03
10
FB
0E
F2
10
06
FC
DF
08
FF
0F
12
F1
E8
EE
0C
F6
12
E5
F4
01
F3
24
03
08
05
13
0A
06
04
18
05
F0
E2
FA
00
0B
05
10
F8
F2
FD
02
F8
03
FE
E5
FD
04
FF
05
F9
FF
F7
F7
F8
11
F1
F3
03
E1
E6
EE
F2
1C
1B
07
FF
ED
FF
FB
0F
F9
F0
D0
F0
0A
F2
E9
0B
08
F7
ED
E8
E6
0B
F0
F6
E5
E4
FC
07
19
00
12
EF
F6
00
E1
03
FD
07
FA
F6
0A
FB
E6
F5
E6
02
E8
E6
FA
F6
E7
EA
F3
06
01
1D
0E
24
00
02
05
FB
F8
26
09
06
ED
09
24
F3
F0
E8
0C
D9
EC
F4
E2
EF
F2
EB
0C
0D
2E
04
0F
01
F3
EC
E9
F6
F0
FC
0B
ED
DF
F5
1A
08
F2
ED
F8
FB
F7
F6
08
07
04
1C
1B
0F
11
13
06
F7
05
FF
FE
0C
08
F2
01
F9
0C
F5
FC
1F
03
F6
FF
0D
EC
0D
0F
1D
0F
21
0D
16
14
EA
ED
0A
F7
07
05
DF
F5
F1
05
E9
F4
E4
EF
13
EF
FF
1A
03
07
FE
09
0D
11
13
1B
09
FA
F5
EC
F6
06
F4
ED
03
FB
FE
07
F8
FE
E7
0A
FA
FE
0C
0A
FD
FF
0A
03
13
11
FB
04
11
03
EC
F1
0E
04
1E
16
0B
00
17
FF
00
EA
F0
0A
00
0F
F8
13
E6
E2
EC
F1
F3
01
02
0C
06
F9
17
10
19
0D
03
14
01
16
FD
ED
00
E8
FA
0C
04
FC
0C
F6
EC
EB
DA
DE
E6
E0
EB
F3
F8
07
03
FD
03
16
06
FE
E8
FF
02
0A
F7
DD
F4
03
F1
0A
14
16
E9
E4
E8
E6
F5
E8
F7
F3
18
08
10
15
00
04
F3
DE
E6
05
F8
FA
E5
F6
08
08
15
1C
F0
20
1C
04
FA
00
01
FC
E5
0C
F2
FC
0C
06
F0
07
02
FC
EA
00
E5
06
F6
FD
0E
17
00
FD
0A
0F
27
0E
07
00
ED
13
FA
04
F1
14
F2
0C
F2
FA
F9
F1
F4
EC
ED
FB
01
07
1F
22
04
11
EA
17
08
1C
0F
12
FF
F5
0B
FC
EF
FD
FA
06
F6
13
0F
E6
FA
F3
F9
03
0F
0A
12
0F
08
0D
00
14
18
18
19
0D
FC
0F
FF
EF
F4
F6
F1
0A
F1
07
E6
0C
E0
F8
F5
F2
DD
D9
09
EF
EC
FA
F2
10
0E
1C
F3
F4
E8
16
F7
F9
13
0A
04
EC
08
F3
F1
0B
F7
D2
D7
EF
17
0F
29
06
13
0F
F3
1B
0A
19
FB
14
F3
0A
E6
04
00
EE
F2
05
F4
08
14
ED
01
EB
E9
FE
F6
FE
0D
12
09
FD
12
04
1A
05
06
E3
E3
CB
E8
DE
E0
F2
DE
E2
E3
D2
FD
F6
EC
E5
02
0A
19
06
EE
01
F1
F6
0B
F9
E5
F4
E5
E3
F2
CD
ED
FA
C9
E5
DC
C5
EB
F0
FF
F1
EB
F2
FA
FB
01
FD
13
0C
0C
F8
08
FF
11
09
EB
E4
D8
00
E6
D9
D8
DF
E7
D5
E2
EF
E8
E8
F9
12
FF
EA
04
11
12
09
F3
14
ED
01
F9
11
14
08
0C
F9
F7
0C
EF
08
03
FA
F2
01
11
05
0F
ED
FF
14
0D
F8
F1
03
EC
F8
0F
07
08
F2
07
F7
F6
10
0D
E5
E9
F7
0D
1E
0B
04
01
18
23
0F
13
FB
03
FF
11
F3
FF
04
14
F8
0B
00
F0
0F
F7
F5
EB
FD
F3
16
F7
0A
FA
0F
1B
22
32
12
10
1F
16
03
07
04
F0
00
22
0E
F9
FA
13
18
F7
17
F1
DC
F4
EA
F2
F9
F7
F9
0C
1D
20
0C
01
00
F9
EF
F7
0F
F8
FB
25
0D
FB
2D
19
0E
FE
F6
03
07
05
00
0F
FD
FB
0A
F4
FC
F4
E8
FE
E0
05
F2
FA
01
FE
F2
FB
FE
17
2F
12
F0
F3
FB
E0
FC
ED
12
F2
03
FD
0E
F6
0D
FF
F9
0A
FB
0B
FF
F6
E3
EC
00
E8
1F
0D
F9
0E
F3
00
FC
0F
EE
09
EE
0E
F7
08
09
FA
0E
F6
F3
0B
F6
0B
01
1B
05
FC
EF
E5
1D
F0
10
F6
11
F9
EC
00
EC
FF
FC
1D
00
16
09
EF
17
0A
F7
E9
F9
F1
F6
08
12
F3
E4
E2
F8
E8
FC
04
F3
FC
FA
0E
08
E8
F1
16
FC
F8
F9
01
F5
F5
FB
00
02
0B
08
26
14
F8
F3
DF
F5
02
EF
F2
00
EF
F6
F0
00
FB
F3
09
0B
0E
FA
E8
EB
E9
F0
07
F5
0A
02
FF
0F
04
06
EB
01
ED
FF
FA
FE
03
F5
F3
0D
08
10
1E
0A
02
09
EA
ED
F1
EC
F9
01
F3
05
F6
1E
EB
07
13
12
EC
F4
E8
F0
FC
16
1A
FF
0C
0F
11
0E
1F
0D
0C
EA
09
FA
00
DF
EF
03
0B
0E
F0
FD
17
F5
F4
02
FB
FB
09
12
05
01
1A
09
29
0B
09
12
10
0F
06
F2
FE
ED
D9
00
11
04
0B
22
F5
14
E8
FD
D6
D7
F8
FA
EC
19
13
02
FC
1B
12
FD
F0
0F
EE
F2
09
FA
F2
04
FE
EC
E6
22
18
0F
EF
E4
F5
DA
E6
CC
DE
FE
FD
06
04
F6
F6
01
05
FB
0A
17
0D
0C
0C
F8
F3
F9
03
0A
19
F8
EE
E5
E1
BF
CB
B7
B5
D6
F7
D7
01
FC
08
02
FB
FA
0E
03
07
07
FB
12
FA
0C
F5
05
21
00
ED
FE
F3
F3
DD
DB
BF
DE
E8
EB
F1
DE
F8
06
03
03
0B
07
0D
FA
1B
F0
10
05
F2
00
00
07
05
09
09
0A
F0
FB
D4
DF
D8
DF
F4
FF
04
F1
F4
08
FE
F6
FA
0A
F6
F5
F3
E6
F8
17
03
15
0F
33
20
14
10
08
ED
E5
FF
08
F3
09
DF
E1
01
F4
0A
06
EB
0D
F1
F1
FB
29
FB
05
15
18
FB
14
1A
24
28
1D
0C
05
03
18
F5
FE
07
FD
01
05
EA
02
09
06
10
1D
11
1F
06
05
03
0B
0C
19
FA
10
08
1D
1C
19
04
15
FD
F4
03
FD
0B
F9
EC
F4
F6
0A
13
13
15
08
F9
EE
13
FA
09
FB
12
FA
08
16
1F
17
1E
09
FB
11
FB
F1
0C
F6
1D
FE
0F
DC
F3
FF
0C
01
1A
22
01
F8
D9
D2
D9
E2
02
0A
04
FB
0D
09
F2
F9
FD
F1
03
FC
01
03
F2
01
DE
01
F8
FF
ED
FB
15
1B
E6
EA
E1
EA
F2
02
10
11
EF
03
02
F8
0A
F3
13
01
08
F2
EE
00
0D
E5
1F
F2
F3
FB
F2
01
02
F2
0E
F5
F4
F1
F2
EA
E7
F9
F9
04
FA
F0
05
F8
E8
F3
FC
10
03
FF
14
05
07
01
FF
F6
08
18
24
16
29
08
E9
E8
F2
07
FE
09
F0
02
04
F9
F5
F1
EA
F8
01
FB
FE
EF
F9
F4
01
16
02
09
F6
F6
12
15
F3
0C
00
18
15
17
10
16
FE
F7
08
F0
F4
01
0A
E5
FD
05
FB
02
04
F1
02
0E
FD
D9
F5
F3
D7
01
00
EA
E8
FA
FB
F4
F3
E9
E8
F7
FD
05
FC
0D
F1
F2
EE
F6
FE
F5
F3
08
ED
06
04
FF
EE
08
04
0C
22
10
06
0F
06
10
F2
F0
10
F7
13
01
F2
ED
08
FF
08
FF
09
08
13
F8
15
09
FE
04
F0
FE
01
FF
E6
0A
FA
F8
EE
F4
F8
02
12
F9
0B
FB
0E
F4
09
FD
13
FE
E8
05
F7
E0
D9
EB
F7
F6
F0
E8
D2
E4
E4
DD
E0
08
07
F9
01
09
07
04
FF
0F
F4
1C
13
0C
FC
FC
FC
02
FB
18
EA
ED
F0
F6
D7
F6
0A
F2
08
FC
06
0D
0C
FB
FF
F6
F5
F5
02
E3
EB
0F
1A
00
18
13
1A
29
21
0A
12
F4
EC
0E
1E
FC
05
0E
F5
10
0F
02
32
27
01
06
14
14
02
01
0B
E4
13
0E
1F
09
1B
15
02
07
07
24
0B
03
18
16
FB
ED
F1
18
1A
17
04
00
20
11
F1
0B
ED
08
EC
FF
EE
01
F9
17
FC
0A
03
F5
11
F2
0F
FC
0C
19
00
E3
EE
EC
00
0B
FC
F4
FF
F4
02
02
E5
00
FC
07
07
0B
0C
0C
12
0A
07
FF
0E
F8
03
FE
F2
0B
0E
01
09
1B
EA
15
13
F1
F2
03
E6
04
10
ED
F3
FE
19
09
FB
03
04
F8
05
F1
EB
FA
10
02
F7
FD
03
05
F1
09
FA
E3
03
F5
FD
EA
06
15
10
04
14
09
07
11
11
05
F7
02
F9
07
F4
EA
F9
0A
F3
0A
FC
04
F8
FD
03
E7
EB
FB
03
02
FA
FD
11
0D
0E
21
02
08
FD
02
08
E7
00
E6
F4
FB
ED
ED
F4
FB
D6
E7
E5
E9
ED
04
F2
11
FA
18
04
E2
08
F8
0F
FA
FF
FB
07
0C
01
F2
E2
FE
F5
F3
03
EC
EB
EE
DB
F1
EE
F3
D9
03
02
ED
EF
FB
F7
FB
F2
EC
F2
F1
14
02
FD
0E
FE
F2
F8
FB
ED
DF
04
FE
E7
F0
E6
F5
F6
FE
F3
00
EB
D9
F2
FD
FB
03
04
02
F3
16
01
10
15
F3
1B
0B
02
E3
F4
F8
FC
04
F8
F5
FA
DC
FE
F4
E5
D7
DC
F9
F9
F4
0B
0A
ED
06
06
FF
F2
12
0E
08
09
F0
07
19
FA
FD
FC
F0
EA
FC
E0
E5
E2
EE
D5
FE
F2
0B
0A
05
FA
0B
29
F3
FA
F8
02
F7
08
0A
0E
0B
F7
08
12
14
00
FC
06
FB
DE
ED
00
F2
F2
20
1B
0A
07
16
F8
09
F8
16
F7
ED
FB
0D
1D
1C
F7
0A
0E
18
03
00
06
E5
F1
EC
F4
08
F3
10
1A
01
FE
07
0F
1F
EE
2A
07
FD
0C
13
37
23
12
07
04
02
0E
F9
0A
04
02
F3
FC
13
0D
F8
F4
09
FE
15
07
17
EA
01
FB
17
FC
0D
16
03
02
01
05
0F
19
15
06
F4
0E
1B
0F
F3
FE
09
F2
F4
F7
F5
FE
F7
08
F2
11
0A
1E
1B
1A
02
0F
22
18
1B
04
FB
FF
F7
08
FA
FB
FC
0E
16
18
11
F0
E9
FC
09
EA
FE
08
FB
0A
F4
12
06
0F
FE
17
FB
0B
12
09
06
FD
15
F9
F5
05
0B
F8
FF
01
FB
E2
21
13
F4
FD
0C
12
05
09
F7
18
F8
15
00
1E
04
0A
18
0F
FB
0E
0B
FE
04
EF
05
1E
10
10
FC
F1
F4
ED
FC
17
09
EF
E9
F2
06
FE
04
21
0A
0C
0F
17
14
0F
09
0B
15
D5
04
11
02
EE
12
E2
04
F1
F3
FD
E2
F5
F7
CF
FB
EA
EF
FE
F1
FD
01
F3
EE
E3
DE
DB
CD
F4
EA
08
05
F6
06
FE
F6
F3
EF
0F
11
08
E7
F3
DE
E0
C7
E5
CF
E2
D1
DC
ED
E6
DB
CD
CD
D1
DE
EB
F3
0F
12
F5
FC
F3
08
11
ED
02
00
F3
0C
F9
E7
F6
FE
03
EA
E1
EF
FA
E6
E8
00
ED
F2
F6
ED
F1
0B
F9
0C
F3
11
FA
F6
0A
F2
05
05
ED
07
ED
FA
03
E4
05
EC
FE
E8
F4
08
0E
EB
FA
FA
01
12
13
F2
01
F5
F2
F2
FF
FB
EF
F6
FC
EF
02
EC
F8
F7
11
12
0D
FF
0C
04
FD
FC
F2
EF
08
08
FF
11
F0
F0
FC
F7
FB
F3
0B
F9
06
F7
17
F5
F5
0E
13
09
2B
11
F5
E8
0E
1C
1F
02
0B
10
F6
00
F0
09
0C
F8
16
06
12
0C
F8
D7
01
FC
15
2A
06
0A
12
05
02
03
EA
F3
E8
01
E6
FF
F2
EE
F6
01
0A
00
15
F7
07
ED
EF
D1
F6
F8
0C
13
00
07
07
D7
EC
E8
01
16
0B
09
ED
F3
05
08
F7
F9
1F
00
02
F3
F9
FF
FB
EB
E6
F7
DC
EF
00
F5
EF
FD
E3
E5
02
EB
FA
15
E5
FA
FA
02
07
F4
15
07
F1
EB
04
0F
FA
CE
E1
F1
EE
F9
03
F1
E9
F6
ED
F0
0F
E6
18
1B
E5
F4
E3
F4
F5
0B
E3
FD
10
21
1A
15
15
ED
0B
00
EE
FF
0D
11
04
06
FA
02
02
00
FC
15
FF
19
22
FD
F3
24
20
2E
18
04
22
1F
EF
02
FB
FD
08
F6
FC
FB
ED
F1
F5
02
FF
05
05
03
0F
0A
FC
E4
16
2F
26
17
03
15
0C
15
FC
EE
F9
FA
F4
1C
28
0D
1D
1C
07
19
09
0A
F4
00
19
25
FC
F7
01
00
08
20
27
19
FC
FA
F6
FD
FD
0F
1B
0E
1C
2A
18
0C
F6
11
FC
1B
0D
0F
2A
02
EF
F7
02
10
20
1C
05
10
16
00
FD
C1
D7
F3
09
14
2A
12
13
05
E5
09
EB
F6
E9
F1
08
02
05
21
12
17
1E
05
08
E7
EC
FF
DC
E8
FA
13
06
05
FF
FE
F1
F0
E8
EF
F8
FC
F5
FB
01
22
09
1D
12
0B
14
1D
19
FC
0B
07
0E
E1
EF
FA
E6
0E
10
FB
EF
E3
D5
DA
C5
F0
02
F9
FD
27
10
18
17
10
12
FF
16
FB
E2
D8
01
FE
EC
EE
F4
D9
F7
FD
0B
FD
05
EE
EB
EC
E9
F1
EA
F1
FE
12
08
12
01
19
17
EF
E7
DA
F2
FC
15
DE
F5
D5
F1
F0
0F
10
03
F3
FA
E9
E8
F0
06
01
16
16
F9
ED
1B
FF
FD
00
E2
D2
FF
0B
ED
FC
D1
E1
00
F2
0F
FF
0D
FD
04
EA
F6
E1
01
0C
EB
02
FA
0B
17
EB
F3
F3
F0
DC
D8
F3
E8
ED
D8
F7
FB
1C
0D
F9
01
F5
F6
F1
06
F4
E9
E2
03
FE
F8
EB
E9
00
09
F6
00
06
0C
0E
F3
EC
EE
12
08
0E
12
F4
F0
EF
E2
FF
F2
13
01
07
24
F8
07
18
FB
0A
0A
01
FC
01
F2
E5
F3
FB
08
1C
23
0D
FB
07
01
FD
FE
11
14
06
EC
06
03
13
14
18
08
FB
0C
16
0D
F4
EE
F6
DC
EA
0F
25
38
0A
E9
FA
04
F4
0C
FC
F2
EF
F4
FC
00
19
10
F3
02
E3
F6
05
EA
F7
FE
E5
F5
00
25
0D
25
02
F3
09
F8
02
FA
18
FF
CF
FC
04
18
12
05
04
FD
E8
F5
F3
0A
02
F3
09
EE
0D
0B
13
1B
0A
F4
EE
1A
FC
0C
0E
F3
DE
0E
DB
FE
0F
27
F5
F9
16
F5
FC
E8
E9
07
F5
01
06
05
19
0D
13
12
0B
04
04
FB
ED
F5
E4
EB
00
22
EF
00
FE
E7
FD
03
03
E6
05
05
10
0A
F7
FF
F3
FB
F1
FD
0A
E0
E2
D5
C8
ED
DF
E2
06
1E
FA
FE
FD
0A
DE
D8
F0
EE
FC
F9
FC
F9
E9
F9
03
EF
FE
F1
FC
E5
F1
E8
E4
DF
F1
E6
EF
E5
06
EE
FE
DD
09
E0
DA
E6
00
08
EF
08
FA
01
EF
F5
09
08
F8
04
F6
F4
F8
F3
06
18
FB
0C
FC
0A
F4
F8
0F
0C
04
F6
E5
28
17
02
F6
16
19
15
19
23
0D
08
F3
01
FE
F0
F8
FE
09
FE
04
11
ED
0E
FB
02
08
07
14
0C
FE
FE
EF
17
1A
14
F9
FE
F1
07
02
E5
E6
F0
07
0E
01
0C
06
08
09
07
01
04
FD
10
0E
11
FF
EB
F6
F2
F9
09
F9
10
F7
13
FC
0D
10
01
12
0E
F8
0B
F6
F0
F2
07
0C
F6
F7
E5
E7
E2
F2
DE
F6
E7
FC
F7
EC
E4
F1
F6
FF
D6
00
E1
FC
F8
FB
F2
11
13
F9
E2
E8
EF
01
EA
E5
E9
F5
DF
F2
ED
FC
F4
00
08
14
ED
EC
DD
D1
F7
DF
EA
F4
0D
0C
F6
F4
E1
E5
05
02
E5
E1
D7
E6
E1
E9
DF
BF
E7
FC
0B
0F
0B
02
F0
FE
E5
E3
E9
1A
18
F9
12
F2
0E
13
E8
F6
FE
01
EE
DC
EB
ED
F7
F3
F8
ED
D8
E2
FE
F6
DC
EB
01
ED
12
21
25
E2
FE
0B
E5
FA
F0
EF
01
0C
16
F1
09
0B
EC
F9
F9
19
EF
EF
FF
F4
18
10
F6
EF
F3
14
09
1D
07
FE
06
E0
03
07
F8
FF
04
F8
F7
11
1B
15
0C
ED
EA
FB
00
0C
E7
F7
ED
F2
10
03
FB
FC
00
EC
04
E7
F9
E5
0D
F2
07
17
F8
EC
09
0B
0C
05
17
0C
0F
FD
F8
15
F6
1A
05
22
08
FB
08
FF
14
EF
E3
E9
FA
11
F9
EA
D6
01
FE
EB
0C
09
03
E9
02
07
09
09
F7
05
18
0B
13
00
FB
F0
10
FD
FF
EE
04
E8
FD
00
FE
F1
ED
0A
0C
F7
23
FB
14
F7
0D
04
01
0D
FF
0C
13
03
F0
EE
ED
F0
F2
F3
F1
F8
E5
F0
FE
FA
FB
F6
04
04
FC
10
10
FC
FE
0A
04
F3
19
1A
06
FF
F6
F0
FF
0B
13
F2
0D
F7
04
00
DF
08
06
F1
05
0E
06
F7
0F
10
00
F2
F6
F3
EB
F5
DF
07
05
0A
DE
1E
FF
FB
09
E7
F7
F7
13
04
F3
DF
01
F3
E8
F4
F1
F6
F2
EA
E6
FC
F5
FF
C5
F0
F8
EE
DE
11
13
0A
F8
03
0C
F5
0C
F8
E3
EA
F0
ED
FA
F3
FE
16
0F
04
FA
F3
D3
FC
EF
01
E9
03
F8
F4
12
03
1E
0F
16
0B
00
FE
EC
01
08
F7
16
F1
0D
FC
F9
00
EC
EF
EF
F9
09
F9
03
0B
EF
1B
1F
01
06
01
FD
1D
10
FC
00
F8
F1
1A
FD
F8
F5
F2
02
F0
E3
F6
F4
04
13
FD
F4
03
09
0B
05
09
02
0D
FC
1A
05
35
12
18
FD
05
02
07
FD
03
00
0A
FA
EB
D9
FB
F1
F4
F5
17
FF
FC
08
0D
28
1F
2C
0E
20
38
21
1D
0E
FE
F6
02
07
02
E8
00
E5
F3
F0
D1
DA
0A
F9
13
03
18
E7
09
07
1B
24
2A
20
1A
15
02
11
FC
EE
01
FF
01
06
EB
E0
FD
E6
D7
0A
07
F2
1E
08
07
F2
EC
04
08
18
0D
01
11
08
02
04
FF
08
FD
00
F1
E8
FA
06
EF
F3
04
EF
02
EC
08
0C
F4
EF
FF
D6
EC
EA
ED
D7
DB
D5
E1
05
EE
12
07
14
F4
E2
0B
FE
20
24
27
E1
EE
0E
FC
F7
F1
F9
E9
E2
DA
DC
D5
CF
D5
EB
F2
E4
F2
FE
F9
0A
04
0C
0B
00
09
14
09
07
01
EE
08
EE
04
DD
E5
D9
E9
CB
DA
D5
E7
E1
02
F1
FE
FE
F1
14
12
F8
08
2C
1B
1A
18
F0
14
FA
09
09
04
F9
CC
D6
F5
E4
F5
02
01
FA
F7
FC
F6
F2
0E
F6
10
16
FE
20
19
12
04
E9
07
0F
13
05
07
EA
D9
EF
F0
F3
10
03
16
18
02
15
08
00
F5
02
0E
02
1E
03
00
0D
F7
E3
F6
0D
F8
14
F2
CB
E3
F5
07
11
04
FA
0B
EC
F3
F4
07
F7
F8
00
20
1A
FB
FF
06
20
F4
00
09
FE
FB
F3
09
F4
F6
20
FA
F4
04
FE
10
FD
FE
07
04
00
F1
E2
E9
02
F2
0A
F8
0B
06
08
F0
EC
F1
FA
14
F6
F7
10
17
03
08
07
0C
07
F3
FC
ED
D5
E0
F5
EB
FC
DB
E5
E5
EC
10
FA
09
F1
F6
00
F6
01
08
FE
F5
0C
EB
FD
04
10
F3
07
EE
F3
EF
0C
07
12
F0
FC
FA
06
05
13
EE
0F
F7
05
04
FD
EF
FD
0B
04
E4
EC
F2
10
EF
F5
08
0A
06
F8
03
02
FF
E3
F8
07
06
0B
F4
FE
F4
F9
E8
09
0B
F1
F3
EA
F5
E7
F0
06
0E
02
05
11
FA
F7
F3
0A
0D
F7
19
FE
0A
FC
08
FD
01
F4
DE
09
F5
EF
EE
0B
05
12
04
16
07
03
FD
0D
15
FA
FA
EC
FA
00
FC
F9
E8
0C
0D
EE
15
F5
F2
FD
03
F6
09
E6
13
26
14
12
E8
EC
0E
F3
FE
10
05
0D
F9
17
E8
1A
03
09
FC
FF
01
EF
F3
F5
F7
07
F4
02
06
01
07
F2
03
01
07
04
10
0F
0E
05
F1
E9
0D
F8
0E
09
0B
F9
0B
10
05
00
FF
FF
DD
F4
21
04
1B
02
F9
EE
0C
FC
FD
F4
00
EE
FA
0F
FA
E3
02
F4
08
F7
F8
0B
FD
09
F0
FC
FB
FC
0C
14
12
FE
FA
EE
F5
E8
F8
0F
EE
FB
F9
07
E9
08
04
FA
F7
03
F4
09
EE
E8
F0
F3
04
F2
10
0A
0B
0A
F7
E8
F8
EC
04
FF
00
01
17
E8
01
06
FC
13
ED
0F
F1
01
EB
06
FF
F8
07
F7
00
0E
F4
09
E7
EA
DF
E7
FD
FC
E0
08
FE
DE
F1
02
0F
03
FB
0A
FD
F4
0E
FA
EE
11
ED
FD
1D
09
FD
FE
E6
DF
FA
FD
05
E8
F5
FB
F2
E0
0B
EC
2C
F9
0E
03
02
F4
F4
01
F3
E6
FD
10
17
FD
FC
F4
E9
EA
E9
FD
06
03
04
F8
F5
E4
F6
F6
22
ED
F7
E8
F3
E3
F5
0C
F5
16
04
02
FB
0A
EB
DA
CD
F3
02
0E
EF
F4
FA
10
EF
04
04
F2
0F
F0
0F
0B
01
F6
04
0D
16
29
F7
F8
00
F1
F0
E0
FB
01
FD
15
0C
04
07
ED
0C
F2
18
E8
F0
FD
EC
FE
13
E4
F5
F7
F7
25
25
FF
06
EE
E5
E5
07
0B
F8
F9
FF
0A
0A
0F
07
0B
0F
E6
12
F4
EF
F9
FD
18
F2
06
E9
0D
19
06
0E
FA
05
04
0D
0F
F3
FA
F7
FA
FC
1A
01
20
FC
F2
01
E5
FB
E3
0B
02
0F
FB
EF
0C
0D
20
12
12
06
FB
F7
EE
F5
E8
08
12
08
F4
EF
10
EF
F2
03
EC
01
11
10
0F
EE
EE
FB
0E
10
21
17
16
0D
1A
10
FA
FC
0C
01
16
09
12
06
0F
1C
F1
FD
DE
DF
05
0D
11
FE
EB
DA
EC
EA
FB
19
00
FF
EA
F1
E5
F1
14
F3
FF
17
0D
03
02
01
FF
FF
E4
FD
FB
F0
0C
FD
14
E4
EB
FB
F2
0A
0B
01
F7
F6
03
04
0E
12
10
01
F6
0A
0C
FE
0C
FD
FB
E8
FC
17
E9
FD
EF
EF
CD
D1
FC
E1
E6
09
F7
FF
F7
EC
0D
0D
07
14
1B
F0
05
03
09
03
E6
09
15
ED
08
F4
F5
03
F6
F5
D6
F9
FF
FC
09
F4
04
03
0A
0D
0C
FD
0C
E8
F1
11
0F
00
DA
0B
F0
13
F4
F0
F9
F1
0B
04
F0
E6
FD
03
0A
15
11
FC
07
FC
1A
06
0D
10
EF
FB
13
07
16
FE
F4
F3
16
09
23
06
0E
EF
F7
03
08
0E
FB
0C
16
14
F3
02
09
08
09
F1
00
04
F3
EF
03
12
EE
14
E8
FA
28
01
34
08
10
0A
08
2E
2C
06
0F
1E
05
16
02
F3
07
FA
FB
0C
FE
05
F4
EF
F9
06
24
14
0B
0D
2D
13
1F
23
1F
0D
26
13
EE
05
ED
06
05
08
04
ED
05
04
26
0C
E6
EF
04
02
FC
F7
24
09
0D
FF
0F
15
05
FF
1F
14
13
DF
CD
DE
EA
E3
FF
EE
FD
F4
F3
F5
F9
F4
14
03
F9
FF
FA
03
F4
02
16
15
F4
00
EC
E9
F8
EB
06
00
E4
ED
E8
DA
ED
0E
ED
F6
0D
F5
13
01
EE
F4
0C
0D
FF
EF
EC
10
F3
11
10
F5
11
ED
F6
0A
F2
EC
EC
0E
0C
01
05
F0
0D
0C
FD
EC
00
10
FD
0C
14
19
19
1E
1D
23
15
10
01
05
29
20
19
1F
20
1C
17
05
0B
0E
09
07
11
FA
13
F6
0D
FA
08
1A
0C
EF
0A
00
22
19
10
38
25
37
14
33
24
2B
FE
18
F7
FA
EB
EE
EE
0B
F9
05
FD
E3
0E
F1
FE
EB
10
FC
14
34
19
19
25
08
05
1A
13
18
13
0C
00
FD
24
09
00
F2
F2
FA
E8
CE
FE
11
06
F5
06
16
01
0E
05
11
0C
F1
0E
FE
05
06
27
25
1A
FB
E5
F7
FC
07
0A
00
F3
20
09
F5
06
04
06
FF
FD
0F
06
0D
00
F9
FA
0B
07
0E
18
29
2E
1E
EB
FB
FE
08
F6
E8
FC
0E
EF
0B
F7
F5
F6
14
FC
00
11
0A
F2
01
0D
1C
1D
06
0B
09
20
20
0E
02
09
FB
FB
E9
EB
E2
E1
FF
E4
02
0F
18
1A
24
07
05
F3
E5
EA
F9
FC
F1
E9
E6
05
05
11
03
FF
05
E2
EF
F1
FE
ED
EA
F4
0D
F9
FA
26
0E
0A
DB
E9
D1
D9
D0
F6
D5
E8
CC
E8
03
13
F6
F8
0D
EC
F7
E6
F3
F5
E8
00
03
09
0E
10
1A
FD
DF
D5
CB
B3
DF
C9
DE
CA
C6
C0
D9
E6
09
FE
13
EA
04
00
F7
F4
F2
ED
01
07
10
1E
14
EB
DA
F3
E4
CF
ED
E1
DC
EF
D4
E0
DB
07
FB
02
06
22
05
0B
07
0F
FF
03
FD
19
1F
FB
00
F2
FA
18
04
E9
F1
FD
06
E1
FC
E6
E3
DF
0F
F1
FC
04
1D
1B
16
05
0C
FD
0E
F9
15
0D
FE
07
04
FC
01
F5
09
F7
16
19
22
01
F2
FA
17
EF
13
15
15
21
10
27
F1
F5
05
1B
F7
F0
EB
F3
07
F2
F1
FE
FD
F8
0F
1B
23
14
0F
FD
02
F9
1E
19
07
0C
13
21
F6
06
13
19
F0
E1
FA
07
04
F6
F6
E2
F3
FE
14
35
28
11
01
F0
0C
1C
0D
E6
04
06
0C
0B
F6
00
FC
F0
FC
F1
E5
F3
EF
04
E8
12
0D
0E
08
15
2A
0B
00
DE
F1
12
FE
14
EE
04
F9
ED
EA
04
FF
FB
EE
DA
F1
0D
07
E9
EB
FC
F7
09
07
0F
05
1F
F7
DC
07
0E
0D
04
11
F7
07
E7
00
F2
E9
FA
EE
F0
E6
0E
0C
F2
02
04
10
09
EB
F6
03
01
FF
E8
E8
F5
00
E3
FA
E8
EE
08
F7
FF
0B
F0
E1
E9
D9
0E
F3
FC
0B
05
FD
10
17
FC
FD
F7
15
F1
FF
14
F4
15
1B
02
EF
EE
FB
0D
FD
F1
F2
ED
EA
05
19
13
FB
FF
F0
06
07
05
FA
11
04
F7
ED
12
EF
04
14
F2
E9
E0
F4
1A
02
13
F6
08
EC
0B
23
1E
F6
10
17
0F
F4
0D
07
04
05
EC
FF
01
11
F8
FA
0A
F2
F9
05
00
12
07
F6
12
09
F9
21
03
0B
16
0E
F9
14
00
F0
FF
E6
F2
12
F2
F6
E8
FD
EC
F4
F0
ED
16
FD
FC
EC
11
06
18
0D
02
1B
1D
07
1C
F2
EF
05
F6
DD
0D
F6
04
04
03
F2
00
02
E4
D1
F8
E3
FE
F3
10
0A
FC
21
1C
04
02
04
0E
F2
F5
07
E1
FB
1C
01
FF
FE
12
EB
FA
0F
1F
FE
F3
06
0D
FA
FF
F9
11
15
02
18
1F
0F
FC
0C
E9
E1
FF
0C
11
F3
EF
EC
F4
F8
FB
E3
E8
DA
F1
03
E9
EC
0B
00
01
F0
FA
00
17
19
2F
0A
0B
0E
0E
F6
F7
EC
00
14
F9
F7
FA
F6
ED
04
F4
FF
ED
EF
04
F0
09
F9
00
F0
16
06
0D
1C
1E
FE
09
15
EE
12
F6
0B
FD
08
F5
0B
0A
06
0F
EF
04
12
F0
0E
1F
ED
FA
F4
07
08
15
10
1C
FE
0B
F7
0E
12
