ED
11
14
0A
FB
0B
07
F0
F0
12
FA
00
03
F1
03
F5
14
EF
EF
0D
F9
06
12
07
F9
FC
F0
FF
07
F5
10
0B
00
F3
08
F7
FE
FF
F9
0D
02
F0
01
06
EF
F0
EF
F9
02
EE
06
F8
F0
05
F6
12
FE
FD
F9
19
FD
F1
E7
00
F6
E8
F8
FF
0A
F0
FC
05
F7
EC
03
E9
08
FF
FA
FD
03
FF
12
0C
FD
FC
05
14
F2
EF
E7
0F
07
FA
E8
01
FF
00
E6
F2
0B
04
F4
07
F7
05
E3
F8
F8
14
0B
0C
11
FD
F3
00
FA
04
01
F9
FF
0A
03
F1
F5
0D
0D
F9
10
E7
E9
06
EC
02
0F
13
14
12
00
F3
0C
08
0D
F5
EE
F7
13
27
F9
15
FA
F5
09
FD
FD
FA
09
0B
F0
FC
17
15
1F
F6
09
06
EF
E3
FA
0C
0B
F1
F8
22
28
1F
0D
05
F4
EE
14
FF
F9
06
03
0F
0B
05
02
06
05
1F
15
FC
F4
06
FA
FF
F4
FA
F5
0F
17
0A
05
09
F0
09
0D
FA
0E
0B
F1
06
FE
09
01
0D
19
FA
08
F7
02
FB
E8
EE
11
08
02
15
04
F7
F5
13
0A
FE
02
0B
EA
E7
FA
EE
0F
01
FD
00
F7
09
03
1B
0F
EA
FF
10
05
FE
0A
F9
15
02
FE
08
EE
04
EE
09
0A
0E
14
12
EE
07
F1
07
10
EF
07
02
10
17
FE
FD
07
0E
F4
1D
02
11
06
0B
EE
EF
E9
05
EF
FC
0B
F1
02
09
FF
EE
0B
13
F4
0C
01
1B
11
F0
15
01
02
15
F5
F3
F4
00
0F
F4
FD
ED
12
F5
11
EB
F7
05
0D
F9
02
FB
FB
F0
0F
F3
F8
01
F3
06
1C
13
12
0D
FF
FD
13
F5
00
F0
07
E7
E4
E5
06
00
F8
F2
14
FA
0D
00
FA
18
09
01
F7
DC
05
FC
15
10
FB
0F
FA
04
FD
08
F1
E3
02
F9
EA
F3
F7
03
1F
14
F8
F2
13
08
16
05
F6
E7
0B
03
10
FF
09
03
EE
FA
0D
F6
02
F4
E3
EF
DD
DC
F8
FE
0C
02
11
07
12
F8
03
E7
01
F7
06
16
F6
F6
F7
0C
0B
F2
01
FA
F0
FD
03
F6
F8
04
EA
F1
14
08
16
F2
F3
01
05
03
04
0B
14
09
FA
F2
10
ED
0F
02
08
E9
FF
E4
E9
E0
ED
F2
0C
0A
13
09
08
F5
EF
E6
F1
FB
1C
ED
05
13
FE
ED
00
02
08
10
11
03
00
EC
EE
FA
EB
E4
E8
FB
F1
0C
05
F0
F8
FE
EA
04
FB
0E
08
09
07
0F
F7
ED
EC
FA
EF
08
0B
F0
F8
EC
E5
01
F6
F3
05
16
ED
04
F8
F9
11
0D
F7
15
FA
E4
00
06
EE
FD
11
04
03
0E
FC
10
10
0D
EF
F1
EB
14
0E
09
FC
0C
02
F7
0D
FD
08
FC
08
F4
F6
0C
0A
EC
F6
FA
F2
02
E7
E9
0A
02
0E
0C
FD
13
11
FC
13
FD
00
F8
0A
0E
02
F6
ED
F2
F3
FF
E9
E5
EB
ED
02
0F
F8
05
05
03
F2
05
04
F8
16
F6
FC
FB
0A
07
0B
13
01
0C
F2
FC
F7
03
01
F7
F7
13
02
0A
11
16
FB
FA
02
04
F4
F5
06
11
FB
16
01
04
F6
FF
F4
0A
FF
F9
F2
F5
04
14
F8
FA
FD
FF
11
F8
0C
1B
01
F4
12
FD
0E
E1
00
08
01
FB
F8
02
10
06
F5
F4
F3
04
08
04
12
03
11
13
FF
01
FC
1A
04
04
FD
0D
ED
01
13
F5
0F
F1
01
03
F5
F6
0E
F2
EF
03
FE
03
00
02
17
0E
13
F5
FC
0E
FA
F0
FD
F2
0E
17
15
F2
0B
0B
09
EE
FF
FE
F6
06
02
FF
EF
FC
F2
E7
E8
E6
F2
06
01
ED
F3
EB
FF
F0
0E
FA
FE
F6
10
0D
09
13
FE
FB
0C
13
FA
FB
E1
F9
FF
FE
0E
0D
01
0A
08
FB
0F
0B
EC
FB
19
0D
FC
F5
01
FE
0C
0D
F6
EE
EE
09
FF
EE
F2
FD
ED
F4
F0
EE
EF
02
FE
05
12
F3
11
08
09
03
F7
04
FE
FA
F8
ED
F7
F6
0F
EB
FE
EA
F2
F8
EA
FB
00
FD
FB
0A
F6
E2
F0
05
E8
F2
F7
0D
10
0F
F8
0D
F0
0D
05
FB
F0
ED
F0
FE
05
EC
0A
F1
EF
0E
16
0D
17
14
02
EE
01
01
E7
FB
E8
EC
FA
ED
0F
04
FE
EA
11
16
01
F8
F7
E8
01
EA
10
10
1A
FE
11
F8
F2
EE
EC
05
EE
DD
05
F5
F2
0E
F6
04
ED
06
0D
0C
10
F0
01
EE
0F
00
14
1B
27
15
03
10
FE
F1
F2
04
D7
EB
05
FE
F9
E4
EF
10
07
F8
FB
1D
05
0F
ED
03
F1
0D
17
FB
F5
16
10
0B
1C
F4
0E
0A
F3
F1
FC
1C
0B
ED
F2
02
FA
03
06
0E
FB
05
07
FA
FB
02
14
0A
12
14
FA
FD
FB
F9
FC
FD
01
0E
07
23
18
01
08
FD
F4
08
EB
0D
ED
05
F6
0E
00
F9
00
00
FE
1B
FF
FE
F1
03
FD
FD
0F
06
1A
33
0E
03
19
F1
01
1B
17
0F
04
04
1A
FB
0D
08
0D
12
05
F7
F8
F0
FD
09
13
03
F5
09
1E
28
19
F1
FD
EA
FB
0E
02
0E
DD
01
F7
01
EC
16
12
F9
FB
06
08
06
FD
EF
FA
F6
F2
0A
0A
1E
FC
F6
ED
F4
E4
DE
DF
EC
E5
0E
F7
0B
0C
01
12
23
F7
0C
1E
08
09
F7
EB
FA
EB
D9
FA
10
10
09
0D
0E
18
E7
03
EC
E3
EB
F8
F9
13
0B
11
1A
13
1F
19
22
25
FD
EF
E0
D5
EB
00
0D
19
07
FC
F5
0B
09
EE
F5
E9
FF
01
0B
17
FB
1B
13
1C
28
0E
23
0C
FC
F2
D6
F0
DE
E5
02
02
F2
F0
08
02
F6
ED
F3
F5
04
F4
FC
17
21
20
1F
16
10
02
14
05
FD
DE
E4
E0
DD
F5
FE
07
01
FB
FF
1F
14
08
ED
EA
E0
D8
F9
0A
08
0C
16
1C
0C
16
FB
14
F1
E9
E5
EB
11
06
0D
FB
0E
FB
EC
12
12
14
EA
E5
FB
FB
F1
FB
F3
FD
00
10
05
04
F9
01
EF
EE
02
0C
0C
0E
19
17
F1
FB
F7
06
19
F5
0F
08
E9
E9
F2
E0
E9
FA
EE
00
15
09
F2
06
F0
E6
E8
F8
12
09
EB
02
07
02
FD
18
FA
FC
16
14
14
F3
F1
E6
E3
09
09
13
16
15
02
FC
06
FD
00
FD
10
18
EF
15
F4
F0
0D
0A
15
17
F5
10
ED
E9
F3
F1
E5
FC
0F
1B
1F
F7
04
FD
E7
06
0C
0D
10
0D
04
10
01
E7
DF
F2
10
16
F8
12
E8
DE
F3
EF
EA
01
0F
14
04
FE
01
0D
EE
ED
02
05
12
0C
F8
FD
FE
FA
E3
05
1A
0B
05
13
F6
F9
EE
01
F4
09
F9
01
F7
FC
0C
FA
0B
0F
F8
F5
1C
09
E2
F0
F4
0C
FD
0A
07
05
F6
04
06
09
E7
FF
10
FE
09
09
1B
FD
17
EF
FE
FC
F7
05
EF
EA
E3
FE
E7
03
09
F3
0A
FC
10
02
07
00
02
02
F8
00
F9
02
FF
03
08
07
09
F9
FC
F4
0C
02
12
F7
F8
06
0F
FD
04
FE
F2
FE
EA
EA
0F
FA
F4
08
FE
06
01
1F
1E
09
23
17
09
0C
F4
09
09
16
09
F0
F3
01
13
02
FA
0B
00
FC
11
02
12
F4
0F
FD
1A
27
09
1A
F6
08
F9
EE
F4
F3
F3
0B
F5
FD
F2
EA
F5
0C
F4
F6
EA
0B
F3
0B
08
F6
FE
0C
19
1B
17
1D
F1
EE
F8
FA
0B
14
ED
01
03
F1
F2
12
FF
01
FE
FD
EF
ED
0F
E7
01
E6
ED
F9
FD
FB
F0
E6
EF
F3
02
FA
03
F3
16
F7
FC
02
0E
ED
FA
19
01
0B
02
0B
00
02
F1
F7
FB
EB
FA
F8
E1
DE
F2
F4
F3
10
03
F4
EE
07
0D
06
F6
FD
07
FF
FF
F4
02
0B
0F
F6
FC
1C
EF
FE
04
07
F2
03
ED
0D
01
F8
F8
02
00
0D
09
EB
F1
13
F8
EC
11
EC
F2
11
09
0D
FC
24
2A
FE
F3
05
23
ED
1B
EC
DB
F4
0A
F7
FA
03
F6
15
F8
F7
E6
E3
F7
FC
0E
0B
07
0B
12
08
10
05
01
E2
01
F8
26
01
18
F1
FF
13
01
ED
12
F4
00
18
1C
FC
15
2E
11
02
21
1B
26
20
07
F6
FC
0C
EB
1C
22
21
20
10
24
11
16
FE
FC
07
1A
06
18
20
37
FE
17
0E
02
0D
09
0D
06
ED
18
00
03
01
08
09
FF
02
0D
E3
E3
F1
10
06
15
1A
1A
0E
19
07
00
E3
ED
F3
E4
FD
FB
03
17
10
29
0B
22
06
E8
E9
E1
0E
F8
10
F4
EF
09
14
26
16
FC
F2
01
06
EA
04
FB
E1
F5
E7
14
0A
1B
0F
0B
1E
03
DA
DB
DC
F7
0D
0B
EF
33
24
2C
37
0F
16
15
00
FF
06
EB
E8
DB
F7
02
16
31
30
10
FF
DB
EC
E9
F5
DA
01
03
25
0B
08
36
1B
12
19
26
0F
15
FF
FC
ED
FC
F3
F4
1B
10
23
FB
E9
E2
D4
E8
FF
F1
F2
EB
01
EA
1E
15
10
F2
13
FA
14
F4
D5
EE
FC
DF
F1
10
22
1F
0D
FA
FE
DE
E4
F1
FA
08
00
EC
0D
F6
20
0C
07
F2
ED
05
02
E6
D9
F1
EC
F1
09
0A
24
1E
F3
FE
EF
E9
F6
0F
15
EC
F7
FD
F2
E9
F5
21
DD
ED
EC
0C
0D
06
12
FB
F8
06
FF
17
1A
F8
E0
ED
D1
D2
EF
0E
19
EA
03
02
13
E5
12
F0
EE
12
02
06
F9
F7
09
FB
EF
0E
1B
1E
01
EE
F4
D6
D9
DC
F9
1E
1C
1D
FF
F2
06
FA
E8
08
FB
FD
02
F6
F9
0E
FD
0E
FA
F8
FC
03
02
F7
E6
F2
FF
F5
F6
FB
11
1C
ED
EB
02
EE
F0
10
08
ED
FC
F5
F8
11
EC
F8
FF
FC
15
FD
13
02
F9
F9
01
13
07
09
F2
17
FB
0C
1E
0B
08
04
0E
F6
11
0F
07
F1
08
E5
0D
F5
04
22
01
F5
F3
11
08
08
0D
F9
02
12
09
EE
EE
19
20
FB
FA
10
F8
02
F5
08
E8
06
0D
FE
03
FB
03
FD
06
05
06
20
F6
F3
02
FB
0A
00
F9
11
1A
EE
02
F3
09
11
03
ED
F5
F7
FE
F6
0F
F7
07
0D
17
FD
17
0C
19
FF
10
09
00
0C
FA
0A
2D
0A
08
16
F7
0E
04
01
FE
E0
07
EF
0B
FA
0C
FB
06
F3
0F
01
FE
1A
EF
FF
07
EF
F3
13
13
0A
01
06
FE
0F
EF
F2
F2
E6
FA
07
04
FC
FA
1F
0C
0D
0C
1C
FB
17
10
05
0C
F5
F2
2B
F8
1A
F5
07
17
12
F6
04
E8
F1
FA
F8
00
19
F6
05
13
F5
05
1A
EE
0D
F2
08
1B
17
F4
0F
F6
04
03
FA
FF
F6
FE
F5
F1
ED
EE
05
F7
F8
00
02
0C
09
F6
FF
07
F4
EA
0F
13
F3
FE
FB
24
FB
0E
0F
0A
16
FA
FB
F9
FF
FE
F1
FA
01
15
EE
F9
0A
E6
12
11
EC
01
06
E3
FE
02
0B
17
25
F8
F1
06
0D
0E
08
F2
F8
01
F8
F9
15
EF
04
23
0C
F2
F5
F9
0A
1B
EA
E0
F9
F6
EC
F2
22
22
1E
12
11
18
FF
F0
FD
02
03
16
F0
04
17
02
F6
E4
F5
F7
F2
12
0C
0B
0B
12
EC
06
F4
1A
F8
26
32
18
18
1A
28
14
19
F6
E9
F0
E9
F8
FF
EC
F9
05
03
01
18
16
F1
F9
FD
00
F9
FA
FB
0B
06
05
06
05
12
F9
08
F1
F0
FC
13
F4
F2
FA
DB
0A
11
DE
FF
F5
F6
0C
06
EB
FD
03
00
F8
F7
FD
F7
10
F8
06
EA
03
FE
0F
FD
00
F9
FA
04
01
F7
07
F7
F3
0D
EE
F3
14
0F
0E
F4
14
0B
0D
04
F3
F9
00
08
08
16
FE
EB
14
05
08
05
10
EE
EE
04
EE
03
02
12
0F
ED
05
12
07
0A
02
01
03
04
F5
FA
FF
16
F7
02
03
F3
F9
02
FC
11
F8
ED
07
08
F0
08
0C
F1
0C
0B
FA
F9
FA
0A
F7
FB
FF
F4
FE
EA
08
F3
DF
02
03
EC
01
F9
11
02
0A
F3
F7
FC
00
0B
0A
F0
D9
D7
02
FD
E0
04
0A
FB
11
26
09
33
22
F0
09
F6
F8
EE
F7
E9
F8
0C
F2
0F
01
F8
EF
F3
FC
F8
F4
08
1F
11
1C
FF
16
21
16
32
2D
09
0F
F8
FB
08
F8
07
10
FE
04
0C
FB
FF
0C
E2
F5
0B
F7
18
06
0D
1A
FE
07
14
2F
1A
15
30
0A
12
21
03
FB
0A
F4
F6
0C
0F
F3
F8
03
E7
04
E5
08
F3
0A
16
13
10
06
1D
0F
18
0B
1E
11
13
13
FB
16
F8
F0
02
F7
13
E1
E6
F1
0A
F1
EE
03
F3
FB
00
0A
13
1A
0F
18
F1
01
04
10
02
07
0A
EF
FE
FB
05
11
0E
E4
0A
09
FD
01
00
F4
EC
FA
06
0E
F6
01
F4
1C
FF
03
16
FF
07
19
04
FD
02
05
00
02
F8
17
0F
1F
EA
FD
E7
EC
F2
1E
EE
E5
0F
12
F3
0E
04
FF
EA
F2
17
0B
02
E5
EB
1D
EE
0B
F3
EE
13
0D
EF
06
FA
F9
F6
F4
F5
FB
F6
FE
FC
F9
F3
E8
FE
F7
16
0C
FF
E6
EC
FF
12
EA
F6
0A
07
09
E8
F5
DA
F0
F1
EF
06
DB
0B
F4
F0
DC
01
0F
FA
1C
17
FE
EB
0B
1E
FA
13
ED
02
E9
F0
FE
F0
F6
FD
06
F8
F2
03
EF
F8
05
F1
01
FB
F2
05
02
FC
EB
DA
E9
FE
E6
EE
03
09
F7
EF
02
0C
F8
F0
F8
E6
FD
E9
01
01
12
05
02
F0
07
F7
ED
F5
E2
DF
D9
CC
FA
0B
00
08
FC
F0
0F
EC
0D
F4
F6
06
EE
E5
F1
1D
1A
F9
F4
00
E7
E6
EC
E5
F0
E5
F0
E6
FD
0E
FD
E2
E4
05
F7
FF
F9
07
03
EC
EE
E7
16
23
11
EB
DF
F5
E4
F1
E7
F0
DB
DE
E8
EA
12
01
F2
06
0F
0B
0F
0E
DF
F9
FE
08
02
FE
0D
FE
00
F1
FC
FE
F5
EA
EA
05
FA
F4
08
FE
12
F9
F5
16
EB
09
27
18
06
F0
F4
00
0C
07
FC
10
E9
E8
EF
03
E6
ED
0E
F8
13
F2
10
F2
1B
11
19
13
F5
0E
06
07
ED
F8
F8
00
F8
00
0B
E6
F9
FC
F8
F9
01
F2
14
03
23
28
1E
E8
10
19
FB
FC
F5
09
F3
01
EF
0B
FF
ED
00
01
08
DA
DD
F8
0B
05
0E
15
10
2C
1E
16
21
ED
06
16
F2
0B
2A
02
1D
14
16
1F
FC
11
12
FF
FE
0D
10
11
0B
0D
11
0D
13
1E
38
11
FD
F9
ED
04
0A
F7
25
1B
07
30
17
1B
20
FE
0A
0C
0B
10
08
FE
14
04
27
28
0F
08
2A
27
F8
F7
E2
F2
12
0B
0F
23
06
1D
07
1E
07
1C
08
1E
0C
27
18
1F
12
1F
16
12
1A
05
05
30
18
00
EB
0B
EE
03
37
FE
F2
11
00
01
FA
13
02
0D
23
11
1B
24
08
1B
18
0C
10
F8
14
05
17
E9
E7
05
EF
0B
00
F8
FA
F9
F2
08
0B
10
06
FF
07
0A
0A
03
12
FD
F5
EF
E0
F5
14
EE
17
15
02
0E
F6
10
08
02
F0
06
F7
04
09
06
00
F3
10
0C
FD
0F
0C
06
11
0F
FA
06
09
0B
06
0C
08
06
F8
F5
0B
E0
19
00
EC
FB
FB
00
2A
20
11
F9
15
FA
09
2A
17
0B
13
0A
13
FF
F1
F3
09
02
F0
00
00
F2
0D
0F
00
EE
04
F2
10
18
FD
08
E8
FC
FF
0E
E6
EC
03
F6
F9
EE
F6
0A
EE
F5
13
13
FD
12
0A
F8
FD
0C
ED
F6
01
11
07
F4
F0
02
02
F1
FE
F4
11
F5
0E
02
0A
00
13
12
ED
FC
0A
05
FF
EA
03
06
E6
0A
F7
06
18
FF
F7
E5
0A
05
06
F8
07
08
E4
E7
0C
10
07
ED
F7
EF
FC
0D
FD
E7
F4
FD
DB
E7
DB
F6
F6
E7
FE
F0
E6
FB
FD
F6
DB
F3
F6
F6
E9
FE
F4
ED
FA
EC
16
04
00
FC
DF
E6
E9
DF
E4
EB
00
07
F5
09
1C
24
F6
FB
13
FD
21
04
15
FD
00
FE
14
F4
00
00
12
E5
01
0C
0C
EC
FE
03
00
11
F8
EF
0A
FB
0A
09
0E
15
2E
22
06
ED
FB
EB
FE
12
FE
F4
DA
E3
00
02
EE
F6
04
F1
F3
F2
FF
0D
EB
F9
F8
05
01
EB
00
16
FD
FD
06
FB
F3
04
F4
EF
0F
04
12
0C
02
FE
F2
F3
F3
FB
0C
E2
E0
FF
FE
0A
EE
0F
0A
09
F6
F1
F1
EB
F6
1B
0D
F8
F6
0E
14
FD
01
FF
0A
15
FD
05
09
F9
FB
F3
06
EA
F2
02
0E
FB
01
08
16
0A
19
2D
0F
FF
0E
0C
EF
F7
F9
F5
11
11
F1
E9
09
05
FD
00
F6
02
FB
16
EA
FB
F6
01
F1
0D
08
F9
3B
14
01
07
05
FF
F9
02
0F
0D
0A
FE
EA
E3
F4
FE
FD
03
F9
FF
FF
01
FF
0C
F7
0E
0A
01
1A
28
0A
0F
F7
F6
F6
FE
F4
08
08
07
F8
DC
ED
10
0C
0F
06
06
04
0C
05
13
FE
03
16
00
13
09
F0
F1
EB
01
05
F4
0C
07
0F
F5
E9
CA
D9
FE
09
0F
FA
F5
05
0E
F5
FB
F2
08
2E
F1
EE
F1
F5
03
0B
FA
FB
0A
10
F3
0E
F1
DA
B9
D3
07
0A
F0
0B
02
05
07
01
0F
EF
FC
12
07
F4
F8
10
09
06
F6
05
1F
16
12
FB
DA
D9
C0
FE
FE
0E
FD
E6
EC
FA
F1
1B
12
03
F8
05
F4
00
F9
03
F6
0E
22
05
01
14
FF
13
EA
CE
CE
E3
0A
10
FA
E3
ED
00
F6
10
19
EA
06
14
13
00
DE
0C
04
F0
0B
1D
02
16
11
0D
D5
CE
BD
02
23
0C
EE
08
F2
05
FA
FC
EC
EA
12
12
04
E6
03
F7
09
1A
06
0C
14
06
0E
08
D5
DE
CC
F5
1B
07
17
F5
0A
17
05
00
F3
ED
07
05
09
16
F3
00
06
09
10
0C
0C
1A
12
FF
D6
D8
F6
13
22
1F
F7
13
10
12
FF
07
F7
EF
F1
04
FC
0C
F8
F3
06
ED
07
05
FF
0A
04
FD
E3
DD
0C
14
1C
13
02
06
0A
F7
17
14
FB
09
ED
15
0C
D8
FD
EC
09
0D
0B
16
15
00
F6
06
F0
DD
0C
FB
17
0A
F1
02
FF
0E
02
0A
E0
13
F3
09
0A
DF
07
F7
F1
03
0E
EA
0D
05
FF
10
01
FF
06
14
06
09
16
0C
FD
0C
FD
1B
EE
17
FB
0D
04
F0
03
FD
00
0F
FD
F2
FA
E3
0B
0F
09
03
1A
06
00
F2
FE
07
11
01
F4
05
F5
FE
24
10
0C
EE
DF
FF
FC
FF
FC
EE
0A
FB
F3
06
03
08
F9
1B
10
F9
04
FF
02
FD
E9
ED
FA
04
1E
F4
0C
10
0E
0C
FB
01
F7
F3
05
F8
F5
03
12
01
17
06
0D
F6
F4
F5
EA
E5
F4
E6
06
F3
00
06
FE
17
EF
FD
F6
09
14
EA
FB
0A
FC
F8
F5
F5
17
FC
11
0C
FD
E3
C8
DA
D8
EC
ED
0E
10
ED
F6
EC
09
0C
05
F7
18
1D
F3
E4
FC
E9
E5
F9
07
F5
F9
DF
F2
DC
EC
DB
D5
EF
F6
FE
02
F5
0C
10
FB
EE
FD
FA
F7
02
F1
FA
13
FA
E7
F8
E4
EA
EC
00
05
F0
E6
F7
EF
F4
0C
0F
14
0A
13
F8
03
0E
04
F6
00
F7
19
23
14
EF
F1
10
04
FA
F0
00
F6
10
F4
F0
05
FD
12
12
06
F2
F0
08
09
05
02
06
0D
05
0D
EF
F9
00
07
EA
F7
ED
FD
F5
0A
12
FE
12
13
01
06
FD
FF
FA
FA
EF
F4
F9
F7
FD
EE
14
F6
11
F6
F5
15
F9
FB
06
F5
F1
EF
02
EE
05
ED
08
08
15
EE
03
07
F6
F4
0F
03
08
F5
F1
0F
F0
F6
17
06
13
26
F5
08
1D
1D
1E
FD
FF
0A
FE
17
00
03
EF
F8
15
FE
14
01
1B
FB
11
02
08
1A
EF
F5
0F
00
0D
F4
FB
09
05
1A
19
03
03
07
1E
06
F8
F0
10
0C
09
FA
F6
0A
FA
E8
E9
EC
FF
FC
DA
D5
E8
F2
05
F7
FB
F2
1A
14
04
F6
FD
EC
14
0B
ED
FF
0B
01
04
1B
16
0E
F5
F2
F0
F6
F6
F8
F8
F0
05
FB
05
ED
FC
10
F8
0D
FD
1A
05
E8
F2
02
F5
1C
14
14
FE
02
07
0A
FF
01
F5
FE
FF
02
0E
F6
F5
02
F2
E5
E9
03
0A
E8
F2
FE
11
28
0E
FB
08
FD
04
07
0C
FE
F5
19
F4
EC
0B
01
0C
06
F4
EC
EF
F5
D0
F6
10
EF
06
03
0A
15
F9
FF
F8
05
0B
EB
07
03
07
FE
F0
04
0C
FC
F1
E3
F7
FA
FB
F0
D9
E4
E1
F7
0C
F2
EC
0A
F8
F5
EA
EF
F7
F4
05
16
10
F4
02
0A
04
16
01
F7
FF
01
F6
E9
BE
E7
DB
06
0F
0A
FC
1A
F7
E4
F5
F4
03
0C
FC
0A
1A
04
FA
0D
17
09
1C
10
01
FC
0A
E7
D9
F4
D5
FD
0D
06
01
09
E3
04
F7
15
0C
12
07
15
04
0A
00
13
1E
2C
1B
04
FC
0A
04
EB
DE
CB
DC
17
15
08
04
14
F4
F6
18
0C
10
FC
F6
1F
FD
08
08
1B
25
19
1C
FD
18
15
1D
EC
E5
DE
00
FE
05
06
1C
0A
12
19
17
15
16
01
17
01
F8
EA
F9
02
29
0E
1C
17
05
31
08
F6
EB
12
DD
F8
FD
F1
F1
08
02
FA
1E
1A
FB
0E
0D
00
F0
F7
FD
0C
23
1D
11
1D
23
12
39
05
F8
15
E5
F4
F7
14
06
DF
13
14
05
12
0A
13
02
00
E3
06
FA
12
05
13
1E
14
16
26
1C
17
F7
F7
EE
04
06
0E
F2
D8
20
16
0B
07
06
0B
1A
FE
F4
EA
16
21
19
15
12
1C
FF
11
0D
FC
E2
EC
D5
F0
FE
FE
EB
DC
11
1F
1D
FE
1D
00
1B
07
05
F8
FD
0E
0B
FE
FF
17
FC
F7
F2
F7
EF
FB
DF
E5
09
04
00
D6
12
F7
04
0D
05
0C
13
F7
F6
F9
0F
02
FD
FE
ED
13
00
EC
DF
F0
E1
EB
EB
FF
15
FA
FE
F2
06
FE
02
F3
FA
00
0F
19
ED
01
14
0B
F5
E0
FC
EE
F5
F1
DD
E0
D1
09
F2
11
01
F8
F6
FB
04
F5
DE
D0
F9
FA
F6
F0
05
0B
02
EF
FD
F8
FA
D8
E8
DD
EC
D2
F9
08
FE
15
F5
09
E5
F7
D8
E3
F2
D7
D9
D7
F5
E0
E6
ED
F2
04
F3
ED
D5
D9
D7
EF
D5
D7
03
F3
07
F9
08
0C
D8
ED
F7
E2
EA
F5
E8
F6
DC
DF
E6
D1
E5
E8
E5
DA
E5
F1
F0
E8
EB
E2
F8
F3
0F
06
FA
F3
D8
C3
10
F8
0B
07
F5
FF
FE
F7
ED
E5
E1
E7
EC
DE
E2
D5
F6
E7
F5
D4
EA
07
F7
03
08
14
08
05
0C
21
1C
16
1A
E8
F2
E8
F2
E7
DE
E5
FA
01
EF
12
06
1B
F8
10
E2
04
EB
05
05
02
E5
03
23
21
1A
1C
01
03
11
FE
EF
1C
0C
0A
FF
0C
F0
0E
21
26
24
21
1D
09
FF
F6
0D
0E
01
EB
10
F5
24
07
FA
20
06
FC
18
0C
34
1E
07
1A
1A
21
28
05
05
EC
1A
10
ED
FA
F6
F8
F5
F3
00
05
FE
14
FD
F0
07
18
FF
1A
11
13
1C
0E
04
2F
02
0D
0E
05
01
F2
0D
F7
EE
EE
FB
10
F0
F0
10
F6
08
F7
07
0B
1B
17
13
F3
08
F7
FF
0C
11
0A
F1
13
F3
0D
FC
FE
05
02
EF
0E
01
F6
F3
0F
FD
1F
FD
0A
F3
0F
F4
17
11
FA
05
09
03
10
13
F5
ED
F7
FE
F7
FD
0E
05
F6
FB
11
0B
08
11
18
32
2A
2E
08
0E
1B
22
12
04
F9
0D
26
18
0D
11
0C
13
0E
FE
14
00
06
F2
0E
08
03
0C
13
10
06
3A
30
0F
02
06
1B
15
13
0A
F4
02
15
18
FA
F6
08
06
00
FA
0E
FE
20
1C
1B
1D
01
0A
02
0F
0D
0D
09
16
0F
F3
0D
09
E6
F3
EF
08
05
20
28
FB
F6
FD
07
02
31
17
1D
02
FE
F7
08
0D
0D
01
14
21
22
13
0B
0A
F3
F6
E4
E8
21
0F
03
FC
E7
F3
02
21
1D
28
FF
13
F7
EC
EC
F9
0F
23
32
2C
11
F9
E6
E7
E7
F3
F5
EC
F9
1E
F0
FF
03
F9
21
03
07
19
0F
01
D7
EE
E4
F6
13
04
25
16
EB
05
FB
00
F1
F4
EE
E0
03
EA
0C
F9
0A
07
00
15
15
09
15
10
ED
F3
DE
F9
0D
17
26
F6
03
04
F0
08
F9
F4
FA
F6
DD
06
08
12
0E
E3
E5
05
F8
24
0E
10
03
E3
F1
E6
15
29
15
16
0A
F2
03
00
0E
15
F4
FB
01
03
07
15
EA
EC
14
F3
12
1A
11
FE
EF
DA
F5
DE
1F
2C
1C
08
08
FE
1B
1E
21
0A
25
FA
E6
03
01
F0
04
13
20
F4
11
F7
09
05
03
FC
F6
EB
1A
09
1B
0B
0F
02
F5
13
14
1F
00
EF
FB
06
FF
F2
04
1D
1F
17
01
02
0E
FB
FF
F4
DA
EC
12
FE
FB
12
FC
04
03
F9
F5
FD
16
15
16
FB
04
FA
02
13
FE
03
10
06
E7
F6
EB
F6
03
01
12
06
08
0E
0A
05
FA
EC
EE
E5
E9
F2
0A
22
1C
ED
06
16
F4
08
FF
EB
03
03
ED
F8
0D
1F
F4
0F
F2
08
16
05
F8
0B
EA
F6
E5
FE
17
0E
06
ED
EE
FD
FA
15
07
EA
04
F3
FA
F2
08
0E
03
02
11
15
11
06
F2
14
EF
01
02
0A
16
03
01
06
0A
F6
E3
1B
11
12
EB
00
F8
09
0D
13
12
02
F2
07
FE
11
09
05
01
16
04
0D
24
24
16
14
EE
15
0F
03
07
FC
F3
F0
03
01
07
0C
F7
FB
0C
06
1C
F0
F9
13
F7
11
1A
FE
26
06
0F
12
08
10
04
EE
00
EF
17
13
11
21
09
FC
08
F7
1A
0E
FE
F8
EC
EE
F9
FD
FE
0F
18
0C
0D
ED
FD
27
FD
0A
03
08
01
F6
12
14
0C
02
FE
01
19
1C
0B
F9
03
06
07
18
1A
0A
FF
0F
00
0B
0C
16
0D
F2
F2
E8
09
FE
05
09
02
14
0E
07
13
14
0F
01
12
0D
18
06
FE
0D
16
ED
05
08
0B
07
F2
EF
02
F0
F8
0C
F3
F1
F8
F8
04
10
F9
03
10
F8
FB
EF
FF
F7
0B
FD
15
E9
DB
00
F3
06
0F
EC
FC
01
07
ED
F0
F3
F6
0F
EF
EE
EB
FB
14
09
00
F1
0E
0A
08
12
F5
F3
DE
0A
F2
03
15
15
05
F2
10
F8
F4
10
F0
FB
04
01
EB
EF
EF
1E
15
16
F5
F0
09
0E
FB
EA
FD
02
0C
F5
17
03
0A
F5
0F
0C
08
0F
F7
F8
E4
FE
FA
FC
02
06
F5
FB
17
ED
06
FD
F6
19
0D
0C
F5
13
E5
09
20
1F
18
00
FC
03
F8
F2
FA
01
F3
FC
0B
02
06
01
0B
ED
F4
10
13
09
EF
ED
FF
FB
16
0C
1F
09
1B
1A
19
14
10
11
16
1E
18
15
17
18
13
1A
01
F9
F9
09
FB
F7
EF
EC
0C
F5
F4
F3
E9
16
F8
FF
18
05
06
F3
F3
06
11
F7
F4
24
08
E9
03
F8
E2
F5
09
FE
F1
F8
F9
03
FD
FD
09
10
0E
03
0F
FD
F4
02
0F
25
F6
FE
01
03
FD
ED
0E
FE
04
ED
F8
F6
0D
FA
F7
EC
F2
F2
06
18
F4
07
1F
F7
FB
04
1C
F8
04
18
24
0C
0C
0D
25
12
1D
0F
F4
07
FE
12
FA
FE
1D
0D
FE
FC
01
05
FA
0E
1B
2F
30
08
04
FC
07
26
16
02
0D
0B
07
F1
FF
FB
FA
0D
FC
F3
04
0C
04
F4
0C
F3
09
0F
0D
FF
14
F0
15
02
F7
FF
12
04
0C
E9
03
08
F6
FE
11
EF
F1
FD
F3
F0
06
0E
00
F8
FC
05
F8
EA
E8
03
09
ED
FA
F1
EF
F5
DD
F1
09
EC
21
07
06
12
F6
F2
FA
F2
1B
F5
F0
EE
F9
FB
DC
D5
DC
E8
DC
08
F9
09
FB
FB
F6
F3
E0
F7
00
EF
F3
0C
F0
F7
F5
07
17
09
01
F9
F8
E6
D0
B1
D9
E7
F3
15
0F
15
15
05
F9
09
E9
DD
F7
07
DD
F1
F7
ED
E4
FC
1B
1E
FC
FC
C6
D3
B6
DA
E3
F3
0F
23
14
0F
0A
05
FE
0D
EE
EF
F9
03
E5
05
13
E8
FC
0D
18
1A
00
E5
D2
C7
DB
02
00
05
09
1D
11
0E
12
FB
10
12
09
E7
DD
F6
F7
0A
14
F5
23
05
0B
E8
EC
D9
E3
01
EE
18
06
0B
0D
07
F7
16
05
03
EC
18
F5
E0
F9
F5
03
F8
0A
E1
0C
07
0B
DE
DF
DC
FC
07
11
19
EC
E3
04
01
F1
F3
05
04
EF
F7
14
01
F8
1D
EB
07
1C
0F
10
F1
E5
E7
F4
EE
01
09
09
F3
FD
F3
ED
06
04
F2
11
F6
07
16
FF
1E
28
13
01
FD
F2
0A
E8
04
E5
FE
08
FD
FB
FA
F8
FC
F4
FF
F1
FE
FE
FE
0A
FF
E6
FB
14
F9
16
05
0B
13
EA
E8
E5
E4
01
01
0B
07
EE
16
00
01
16
11
02
FC
EF
F2
00
F0
F2
00
01
01
FA
0B
FA
08
00
EB
CF
EF
0E
0D
07
F6
17
16
0D
07
21
10
00
F4
03
E9
01
08
18
F6
E4
FA
F4
1D
F3
07
07
03
FD
18
2F
14
0B
02
F2
F8
0C
17
14
0C
06
FA
05
F5
FF
FF
F7
09
F9
13
F3
0F
FA
01
FA
FF
F2
08
09
1B
F9
0B
FF
14
0B
ED
F7
06
0A
04
0B
FB
E8
05
E2
FA
FB
F3
0D
01
0D
FB
F8
E6
10
1B
0D
0E
0E
0D
00
17
FE
04
02
F3
FA
16
06
FD
F2
01
FC
FA
09
F2
02
0F
28
02
E5
EF
0A
F9
0E
18
0A
0C
16
0F
F8
E0
ED
03
1A
1C
17
17
EC
E5
EA
E6
04
16
1B
0B
F5
08
FD
FE
E8
0C
F3
05
14
F4
0C
00
FA
0C
07
04
15
0A
16
F1
FA
F9
ED
0C
11
35
04
F7
F5
F2
00
01
F8
1E
FB
E9
E8
0D
F5
11
03
07
00
16
FC
01
F5
E9
D5
D4
FF
F9
FA
14
0A
EF
1A
04
FD
EC
F9
17
00
F7
FC
E5
11
EC
FC
EC
FA
FF
03
F7
00
E7
DE
D6
E2
01
0E
08
F9
F7
09
12
F0
F2
21
F8
E2
ED
0E
02
00
E3
04
ED
F3
EA
F4
E9
D7
EE
F6
EE
E4
F2
15
08
0E
F7
12
11
0D
04
0B
F4
F7
04
EE
FB
FB
04
EF
E7
E3
FB
D9
F4
E3
D2
D9
F3
F2
F5
01
0D
16
12
0A
EF
09
E3
FA
00
16
FB
EC
05
E3
EF
F5
14
09
04
F6
F1
ED
ED
EF
00
FA
F3
FB
1B
09
01
EE
04
F5
0E
FF
F9
04
06
EF
F8
09
03
F1
FA
F1
14
0E
FA
09
27
3D
04
F0
F6
15
08
0B
EC
13
14
F9
11
FC
22
1D
11
21
FB
25
06
15
10
1C
37
13
28
1A
2D
28
0F
13
F2
FC
F3
ED
F8
EE
11
F0
F9
0C
EB
E7
22
09
13
17
23
32
1E
04
2D
0D
F1
07
21
0F
FE
06
02
0F
14
14
FB
10
00
11
F4
F7
02
05
0C
10
F5
F4
F5
0E
12
FB
FB
0E
0B
04
02
01
08
FA
F6
0C
05
07
FE
ED
EB
0A
10
F8
0C
FC
F9
13
16
07
01
02
FB
F1
0D
1B
09
FC
FF
0A
0A
F2
16
09
EC
11
13
0D
F7
FE
FF
EC
0E
13
21
17
08
0A
EF
0E
F9
00
EB
F6
FD
EA
F6
ED
F9
07
FA
03
EF
12
02
F3
0A
0A
09
F3
14
11
1D
F1
17
FA
18
18
00
F0
11
04
F8
11
02
0A
F5
F9
00
02
0B
02
F3
05
ED
F9
F7
17
0E
0A
FB
FC
07
02
08
EF
04
F0
F6
0B
F8
09
08
EC
03
FD
11
F1
0B
F6
F4
06
F0
03
F4
F8
08
F0
0B
06
EB
03
F8
05
03
FB
0A
F4
02
F6
EA
EE
F8
0C
03
11
0E
F7
05
00
F7
06
EE
12
0A
FF
10
E9
06
F2
EE
F0
0F
EC
0C
0A
E7
06
0F
03
FE
EC
ED
F3
13
F0
11
FA
07
E5
F5
F1
01
0E
ED
FF
F7
F6
EF
F6
FB
EE
F9
0E
F5
0D
07
E5
E9
10
F4
15
1A
FF
0B
FB
0D
1A
FC
F1
F4
08
E6
E1
E6
0C
F1
F8
F5
03
09
FC
FC
F0
0A
F7
08
FA
06
0C
0D
F5
F7
05
13
06
F1
EF
F6
E8
FA
10
0C
EE
F3
F3
EF
EA
F8
0A
F9
FA
05
F5
FD
FF
EA
11
FB
11
1A
F5
01
0F
04
17
F9
EA
13
0B
FA
F5
02
F4
09
F8
0E
FC
03
FC
08
03
F0
EC
02
FA
0B
F0
27
0F
FA
FE
09
FE
FE
F7
0A
05
FA
F5
02
FE
EE
F4
04
0F
06
EB
EC
EE
F7
F0
03
EC
EA
3E
0D
12
07
FD
F7
03
16
EE
10
0A
EA
E7
FE
F3
EB
0B
F5
04
EF
F6
0A
03
10
F9
0A
EB
06
F9
24
08
FA
08
F7
EE
F8
0D
FA
01
F7
F9
EA
EE
02
E9
F5
F6
08
00
EB
FD
05
F2
FE
FB
E8
FA
0B
0D
0B
F3
0E
EF
0D
0E
11
F5
EE
EC
F6
0B
FD
FE
EB
F4
01
E6
0C
02
F5
F9
05
0D
08
E1
1C
FF
ED
00
E5
F6
FE
FB
EE
07
03
F2
08
EF
08
F2
F2
FB
EB
FF
0D
F5
00
F9
00
01
FC
FC
EB
0D
04
FB
EE
F3
F6
0A
F7
F7
05
08
00
F5
F1
0D
0C
F4
EF
F7
0F
0C
00
FC
0E
0F
F3
00
0A
1C
F7
08
E3
17
0D
FD
14
10
01
FC
ED
08
F4
E7
0F
EC
FF
00
EF
EB
06
0B
EC
02
05
F1
24
07
1C
0D
07
00
EF
0B
09
12
EB
0D
FB
0D
FE
03
01
F4
F7
E7
F0
EB
EC
EB
FE
F4
03
16
0C
FA
13
01
25
01
EC
FD
FA
FC
07
0E
FA
0F
05
FE
0B
E8
FE
01
0D
0E
08
EA
00
1B
13
0C
16
0D
13
E9
1C
18
F1
01
11
00
FF
EE
F0
FD
FE
04
06
F6
0A
06
F8
03
0A
E9
F1
FD
18
14
16
05
05
00
03
00
0A
09
F3
07
FB
0E
FA
07
0B
0E
EB
0A
F7
10
EA
FC
0B
FE
0A
FE
FB
21
06
05
F4
ED
E8
13
EE
0C
F3
FC
0F
FD
06
F3
04
06
10
0C
01
EA
F3
EF
07
04
0D
23
0B
05
F8
09
0F
F6
1A
17
FB
F3
0D
08
F0
EB
FF
FA
01
EA
0D
F7
00
F2
ED
FD
FD
15
06
0E
22
07
22
ED
F1
0A
06
FE
0D
FB
FD
10
F0
F8
FA
0C
EC
FA
FF
0F
F8
F9
14
0B
0A
03
FE
10
05
E1
06
0B
F8
ED
11
03
09
13
0A
EF
EF
13
F1
09
FD
F0
F3
02
F9
07
0D
0F
F6
07
03
18
35
F6
E3
09
F5
F1
F5
F0
14
1A
1D
0A
03
03
15
F4
1B
2E
18
0B
09
15
10
F8
0A
13
10
08
0A
11
EB
0B
FA
F5
05
F2
F6
10
FA
22
22
10
09
00
08
FE
01
0E
F0
EB
1C
F9
13
EC
0A
05
0E
F6
01
FC
F3
12
0A
11
F2
FB
FA
F3
09
F0
F1
FD
ED
23
0B
09
14
12
0F
F7
0A
02
F7
EF
F5
03
ED
FE
0E
F9
13
EF
0D
01
FE
06
F9
FF
F6
FB
E5
E2
18
E3
EF
D6
FA
F9
FA
05
F9
0B
0F
07
0E
ED
0F
FA
EA
09
E7
0D
F7
ED
1F
29
01
0E
F9
E5
0F
FA
03
07
0C
0A
07
07
F0
F5
00
FB
EE
01
06
FB
F1
E3
E3
F7
14
FD
11
F5
06
25
10
FA
F4
0C
FE
F5
02
F3
EE
0D
15
FC
FF
0A
EE
09
F7
F9
F0
02
F4
FC
E6
10
DD
F8
FF
F7
FF
E2
E9
F4
11
07
E6
F6
F7
FC
F7
F7
01
0F
01
F5
13
0D
0F
EE
D2
EC
CE
ED
F0
E1
EE
EB
10
11
EF
0B
F2
FA
D9
EC
D7
CF
F0
EB
EC
0A
00
04
12
F6
F6
FD
F8
FF
ED
E7
D7
F3
11
F2
0B
05
FE
FD
DD
E2
EB
E1
D8
FE
F7
05
08
E6
F2
F4
07
F6
12
03
F2
06
0D
E1
F3
ED
F5
0F
19
F9
07
F1
0A
E6
02
F5
05
01
1F
00
F4
02
0F
F3
EE
FB
0F
F8
F5
0B
FC
F1
F3
0D
ED
F2
E9
F8
10
EB
F7
04
08
07
0D
11
29
21
FC
11
F0
EF
11
FB
EC
F0
F0
0C
10
01
FE
F5
FF
23
10
0F
FE
05
F9
21
28
2A
31
12
0B
18
0C
F8
F8
0C
F1
F0
20
00
E7
F8
F1
F6
EF
0C
11
1A
05
0A
05
13
18
20
23
12
26
1F
1B
0C
FC
1C
07
E1
11
09
12
F9
EA
EA
F9
04
02
01
16
15
15
1B
F0
EE
F2
FE
F7
FF
06
FA
F6
0A
08
1E
04
F6
11
EF
F9
EE
F9
EB
0C
16
06
FA
2F
22
14
0B
02
F0
E7
EA
F3
FD
E9
E1
F8
C6
D1
0C
08
11
03
E3
F6
FD
FA
07
15
0B
09
1C
16
2C
00
F9
0B
ED
0A
F0
ED
F8
05
F0
D3
B6
DB
D3
FA
FC
03
DE
07
E2
FB
11
F8
1D
03
27
05
0D
04
F5
09
01
06
06
EC
EA
EC
D3
DC
E2
E3
EA
F1
15
01
F8
F2
FE
F9
0D
09
1A
0A
13
FB
03
EF
FE
FE
F7
F8
0B
19
EE
D7
F1
DD
E0
EA
F8
1B
14
14
09
FD
E4
E4
18
15
FC
F8
FE
E5
E4
EE
EB
0A
F9
09
EA
FF
EF
F1
F4
EC
FA
05
1D
08
E8
F8
0D
FB
FD
04
12
1E
13
ED
FE
EC
F7
EC
F6
FA
0B
0E
F2
ED
FB
1B
08
08
07
1D
16
00
02
FC
F5
E9
07
0C
06
01
17
00
0C
0B
0E
0A
F3
FF
0B
F5
05
09
08
1E
1B
23
39
44
1E
16
1A
02
0F
06
09
05
00
04
09
FA
F1
E2
FC
05
ED
06
03
EE
F9
FC
17
FE
04
06
08
FE
05
10
05
08
F0
E6
E5
E0
F9
E3
D8
E5
FD
05
06
F5
FC
EB
F0
FA
EF
08
05
F9
03
05
EE
F1
03
0C
0D
08
EF
03
ED
DC
D6
E8
E5
03
F6
F1
E7
F7
F8
F1
DD
F2
F1
02
E7
F0
E0
F0
D8
05
F7
F5
05
FE
03
F6
D6
DA
ED
D6
F7
0E
11
E8
F6
FF
08
07
05
F3
F9
FA
F0
F6
EA
0C
DC
FB
F9
F7
F6
ED
07
0D
ED
EC
0E
EF
F2
F4
FC
1C
13
05
F0
EF
F0
FE
E9
E1
FE
0C
0B
09
F0
F3
FC
28
FD
0D
01
07
FB
05
10
0C
0B
01
1F
03
F4
01
F9
F4
09
04
FF
05
0E
F4
17
09
FF
FA
0C
10
08
F3
FA
EC
FA
22
04
F2
0F
EE
FF
F4
01
F4
FB
14
02
11
11
07
F1
EE
00
05
09
F8
01
17
F5
06
F9
0B
06
FE
03
FB
EE
F7
E4
E0
DB
DE
EA
03
12
0B
E9
E6
F9
09
FC
17
06
F1
1C
EE
F0
01
EE
FE
F7
14
04
0D
18
F2
18
06
F8
DD
E5
FD
E1
06
E2
C6
E4
02
09
FF
01
F9
F3
0F
10
F7
F8
09
EC
F0
F4
07
EE
0A
02
13
F5
03
00
F7
05
F5
EE
04
EF
02
F7
EB
EC
FA
0A
FF
ED
FB
11
F2
F4
F2
14
F1
FB
12
04
E9
01
11
0B
25
FF
FD
0C
FB
F6
E5
DE
E1
04
0F
F6
F0
0B
02
F8
04
03
F6
0A
08
1D
F8
0B
F7
F3
D9
DD
FE
F6
EA
DF
FD
03
E7
ED
F0
07
F2
01
F1
F5
0C
F4
FC
F5
02
05
EC
11
EE
ED
D6
C4
AE
B8
C7
D5
F2
E8
F8
F9
E2
F5
E3
F0
03
D7
03
ED
FB
14
FB
FA
EB
E2
EA
D1
DE
03
02
02
1C
14
0F
FD
F8
E4
02
ED
F7
0E
FD
13
08
E4
2D
F4
ED
FC
FD
1B
F5
D8
EC
E7
F2
FA
1B
FF
09
04
FB
E8
ED
FC
06
EF
E0
F4
1E
06
F0
0E
F9
E0
F7
13
EC
04
F5
E5
CD
E4
E2
ED
EA
F2
29
00
F6
E2
E9
ED
F8
F1
FD
04
1A
15
F9
ED
02
F6
F9
ED
05
0D
14
15
F5
03
FE
0E
08
10
13
0E
F4
FA
E1
E8
0C
F8
FE
18
05
0F
F5
FA
FC
F5
06
F9
F9
13
08
0C
F9
E7
F2
F8
FD
1B
09
0F
F3
E3
EF
0A
F4
F9
FB
FC
12
06
02
F2
FB
09
F8
F1
03
F9
F5
FF
FD
06
F5
02
04
0C
0E
19
FC
E5
E6
F5
14
F8
16
08
FF
EC
05
E3
09
EA
00
FA
E7
07
09
F8
F2
FB
03
03
FC
21
15
18
0A
E3
D8
03
0F
10
EB
04
08
12
22
EC
0C
13
13
03
08
11
E3
06
1C
2E
F7
13
F8
05
01
1C
18
06
FD
02
05
F1
E5
16
FD
FE
01
ED
15
12
06
09
EB
01
F0
F0
06
1E
02
0A
06
0F
0D
24
0F
01
E9
FD
F1
16
02
17
1B
28
FF
FA
E8
0D
F4
FC
05
10
EB
0B
E9
08
F3
F9
F6
10
0C
1F
02
F5
FA
F1
0A
FA
08
F7
12
12
10
01
09
11
19
07
FF
E1
F1
08
E6
07
FE
EC
F4
0A
0B
0E
F9
0F
00
08
F2
ED
F4
01
F8
F9
18
00
12
08
03
0E
F7
DB
FA
06
E1
FD
EE
F9
13
17
11
05
EC
FB
F4
FF
0D
E7
FC
FB
F5
07
31
FE
E7
03
08
EA
ED
EF
E1
E4
FF
05
F9
FA
21
28
1E
00
F1
05
EE
02
F0
10
FA
F7
FE
0F
10
F1
21
1B
FF
09
F7
E5
E6
09
E7
FA
F8
1F
1C
09
07
04
FB
EF
11
F9
F1
FE
0B
FF
F7
0A
19
E3
28
1C
FE
FB
05
EA
F5
F7
ED
F5
0A
0F
29
09
14
D9
FC
07
08
EF
0A
F9
03
F2
F2
F2
1A
0F
0A
0A
00
0A
EA
EF
E6
03
FD
17
14
1B
2C
27
03
DF
FC
05
F1
DB
EF
F4
FD
ED
EA
0A
FD
FF
22
E4
01
1D
F2
F6
D7
03
F6
12
11
18
0E
18
E8
F8
02
F7
E0
F5
D6
F5
EA
E8
FF
F5
E5
DD
17
11
0C
0B
FA
EA
D3
01
F3
0B
02
02
FB
FE
EC
EE
F9
F9
F7
EE
FA
F0
EE
E3
E5
E1
E8
D6
08
04
0A
08
01
04
F7
0D
FD
F9
F6
FF
00
FE
F2
FE
F6
18
ED
FF
FE
0D
17
09
F0
E4
F9
FD
EA
12
FE
FA
F5
F0
E6
FE
FD
F9
FB
1B
0D
01
19
15
0B
03
0C
13
FF
11
1A
F4
FF
EF
F2
12
E7
0D
0F
F1
0D
EC
DF
E3
D5
F7
EF
11
0C
1B
1E
06
FB
F4
F3
ED
E6
08
0D
F4
FC
F5
00
1D
F2
08
10
F3
F7
EC
CA
D1
C3
D8
CF
07
F6
F6
EE
FD
0D
F4
FB
E0
DE
CE
FB
F9
F3
0D
DB
FB
F6
ED
ED
07
FA
FF
F1
F7
F4
C9
E2
DE
FF
F9
F7
F8
C7
DC
EB
F4
D8
F3
DA
FB
03
0E
03
05
00
14
01
07
0A
0E
F5
14
D8
DC
E4
EF
EA
F2
F1
F8
FA
05
F8
EA
ED
10
F8
FD
07
1F
F2
01
ED
0A
FD
F9
03
00
09
F1
F1
F2
0D
F4
0E
09
E3
E3
EC
0C
10
05
05
0C
0B
F2
03
EE
F3
F6
EC
09
09
FE
0B
15
02
08
F3
FF
08
EB
F2
FF
F4
11
11
FE
E2
D5
14
05
FC
E9
E8
EF
08
0A
F3
F3
EE
ED
F6
F6
FE
F7
02
FE
FE
FE
F4
00
07
EE
00
F3
EC
ED
0A
0A
F7
E5
F9
F9
0C
0D
EE
06
02
01
20
17
05
F9
FA
F2
0D
F8
F0
06
FE
00
11
0A
19
F7
16
E7
13
E1
EA
D4
03
E8
06
FA
0A
1E
04
05
13
F9
FA
12
EC
02
09
04
07
E8
12
ED
07
F7
09
F0
E5
D9
FD
D1
EE
FB
13
ED
03
FE
FB
0B
01
22
0C
13
F1
FD
F5
FD
EA
0B
F6
F5
EE
F8
00
EC
00
DF
FA
E0
F9
0B
FA
12
11
E1
18
08
1C
29
0B
FB
FA
02
1A
1D
F9
03
F9
F3
00
F3
F9
11
F6
FC
F7
04
07
10
25
12
0A
03
1A
10
1D
1E
12
F1
10
01
FD
03
0A
0C
FD
0A
1B
04
0B
00
10
0D
11
08
08
F3
23
04
E8
0D
12
09
F4
F2
F8
E4
02
F6
0C
08
FD
16
0B
1E
16
14
1E
13
08
17
10
00
F4
F2
01
EB
12
04
10
F6
08
05
FE
ED
01
E5
EA
0A
06
23
0B
07
18
0B
27
FA
12
EC
17
05
EB
14
F5
0E
F2
E9
22
F6
0C
0F
E5
F9
DE
E3
F1
F7
05
08
0F
18
1F
0C
1B
0E
FA
05
07
F3
EA
16
F2
13
17
0F
04
FC
EA
EB
E8
0A
FA
FD
F4
0B
20
FA
F9
F8
0A
08
00
FA
02
E8
EB
F3
F4
F9
EB
02
10
FF
09
06
17
03
FD
F8
F6
F9
0F
17
1D
00
0C
F5
F7
14
09
10
E2
F4
FB
EF
FE
02
06
12
F3
17
01
FC
08
FA
0F
0C
15
0C
1B
1A
15
FF
F3
F9
03
FE
F4
0E
F1
EF
08
F3
06
F9
F4
EC
F8
F9
FF
FF
20
0A
1A
EC
F1
F7
04
FD
FA
FE
01
01
0A
04
16
F6
F9
1C
17
FB
07
F8
06
E8
F5
15
10
FF
10
0C
01
E3
FB
05
F4
FE
0A
F8
F2
F1
F0
FF
0F
F3
08
0D
17
1D
04
FE
F7
EC
10
15
FB
FE
0D
16
FC
F0
E0
E0
DC
FB
0A
E7
05
F8
02
0B
FE
0D
15
FB
22
07
F0
C7
FE
13
FF
1A
FB
05
20
00
FD
F7
04
E9
E7
DE
FB
E7
02
04
F3
09
FD
11
0E
07
0F
1E
F3
F0
E4
0C
ED
FA
06
07
19
06
22
17
FE
EA
E5
F3
E9
00
03
0E
0A
04
F6
00
14
09
21
05
F8
DF
13
EF
0C
2C
0E
2E
07
04
12
FF
FC
F7
FC
FD
08
F8
19
02
EF
EF
E9
FA
F5
09
E7
F4
F9
E9
F0
00
EF
04
EE
1A
FD
FB
01
0A
FF
F7
EF
09
F8
02
03
04
07
F7
F7
F0
FA
07
EC
EB
EA
15
F9
F4
10
E7
04
0F
13
EC
07
EA
E5
07
E7
F4
FB
E4
10
04
01
00
F8
F3
F0
EA
00
E5
0C
19
E7
04
FF
13
06
FF
EE
00
F2
EF
03
01
07
FE
09
0C
F5
01
FF
F1
F6
EA
FC
F5
E8
E7
E0
F3
EE
F9
04
0E
F1
24
0A
0B
EE
F2
00
EF
12
F8
F6
0C
19
16
EC
F9
F6
F5
DE
DC
E1
FE
07
F8
0B
EF
F9
0E
FB
2D
37
22
09
00
18
11
06
15
1F
07
24
F8
10
04
EF
ED
E8
FD
FB
F1
F3
00
19
EC
FD
FD
07
F7
2B
28
25
1D
38
37
1F
27
1F
16
0E
FD
E9
D8
DD
D9
08
0E
23
FF
FC
FA
FA
F6
0B
00
F1
10
F3
FF
06
25
10
FF
FE
12
19
0C
07
F3
E7
E8
F8
F1
12
23
EF
E6
06
F5
03
EC
F2
F7
0E
FD
F9
09
18
10
06
FA
FE
05
01
FA
F9
05
FF
EE
EA
E8
E4
0C
FA
FE
0A
FC
09
04
EE
0C
FE
0F
07
F3
04
F6
EE
08
F4
11
06
07
14
09
13
EF
0D
EC
EF
00
EE
06
07
04
15
0E
10
01
EE
F1
16
0C
FE
03
F4
20
08
08
21
0F
F4
E7
E2
0E
15
0D
05
05
22
15
07
08
FB
04
02
0A
F9
15
18
F0
FF
10
06
1B
0E
17
14
FE
13
10
05
18
0A
F6
12
01
09
F7
13
02
02
05
13
04
EA
14
0A
07
15
18
17
29
11
31
01
17
FF
F4
FB
10
F7
EF
15
1A
FA
05
09
0D
1B
14
FE
01
01
F8
F7
00
18
23
07
19
11
34
19
17
0C
0A
10
ED
EF
15
F7
EE
FF
FA
ED
F6
02
01
FD
F0
FF
0B
0C
17
2E
0F
2D
1D
14
0C
05
1E
07
FE
21
28
11
13
FA
0E
F3
FF
0E
05
E7
EA
0B
09
E3
F6
F9
FB
2F
04
2B
20
03
F3
0C
08
F8
0D
F2
F5
1B
04
EC
08
FA
08
DE
E7
DD
F9
0D
01
FC
06
07
15
1B
FD
13
0F
07
DF
EF
EA
F0
03
03
ED
F6
FE
02
EE
08
FA
05
05
FB
EC
1D
F9
03
FF
10
FC
FE
FD
0E
FD
06
D9
E8
E7
06
ED
FA
01
FD
EF
F1
07
02
FB
EA
E2
E6
F7
F3
18
FB
14
FB
1A
F4
04
FE
F8
E6
01
F4
E3
FE
F3
0C
0B
F7
FC
F9
EC
0F
F5
DE
E9
CD
FE
10
0F
1C
04
F5
19
F5
EC
F4
E6
EA
EA
01
EF
F2
E6
09
F6
04
FB
ED
0E
E9
E4
E0
E3
E3
F8
FC
10
1A
02
E3
01
EE
E9
FE
DE
ED
F9
09
0F
E6
F3
E8
F5
FB
EC
E9
EA
EB
E4
F0
FA
E4
09
04
08
08
FD
F2
FB
D2
F5
F4
F8
00
FE
16
0E
FD
E9
FC
01
FB
11
0C
FA
0B
09
18
16
15
0B
F8
FF
11
00
01
ED
FF
FF
F8
F2
06
F6
FA
06
FD
FC
FE
FE
04
02
ED
01
11
26
20
07
14
08
1B
E9
05
FD
1F
F9
08
12
F5
F4
0F
FA
09
EB
F6
F0
EF
00
FA
F9
1A
F7
0E
20
11
07
06
12
12
09
F3
0E
15
08
FB
19
04
18
15
11
06
F6
E7
EC
0C
FD
1B
15
11
00
19
05
29
1C
09
0B
01
12
FF
24
18
15
1F
14
07
FF
09
F9
EF
FE
E4
0A
04
0A
0F
27
17
0F
16
11
22
1F
F5
0F
F4
ED
F6
16
17
24
02
1D
02
02
00
15
F7
FE
E3
F5
03
16
1A
03
08
FF
0C
29
39
27
17
0E
20
F0
E3
09
0D
23
0B
11
26
24
11
1A
15
10
E9
FE
1D
0B
1D
11
F6
FB
26
25
3E
07
07
F2
FD
F0
F2
17
22
1F
00
1E
F6
0F
12
26
14
0B
08
08
00
0B
09
F2
08
EF
18
1F
20
DE
F9
E2
02
0E
F8
23
22
0A
1E
F7
F9
FA
1D
1F
0D
F6
FD
FC
F6
0F
10
F4
0C
0E
1C
23
0C
F9
EB
FB
FC
F5
25
23
0B
FE
FF
16
F6
00
FF
09
05
1A
F8
0F
1E
0C
FF
FF
07
EC
08
2E
1C
FB
FA
08
09
02
0C
03
0B
EC
00
07
FE
06
FF
03
1C
1D
F3
04
1B
0E
F4
08
0B
28
36
23
11
F5
00
1A
FD
01
0B
25
02
F2
F6
11
03
FD
01
0A
06
FE
15
06
06
EE
FE
07
FD
1B
33
09
FC
02
FF
ED
FE
FC
13
FB
0B
F1
E9
EC
FF
0E
FB
F9
0D
EA
02
F1
ED
F1
F9
E2
FA
18
07
F8
18
0B
FE
14
EE
0C
19
21
08
02
19
10
09
FC
F6
F8
E5
DC
EA
D1
CB
DB
DB
F2
04
E9
09
F3
DA
FD
03
11
09
F1
09
0F
07
F0
0E
F2
F1
FC
E4
D0
EE
DC
D9
E1
D8
FB
E4
F0
01
FA
03
21
F2
09
07
01
04
F1
F1
01
FC
09
0A
F3
F0
EE
F2
FC
EA
03
EF
E7
F7
0C
00
08
FC
17
10
1C
F7
FB
F9
00
14
FE
12
FA
12
0F
F8
FD
F5
F5
12
F9
FC
15
FF
FE
07
0C
06
EE
F3
FF
06
0E
01
10
0C
0A
EF
FC
FA
03
F0
FF
EE
06
EB
F8
06
FD
ED
FB
05
FC
FE
03
00
18
FF
01
ED
E4
ED
FD
0E
00
F3
13
F3
F5
E9
F7
FD
0A
04
DB
F7
E6
ED
23
16
29
0F
F1
06
EC
03
EB
ED
06
F5
0C
0E
FD
00
02
05
01
03
01
FD
EB
F0
F8
FA
EF
F3
F0
12
FC
12
0D
04
F8
1B
1F
03
17
0A
15
EA
EE
00
FB
FC
10
17
02
2D
09
08
FA
09
F5
F7
13
04
15
FE
E9
04
06
24
20
27
24
1A
11
FE
0A
0E
11
17
00
03
13
1C
17
F7
FA
FD
FE
0A
21
FC
07
00
EF
E3
F3
F1
F1
06
25
1D
01
FF
11
FD
16
03
09
12
1B
04
15
1A
01
F4
0E
FD
FC
0E
F1
FE
E4
F9
E7
EB
E1
ED
09
0C
00
FD
1B
F0
0E
06
10
00
FF
1E
14
01
E9
01
0D
05
1E
F9
FE
E2
F4
E8
FA
E8
E9
FA
FF
E8
ED
19
FA
26
05
04
0F
EE
13
01
03
04
06
08
E3
F5
0B
12
03
FC
EB
E2
ED
FC
F7
F6
F8
E5
FB
09
FC
F7
08
EE
0A
EE
E9
F7
01
F1
F6
02
03
18
18
1A
F8
FD
E3
E3
0B
00
E7
07
0C
DD
FF
06
04
F6
F7
04
F1
E5
F7
E9
E5
E9
E8
ED
01
10
0D
17
02
E5
EA
01
E8
06
E3
E6
E7
E5
07
DC
03
0D
0A
FB
10
0A
ED
E0
E6
FB
F6
04
09
20
06
F5
ED
EE
F5
EF
F4
F0
03
EF
ED
E1
EC
DC
F1
F4
11
F3
14
F7
E5
E4
0C
FD
FA
12
1B
05
0E
13
04
FA
0B
EF
12
00
0D
E7
E8
CD
F6
08
FE
12
0F
02
0B
0B
05
FF
01
11
12
24
FB
17
ED
F3
02
09
FF
06
11
0E
FB
FB
D8
DF
03
E2
EA
0A
F4
F9
01
16
07
00
03
17
05
12
F8
FF
FB
14
14
05
0E
FA
1C
0F
FC
13
F7
E0
ED
F1
F0
1D
FD
15
16
19
FC
06
1C
10
1F
12
F9
11
0C
02
0F
0C
06
FC
14
11
11
17
00
EE
FC
F0
07
01
11
02
1D
FA
EF
FF
01
17
0F
FE
00
10
FB
19
0F
06
0D
05
24
22
1A
24
FD
F9
01
10
0E
12
0D
07
00
FF
04
FF
17
19
14
F1
FF
F0
0C
FE
0C
04
F7
E9
11
F7
0E
18
ED
09
0F
0B
FF
FB
02
0F
01
F4
E4
E6
F5
F6
F9
FD
F3
15
F9
13
F5
01
E1
05
E4
F8
FE
01
D5
EF
E9
08
13
F3
FC
0D
1C
0D
F9
F6
E3
FC
FB
DF
EF
01
05
F8
08
EB
DF
F3
EC
01
07
F0
DF
EB
EE
02
10
FC
E9
FA
FA
EC
E0
F9
E3
F8
F4
EC
EE
08
0E
0D
F5
EC
E8
06
E0
EA
03
F3
DC
D3
E6
0A
F7
F2
FC
F9
ED
FE
E6
D3
C4
E2
F1
F1
FC
F1
FA
0B
03
FD
FC
FB
FE
E7
03
DB
05
F9
DB
08
EF
05
EF
05
11
02
E5
E0
DC
FD
F9
F1
F9
EF
0A
EC
01
17
F2
E8
00
DE
DF
F2
EF
F2
DE
09
11
03
FD
12
F9
1C
FB
F5
08
F2
0C
10
14
06
FD
04
F0
F3
F1
07
FD
F3
E1
E8
F9
FB
F9
FA
F1
02
12
02
0D
1E
05
0B
2A
20
05
10
FB
EB
0D
07
07
06
F5
F2
09
0B
F5
DF
EB
03
FB
1C
07
F6
F2
09
07
06
0A
04
20
14
19
18
05
11
FA
05
F3
08
F0
01
EB
F7
E5
E4
05
07
EC
EE
06
10
F5
0C
02
ED
F6
FC
F0
1B
0C
18
F6
FE
FA
FE
EE
E9
DD
F4
F7
FA
FD
EF
05
F4
1B
0A
0B
0D
14
FB
F1
FA
F2
1B
04
0F
FC
0C
EE
00
06
F3
F7
0A
FC
F0
03
0A
23
29
0F
02
09
09
FB
F6
F2
06
F0
F0
03
12
06
F4
ED
FA
01
1F
0D
EC
00
00
0F
05
0E
0E
F3
EE
0D
0E
0C
04
EC
07
FB
01
0A
0D
02
F3
11
08
18
FC
1A
18
11
E5
04
08
0C
15
00
0A
2B
30
FF
0E
F1
ED
ED
EC
11
00
19
0E
F8
00
0D
02
22
16
18
0C
FE
F9
F3
0C
0C
11
04
F3
03
16
1F
FF
06
F3
F5
04
FF
15
1E
06
13
09
F8
0F
E9
01
05
EB
ED
04
13
15
0D
FB
09
10
0E
F2
0B
E2
0A
E3
07
09
04
01
00
16
17
0D
F0
0C
F7
09
06
E8
FE
14
FB
FF
02
0A
08
01
F4
EB
FC
E2
ED
F3
FD
02
08
01
F1
1A
05
17
16
07
F0
EC
06
17
F0
0C
09
06
F9
F7
02
F0
F5
CC
DC
EE
F6
F9
F8
FE
F6
EA
09
1B
12
F3
00
E4
F9
FE
05
08
07
0A
FE
0D
02
09
F1
FC
F3
E6
E0
D8
D5
EF
ED
FD
F9
F9
F9
F8
E4
E2
D9
ED
03
FA
FF
EB
0B
19
12
08
FD
FC
FA
E7
FC
D8
E9
E2
E4
F6
DD
DC
14
E0
EE
E5
E8
01
FE
05
09
F5
0E
08
11
FF
11
F5
EC
F9
ED
FC
FD
02
01
D2
E3
F7
0C
14
07
EC
E0
02
0D
02
EE
01
05
FB
09
12
FD
1A
12
ED
F9
F8
FE
0E
F8
F8
F4
F2
E8
CB
FC
19
EE
FB
08
FC
01
04
FC
F4
0C
02
F0
09
09
F3
04
F2
04
03
F9
ED
FA
10
06
D9
EC
CF
0B
1A
FA
19
12
EB
F9
03
F6
11
0A
07
02
0B
06
05
F7
05
F3
09
0B
14
0E
01
F1
F6
C6
CE
FE
0B
F6
0F
20
0A
F8
0C
FE
09
01
15
06
04
FF
FC
F7
10
F5
09
01
F3
0B
1C
07
19
D6
DB
E9
06
FD
F9
FE
00
2A
17
10
16
0E
07
FF
E5
DC
EB
07
0D
04
FA
08
07
03
17
0D
F1
D5
E0
06
EB
11
15
0B
02
05
14
1A
09
01
0D
ED
EC
E0
09
F3
E8
EB
03
ED
08
19
0F
2A
14
DC
FC
08
04
02
E4
01
06
04
F4
04
0A
08
0C
DE
E7
F3
E0
E0
E7
05
00
F4
09
FF
1A
05
04
F5
ED
F8
17
12
11
F3
03
13
F8
00
22
07
03
F2
F8
F9
04
D3
DF
08
04
09
12
F0
FA
FB
F8
10
F5
EA
FD
F8
F5
E3
F4
06
ED
05
0D
0A
04
F3
FC
FB
E9
E9
FA
0C
FD
17
01
0B
0E
03
F1
0E
F4
F4
FA
00
00
E4
00
F3
00
0F
03
0F
1E
20
FC
FA
FD
F6
06
07
11
FE
0F
0F
FF
FD
F0
F7
00
0B
03
07
1B
EE
DE
ED
EA
F7
00
16
07
14
18
ED
FF
EE
FF
1A
1E
22
FB
EA
E6
DE
01
00
EC
F9
EC
28
09
E9
DF
E2
F2
E8
16
FF
12
12
09
ED
10
0F
18
0B
06
F1
FD
FA
FA
F4
FF
FE
11
09
F3
00
F5
E8
E8
EB
EA
EF
F9
F2
F9
F0
02
08
FE
0F
18
0D
FC
02
E9
E2
F4
E6
01
00
03
09
FF
F5
F7
E3
E3
E4
FE
F2
E8
15
EF
FF
EE
FA
FF
01
05
F5
F8
F3
0A
01
F0
0B
EB
E4
01
10
F6
F2
EA
F1
F6
F4
F2
F3
EB
E8
FB
EE
FE
F9
1E
03
F9
F2
F7
08
F1
E7
FC
10
FD
F5
04
FA
F3
FF
0B
06
FE
F6
0B
02
E4
F0
E6
E1
E1
E8
ED
05
12
13
10
08
12
2C
07
24
0E
F6
0A
14
13
F9
DE
08
0D
22
17
14
06
EA
08
FD
EB
F8
FC
11
0F
F2
04
12
0C
1A
03
03
13
F7
F7
FE
13
03
FE
0F
F5
FE
05
FA
FE
0B
05
D5
F5
FD
12
FF
08
09
F2
FA
FC
10
09
09
0C
00
FB
F9
03
08
F8
F2
01
FD
0C
F5
08
0F
EF
E7
00
FF
13
19
0E
0B
03
E7
EB
F0
1A
E7
14
F3
ED
F0
0C
09
F6
F3
00
F4
FC
F8
0A
02
F3
08
F8
E1
13
F0
01
F0
EC
F5
14
0C
FF
01
FF
F8
F5
08
0D
15
F8
0B
FA
EE
ED
F8
E6
E0
DE
F4
E3
E5
D9
CD
D1
DE
ED
06
07
FA
DC
EB
0A
04
10
11
0E
11
F1
EE
DF
F2
F9
F2
DC
E2
F6
E8
F4
FE
11
1E
FB
15
35
09
0A
03
11
E5
F7
0E
0E
13
05
F7
02
05
E8
08
FF
F2
E0
F1
E6
E9
F7
02
F3
06
F4
02
01
EF
0B
0C
22
14
19
FF
E8
0A
FA
EE
06
07
ED
02
DF
15
FC
ED
F9
FA
23
09
F0
08
0B
F2
0F
04
20
22
2F
26
31
3C
23
03
04
F7
F9
FE
E9
E9
0B
E5
F5
E8
0A
F9
E0
E6
CD
DE
FC
03
17
1C
F8
FA
FF
24
3D
27
2A
1A
02
EF
0E
0E
07
08
14
FE
FC
FB
E7
E2
DD
EC
EA
E9
F5
17
0C
20
0C
FD
05
FF
18
1A
22
03
F7
35
13
20
21
FF
24
22
0D
04
00
F4
F1
C9
DB
E5
FA
10
03
14
08
02
09
EB
F2
16
02
F5
01
F8
38
F7
27
13
28
06
15
1E
FA
EC
E1
E7
D9
DD
F4
F9
F1
F9
05
F2
F9
12
14
17
CA
F5
13
2A
05
0D
FD
05
06
02
17
0E
07
14
ED
D6
DD
EF
09
04
0A
07
FF
10
F3
FC
0C
02
E6
EA
1F
4A
29
F5
13
0D
0F
0E
07
0A
31
1F
0E
D9
D2
DA
02
0B
F4
EE
F3
05
0C
F4
FB
03
1A
FD
1D
1B
04
FA
10
F3
0B
F3
04
26
1E
23
0A
D4
F3
E6
0C
F0
07
F9
11
E6
FC
E1
D4
FD
04
1B
13
0F
13
06
FC
00
16
03
00
2D
29
26
FF
CB
E4
03
02
FD
F8
1B
03
04
0E
D3
F4
06
0D
00
FE
15
1C
FE
F1
13
FE
0E
06
23
2D
12
FC
E1
EC
F4
FE
1C
12
08
18
1B
0C
FF
F5
FD
F1
FC
FE
1F
1B
F3
0C
FC
00
FE
17
17
22
F2
F0
EF
EB
F3
F9
0F
23
12
FF
07
0A
10
1C
E8
FC
06
1C
07
0D
07
06
19
14
05
18
15
08
FD
F8
F8
06
06
EE
04
00
FA
06
0A
FC
11
F1
D9
F9
FF
F8
F8
FD
F9
EE
F4
10
0D
0F
F3
EF
D4
D1
DA
05
13
F9
13
EC
E6
FF
02
1F
09
15
FB
E3
00
01
06
11
0F
1A
FB
1D
0B
13
FC
E1
E7
D3
E6
0D
0F
1B
04
FD
09
EE
00
FF
1D
FA
10
F3
ED
EB
14
1C
06
1F
10
0F
F6
03
FA
F9
CB
CC
FB
15
00
18
F5
0D
06
ED
F8
05
F3
0C
F9
08
FB
FF
07
1F
20
01
12
E4
EB
F7
F1
D3
B8
C7
03
17
08
ED
0A
0F
F1
FD
FB
09
EB
F8
F2
09
0A
F5
E8
15
14
F2
FD
03
ED
E6
DE
ED
F7
F3
ED
0F
F6
0D
FD
02
07
0C
04
0D
08
FF
FD
10
06
01
FF
0A
0A
F1
F7
ED
E8
F9
DB
E2
F8
EB
0B
0A
FA
F3
07
03
0A
00
13
0D
03
27
F6
1C
F3
F7
13
FA
05
0D
F4
DC
EB
BC
DB
DD
DB
FD
F9
F3
16
16
07
1A
19
24
1A
0D
F9
02
00
0E
F8
EF
FB
F1
09
FD
FB
04
DA
DE
FD
EB
E0
FE
10
FB
FD
07
F4
13
16
12
0E
FE
E6
FD
0F
0D
F9
09
EE
16
0B
0F
FD
E6
EC
E2
E0
EF
E6
EC
00
01
12
05
F3
0F
02
0A
06
06
03
EC
DD
F1
10
01
FA
F2
08
FF
09
F8
09
09
E8
02
00
F4
06
03
F1
09
0B
EE
F1
01
E9
0B
FF
E7
0A
F4
07
00
EE
02
F4
E4
E7
E6
04
EF
0D
E6
F7
F4
05
E6
F4
FE
F5
EC
E8
FD
0E
EF
CE
F2
09
F5
F1
0F
F2
11
0D
FC
F8
EE
ED
05
FE
FA
FC
FD
03
F0
E9
02
1F
0C
E3
06
05
05
18
F4
FB
ED
FE
