FF
FC
FF
ED
FA
12
F1
09
09
FE
F5
F1
09
E9
08
13
00
00
08
F6
FA
0C
05
0D
FC
EB
0E
F5
0F
0B
08
EF
09
F2
E5
EC
E1
E6
F3
EC
FB
13
10
F5
02
F0
04
10
FD
F6
F8
03
F2
FF
0D
0B
F0
09
0C
F6
10
09
E8
DC
EE
DF
E4
E0
FB
EB
EC
EE
F2
0F
E6
F0
03
F9
F6
E8
0A
EF
10
F9
07
0F
F6
19
07
05
09
06
F9
0D
00
03
FC
01
09
0F
04
FC
F4
E2
DF
FF
EF
F9
10
F1
F0
F0
03
F8
1B
12
20
EC
E7
11
F7
19
0B
FE
F8
F2
14
0B
FD
03
F3
10
F0
04
23
27
17
F9
FE
F7
EC
01
EF
1A
FE
05
F4
11
FC
05
FC
F8
FE
0B
02
0D
0B
16
E9
FF
EE
12
00
1F
F0
ED
FD
0D
FA
06
0A
06
FA
1D
16
26
0D
09
04
F9
F8
F0
07
EC
05
07
01
0F
04
07
0D
15
F4
FB
06
06
0B
01
F7
0F
26
06
15
FF
FC
0C
F3
EC
0B
E2
F0
F6
04
23
12
05
11
0D
12
14
EC
07
0E
13
09
14
FA
0C
27
0E
12
F9
0D
18
11
09
F0
03
11
14
1A
1F
14
12
07
1B
1A
08
FC
11
12
0B
FC
FB
08
0E
0F
FA
16
06
F3
15
0C
FF
FF
F0
01
F9
10
10
2F
12
19
FE
10
15
0C
03
E9
0C
FA
15
27
0B
09
08
02
07
04
01
04
F2
04
02
11
07
E8
07
FF
1B
0F
FA
26
FC
FE
03
EF
FA
1F
18
00
12
0E
0B
F0
02
04
F4
13
EA
ED
FE
09
FF
EA
F9
02
0D
0A
0D
21
14
0A
EB
0F
10
F9
0D
F7
F9
EF
05
FD
0A
11
09
00
08
03
F1
F3
F3
FE
05
F6
02
EF
FE
22
1A
07
0B
E9
05
04
F1
02
0E
18
14
FA
02
FD
15
F2
F4
04
06
F5
16
FD
0E
0E
FF
FB
1D
23
23
06
EE
DF
06
FA
F5
1C
01
09
02
F2
05
07
0F
F3
ED
F9
1A
22
18
F0
FE
FB
00
09
0C
FD
26
F9
DF
FA
EE
21
1D
0A
03
16
05
F2
15
06
0C
19
07
1A
04
06
01
F6
FE
FD
F9
FB
02
0E
FE
14
EE
EA
04
FB
FE
17
07
FD
0C
FE
F6
10
F9
06
0B
0D
12
18
F1
E8
E4
06
FB
08
FB
F4
13
FD
EF
00
FE
10
FE
12
E2
F4
F6
F1
F7
F8
EA
FC
01
01
F7
F8
F5
01
E7
FF
FE
F4
09
F6
12
FD
EB
F9
E9
14
14
14
E9
E1
F9
D7
F1
E9
DD
FA
E5
F5
0C
07
FA
EF
FE
F1
FF
F9
0F
04
04
E6
02
FD
01
FE
17
0E
EE
E2
F8
E8
EF
E7
E1
FC
DE
EE
06
0F
08
0E
FB
E6
F3
FA
FE
E8
02
E0
E8
F6
20
FB
13
EC
FB
E1
00
F9
F0
E4
0D
F3
11
1A
12
F8
FF
F3
F4
F5
F0
EE
04
EE
00
08
FC
0D
F7
FF
02
F5
ED
E7
ED
17
09
0E
00
11
01
09
1B
16
09
0E
E7
FD
EE
E7
FD
EF
F6
F5
E8
23
1D
18
F7
F4
04
E9
0A
18
03
0F
03
14
1E
17
11
15
15
0A
F0
DC
F1
EA
09
F9
E2
00
DE
12
0B
F7
F8
01
FB
F1
EA
19
0F
1F
1E
20
12
0B
22
0D
12
F7
F6
F6
F8
F6
01
FF
E9
E8
FE
F9
0E
FF
FD
0B
0E
E7
0F
0F
0D
0F
26
32
39
0E
04
0D
0D
09
0C
0C
04
02
EC
F6
E2
FD
EF
0B
EC
00
FC
EC
0B
03
05
15
1C
0C
26
11
03
01
F6
EA
E5
F3
F7
ED
F5
E6
DA
E2
F1
E8
FC
EA
F4
11
F1
03
03
F0
05
E7
12
10
15
FD
16
0F
E2
DD
DC
F0
EF
DF
0B
EE
FC
FA
09
FD
F1
02
0B
F4
07
F7
F3
15
EE
03
0B
F4
01
23
FA
F0
19
FA
F3
14
04
E7
09
01
01
16
2A
FC
0E
EB
F2
FD
07
FB
EE
F8
F2
F6
F0
0A
03
12
EE
E5
F6
1B
06
FE
05
FB
F4
04
F4
F0
07
F8
F8
F7
03
0A
FB
0B
F0
04
02
F7
E6
06
E0
FC
00
00
E9
F8
E6
EF
07
F0
F8
E6
EF
DC
09
11
ED
F7
08
12
03
ED
01
F1
0D
F3
E5
00
0D
04
F5
EC
FF
FF
04
02
F2
10
02
E3
0E
FF
E3
FB
0D
F7
0E
F6
0D
16
ED
03
F6
05
F0
F6
09
F2
05
10
14
0F
05
21
08
FE
1B
FD
11
0A
E7
FA
F3
F8
FC
EE
F1
0B
FC
FA
11
11
26
F8
F6
FB
0E
18
11
0C
0F
F3
ED
04
07
F7
0A
F8
0E
21
08
1B
22
0E
F7
FD
22
03
01
13
0D
EA
F2
1D
14
0A
24
11
1A
FD
F7
01
00
ED
F7
F1
E9
0B
F9
04
03
FA
01
04
F9
02
EB
1A
FE
02
F9
15
1A
FF
FB
06
05
10
0C
07
DF
EA
FC
F3
F4
F8
FA
EE
1D
14
02
FF
01
22
19
0F
02
14
06
0E
0B
E4
FD
F9
FA
F1
08
17
E9
01
DB
F0
E4
FD
01
02
04
FE
E8
FB
F7
01
01
15
05
09
14
16
E2
EF
DE
05
0F
F7
17
12
01
FF
E3
E8
D5
E5
00
01
10
FC
15
1B
04
05
12
17
13
19
0C
E9
E7
F8
F3
F9
10
05
15
11
02
10
E6
CD
CE
E9
E8
E8
F0
EE
0E
15
FE
06
13
FA
F3
06
F8
E5
F7
D8
E6
E9
0D
11
0A
12
24
FD
FD
DE
F1
F0
E4
F6
01
F6
F7
07
01
F2
0B
0A
E9
0F
EC
F5
FE
FD
F3
FB
05
F4
12
0E
11
04
E3
D2
E9
D8
F2
FE
F9
D8
EC
07
EF
00
06
FE
FE
0C
0A
02
F1
0C
F8
F9
F9
04
13
FE
F9
F7
DB
D5
F5
FF
01
EC
06
0B
ED
03
F3
01
F0
FA
F8
FE
FB
F8
11
0E
0D
08
FC
0C
06
12
FB
D8
D0
EB
CF
CF
F7
F4
0F
0A
F7
04
F5
EB
0A
0C
07
F2
1A
FF
0C
0F
FF
F9
0F
F1
14
FF
E6
F3
E5
D5
E2
CA
06
F8
0B
10
00
F1
1B
1F
13
FD
0D
F6
02
0D
09
F7
04
ED
09
F6
FA
F0
EC
E1
F4
E9
D7
E5
05
F2
16
F4
FD
04
18
FA
09
01
FD
01
E7
FE
EE
03
F4
F8
FE
0A
1C
0B
FB
EF
0D
E6
E3
F8
10
0F
0F
08
E5
0E
0F
0A
04
FB
07
F0
11
01
EA
EE
FA
EC
06
08
02
10
01
18
09
F2
F5
FE
0E
13
21
07
05
10
00
0F
05
13
0A
14
FA
EF
FA
0F
02
DE
F9
03
16
20
0E
17
03
F7
0A
18
00
04
03
EC
EB
FC
06
17
16
13
03
08
0D
FF
16
11
FE
FE
F6
F4
00
FC
0F
14
0B
12
17
10
04
12
FD
04
08
E5
1C
FD
05
0C
0D
ED
04
06
0F
F3
F5
EC
EC
FE
1E
0F
10
05
0C
12
16
EE
F6
F5
DD
E7
F9
ED
17
0C
FF
08
EF
F1
01
F6
05
01
07
DF
FD
16
20
F7
00
07
E4
FD
18
F8
F9
05
EB
E4
02
11
FD
FB
FD
14
F5
F0
F5
F1
0F
F7
EA
E6
EE
20
01
F4
0E
00
11
0C
1D
1D
FA
E2
0C
00
F8
F8
0B
FC
04
01
F9
F9
F7
FE
03
0A
EA
0A
1B
06
17
03
F7
FC
16
20
23
15
F7
F7
0A
13
0B
03
01
EE
EA
F8
E1
0B
19
EA
05
E9
F6
08
1C
32
23
16
F6
13
0F
27
1C
FF
0F
07
0C
06
FB
09
0D
0B
13
13
0E
F5
E5
E8
D2
C5
FD
E9
05
12
05
12
08
F6
14
ED
F7
F9
15
F9
EF
0A
0B
FC
1A
1C
13
21
0D
EA
F2
FA
F8
FD
05
F4
FC
00
0C
F4
E2
FD
F3
EC
EE
F7
F6
F2
F5
F1
0E
06
F1
FD
0F
FF
01
F3
06
FD
0D
07
FF
0D
0B
23
17
FE
F7
04
07
F6
F5
04
02
13
05
01
12
01
FD
0A
11
13
02
11
06
FD
09
EF
06
FA
11
F4
05
10
FF
F0
03
04
06
0D
F1
0A
EC
10
03
13
FF
13
07
FB
F8
18
00
0A
06
FE
18
15
22
18
F7
0F
1C
10
04
13
FD
ED
14
07
0B
EF
00
11
FB
06
03
F5
F9
00
1D
1F
02
24
1B
20
1A
23
06
EB
FF
E8
FC
FE
E7
05
E8
F2
12
06
FF
00
28
29
1F
1A
1E
02
10
02
1E
00
23
04
0E
21
FF
F7
FC
E4
04
F1
F6
F2
E8
FA
EE
0E
01
0A
02
22
3C
10
0B
1A
0A
03
1C
FF
0B
12
00
EA
E0
E9
EF
D8
EF
F8
02
FC
05
22
FE
05
07
F4
05
11
1E
10
FF
19
F1
03
FF
FB
0B
05
0C
F5
E2
F0
E6
DD
F4
FA
EB
EE
F3
0F
17
FA
07
02
13
EA
F2
06
10
00
0D
1E
1B
0D
0C
02
F8
10
FB
02
F3
FC
06
E6
E4
FA
0F
1F
F1
FC
0A
F4
19
19
02
F4
01
05
00
FD
0F
11
09
19
17
0E
0A
0D
1C
15
EC
E1
EF
00
E4
04
07
F7
0D
01
14
10
05
09
F1
06
06
10
03
0F
F1
0E
0A
08
24
1D
02
02
04
0C
F5
06
EA
0D
FB
0D
0C
FC
11
1D
F2
13
E9
F9
10
F7
FC
FC
07
22
24
0D
28
15
15
29
19
08
04
03
F7
19
19
FA
FF
FF
11
F4
09
F7
00
F8
05
11
FC
0C
03
FF
06
0A
0A
0F
0F
1C
16
0D
0A
06
04
0A
15
00
FD
14
0E
FC
10
07
F7
F3
03
F6
FA
F0
F8
FE
10
0B
0B
0C
24
2C
0B
1F
20
03
EF
0C
FA
04
19
00
18
26
13
EB
F8
0D
0F
04
09
03
F9
0B
FE
1B
18
0D
1C
0F
21
18
29
FD
05
ED
13
01
13
FB
1C
16
04
00
F5
EA
E7
DC
F3
FA
16
17
09
26
09
F9
F5
ED
0C
06
00
04
F6
EC
09
0A
1B
0C
1A
F8
EE
EA
09
E3
F0
E1
DF
FB
01
0C
0E
FA
0A
04
F9
03
10
F8
EB
FC
00
FE
02
EA
15
FD
00
FB
F1
F4
E2
E3
D8
F6
D6
F1
06
1A
03
06
E8
F5
E1
F7
F6
0F
08
F6
EA
DF
F2
FF
0A
17
FE
0E
F2
FF
08
FE
FA
FF
E3
D9
05
FA
0A
FB
09
F4
03
06
F2
FB
FE
F9
FF
F7
FC
F4
03
10
EA
09
EA
E3
0C
13
FA
F8
F2
F2
EE
EC
04
07
E9
F0
0C
F1
06
02
E8
EF
F1
10
E7
FD
23
24
02
F9
F2
FA
E8
EE
F4
02
E2
E2
0D
F7
09
ED
12
ED
F5
0E
00
07
F7
D3
F2
F5
0F
02
06
17
F9
F5
F9
F6
EE
07
F0
FC
DE
07
EC
01
F6
F4
12
12
1C
0B
00
E6
FE
DE
FC
00
0C
F3
00
09
1A
0C
E8
FE
F2
01
E8
FF
F9
02
E9
F7
ED
F5
07
0B
04
F2
0A
F1
DC
E8
04
19
EB
07
01
0F
FF
FB
E8
F6
04
11
04
EA
04
FE
02
01
F6
E8
FF
06
FC
12
E7
E4
EE
F3
F2
0B
FF
10
0D
FB
0B
03
11
F6
11
00
0F
FE
06
E7
FF
07
17
0E
08
F7
F1
FA
F2
EF
EB
0C
F6
09
03
01
EE
05
0A
F2
F5
00
07
FE
08
F9
03
15
21
10
FF
07
EF
0D
E4
FD
EA
DA
09
05
01
F6
F6
13
03
05
18
FC
F8
EC
12
05
01
0E
14
06
14
11
F9
0E
22
12
0F
09
02
03
01
09
FA
0F
F7
0F
F3
F3
0E
26
20
FD
00
17
2A
15
0A
20
07
FD
07
00
F9
19
14
02
F8
1A
03
F0
F6
06
01
EE
F4
F0
FC
03
0E
2E
2E
0A
08
1F
1E
1C
FB
0D
12
0B
1D
04
05
24
1B
1E
FA
FA
02
0B
EC
10
02
F2
0C
01
F0
0E
1D
25
18
F5
FF
02
0E
0B
28
1E
03
1F
15
FD
10
01
09
F9
09
FF
0A
FC
F5
FE
0D
FB
13
F0
01
F4
F2
09
F3
E1
01
07
0F
13
07
02
0A
F7
F7
F9
FF
0F
EF
08
FA
09
EC
ED
FF
F4
0A
F2
08
ED
F8
FD
F6
E1
09
ED
08
FA
FA
EC
DD
D4
F5
01
E7
EF
F0
F1
14
0A
04
F5
F0
02
0B
02
E9
06
E9
E7
E8
F0
DF
E4
E3
DC
F9
ED
EB
DE
EA
ED
F1
F0
08
0E
FB
FD
08
0A
EE
0B
0C
EB
E9
D3
DF
F9
F7
D2
CF
CC
FA
0C
F7
0F
00
11
FE
0D
F6
E7
F6
FD
02
07
F5
FE
08
DD
07
09
FF
F4
E1
F5
F9
EF
E8
C9
E4
E1
FB
F9
15
02
04
1D
F6
F8
08
ED
FA
0B
EF
12
F2
1B
03
ED
FB
FF
03
FA
03
FB
EC
F5
03
F3
F9
03
E1
12
F1
0D
10
FE
0C
08
05
FA
FF
EA
06
04
12
E7
02
0A
05
F4
F6
00
FB
FE
04
FA
FB
FB
F2
F9
0D
07
FA
DD
03
03
03
0A
EC
F3
11
0D
0B
02
F6
01
06
00
11
FF
09
F8
E5
0E
F3
0C
EE
0F
06
FB
03
05
01
11
04
EF
E5
08
EE
06
FF
E9
03
09
05
06
EF
01
E8
01
FE
09
FA
0D
03
03
F7
FA
0E
09
14
F9
F8
EE
E9
FA
F7
FA
0A
06
EB
EB
04
08
05
0F
03
FF
FA
E9
F7
11
0C
05
00
12
14
11
20
F9
0C
ED
ED
E1
00
EF
E9
F3
02
EF
04
F5
10
03
0A
F2
FF
10
17
12
F0
EF
10
EF
01
F6
13
0C
07
08
F4
FB
EB
F5
F5
F9
F8
12
16
11
11
FE
F0
06
FF
F7
FD
FC
0D
E5
ED
E2
F4
E5
25
0A
FF
F9
FF
F4
EC
F4
D7
F3
09
F1
01
25
06
11
1A
01
1A
14
04
0B
F9
FF
02
FA
E8
07
17
03
20
05
08
FA
FE
05
05
0B
17
FB
29
18
1C
17
21
02
FB
FC
08
0F
F7
0A
01
E2
E6
E8
04
18
F2
F4
EC
E8
F3
F1
FB
28
21
21
16
0E
1A
12
0D
FD
08
1D
15
F8
03
EF
04
02
FB
03
03
F1
FF
EB
FB
0A
F6
F6
00
22
2B
05
2A
27
10
09
FE
06
12
1F
24
15
F0
1D
FE
0E
F1
F8
0B
F9
EC
0A
09
FD
15
FF
16
00
10
1B
10
14
09
0A
0E
01
01
17
06
03
F6
07
FD
07
02
EE
E1
FE
F4
09
F8
FB
E4
EA
F1
FB
FD
15
1E
10
01
00
FF
F9
25
16
01
F8
09
02
0F
DB
FB
DC
EF
FA
11
F9
06
FF
E7
D5
E4
DF
FC
E7
EF
FE
F0
EB
02
E7
0F
FE
08
F1
F5
F4
F9
F0
DE
FA
E5
01
EC
EE
F6
F1
08
DA
EC
DF
CC
D1
EB
DD
DA
C7
D9
01
EC
ED
EF
06
00
FA
D3
E5
D8
FD
FF
10
15
FB
19
0D
1B
FE
E3
F3
E8
C0
CC
B9
D1
E3
F8
E6
F7
FF
F3
F2
E5
F1
01
E5
EE
F7
29
03
00
EF
F6
15
1B
0B
DF
D2
E7
EA
EF
E0
F4
F3
E5
E6
DF
04
FD
EB
F5
D6
FD
F1
FB
02
12
1F
03
00
F5
05
17
F0
DF
0E
EB
F2
FD
F4
05
12
07
EF
F9
F1
DE
FD
F2
F1
F5
04
FF
13
0F
0A
05
12
F2
1E
22
00
F6
0C
FF
1A
13
18
F8
FD
EC
E9
F3
F3
0B
E8
F7
F0
EE
F4
0A
20
02
FD
02
05
F1
16
11
0F
17
2C
0A
2B
1F
20
03
13
F9
E7
E6
F7
EF
F9
01
03
1B
1D
17
15
15
E3
F5
F9
08
0D
EC
24
1B
FE
F3
FA
08
EC
FA
E3
07
F0
0A
FB
10
11
0C
18
FF
0C
1C
02
F4
E6
06
09
F5
0B
0E
F3
FC
06
04
EA
FC
F2
F4
E8
FB
FB
FF
F5
FB
F0
F6
0B
FC
E9
0D
0C
F9
0E
FB
0A
0E
EE
13
EE
F0
F2
09
F3
F1
DC
FD
F8
E5
00
FD
DD
E1
03
EE
11
F1
EF
04
FD
EE
F4
F4
0C
06
F9
F8
FB
EE
EC
14
F5
14
08
0A
23
15
EB
F8
F1
FA
01
07
F2
EE
F8
04
05
F2
14
15
EC
03
01
FD
07
15
1B
3A
12
0B
24
47
7B
5B
FF
04
15
2E
3C
17
16
FB
30
07
FB
EF
FA
FE
07
FB
15
1C
1A
29
17
23
1A
01
FA
02
F3
04
04
03
13
18
1E
20
1F
22
01
26
09
0A
ED
ED
F4
F0
E5
F9
18
09
00
04
E4
CD
F4
E4
F3
F8
F5
13
1B
29
2D
1A
04
16
30
05
21
F7
01
FA
12
FB
FC
D8
E2
D7
F2
EE
E9
0F
F9
EA
EC
EC
ED
09
03
1A
F7
03
0C
13
13
21
15
2F
F0
0C
0D
F5
05
E1
E7
D7
E8
F3
FE
F6
F6
FC
F3
FC
FF
0B
FC
F5
14
05
1A
FA
14
18
1F
0F
FF
11
F8
0D
1E
EA
ED
DD
DD
15
FA
F1
FD
F4
09
F2
F6
FF
F1
18
11
13
17
1B
2D
04
24
FF
F9
EA
F8
11
02
D8
D6
EA
03
03
0A
08
EE
02
F4
01
0B
15
1F
1A
1E
1F
27
29
25
11
37
26
1B
07
15
11
05
E7
C7
14
0D
19
0E
EE
05
FB
F6
FE
F7
FE
F4
0C
15
FD
12
24
24
35
26
35
15
08
F6
F9
F9
D8
F6
F0
FB
F8
F2
0F
04
03
EC
EB
E9
D5
DC
DF
E1
EC
D8
FC
E9
EA
F5
04
06
13
F2
FE
14
EA
F2
0D
0E
FB
FC
11
F7
E7
F5
EE
D0
D2
AD
93
8E
A4
8D
BF
B3
A9
CF
E5
3A
04
0C
0B
F2
E2
19
E5
19
0B
FB
F2
F6
EA
01
F9
FA
F8
DB
C6
C8
81
96
9C
9C
BE
A6
F8
FA
13
02
FD
10
E0
FE
04
09
FF
07
07
0C
0A
08
0A
FB
FE
09
F2
FB
E5
A7
9D
A0
CE
A8
D8
02
F9
01
1D
07
EE
FF
EC
0C
EF
F0
FB
EC
0E
0B
1E
F7
F4
09
14
FF
10
FD
DC
E5
DF
DA
DC
0C
F3
16
FF
03
E8
FB
E5
09
13
02
F4
17
FE
02
F1
0B
06
FB
F7
15
10
1E
FD
EE
F9
F9
E7
16
0E
1C
EA
FB
FA
0E
FA
E0
1F
F6
12
0D
07
04
FF
F6
FD
F2
11
0E
15
FD
16
FD
E3
F1
DB
10
0A
FC
EA
F0
DF
E0
EB
EF
F9
FF
EA
FB
FF
EC
0A
F9
11
13
10
09
0C
F7
19
F4
FC
D5
F5
03
FD
0C
F8
FB
08
13
F5
0E
F0
07
EC
14
FF
14
DF
0E
0C
0C
12
08
14
1C
F5
02
F3
05
ED
10
07
0E
FF
EC
E5
F4
0C
09
05
FD
0F
F8
0B
0C
F3
F4
02
15
15
FE
00
00
00
06
07
09
12
FF
FF
FF
F1
E0
DB
19
0B
10
FA
F8
0F
F0
1B
FB
10
F9
F9
FE
EA
17
EE
02
FB
09
E9
04
12
03
E9
FE
05
08
F4
1F
F9
DF
FC
FE
F7
FE
15
1B
16
15
1F
FE
F6
02
00
06
F4
E7
07
10
17
EE
0C
F9
15
02
FF
F9
0B
F2
EE
0C
04
01
07
19
03
1B
ED
0F
0C
00
07
08
F5
0C
22
24
0E
2A
05
FB
F5
FB
FF
0E
F4
F1
F8
F0
0C
17
FA
07
FC
14
FF
09
0A
F9
F7
15
0F
FA
12
F9
0A
0A
12
15
FD
0C
0B
0A
F7
F3
FA
0D
0D
EA
02
06
01
05
F3
0F
FB
08
F0
F0
00
F4
F4
0D
17
18
02
FD
15
20
F5
12
15
12
F9
FD
0E
04
04
04
FC
17
03
04
05
1C
09
13
E8
09
07
FB
F8
07
15
00
F4
06
30
F7
19
2A
09
F5
08
0F
E5
13
F7
04
14
06
0D
0A
01
1B
F8
12
07
F8
F9
11
F3
03
09
05
EF
FC
02
EF
0E
F5
DD
FE
FE
F4
1D
15
1F
1B
10
FD
FC
1C
21
FC
0A
F2
0B
0E
09
FF
02
F2
F6
FD
10
05
08
F3
F7
10
0E
EE
08
13
FE
F8
F9
EB
04
19
E6
F3
F0
0D
EF
F4
13
FD
F7
11
0E
01
0B
03
EE
01
14
F5
08
FA
02
01
FC
0F
FC
F9
F9
FF
12
F2
05
0A
FC
EC
05
F5
F3
EF
F5
11
FF
22
0A
0A
17
18
F2
0A
20
FC
0B
ED
10
0E
0D
19
1D
14
26
FA
09
0B
EE
02
02
0C
FD
FF
18
0C
FA
F3
F6
06
02
01
F5
FD
0D
0A
11
F6
05
15
08
F1
12
0E
08
09
07
07
08
05
11
18
1C
17
15
03
F3
08
0D
FF
19
08
2A
0B
21
0A
F5
01
F5
E8
EE
E7
02
02
EE
FB
13
EE
EC
0D
11
0F
E3
FE
E3
07
0F
01
02
14
08
FA
FD
DC
E5
EC
E5
E1
E7
D4
EA
0B
EF
14
06
F7
E7
1D
03
FC
F6
F6
F1
F8
14
06
FA
0C
1B
F9
E2
DB
CC
EB
BE
D5
DC
EC
29
19
F4
F9
05
F6
06
0C
03
10
08
01
07
0F
1A
05
0B
F9
FC
EE
EC
D6
DC
D2
D9
EB
F1
F6
16
0B
F6
F8
0B
EE
F6
05
ED
0A
0E
03
EB
F4
F4
0A
0D
10
0E
03
E3
E0
BA
BB
C0
EA
EB
F7
05
EF
E5
0A
07
E8
04
FE
F3
EC
F3
F8
EC
F2
F0
EB
0E
FF
0D
F8
EF
E0
DC
E1
EF
01
08
D6
F8
EE
F3
02
0D
08
F5
0B
04
E5
ED
E9
E8
D7
F6
08
2C
15
01
F2
CA
D7
F7
07
FF
08
F5
E0
E6
DD
EE
FE
0F
26
0F
13
EE
09
FB
F4
F6
E7
13
2C
1A
1B
CC
E0
EE
F2
FF
F0
03
19
F1
00
F3
E0
E7
29
11
1C
0A
14
E4
EC
FE
FC
10
1B
09
2A
04
E7
DE
ED
01
0E
19
0D
0E
0F
0F
00
DB
D2
0F
21
FB
05
22
03
08
04
19
0D
07
13
2F
10
0E
F1
01
F6
15
19
03
04
21
04
1B
07
FC
ED
02
13
0F
0B
1C
1F
05
11
17
1B
24
1F
F9
F4
F9
EF
F9
0F
0A
06
02
FC
19
09
19
F1
DE
D7
F3
11
04
19
13
FC
0B
1D
10
19
FA
FE
0E
0A
DE
F9
F4
09
11
F3
FE
02
13
1E
1E
F9
FA
EA
F0
F4
16
F8
F6
FF
F2
1C
F4
01
09
04
F9
ED
DC
FA
FF
07
02
08
0B
F9
F2
08
06
F5
14
E5
FD
0C
0D
F1
F8
F3
15
F9
F3
FA
06
F2
F6
F2
F2
F9
03
04
E8
F7
04
FD
06
03
18
F5
01
DA
EA
ED
0A
0C
EC
0C
04
FA
F8
FB
EF
FD
00
01
EE
EB
E5
07
F5
18
F3
F3
F6
0A
0D
ED
FA
03
EC
15
FB
09
06
F1
11
FA
F7
16
F8
FC
10
13
26
00
08
02
01
FA
FF
06
0D
0C
00
E8
04
F8
08
07
FE
FE
F9
0B
F5
0A
FA
F4
E2
00
11
24
0E
14
FB
14
10
06
02
FD
F9
EC
F7
F9
FC
FC
0B
EE
20
E2
DF
F8
12
F5
EB
00
E9
0A
F7
12
0E
09
0A
F4
0C
11
05
01
F0
FC
0B
02
06
F5
F9
12
F0
F3
FA
F9
D7
03
EF
F2
F7
ED
FD
11
F8
11
06
FA
12
20
02
F4
F3
FB
E5
FF
00
21
FC
11
05
FA
F6
EF
F1
EA
02
05
00
F1
F8
F9
F2
F4
FA
14
F8
09
F9
01
02
E5
ED
D7
EB
0F
19
08
EF
EC
FC
F9
EE
EE
FF
E4
F2
FC
FA
07
FC
E9
04
FA
F4
F8
F2
F1
F7
E0
D7
D2
DD
EA
0D
FD
F1
20
24
10
21
17
16
FA
19
FD
0B
07
0B
FD
00
08
ED
F9
F7
E9
DB
ED
05
F4
F9
0C
04
FB
F1
F8
F3
07
17
17
20
15
2A
0D
07
16
03
07
FF
DD
F2
EC
09
F7
FF
06
21
08
FB
F8
09
0B
FC
F4
DE
F7
0F
25
02
08
F7
07
D8
F5
04
FA
C7
DD
DD
1C
1E
01
27
1C
03
04
07
F6
0F
01
FD
11
14
02
1B
ED
0A
F7
F7
FE
08
F7
F7
E5
D4
F8
01
02
18
30
25
36
0B
04
06
00
F9
09
F5
11
04
F8
14
F2
FC
09
04
0E
F1
07
11
FF
FC
06
0D
F9
EE
EF
FE
0B
0C
F1
11
15
F5
10
15
00
08
F8
06
F9
10
F0
06
05
EF
ED
01
04
0B
06
EB
F4
F3
13
F1
10
EE
06
F5
0C
14
FA
EC
05
18
09
07
0C
FD
06
05
F8
F4
ED
D6
F3
C7
D2
ED
E1
FB
EF
03
EE
EA
09
F2
04
02
EE
0A
F3
EE
F6
EA
0F
EC
06
04
07
13
06
F8
FD
EC
1D
16
07
0D
ED
01
F9
02
F6
F8
F5
05
FC
10
08
08
FB
17
08
0E
FA
E6
F2
0B
FA
00
FA
0F
11
28
1B
0F
06
0B
F9
FC
0F
17
05
FE
06
F6
0D
F9
E3
F5
FD
0C
EA
F5
03
06
25
EE
FD
13
F1
14
FD
FD
0C
17
F2
0D
07
1F
0C
09
07
04
0F
08
03
11
04
12
0B
03
11
0A
FC
04
0C
13
0D
02
FF
03
FC
F5
F1
10
06
0C
E6
0D
06
16
0B
23
1D
02
08
1D
07
17
0B
04
0B
06
07
18
05
F6
01
FB
FF
06
E7
0A
F0
0A
F8
0D
1A
0D
02
2B
13
03
1E
09
12
18
19
0C
0E
03
FA
16
FD
0A
09
FD
04
FE
FA
10
1E
F3
0A
F1
FB
09
29
17
03
19
0D
0F
24
11
11
0D
06
11
FE
02
15
0F
06
0E
FF
FE
21
15
1E
F8
FF
0A
F5
0D
14
21
18
0A
16
11
0F
1D
03
07
FF
0D
05
0D
21
22
16
17
02
05
02
08
09
DB
FF
E8
08
11
09
11
FD
01
1E
18
02
FC
06
F8
08
01
05
F9
03
19
19
1B
1E
1C
07
11
15
09
FD
E9
02
FD
27
E8
EF
0F
24
11
09
0A
07
02
0C
F9
0D
0C
FA
FC
08
09
FD
FF
0D
37
19
FB
EF
07
F3
14
06
00
0A
0E
05
F0
F7
F1
11
16
F0
EB
F3
13
07
0B
19
10
09
03
04
26
2D
15
FD
14
0B
02
20
E9
DE
F2
E4
F2
EC
E3
F2
ED
F2
F4
F5
F8
FF
0B
F0
FC
06
F4
04
0E
00
04
DE
01
10
1D
1B
EF
EB
F5
D7
E4
E0
E9
E3
F4
F1
F8
09
F1
F1
F1
FD
0B
F2
F4
1C
FE
0E
EC
04
07
02
0A
26
0A
EE
02
DD
D4
D8
E4
FE
E0
F6
01
EF
F1
F4
F9
F3
F6
F6
FB
15
11
EE
E3
03
08
F2
19
1C
F2
EE
FC
EF
ED
E7
F1
D9
F4
F4
F0
F6
E0
07
F4
FF
EE
F6
F7
F8
0A
FD
F5
F9
08
1F
14
11
0F
E0
FB
E8
F4
0C
E8
10
DD
EB
DE
08
05
E7
E9
13
F4
02
F7
F1
F1
EA
F6
F4
F7
06
FE
F8
EF
F5
F2
F5
05
F4
EE
F2
E9
F3
D8
FE
0F
F3
F8
EE
0E
F6
EC
EC
FF
F1
E2
0A
FF
02
F1
0D
F2
11
10
FD
13
0A
FE
14
F3
09
EE
FE
04
1C
16
0E
E7
0F
0B
FF
04
F4
D7
01
D5
F9
11
05
EC
12
16
FE
06
15
10
07
18
04
1B
F9
02
04
14
F9
0C
10
10
FF
1D
E1
F5
0D
11
F8
F6
03
F7
F6
F6
1E
17
0C
FD
12
00
1D
0C
0D
20
0D
05
10
F8
00
11
14
F8
E5
FA
05
F0
14
08
10
06
20
F9
12
1B
0B
06
12
1D
17
1E
13
0D
0C
00
16
F7
E7
10
EC
F9
F7
04
F4
FD
F8
EF
01
32
15
09
EB
08
0C
07
10
06
18
FC
09
19
29
F0
EA
FB
F6
E5
0E
00
FB
E9
09
09
F2
EE
FE
F5
0B
01
05
FA
F0
0B
F9
EE
06
0E
F9
03
0B
06
FA
FF
D7
DF
F2
FD
F9
EE
03
FC
FB
F8
F7
F0
15
F9
F4
04
08
FF
0F
17
FF
08
0C
0E
F5
FA
15
03
E8
F6
0C
FE
FC
00
05
10
EB
07
11
F1
1E
F7
FC
17
F4
FE
15
F0
F7
17
05
F4
F8
00
E9
04
F8
03
F5
13
FD
FA
F6
08
FB
F5
10
07
0B
00
14
12
0E
FA
12
FB
F9
0B
0B
ED
07
14
F3
0B
09
EE
04
ED
14
01
F4
F7
0E
0E
0D
07
F9
09
02
0A
10
FF
07
08
06
09
ED
13
0D
17
00
15
0F
13
18
F9
13
12
0E
F9
F4
0F
F2
08
F9
13
1C
10
36
12
0C
03
1A
FA
F6
02
F0
F5
EB
F1
1E
1B
FD
01
FE
FB
07
F9
F1
F0
15
FE
0C
27
28
40
33
14
E2
E5
10
FE
FD
06
EE
ED
E2
F3
E6
03
E9
01
0D
EB
0B
F8
F1
EC
F8
F5
F6
19
26
15
17
F9
F5
F1
EF
F1
FB
DE
F9
FB
FB
0F
F9
0B
F0
E3
F3
EA
14
11
FD
F5
06
FC
F7
E9
F4
0E
09
E1
CA
D4
CE
CF
D4
F3
E4
DC
EA
ED
FB
F6
00
EB
E9
F6
FC
0E
00
11
18
2B
16
19
03
07
06
FA
E1
FA
F4
EC
FC
DD
F4
F6
04
03
EF
FA
F8
E9
E1
ED
01
FF
FE
10
24
25
01
11
FD
09
25
FC
F0
F5
ED
EE
E3
FD
03
E7
0B
0F
EB
09
00
FC
E3
0E
17
F4
1A
0D
1E
17
1A
EE
14
FB
FA
FD
F4
F9
F3
01
EE
F1
F1
FA
FF
F2
05
FD
F4
EE
08
E3
14
1C
23
18
FE
0E
03
04
15
FE
1B
05
20
02
0C
0D
0D
05
FE
11
1E
F3
16
20
FB
FC
05
F5
F0
FF
0F
1A
18
27
FA
0A
FF
11
0F
24
1B
0E
02
16
06
F9
14
09
10
1B
24
27
0E
0A
0F
FE
FB
00
01
16
22
1C
F6
FF
F0
21
12
1A
0D
1A
FF
02
DE
F4
05
17
26
0F
FC
1A
0A
0C
1A
F9
FD
F3
12
21
46
22
18
FE
04
02
19
05
16
02
E9
D3
E4
FB
0B
F8
03
FB
14
0C
0D
FB
18
2E
04
1C
05
0F
1C
0D
ED
03
02
03
FC
0F
FF
F1
BA
C7
E7
03
14
0F
F4
FE
07
F9
F5
F5
0F
1E
18
0D
1B
13
41
0B
05
17
E0
F9
F6
EF
DA
BE
D5
E3
E7
09
03
07
10
F7
F7
FE
13
06
24
FE
EF
EF
1B
00
F4
FD
F3
F8
EE
04
F1
E3
DA
C0
AA
D1
FA
F8
EF
F8
F2
0A
00
0F
F6
F9
EC
FC
E2
09
0D
11
05
0B
18
FB
02
0B
F4
D0
D8
E5
D5
E1
FA
13
F6
07
03
04
09
F9
FB
FD
D3
F4
F8
F7
0A
F9
0D
06
01
F8
F9
FB
F3
E4
E0
F1
FA
03
0B
14
13
06
14
00
05
FC
00
F8
E9
06
F3
EB
22
09
1E
E0
F8
ED
D7
F4
E4
DB
DC
03
07
02
04
F3
04
13
FC
18
F0
FF
EE
F6
DB
F2
0F
0E
11
1D
18
E3
05
F4
FB
D5
EC
FF
FE
FE
F1
12
FD
01
F3
05
F9
F3
03
FD
01
FA
01
FE
F4
14
EE
EF
FF
FD
F4
EC
ED
DE
F2
D9
0C
E0
FF
FC
06
EE
FC
F4
F0
0C
DE
F3
00
F6
F6
FB
0C
F5
F6
FF
16
F3
02
F2
FE
EC
10
02
0F
EF
F7
F6
12
F9
0A
05
00
F4
E5
FC
E7
ED
F6
ED
0E
FC
0B
09
00
F2
F8
0B
EC
F3
04
F2
04
ED
EE
F6
0F
15
FC
FE
06
F3
02
FD
F2
E8
07
19
FB
0A
10
0F
FA
0A
14
11
F4
01
EF
09
02
F7
FA
03
0B
07
0A
10
00
FE
FD
0C
FC
01
0A
F7
0B
F4
F1
11
FF
F0
02
2D
2C
1C
0E
09
F6
FC
EC
EB
15
05
F8
EE
FE
F1
11
13
F5
01
F3
01
F9
15
10
F9
FD
1F
16
15
24
13
26
1C
19
FF
1C
18
1D
1C
1A
02
08
17
0A
14
0D
06
1D
0E
11
12
09
F0
ED
ED
17
13
12
0E
FC
09
2F
09
F5
0E
15
0F
07
13
11
1A
1B
00
19
0D
FD
F5
13
04
FF
03
FC
ED
F9
F1
EA
17
01
08
13
E5
02
18
F5
0D
02
29
23
19
09
0E
08
13
F4
03
F3
08
EE
FE
13
F7
F7
0A
F7
F4
F7
F2
03
FB
F6
FF
20
0F
FC
11
F6
FE
FC
10
0C
F1
11
FA
F9
F6
14
F7
F5
0C
F0
F9
EE
F6
F5
06
1D
18
01
03
1B
FF
12
18
FF
16
36
11
2A
00
FE
EF
FE
13
FD
EF
F7
08
0F
00
FA
F4
F1
19
0D
10
0A
3C
14
FB
1B
10
FF
0B
0B
1B
1A
0B
24
0A
0C
13
02
F3
18
15
07
1B
25
FF
00
06
F9
D8
F9
00
FF
05
10
03
07
01
0A
23
27
FB
FE
06
FD
05
02
05
F3
10
0B
27
11
F5
F2
ED
E4
E0
F4
09
09
0D
13
08
11
13
0F
F1
FC
0C
F9
D9
F2
01
F3
10
13
F4
1A
04
06
16
F2
E8
F4
E8
F7
F3
FC
05
FE
00
EC
FF
FD
F9
0C
F7
09
EA
07
FD
05
F7
FB
FE
24
F7
0A
FE
FE
F7
FB
E9
E6
ED
FF
14
0E
EA
01
04
F7
0A
FF
E6
F7
F3
03
06
0D
17
DE
EA
E1
D8
F3
FB
FD
ED
DE
FC
07
14
FF
0B
FA
ED
FD
F6
FC
07
09
DC
DC
E2
03
00
FC
FA
DA
FD
DA
ED
F3
EA
E5
E1
F7
E3
11
04
1B
FD
F2
F5
EE
02
F4
E8
F0
DD
E7
D1
05
0D
10
09
D0
EE
FA
FE
F3
ED
FF
03
0D
FC
03
FB
19
0A
F2
DE
08
0C
F0
E4
F7
E8
CE
EF
0D
F7
F2
0C
F8
09
D6
FA
ED
0C
FC
F5
FE
FF
09
FF
FA
F7
FE
11
18
09
DE
D0
E5
EC
D0
0A
07
0D
F6
17
ED
01
F0
E1
F6
E0
0A
00
02
0B
10
FC
07
03
01
0B
04
ED
FD
D2
DD
D1
C9
E2
0A
F3
FE
08
03
E9
EC
FF
E4
E8
F7
0E
0D
15
F7
0B
11
0D
09
0E
19
EB
F3
DD
F2
DE
07
F2
08
15
13
FE
00
F6
11
F7
D9
FC
EB
03
F7
18
EB
17
1B
07
16
06
FD
D1
F1
FA
F6
F4
14
09
06
F9
07
FB
F8
03
EF
E0
D6
F9
F1
FF
F8
0D
0E
0F
F5
11
F0
E7
DB
F3
CE
D9
0E
06
F4
F8
1A
FF
0C
F3
FF
0D
FA
E9
F8
E1
0D
0C
0F
10
0D
FF
14
14
F7
E0
F4
E4
E8
D3
FA
0F
17
E8
EE
08
F4
0B
14
0B
FA
FE
E7
F7
09
0F
16
25
18
10
FF
05
01
EC
D8
E4
09
EB
13
FB
06
F1
15
0E
F0
00
18
FC
08
EC
F1
F7
15
11
23
2A
19
0A
EB
EE
F2
DB
EA
00
13
15
13
1E
0F
16
15
18
1D
04
1E
1B
08
FC
EC
EE
F6
1E
12
01
10
11
EF
FF
DD
E5
04
0D
11
08
1A
2A
1D
1F
0E
0A
15
10
11
FB
08
08
E6
01
FD
03
15
16
F3
06
FE
F6
DF
EC
0B
05
FF
2B
2C
20
23
15
16
1A
09
EE
18
18
0B
DF
F9
FF
0C
22
1A
22
06
F4
12
EC
E6
FC
0C
F9
16
16
22
02
14
F9
F9
11
03
17
05
25
FD
02
F3
EE
EF
F9
02
FF
F6
01
17
F4
E1
FC
EF
03
F4
17
1B
0F
DF
F7
16
F5
FB
F1
12
05
10
19
0F
09
F5
FA
F6
EC
05
FD
1C
F5
ED
D8
E4
F3
09
01
F6
E7
ED
F5
E9
FE
12
07
18
05
F9
08
F2
FD
F8
D8
07
EE
05
16
0A
FC
FA
F9
14
08
0A
08
09
E7
E8
F5
06
0D
F0
05
02
F2
07
F8
F8
F7
DF
E4
FC
0D
F2
FA
F6
FF
01
14
D7
F2
F3
FD
E5
FE
F2
1A
FF
FA
0E
FC
F6
07
0B
10
0A
16
FE
DC
F0
03
26
11
10
0F
F9
F0
ED
FE
FB
11
04
E9
E8
05
E9
0B
12
F2
06
FB
14
08
07
1A
13
13
1D
11
1C
ED
0E
15
11
00
ED
FA
F7
08
0E
FE
21
03
0B
F0
0D
13
08
F8
11
0D
FF
0D
23
1D
15
21
0E
F3
28
FC
06
FF
FD
F9
19
03
0C
F1
0D
06
FD
15
0A
03
13
F6
03
0F
12
FC
06
03
FE
0F
EA
F8
0D
02
FC
F7
04
ED
EC
01
08
F1
12
FE
03
10
F0
F7
0D
04
FE
EC
FC
06
E4
F1
E8
F3
ED
EB
F1
FA
F9
F5
D5
E5
DA
F1
02
F4
09
F7
10
04
02
F8
E6
EF
DD
FD
FF
FA
04
F0
11
FF
02
05
F5
F7
F6
E4
09
E1
05
E1
EE
D9
F4
04
F1
F3
0D
06
FF
F9
03
FA
FD
09
FD
0A
0C
EE
FA
ED
07
1D
F4
F0
0E
0E
04
F3
FD
F0
0E
F6
EC
F5
F0
EE
EF
F8
09
F1
19
0D
0A
02
1D
1B
17
19
16
1F
04
00
E6
13
07
03
E5
F2
03
F5
FC
0B
F9
07
FC
F3
07
F5
0A
1F
18
15
F1
FB
0D
00
07
16
15
03
FE
EE
F5
0C
0A
DC
F3
F0
FC
EE
F5
1F
02
FF
F4
1D
0E
E7
E8
06
F1
00
08
12
1B
00
F1
FC
E9
D9
E8
E6
F2
E8
F9
08
0C
FD
0B
02
F0
FA
1E
0F
02
0E
16
F9
EC
F3
EC
19
1C
09
04
D7
E2
E7
F8
07
FE
F4
FD
14
0B
1C
25
0E
EE
F7
F6
0A
EC
FC
FC
0C
06
EE
EA
18
FD
0F
F2
EB
EB
EE
0A
FD
15
FE
04
0E
F8
06
02
07
06
F3
11
F8
EC
E1
16
F8
06
F2
F5
1D
1A
0A
D6
FE
FD
1D
FE
F4
FF
0D
FB
E2
1A
F6
F0
02
DA
03
0C
00
F0
FD
0B
EA
F6
04
F4
21
13
E3
E2
EB
00
F1
0E
0F
03
04
FD
EC
FE
F0
0B
FA
F7
DB
EC
E9
EC
E6
FF
F0
01
FE
14
0D
FC
00
F4
E7
F7
0C
EA
0C
00
09
F9
09
10
F1
0F
FF
FF
D7
EF
DD
EC
DB
ED
EC
03
07
1F
06
0D
00
02
FA
04
13
0C
14
03
0B
11
17
00
EA
14
00
04
F4
DC
F3
F2
EE
0F
13
12
25
0D
0D
13
10
05
FC
F7
04
FD
18
F5
F1
F7
FF
F7
F9
1A
08
F0
FA
03
05
05
FC
05
0D
0F
1D
0C
ED
0D
09
0F
FF
FE
02
1A
F9
12
01
FA
F9
0D
1A
18
EA
00
02
1A
F2
FD
F6
08
25
0D
00
14
EE
F1
0D
0A
0E
04
1B
02
0E
09
10
F5
01
20
F2
EF
F0
09
12
FC
F4
FF
0E
0D
1C
0D
F6
F4
F8
14
0B
17
0D
16
FA
1B
11
03
FB
F6
FA
0F
13
F5
04
E6
04
20
05
1D
20
1B
0C
04
ED
F2
F4
F6
00
12
17
00
16
0C
06
10
13
FB
04
0A
17
DE
03
D5
04
2B
24
0F
16
0D
19
F6
F6
FD
08
EF
FF
F5
00
E5
06
F7
FC
03
1C
FF
F6
F5
F6
02
DF
E4
F3
26
17
09
10
13
14
EB
F6
F8
E2
E3
EC
E3
EF
E2
E8
06
FB
0A
F3
F1
FD
00
FB
FF
F9
F7
EC
06
0F
03
14
10
F8
E6
F6
0E
F8
FC
EF
FD
EB
E5
F2
00
1B
00
0E
04
D9
DF
FE
EB
F0
13
F4
09
F5
01
EE
10
08
F3
E8
F6
EC
F0
EA
F6
E6
FE
F4
13
EF
FC
03
FE
FC
DD
F1
0F
0E
13
F4
12
EA
EE
06
07
12
11
12
EA
E5
F5
FD
03
F0
E5
FB
F7
FC
07
13
08
1A
06
F5
F8
F9
00
F4
06
E1
DB
EF
FB
FD
F4
11
F9
E9
F1
0C
ED
01
11
04
0C
EF
F0
F6
FC
07
F6
EF
ED
0C
ED
0D
DD
DC
EC
E4
FF
0C
0F
FA
08
F8
FA
F9
FD
FF
ED
F0
0A
05
11
FE
E7
F7
0A
0B
03
0F
0B
E5
DA
D8
F5
DE
E4
0B
FC
F6
FE
F1
01
11
EF
F7
ED
F0
00
FF
F9
00
F1
0C
FF
15
13
00
F1
FB
EC
D7
DC
CB
F9
DB
EC
E6
FC
09
F4
DF
01
F6
DC
F4
E0
03
DE
FA
E8
0D
10
EF
0F
13
F5
EF
0A
0F
F3
DC
DD
E4
08
DC
F7
E2
03
09
03
FD
FE
F1
F7
EE
03
FB
F0
0A
F7
11
01
FE
EC
08
FA
13
EB
ED
13
EC
ED
0B
EC
E2
F7
FF
FF
15
ED
FF
11
08
02
EF
F5
10
0A
02
F1
FD
14
07
F9
15
0E
EA
07
E5
EF
02
FD
01
EF
07
F0
17
E6
E7
E8
05
ED
07
14
F8
15
FE
0F
04
0C
F9
F9
FD
04
EE
F6
DA
DC
EF
F2
FE
05
F8
11
FD
FF
F4
04
07
F9
02
F0
FF
09
F2
F6
F4
F7
13
FC
FB
1F
17
F0
17
05
F0
E5
08
ED
19
1B
0D
07
08
1C
05
03
0F
0B
F0
F4
13
07
E0
F9
F4
E8
08
0D
0D
06
27
1F
FB
26
12
1A
1A
2B
42
44
21
2A
2B
0D
06
07
FE
EA
0B
03
F2
1C
FD
00
0C
03
13
1C
09
19
E9
07
EB
09
F1
F6
04
21
1E
32
31
18
23
1D
0B
13
EF
0F
1D
07
17
14
31
1C
1C
16
E4
F7
0C
F2
F2
EF
F2
01
FB
19
1F
0E
1E
FA
2A
1C
02
F8
03
EE
25
0B
09
1F
20
F3
F9
01
0C
01
FA
EA
E9
FC
FB
E1
F5
03
0E
06
10
05
1A
24
29
FB
F2
00
F3
30
0C
06
09
0C
F6
EC
02
E6
F3
01
04
FD
EE
F5
0C
0F
09
1A
FC
12
17
23
23
03
11
11
EB
FA
14
FC
EE
E5
07
FA
F4
EF
0D
0D
F1
D9
EA
FA
FB
0A
00
F4
F7
FD
18
16
1A
0D
03
F4
08
09
E5
E6
DD
E8
F9
DE
F1
FC
FB
07
FF
05
15
04
F4
08
F2
04
04
FE
E8
2D
FF
02
F8
10
01
F1
F3
F5
E3
FF
E2
F3
F3
16
08
0F
04
F9
FD
F5
F8
FA
EE
FC
F7
F3
0E
2C
0A
12
FE
18
F4
10
00
ED
13
F2
0D
17
10
1D
2A
2D
28
F3
E3
F4
EA
F6
EA
E3
04
03
14
10
F4
06
F4
09
00
F7
E7
F3
07
0D
10
10
1E
2E
14
14
F4
F3
E7
E1
F0
09
EE
E9
E2
EA
09
09
F7
DE
FF
1C
F6
07
06
F6
07
12
06
23
20
25
08
F8
FA
06
FC
EF
ED
00
ED
F3
FA
00
19
28
10
F2
07
11
ED
18
05
0F
07
F5
13
02
0A
F3
16
08
0C
10
07
F9
01
06
F5
ED
FB
07
1B
0A
E8
F5
FE
01
12
F0
0A
00
FE
02
05
1D
1C
F7
FD
F9
12
01
20
FB
F4
E9
11
F9
EF
00
14
12
0D
DC
F7
F0
0C
03
E5
E5
F3
EF
0A
0A
2A
0F
09
08
1D
FD
F7
FF
F8
00
F6
04
0A
F6
1B
17
0F
F5
04
E8
15
F7
F9
E3
FC
F6
F9
06
26
0C
17
06
1D
16
0F
02
04
F7
F5
1A
16
07
00
1C
F4
F1
FF
18
0F
16
E3
EF
08
02
0E
09
25
16
0D
03
FF
F5
12
F0
F7
07
0B
1F
0B
FF
02
1B
02
F7
16
F4
15
03
F6
11
F4
11
05
01
FB
13
14
19
FE
13
0D
05
19
05
0A
13
21
F9
03
F1
E7
F0
02
13
02
DC
FD
FA
EE
0E
FB
09
F7
13
07
04
F8
F8
14
0E
05
26
19
19
F2
F3
02
E6
E7
08
0B
07
E0
E9
E9
FF
11
FD
F6
06
F4
12
10
F4
FE
01
0D
11
0E
05
F9
14
08
EA
06
06
E9
10
F9
07
04
FB
E1
FC
E4
0A
EE
12
07
04
08
12
0A
0F
0A
21
0B
10
EF
0A
FA
0A
06
F4
06
FC
12
06
0B
0E
E8
EA
F0
F0
F2
07
F8
F2
FA
FF
F7
F7
00
FF
09
EE
F6
E8
F8
FB
05
FA
05
16
11
F3
FE
FB
EC
EF
EC
E1
07
07
FF
14
07
F7
01
FD
08
FE
FD
E3
DB
DF
04
01
11
15
FD
02
14
FB
F5
FD
E1
04
F7
F2
EC
FA
FF
F9
E5
F8
E1
F0
DC
C5
EF
D1
EC
CF
F1
DC
F9
E5
F7
F4
F8
FD
13
F1
F1
0F
16
D9
E5
EC
05
08
E3
07
07
E6
F3
EE
09
E3
E6
0A
DE
E7
06
EF
F3
0E
0E
FD
F7
0F
14
10
0C
F7
02
14
EF
ED
F3
F0
F4
0C
0E
FF
FC
0D
01
FC
0E
0C
12
0C
02
FB
04
05
FA
09
07
F8
EB
F1
F0
EB
12
02
03
06
F8
01
0D
03
F9
0C
1A
1D
F3
F2
11
0D
14
12
08
10
F5
0B
08
FC
F4
F9
FE
03
FA
DB
FD
FF
15
F7
FF
15
1C
17
16
12
F4
05
EB
01
01
FD
10
02
F5
EF
F3
11
16
F1
02
EB
EE
E7
E1
E0
E9
F8
FA
E2
06
F9
EC
07
EF
12
EB
FA
FB
19
F7
13
07
08
00
12
0D
FA
EF
EA
04
F4
DB
CE
F6
DE
E7
04
EF
02
EB
07
F4
09
FC
FE
F7
F4
EF
11
F3
14
16
FF
F8
EF
F3
E2
F9
D5
EF
F4
F7
02
F7
E6
F9
F4
FB
FF
FD
06
19
FD
03
01
0F
0A
00
EE
FD
15
FD
F5
D3
C5
E5
DF
FB
FB
E4
ED
F7
FE
FE
08
F5
FD
EF
0C
FD
13
FA
F1
FA
12
F9
02
FC
F1
03
D3
D5
DD
D2
F3
EC
01
FE
08
F5
EA
F6
F7
14
FA
16
FF
03
03
04
03
05
FC
D6
E7
E8
0E
EC
04
DC
BC
E9
FD
F2
05
10
FB
09
08
F0
0C
1F
11
11
17
05
1D
09
F3
00
F9
FB
EE
EC
F7
F7
E6
D3
D7
D3
FC
0E
01
16
19
06
FD
F8
F6
FD
0C
1D
19
1D
04
15
2A
06
00
0D
06
F7
E8
E7
C6
F7
D6
F2
0A
0B
26
3C
14
FC
08
E3
FC
01
F9
08
08
0B
26
29
12
EB
F3
03
0A
FA
EF
DA
D4
F4
D3
E4
FF
01
1D
2C
28
22
F5
FB
EA
D7
ED
FC
10
FB
2B
2D
16
F4
F9
F9
E4
EA
0E
FA
F3
EA
E5
02
08
01
1F
15
18
1A
1A
09
02
BD
E2
E4
F0
07
F0
EC
F6
EB
FF
F5
FE
11
E3
E8
03
E8
F3
FA
01
22
06
0D
2B
1B
14
F8
E5
DE
C3
DB
EF
F2
F7
DE
E9
EB
03
F9
13
F7
FC
E7
FF
FA
E8
FC
FA
F6
F7
16
15
15
06
F0
F7
D6
D9
F1
F0
E5
FA
05
FB
F1
02
F3
F5
FD
14
07
F9
EF
F6
F1
08
0B
F5
18
07
01
11
F4
F3
F9
D9
ED
DC
E2
ED
F4
D8
EC
FC
FA
08
F3
F8
EE
FD
E9
D0
EF
FA
EA
FF
04
1F
F5
EB
F3
03
FB
E7
F0
D9
E4
F3
F8
05
F8
F3
0F
ED
0A
03
0B
E0
02
FB
FE
0D
F4
F9
28
03
12
E7
E5
EE
E9
EA
E5
06
E3
E3
E7
FC
F4
E3
14
FB
05
F0
02
EF
08
E8
FA
F2
F4
03
F8
1D
03
F7
F3
07
06
E0
F2
EE
E6
E5
F7
08
28
1A
FA
E9
F7
E6
FC
F9
E7
FF
09
10
0C
09
19
F3
EE
10
F1
0F
F0
F9
ED
D4
D2
08
F2
FA
1F
F1
F4
F9
E2
E3
FC
09
0A
04
00
06
10
EC
FC
ED
F0
1A
1E
FA
FF
FC
EB
F7
F4
EB
E3
12
05
06
12
E5
D8
E7
F4
FD
07
EE
11
06
EF
F4
E6
F3
FC
FC
1A
0C
FB
FF
DC
E3
07
00
DA
05
0E
04
FF
02
F8
ED
0C
FC
F9
10
17
F9
F9
FE
0C
E8
FD
F7
04
F8
E9
0B
FE
F1
F9
ED
EA
0B
00
F6
0F
08
EA
D5
07
FD
04
0D
02
F3
F9
FE
F3
F5
0B
0D
F9
FD
ED
FB
0E
FC
07
03
06
14
F7
FF
ED
F6
DB
02
EE
DC
10
F4
FB
1F
14
1A
02
FE
F7
0F
0F
0A
FE
F4
06
06
06
0F
F3
FB
11
05
FC
0B
0D
ED
DB
FA
EA
F9
E2
FE
03
FB
F9
E5
EA
F8
01
F8
F3
E9
EA
FB
14
FA
F1
F9
0A
0E
EC
EF
00
15
00
0D
09
E6
FC
EC
E4
F1
D7
0A
26
21
18
08
FD
F9
0A
FB
EC
01
EE
12
13
09
0B
F4
EE
EF
F2
06
E7
03
EE
F4
06
11
E9
FA
30
04
F4
24
09
04
08
E9
F8
00
EE
FD
EE
06
04
12
05
07
EC
03
14
0D
05
05
00
01
F2
0C
13
EC
F5
02
F8
12
11
EE
0D
F3
FB
F2
F7
0C
EC
11
07
11
07
EE
08
05
E9
F6
14
02
03
00
17
FF
F8
0B
13
0C
04
DF
02
FA
FF
F3
12
08
EF
ED
18
F7
DF
F0
EA
E2
E4
E4
0E
F4
F4
03
10
04
F6
14
EB
0F
01
F5
F5
F9
EF
F6
EC
EE
F5
09
09
FC
01
F7
0A
E0
04
EB
FF
0F
03
09
11
15
17
1B
11
10
FA
FD
01
F8
08
07
09
07
FA
F3
18
FB
00
10
F4
FF
05
01
E7
EB
EB
02
0F
18
0F
06
27
29
04
06
17
1B
14
E4
EE
F8
00
10
05
E8
F5
EB
F0
FB
FA
04
DB
F0
FA
F1
0A
FB
20
28
0B
27
12
0A
2B
05
EC
E5
0C
EF
11
FE
1F
16
F1
EC
F9
F5
F7
E5
E5
EF
07
15
1A
1F
1E
02
1A
19
26
18
26
04
07
F4
08
03
07
2A
11
E3
0B
F3
00
E2
F4
FC
0E
0E
09
11
16
17
1C
01
17
0B
F8
06
16
0E
11
FC
E7
F2
1B
0D
FB
F5
EF
0F
EE
03
08
F1
10
23
1E
01
21
19
11
10
F1
FF
F2
F0
FE
12
0D
F6
F2
FD
0D
11
15
EE
09
F3
E1
ED
0B
F8
1E
1F
19
09
18
F3
E8
11
FA
F3
13
03
14
17
13
EE
01
0D
0B
0B
18
EB
F5
FE
F0
F1
03
01
FA
12
05
1C
00
F4
F6
F4
F9
0D
15
0F
07
F8
06
0B
F3
25
FB
00
0F
0A
E8
F3
03
FB
0D
F5
FF
06
0B
1F
F9
EE
F8
0A
FD
12
F6
ED
EC
DD
FD
06
0B
13
06
10
15
13
FA
0B
FF
13
FA
F1
0E
00
20
2B
F6
06
16
FB
12
FE
E9
0A
03
FE
FC
02
00
1B
12
15
0A
2A
0E
0E
F4
08
F0
06
ED
1B
1B
1E
FA
FF
21
06
14
F4
03
F7
06
0A
F4
F2
0D
0B
11
11
25
1C
05
15
1D
13
0E
F6
07
F7
17
04
F2
F3
14
02
F5
F7
09
01
0E
05
EE
02
E9
12
03
FA
0C
20
11
1F
04
18
F9
0B
00
F5
0A
F1
FD
17
18
F3
EB
0A
FD
00
EB
E7
E7
F2
14
17
10
FA
16
FE
ED
05
1E
23
24
1D
11
0B
0D
12
0C
09
F8
07
EA
FB
FA
EF
08
05
FF
F9
F1
0A
02
0C
FD
14
E8
F8
04
17
18
14
0F
06
FD
E9
FE
08
E9
04
E3
FE
EE
18
08
FB
07
0A
01
F6
0F
04
01
0B
F6
F8
FF
0A
2C
18
F8
F6
E6
F0
0D
E6
FC
E6
F3
F2
07
12
03
EF
E8
E8
E1
01
12
F9
06
11
E7
F9
02
17
22
08
02
E9
E1
F7
01
01
FB
EB
0A
13
09
FC
0A
06
07
06
11
EE
F4
16
F0
FF
02
03
14
03
1F
15
FB
04
E9
06
00
EC
0C
EF
03
FF
07
0F
0D
11
14
15
17
FB
F8
0A
19
1D
05
F4
EE
F0
0D
0D
05
0A
F6
FF
F3
0A
12
FB
06
18
FD
F0
0E
16
FC
02
09
0C
F5
06
20
0A
0A
EE
19
08
0D
0B
0D
10
EC
00
EC
F4
FE
15
0A
00
0A
08
06
FA
EC
FF
FD
0E
08
FB
FB
13
FC
06
06
FE
FE
0B
0F
14
12
02
F0
11
0A
FB
FC
F8
EF
F6
F8
08
04
0C
EE
12
02
F6
05
0A
1D
18
FA
F7
14
0F
20
10
15
0B
F3
F4
03
03
F9
F4
E6
FA
DE
04
F2
0F
09
F1
EF
FA
14
00
F6
06
0F
0A
1B
1C
2B
1D
18
05
0F
FE
07
12
ED
E3
03
0E
06
11
F6
FE
10
01
0D
EE
EC
FD
F4
00
11
0B
0F
18
12
17
0A
03
0A
08
0C
08
17
02
13
0D
F8
FA
13
F4
12
F6
0A
F9
09
1C
04
EE
0C
FF
FA
0C
03
10
06
F3
1E
09
03
0B
08
FD
20
06
FE
0F
ED
11
EE
F2
F4
F2
04
01
F7
F9
0F
F4
F2
07
EF
1E
1C
FD
09
ED
FE
F8
02
ED
FB
FA
04
0F
03
07
F8
05
F1
FB
0B
FA
1E
14
FA
FA
FD
0F
04
12
0A
FE
FA
09
18
08
27
2E
12
25
F4
FE
FD
F1
0D
FD
04
0F
1A
23
FC
F0
EF
09
F7
04
14
EE
FC
F6
09
01
0B
11
21
0B
2F
22
0D
FA
FB
11
10
09
0A
E2
06
FF
00
05
D9
EF
05
FD
17
FC
15
07
0D
08
0F
21
FE
F7
15
09
FE
12
03
12
F2
02
08
F3
FE
DD
DE
C1
DD
CC
ED
07
FD
F0
FF
0F
10
FC
07
FB
14
0B
16
08
2B
14
33
19
19
00
10
ED
EC
F0
E2
D6
EB
EE
FA
09
FB
E0
F3
08
FE
F4
FF
F8
0E
12
0A
F7
12
00
09
1E
FB
01
F3
FD
E5
DF
CC
F0
DA
FC
00
F6
FA
F8
EA
0E
0E
05
04
0A
EF
FD
EF
01
03
1B
1C
F7
E8
00
DF
09
F8
C9
F9
F6
DE
0B
07
F6
F0
F6
04
F1
0F
0C
05
11
0B
0C
F8
0C
10
24
20
F9
F1
13
FC
FE
F9
DE
FF
DA
F6
08
08
09
05
FF
05
F6
FE
F1
E9
F1
F7
00
FB
0C
13
1B
34
03
FE
ED
E8
EF
E2
C7
E2
E8
E7
0F
0D
0E
0A
0B
FB
F7
EA
DB
F1
DA
F8
01
06
0B
F8
0D
02
0C
F4
02
04
E7
D9
F6
D2
D0
FB
07
1F
12
0F
1B
17
06
D9
EF
E7
F5
E7
10
07
05
12
1B
04
FA
E5
0A
06
E6
E8
E6
F8
F0
06
1D
19
0A
17
1B
F2
F7
FA
E8
EC
FF
FA
06
FA
0E
20
0C
23
26
FC
F6
FC
03
EB
CB
F2
F5
11
18
19
16
02
19
14
09
02
F7
0C
FD
05
0E
0B
EE
04
E7
EA
0C
FF
0D
E5
04
EA
EC
D8
FC
FC
0A
00
1A
18
10
22
02
FC
E5
02
F5
16
1B
13
FD
EA
DC
FA
D6
03
15
0B
FF
E6
EF
EC
E1
03
FD
F8
10
17
23
FA
0B
F7
04
F1
FA
FF
03
ED
0A
D5
E0
EE
DE
0A
FB
F7
E3
F4
EA
FD
E2
E9
03
1D
18
0B
16
FB
07
FF
FD
0A
09
F0
0E
F5
ED
DB
F1
19
E0
FC
02
EF
FD
F5
DF
E3
E1
F1
F5
0E
15
18
12
FF
EC
FA
F4
EF
04
07
09
E6
E9
F3
05
04
EE
0D
FB
EF
F2
F7
F7
E9
FA
08
FC
0D
24
08
F9
E0
DE
FB
0F
FB
E5
EE
0E
EB
EF
F3
08
02
EC
FE
1B
16
02
DF
E1
F4
0F
FD
0C
FE
15
1B
F4
F2
E1
F9
FC
0B
ED
E2
FE
00
FF
0B
F2
F9
F9
E5
13
EB
D8
EF
E9
06
F4
14
FA
13
FB
02
ED
FE
EC
FC
10
08
EB
F4
F2
F9
F3
FC
FF
FB
E0
01
FB
06
06
F2
F1
04
F1
0F
0B
09
09
14
0B
02
FC
14
FD
F5
F3
00
0C
FE
0C
EA
EE
FF
E7
09
00
0C
DC
EC
FD
F1
FA
F6
FD
F8
02
0B
16
F9
05
08
18
0B
F3
0B
0B
FE
FD
E2
F6
FB
12
07
08
0C
F2
02
FC
FC
F1
EA
12
0F
FB
20
21
1E
11
F9
16
11
EE
EA
EC
F9
D8
F3
11
04
FF
F5
10
09
F3
F1
E8
DE
0C
E0
13
EE
06
01
00
02
F9
F5
F2
06
F8
EA
0B
E0
F6
0E
FA
15
E6
02
FA
F9
F8
06
F7
00
FC
F5
08
14
F5
FA
12
0E
12
0F
13
17
F5
EB
07
DE
F4
F0
F5
E5
ED
F4
09
ED
05
18
E3
EC
F5
09
EF
13
16
F3
FB
0B
10
21
07
20
0C
FE
F7
EF
00
01
04
E9
E6
F2
F5
F2
0A
FD
2F
1A
05
19
14
22
00
07
13
1C
1A
0E
17
1A
0B
EC
1A
19
13
03
1D
0A
F5
FB
06
FE
F0
01
FF
05
1F
0A
0E
27
0B
15
19
F3
0A
07
0E
FA
ED
EE
F6
F1
ED
08
09
0B
FA
FD
07
00
03
0E
F9
FC
02
FC
F4
07
14
0A
1A
12
02
02
F5
FE
0F
F9
F0
06
14
08
FE
02
F7
F0
FD
03
05
13
0A
09
12
21
23
FD
F2
F2
1D
0C
F1
06
19
F8
FB
F6
13
0D
20
03
F5
FA
0C
FB
F8
FC
0B
FC
16
EA
0D
22
1B
1A
1E
34
10
F2
0E
EA
EC
FF
0B
00
24
07
05
07
01
F3
14
06
10
F3
F6
11
FA
12
FD
08
24
22
10
1E
0D
0A
1F
1D
0A
03
0E
F7
07
02
17
07
18
F9
0D
EF
09
01
F9
FB
EC
FB
EF
FE
1C
FD
F4
E9
F6
EF
00
02
04
02
0A
06
FA
09
02
02
12
E9
16
0B
F0
F9
0A
01
EA
F6
FB
13
FD
02
04
0B
03
15
0E
10
22
1F
13
26
0C
17
00
02
FF
06
05
05
FD
F4
FC
0C
F1
F8
01
F2
08
14
11
18
15
2B
22
42
1E
10
08
EA
06
02
EF
F9
E6
05
09
03
05
E5
03
E4
E8
F9
F6
F7
1F
16
22
16
2D
22
23
12
28
02
FC
EA
0B
0B
01
E7
EA
FC
E5
06
F5
FC
FD
13
F1
09
0D
16
08
1D
03
20
20
1C
17
F7
EC
DB
F7
01
00
01
FA
03
F5
00
FE
15
02
F5
F6
12
24
01
03
19
0F
FB
19
13
0C
E6
EF
D8
F7
FB
0A
09
F1
F2
DA
FE
02
06
21
0C
06
FB
F7
FF
20
FF
0F
F3
1A
F4
08
FB
DA
DD
F1
DE
FF
0C
12
F2
E2
E8
D7
E6
E6
F4
14
FC
03
15
F6
FA
0D
FC
08
F9
F2
FB
F4
D5
F8
FA
00
15
EE
10
02
F5
0D
E9
DA
F3
F3
0D
06
03
FA
0B
EC
0D
04
FC
07
E7
E7
E5
E5
F9
E5
F8
13
07
FC
0A
EB
0A
09
0B
DF
E8
F1
12
F6
09
06
F0
08
01
04
F7
FE
FE
E8
08
01
E5
F7
02
03
FF
09
EC
08
F1
00
02
E9
E5
F6
07
00
19
F1
FA
EF
0D
FC
FC
0A
F9
F2
0A
F2
FA
02
10
F9
0B
F1
F0
0E
EF
F6
01
EF
EC
EA
F6
17
FB
06
E8
EB
05
FB
FB
F2
FB
09
F5
03
FB
05
FB
FA
FE
02
02
F6
F7
EB
10
F3
E8
F2
1B
09
16
0B
FB
07
17
00
DE
EF
ED
F2
FB
10
FA
ED
F4
07
00
03
03
F4
11
F2
01
FB
0D
0B
1C
0D
F7
FD
0C
08
FB
0A
EB
E7
04
FA
E5
F7
09
FE
E4
F8
F4
FA
02
EF
F7
04
FA
F4
0C
13
16
00
1A
0C
EC
E4
0B
EE
0B
EC
0E
05
06
11
18
F6
FB
DD
E4
F2
ED
07
F9
0B
F5
20
06
16
13
06
04
E5
FA
D6
F7
E9
01
F7
FA
EB
0B
00
EC
FE
F6
06
DF
F6
05
FC
16
23
0C
1E
25
1D
1B
E7
D8
04
F7
FC
FB
FB
15
0A
13
07
FC
FB
07
ED
F2
F4
08
F1
F6
03
12
0E
0B
27
27
1A
1F
E2
F6
EF
03
0B
EB
13
1D
06
1B
F5
09
FD
F8
0F
0C
F9
02
11
04
12
FF
FF
13
FD
10
FB
00
E1
04
03
00
D8
FA
14
02
0D
20
1A
19
FD
18
FC
04
12
FC
09
F9
F6
F5
05
F5
07
01
0C
F7
FB
F9
05
F1
E1
FF
14
0B
05
06
0B
0E
13
12
10
FF
0B
1C
0F
F6
F8
05
F5
FC
02
15
17
FA
D9
F3
F9
FA
E2
EE
03
E6
04
10
FF
0E
F3
0F
FC
FE
12
0F
08
1B
12
10
01
FA
01
0C
29
F3
DB
07
04
11
0E
E6
E4
D3
DF
F8
02
FD
FD
1B
07
0B
14
1F
21
1C
1A
0C
19
29
04
F7
2C
17
E4
02
07
F0
12
FA
F6
12
06
FE
17
12
1F
13
0D
10
30
1D
2E
0C
33
35
22
36
1F
0C
15
F0
12
F7
F4
ED
FA
F7
10
F3
F5
F2
01
00
0D
01
00
ED
14
15
FC
0E
FC
F4
FA
FC
F9
E1
07
F1
06
0B
EC
14
14
F8
EF
04
F4
12
12
0D
05
03
F0
F7
F2
07
F7
06
10
F6
FA
F0
0F
F1
12
F7
01
EF
F6
FD
10
F6
09
EB
F7
EB
EC
0C
F1
18
F3
1F
1E
ED
D6
E3
F8
0C
F8
08
0B
FE
FE
0F
01
01
F0
10
F9
01
EC
10
FC
FC
FF
FB
DE
03
F4
EF
F9
F6
DB
FC
E0
EF
0A
DD
E4
05
F2
FA
F7
FC
15
0E
F8
E0
FB
07
09
FC
FA
E4
D8
FD
E5
EA
F5
F2
D9
FF
06
F0
08
E4
00
F8
E7
ED
FB
F8
0C
0A
04
D4
F2
05
EC
DA
E0
EA
D7
DB
F3
E3
E7
07
F5
F9
E7
EE
E1
02
15
28
25
0C
E3
FE
F0
03
ED
02
E1
06
DE
EA
D6
D3
E6
0D
06
00
17
07
0C
F5
F3
F8
FF
F5
FB
0D
0B
F4
E6
F5
FC
02
23
07
0F
19
F8
C2
B0
D1
FF
14
1A
20
0C
08
FE
E0
F6
FE
FF
01
F0
FD
16
15
E5
DC
F9
E3
0A
06
0C
00
E7
C9
CF
CB
13
17
03
14
0F
01
F1
EC
F1
F6
0A
F8
12
09
18
1B
03
F4
0B
E7
FF
F2
10
F3
F9
D4
DA
D6
0B
14
20
04
0D
EA
DF
E0
04
F7
F6
07
FB
10
18
F4
ED
FD
EC
EB
06
EC
05
F2
EF
E5
EF
DB
04
17
2A
1B
00
08
F4
E8
06
FA
F8
0B
01
17
05
E4
FB
F2
EB
E1
FD
05
19
FF
FB
F0
E3
DF
F9
15
42
34
FF
FE
E2
E2
08
FC
03
09
FB
F7
06
F6
FE
00
DD
F4
09
05
00
FE
F9
F5
D6
E8
F9
0A
25
1D
19
F6
F1
FA
F0
04
F3
FC
FF
F6
FF
F9
13
F8
12
FB
DF
DC
DC
E7
FA
FC
EC
EA
F0
26
23
1F
0C
FA
04
09
F5
07
1F
13
0F
0D
F3
FF
E6
F5
13
0C
DD
F0
08
F0
00
F1
EE
F4
0B
00
21
23
05
F8
F3
F6
FC
F2
FF
00
05
0B
EC
FC
F0
D8
1A
F8
FF
10
F9
F6
F6
F6
FC
F5
FE
15
16
0D
F4
FF
FC
0B
E2
03
FE
F9
01
EB
FD
EC
E8
DE
10
ED
FF
01
FB
E9
F2
EB
FC
F4
EF
04
02
00
F7
04
08
05
F1
0A
F9
06
F5
F6
F6
EE
EC
04
EF
DE
F5
30
05
F0
EA
F8
02
EA
E5
0F
FA
E2
ED
F3
09
00
01
ED
F8
F7
F9
0F
03
D0
C9
F4
FF
0D
F1
F2
F7
F1
02
09
07
FD
F2
F4
0F
0D
02
F4
FA
0F
FE
F5
FC
08
FF
04
E3
EC
E2
FA
D6
02
FC
EA
FB
0C
F9
03
06
01
0D
0E
01
03
EF
F3
F5
14
0A
0D
0C
FE
0E
FC
CA
D6
09
E0
04
F9
EB
F4
FE
2D
21
0D
0C
13
F6
F2
EF
0D
F4
FE
E8
FC
FC
F2
FF
F5
E7
00
D8
F5
EF
FC
F0
F3
F7
FA
E6
1F
10
07
05
FB
EC
F8
FD
F0
06
FE
00
FB
13
00
F2
FE
0D
F3
E9
F0
FA
0A
F9
F0
ED
F6
05
0C
FB
F4
FC
02
18
00
E9
0B
05
FB
EC
EA
F4
F8
DE
14
F6
0D
EE
E9
03
09
FC
E2
F6
06
08
02
00
00
FD
09
07
0B
0B
F9
01
EF
F0
F0
04
01
06
06
FE
16
0F
F1
EB
F5
0F
F6
ED
05
E3
FF
F3
04
1C
0F
01
19
F7
03
18
11
14
F9
F2
EE
EA
F2
0B
FC
F7
17
07
EF
14
FC
0E
FD
01
EE
F7
EA
F2
1D
22
01
FB
0C
F8
F6
03
FD
FF
FB
FF
11
0C
2C
09
FA
E9
15
FB
02
13
FF
E9
E5
FE
F7
E0
F2
F9
0E
F5
F3
EA
DD
C6
C5
DF
E3
0C
18
13
23
FE
F4
FD
0C
F4
FA
F6
F9
10
0C
EB
03
D7
DB
CF
E7
DC
E3
F3
F4
EE
03
DE
D6
EF
ED
00
F0
FC
F5
F0
0E
03
F4
FB
11
0E
F6
06
FC
F9
E9
FB
00
F5
F0
E2
05
0C
02
FC
F1
FF
0C
F1
10
05
13
10
FF
