FE
05
03
11
EC
FA
FA
04
F5
00
F3
0E
07
00
11
02
13
F4
EF
F8
F4
07
0B
0B
03
07
01
F2
10
01
07
14
10
00
09
01
0E
F6
02
14
06
FB
04
15
2E
1A
06
0F
EE
F7
F7
05
12
0D
05
08
F3
ED
11
E7
ED
F9
03
02
0F
2A
0D
FB
15
22
4F
2E
3E
23
1C
F1
E1
06
06
12
13
09
F4
EF
F5
EE
28
FD
1A
02
03
F8
EA
07
EE
E6
12
0B
13
07
1E
09
E0
FA
F2
EC
FA
F7
04
F5
ED
F9
EC
F1
18
FA
FC
F4
07
FD
FD
EE
E6
EA
F7
E6
07
08
04
0B
E5
FE
06
09
F3
F6
F1
CC
EB
F0
10
10
22
08
2F
13
06
FC
E8
05
06
08
E7
EF
12
09
FF
13
0D
FE
F3
11
0C
0B
0E
EE
EC
0A
13
13
F5
FE
11
01
FA
FC
F7
FA
F5
F6
FD
EA
0D
FB
02
17
F9
F6
FD
08
05
12
03
FD
0B
25
0B
EC
F4
08
02
FB
EB
F8
02
0B
00
EF
EC
E8
FB
0B
10
FD
FA
FD
15
FF
FD
01
F2
E6
08
10
07
07
FC
10
2A
0B
F7
EE
05
0E
13
02
F7
F9
05
0E
10
0C
E5
03
EE
FE
EC
01
DA
D2
0E
0F
03
02
FA
24
08
18
FF
06
10
16
1B
EE
FA
DB
EC
15
07
F3
0B
FC
F4
EB
E9
E2
E5
FC
00
0F
FB
01
19
04
05
13
06
FB
07
12
11
03
F4
E6
FA
0A
25
15
EF
FB
E8
E4
F6
F9
ED
E9
0F
14
04
09
19
F2
FC
10
01
ED
ED
0A
06
EC
ED
FF
0A
0E
1C
0C
04
EE
F9
E3
CF
F6
E0
11
1B
0A
EE
F3
F4
16
13
FA
FD
F8
EB
E9
F1
E3
EF
E2
0F
07
03
F4
F5
00
E9
EA
E4
EE
EA
FE
12
18
14
05
0B
00
19
FA
FE
DC
D7
E1
D9
EE
FD
F2
FA
F9
19
FE
01
FE
E0
F4
E5
EA
F7
08
26
F7
00
14
02
F5
0E
F5
E9
C8
DF
D7
F4
EC
F3
FB
EE
07
FF
10
FE
DF
C4
EA
E2
E7
FF
E4
28
0E
EE
EC
0E
F6
F8
02
E5
E1
F3
04
0D
F9
F8
FE
0A
0B
11
F9
C4
CC
DA
EF
D3
D5
F6
FE
0A
27
F9
0F
FE
EE
FF
EA
F1
FB
F4
0C
01
FC
FA
04
01
F8
0F
D8
C9
D6
CD
E3
DC
EA
FD
0A
18
06
F1
07
06
F9
EE
E8
E7
F0
F7
0A
14
14
FA
19
FF
E5
E3
C8
D2
C0
E7
E5
F2
FA
17
11
16
0C
15
F5
FA
FC
03
E5
F3
02
09
16
06
15
19
18
00
DD
C4
D2
D4
FB
07
FD
0F
13
0C
11
23
FE
05
EB
F1
06
F9
ED
0D
0B
FB
10
F3
1A
24
1A
F5
DE
D5
F6
10
06
05
0E
0A
05
20
2D
0B
0F
07
FD
FA
0B
12
0A
16
F5
1C
FE
1B
23
23
FF
FD
FD
15
16
15
1E
18
20
19
28
3D
16
1D
11
17
FC
03
1C
14
24
FE
01
02
0C
1C
F6
EE
FA
FF
07
EF
11
17
0C
1F
09
16
22
38
1B
16
F9
21
15
20
10
19
28
0E
F9
04
02
11
01
E5
F1
03
10
14
07
30
05
14
1B
0D
10
2D
FD
04
F4
0A
EB
15
F1
F1
1A
10
0E
EC
04
F0
FB
03
03
0D
0F
EA
F7
01
FE
FE
FF
12
29
19
FD
0F
13
F5
F5
F8
D8
EB
11
FA
0D
EF
F2
E9
EE
FE
15
F6
02
FA
11
FE
10
FA
22
08
1E
37
06
13
14
F9
13
15
02
F1
F0
F7
E9
00
F6
E5
E3
02
06
FA
03
FB
EB
FB
0F
1B
1F
1F
08
FE
13
19
07
0A
F4
03
13
06
F5
EA
F5
EB
E7
F4
EA
E2
F2
EE
EE
01
EA
1E
01
06
0D
03
08
EE
F9
13
F4
FF
F9
F3
EF
0F
F6
ED
0A
03
FD
F3
F5
17
04
01
ED
F1
1B
09
FF
07
15
EC
F9
F7
FE
05
F0
FB
F9
09
05
FC
0C
F3
F9
08
07
FD
08
FF
EA
11
08
0A
01
0E
0F
FB
F0
12
F9
12
F3
F6
F0
0B
15
FF
02
FF
EE
18
06
1B
18
E6
04
EA
EB
D6
0F
FD
20
0E
F6
F9
09
14
F3
F1
FA
FE
05
F3
07
EF
F6
0E
0E
08
F8
F8
EF
D6
F0
F9
F5
FA
F6
1E
04
F9
F1
EE
0B
F7
E6
FD
ED
F4
08
07
04
0E
0C
0B
E2
E3
05
DC
E6
EC
F3
E3
DE
F7
E2
EC
01
EB
D3
D2
EB
D3
D3
D6
14
22
14
EF
F1
EA
11
D5
EF
D5
EB
C2
CA
CE
E5
EB
DA
EB
FF
DC
E0
D4
E0
DE
DB
E5
F5
02
00
FB
0B
0E
FE
0A
01
C4
EB
D3
D3
B9
CE
F6
E4
E7
FA
E7
E2
F0
DB
F0
F1
EA
F8
FE
F7
F0
0A
12
01
0A
FC
1C
08
0D
E7
1C
EB
FB
D7
DA
F5
FE
F7
E5
DE
D1
FB
EE
FC
DA
E8
EF
F5
DA
EF
F7
FA
06
04
24
1A
EE
FC
EC
0E
FB
D8
FF
F6
EA
04
DA
EB
E2
E9
EF
E6
E8
E8
FF
F5
F3
E3
F8
18
F3
FF
16
1A
E7
16
0F
08
E6
E6
D7
EB
F6
E3
EA
EA
0C
F7
F2
E7
0E
12
16
0C
F8
FE
F4
0D
F4
1C
19
18
02
17
21
01
F6
00
01
08
0F
23
14
27
16
09
27
16
06
0B
01
FC
F9
1E
F5
EB
0A
0A
06
0F
F0
20
22
13
11
14
0F
1C
29
14
1D
31
2F
29
13
19
0A
1E
1B
F8
20
13
19
FE
24
17
24
EB
10
18
15
09
19
02
07
0A
28
2C
2B
08
00
0F
FA
03
03
05
22
0D
12
0B
0F
F0
1E
0B
04
FC
1C
22
00
17
FA
08
11
12
12
1F
07
F5
F3
F1
E9
0D
0E
05
18
F4
FC
0A
0E
27
F1
03
15
0C
00
F8
04
07
08
0F
10
11
F3
F5
ED
EB
E3
F9
D5
F7
FB
F6
F6
F7
0D
06
03
12
12
11
12
F6
12
FF
F2
DC
02
0A
07
06
06
0A
DF
E8
D7
F4
E2
FA
01
04
02
10
FD
D9
04
07
F8
FF
F3
00
F7
F4
F9
E2
F6
F4
F4
0D
FB
F0
E0
EE
E5
FD
ED
05
FA
1F
04
0E
F1
11
FF
0B
FD
F6
F1
F3
FC
13
F7
F2
F1
03
F7
FC
09
EA
FD
17
FC
0A
F8
EC
0E
17
0C
1A
FA
F6
2D
14
08
E8
E4
F8
FE
06
1B
07
FC
05
FB
04
F8
ED
1B
16
FC
04
F6
09
00
17
F3
F5
09
04
13
1D
FE
F6
E6
F0
12
F6
FB
0B
08
EE
04
06
F3
00
0A
02
01
0F
02
F6
21
FF
16
03
F8
03
13
06
EF
11
13
FF
01
01
13
07
F4
F2
E5
F7
FA
F6
FC
F9
FA
11
1C
F5
FD
04
06
0C
00
D4
F0
E9
EB
02
0C
08
17
15
FD
11
F8
16
05
F9
F4
F8
E2
FE
0A
F5
FA
F9
06
F9
06
E8
06
EB
FF
ED
EA
09
05
F3
09
F4
05
16
F3
02
EA
F1
E4
09
F6
E1
FF
FA
01
09
F8
07
F6
EC
0E
E0
0E
FB
01
07
EB
0A
11
1A
13
F9
FD
0B
F3
F9
04
06
F8
05
E8
19
FB
F6
DC
E5
05
DD
F7
F1
0C
F7
13
EE
D9
FB
1D
12
0A
FE
18
13
F9
0D
FB
FE
08
03
08
10
EB
DB
E3
E1
D6
F1
0E
F3
F8
11
0A
F1
ED
13
16
06
1E
F2
FF
0D
0D
FD
12
04
EF
FA
FF
05
0A
E0
EF
F8
E0
FD
02
E5
01
07
06
F2
EC
10
26
F4
0E
EA
E5
EB
ED
03
EE
FD
05
00
0A
F6
EB
FA
D8
F9
09
08
06
16
05
FD
F3
EE
0C
ED
EE
ED
00
FB
FC
00
09
FD
12
03
FB
F1
18
ED
01
00
FF
00
FD
0B
08
FF
03
05
F0
0A
ED
F8
04
F6
FD
ED
FB
F5
1A
0B
03
24
FD
F3
FC
15
FD
FE
EF
0D
12
0C
ED
14
FB
FD
00
FA
03
07
15
F0
F2
FC
F2
EE
F0
F7
01
F1
02
05
F3
14
15
13
12
01
F3
F7
F4
08
F5
F3
EE
F2
02
08
F2
02
03
0C
E6
E4
0A
F2
FD
E8
EE
15
FB
FF
ED
0B
D6
F1
FC
ED
08
F1
FB
12
0D
04
0D
FF
EC
03
E2
E0
EA
E2
D0
F6
E6
F6
00
F1
11
F8
F2
0E
09
F0
ED
F6
0D
FD
F5
EC
F6
00
F1
F1
F8
08
F8
E7
D1
E5
F6
DD
06
15
10
FF
07
13
16
FE
13
FB
07
12
0C
FB
FA
0F
0B
0E
F2
FE
0A
19
0A
F1
06
FC
F9
FD
F8
03
13
18
0E
13
06
16
24
FD
FE
03
0E
F4
1D
0D
08
0C
1C
13
11
E3
05
F5
F1
FE
04
E0
F4
F1
EE
DE
0A
F4
1B
10
17
FE
FD
F9
06
FA
F7
11
FE
1E
F2
22
21
10
FE
F0
F9
09
05
03
FC
06
FC
DC
EE
EE
05
0F
20
0C
00
EB
10
01
F5
F4
02
1C
11
3D
2C
08
08
F6
F4
04
EA
09
F6
0D
F8
D9
E5
F2
0A
0F
0B
18
0B
0D
0C
04
F0
F4
0D
EB
1A
FE
15
02
0E
07
0F
F7
FE
FA
1A
F2
DF
DB
DB
0A
00
21
00
15
07
F9
02
08
04
F1
F9
FE
F4
EB
01
08
17
F4
04
0F
FC
03
02
DA
DB
EE
FC
16
18
21
12
1C
F7
EF
0B
FF
17
10
F0
E3
E1
F8
0F
0D
0B
FC
FD
0C
E8
E6
FB
E6
F0
E6
09
1D
22
17
25
09
EC
00
E7
F2
04
0B
06
E7
F4
05
FC
17
F1
12
F1
00
E7
F7
EA
F9
16
F5
00
1B
08
1E
1D
ED
F0
E8
D8
E0
F8
05
F6
E8
06
EB
09
15
F3
ED
FD
E2
EE
FC
FB
14
04
F1
FA
0D
0E
1D
0A
02
EB
F2
1F
0B
EE
F3
08
09
05
E2
EE
F0
F5
DD
ED
E5
E0
03
18
09
05
02
0D
13
14
04
02
06
E6
EE
13
10
F7
06
01
E4
ED
F6
FE
F5
FE
E6
E8
07
02
10
14
1A
F7
0C
11
FE
16
F6
F2
E0
F9
E0
E4
06
00
15
16
0B
07
0D
03
E3
FE
F9
FD
01
F5
19
19
03
23
0E
0E
01
F1
04
FB
E8
E7
E2
FB
EE
F1
F7
03
EE
0D
F8
F2
E3
FC
EF
12
12
FE
09
09
14
11
01
FF
F6
F7
DD
DF
E3
E5
F8
FA
F5
13
13
FD
FB
FA
F4
14
FB
EB
03
0A
06
01
12
F9
14
FD
F8
F1
E1
DB
FF
D8
EE
E0
E6
F4
F7
08
F7
04
EF
EB
E7
04
13
FF
F6
FD
14
15
22
16
FC
F5
0C
E4
04
F3
E7
0A
02
0B
FF
E8
F9
EE
E5
EE
DA
E8
10
0B
0C
00
14
04
09
FF
F7
F2
F9
F6
0A
F9
F9
0E
F6
14
0A
09
0D
EB
E8
09
EA
FC
E3
0F
21
FE
0D
FC
F9
0A
0E
0A
04
08
09
F9
03
05
13
05
FE
02
0F
10
08
02
0F
04
04
F8
01
1E
07
0B
1B
0A
01
03
00
F3
F1
05
13
F9
00
0D
04
15
F9
16
F8
12
11
EC
0D
13
F9
F2
06
28
2B
12
1B
06
09
F9
FE
0B
0C
F2
F6
04
0C
F1
FA
07
01
0D
F8
08
0E
F1
1B
06
F8
FD
03
04
0D
FA
FB
0D
0A
19
0C
EB
06
04
FE
11
02
10
0F
19
03
18
1C
FE
0D
09
11
FB
08
FF
09
F9
03
F9
FB
02
06
FB
F8
F7
FF
0B
13
09
05
18
EF
F9
08
06
F5
18
11
E5
0D
02
05
0C
11
15
F5
CF
EF
01
02
FD
FD
04
F6
EB
ED
0C
0D
14
FC
13
FC
EB
DC
E1
12
E4
05
18
0C
04
12
F3
FE
07
E5
D4
03
15
F6
ED
04
E7
FE
DB
D1
D7
D1
DE
F9
E0
F7
F3
12
FB
F6
F8
FC
04
06
FF
EC
22
0E
04
E8
FB
00
E4
DA
E3
E8
DF
F0
FA
EB
EB
0D
E8
F9
F4
11
F1
F9
FB
12
F7
F0
10
09
0E
09
F1
FC
FA
01
F0
0A
F9
0B
03
01
F3
EC
FA
FC
EE
ED
05
0A
02
13
EF
15
08
F2
14
07
ED
F8
F0
0E
08
F4
F0
02
FE
EC
13
0F
03
10
0F
0E
06
0F
16
0D
F7
FD
0F
ED
F3
F0
06
0E
0C
FB
0C
F7
0F
15
34
18
10
24
06
FE
EA
F2
F9
E2
EE
F8
EE
E8
0F
F9
06
0E
05
0F
1F
10
FA
FA
E3
EA
F6
FA
F3
21
25
19
1B
07
16
04
F7
10
07
02
F2
E4
03
08
FF
0D
EE
F4
28
06
F5
00
15
11
FA
FC
12
06
0C
0A
1A
10
1F
08
08
08
EB
0D
E3
FB
F0
F5
21
F0
F1
05
12
1E
0B
01
F0
F5
F0
0E
0B
0D
F6
13
12
08
FF
08
18
16
E6
01
01
F8
01
1F
14
F1
F0
05
F8
1C
FD
F2
05
14
14
F6
06
18
F6
FF
12
FD
19
15
03
18
17
FA
0F
F0
F7
0C
0C
F8
FB
24
F0
18
F7
EF
14
F3
05
0B
12
11
05
1B
07
2B
0F
29
1A
0D
13
10
0D
F6
F1
08
F1
07
FE
1B
08
EF
DC
00
FA
04
07
FB
F5
03
0F
01
16
21
0F
19
20
FA
FA
01
0A
F7
F4
E1
DC
F5
10
FB
06
FD
FD
00
EA
EC
F2
F7
F1
F3
F9
EE
EC
09
17
12
03
1D
00
FE
12
1B
0B
FA
E1
F9
1A
F8
DF
04
02
01
EF
01
F4
F1
08
07
FB
F2
F8
E2
F9
20
09
02
01
13
F9
F3
F9
0A
11
15
15
19
08
FC
E2
01
EA
DB
EC
E3
E4
F6
03
E3
D2
CC
EB
F6
1C
FE
00
0E
09
1E
F6
EE
07
F3
04
FF
0B
E1
03
DF
ED
F0
02
EC
00
F8
FA
E6
B2
CF
DD
09
F8
ED
00
02
04
07
1C
F7
F6
05
0D
0A
F4
D6
F5
07
F2
E4
F7
F3
EA
F2
EB
FE
DA
E9
DA
E7
06
EF
03
08
ED
FE
01
D9
01
01
0C
FB
FD
FA
02
FF
EB
FD
FC
FC
F8
EB
F5
F8
FD
E9
F7
F9
DD
EF
E2
0B
FE
FF
02
E0
13
FA
FC
FD
F0
E7
15
0F
F2
1B
F2
FD
07
04
E7
DF
EC
F5
00
FE
E2
F1
F9
EF
01
05
F7
13
08
EA
0B
01
EC
E4
0B
F3
F4
F4
F9
F1
09
E8
ED
DD
EE
EA
F6
00
F4
F6
F0
FF
03
FD
12
11
FD
01
10
FE
EA
EA
15
EE
0B
03
FF
FE
0A
F4
E8
DC
D9
F1
00
FA
0A
10
09
06
F2
04
FC
FD
1B
F5
19
FF
ED
EA
06
F1
F3
00
E5
F8
06
FB
E6
FC
ED
FB
09
0A
0F
FE
0C
02
05
04
F7
15
06
FE
12
12
F8
DF
E2
04
0D
05
F8
F6
02
11
FB
03
02
EF
07
F7
03
F0
F5
EF
10
EA
FE
1F
22
13
ED
03
F2
DA
E9
12
09
EE
0F
FB
03
1E
11
07
2A
FD
10
09
06
F7
09
00
05
FA
F4
05
19
03
0A
13
0D
FD
F6
0B
06
15
0D
14
0F
24
0A
1A
0E
1C
04
E7
F9
01
00
0A
06
27
04
0B
FC
F4
F9
08
DD
06
E5
0B
05
09
16
07
FC
1A
0D
0B
07
F5
11
E8
0D
E8
16
FA
1A
1D
15
0A
00
0F
F8
02
E0
E7
F0
E9
12
FD
11
03
18
1E
1A
06
00
EE
07
03
13
E9
F1
21
07
08
ED
10
E4
FD
05
0C
04
E9
EE
EA
EC
10
05
28
FE
11
1A
17
02
EC
10
06
08
F5
F0
F5
FA
F0
06
FB
FD
FC
08
0B
FC
12
FC
D7
EF
1E
F8
1D
F0
09
F5
19
05
13
10
1A
FB
E7
EB
07
E9
F2
EA
F9
FB
EF
10
0F
01
F0
02
FF
09
01
15
FC
11
1A
16
2B
33
38
2B
10
26
03
FE
FA
F2
F5
F2
08
02
F3
0A
F7
FA
FA
05
05
1A
0D
05
1B
07
01
00
00
14
18
10
FF
0B
12
05
14
F0
13
EC
FA
0E
FA
F5
00
F8
F8
0B
F4
F9
FB
F4
10
11
03
05
08
EE
FC
13
08
FB
13
05
EB
EF
ED
0D
12
05
0E
EC
F6
02
0C
EE
FC
00
ED
03
E7
E5
FE
F2
E9
FA
CF
E6
F1
DF
F4
DB
FD
E1
ED
FC
00
EF
FB
F0
F5
0B
FB
03
EB
F0
EA
EA
D3
D4
E7
E5
EC
FA
ED
E2
F1
C7
D3
CD
DD
00
FD
F1
12
00
FE
EB
EC
F2
E9
0F
06
EA
EC
F7
F5
E6
E9
CD
D2
DE
E2
FC
DA
E9
06
F0
01
FA
FB
0F
F1
E4
0D
0D
00
ED
07
F6
08
E4
01
FA
0E
EF
EA
E1
E9
ED
F1
F2
01
ED
EF
0A
14
10
2E
F6
E8
F4
F7
00
EC
17
F3
F3
EB
F9
EA
F8
0E
E9
F4
0F
FB
FB
EF
EC
0F
18
FD
13
2A
0B
0D
10
0A
E6
E3
03
F7
FD
DD
03
E4
F6
F6
F3
F2
F5
EE
F3
02
FD
F9
F5
11
FA
11
FC
14
14
15
14
1A
0B
EB
08
D0
F4
D6
EB
EF
E0
F2
F6
F7
E5
FC
EF
0B
F8
F4
03
EE
04
0E
05
F8
13
1C
2B
17
EE
FD
FD
D4
F0
F6
D6
F7
07
F9
ED
07
ED
E9
FE
FE
E5
04
FA
02
05
E7
03
E6
08
F4
18
0B
F6
0D
F5
EC
EA
E6
E6
F4
EC
0C
0A
09
ED
F0
D6
F3
EC
EC
0E
05
FC
06
05
FB
00
05
1C
EA
E7
FA
00
EB
09
FE
F3
F4
E4
F3
0F
22
0E
F4
DE
E6
DB
F5
F8
F3
ED
F6
E2
03
F9
FC
F9
E7
E9
F4
F0
02
F1
E6
05
11
16
0F
04
18
22
1B
FA
F9
ED
DD
FB
F8
09
0B
EE
0B
0E
0A
08
F0
F5
09
0C
EF
10
F5
18
22
1A
24
0B
32
31
20
22
0C
12
0A
F9
F7
FC
07
09
04
0C
1E
01
FC
ED
0A
11
05
08
EB
1C
15
16
2B
31
0E
1E
35
1B
0B
01
FD
12
FE
02
02
F2
11
FC
09
E7
DE
0E
F2
FA
FA
00
F4
04
2A
1E
1C
11
17
06
1A
0A
1F
0D
0D
00
09
02
F9
F5
F9
FC
EC
CE
0B
EF
FE
F9
0C
FD
E4
16
1B
21
FF
14
1A
F9
04
07
05
16
FC
1E
0A
FE
EB
FC
DB
FD
D9
D8
F6
0A
F6
FF
F9
02
FF
F3
FF
F1
16
14
F4
F3
F9
16
0D
06
15
08
0D
F9
10
07
E6
E2
F0
DE
F8
DF
FF
02
E7
04
FC
0B
13
03
09
F9
0D
0E
01
1A
03
00
19
01
FE
FA
EE
05
01
EA
DC
F9
FB
F3
EF
FA
F9
F6
F9
EA
19
FE
10
0D
01
05
0F
F8
FE
1C
0A
FD
03
E6
EF
E8
EB
DD
EB
F5
F8
FD
F5
F9
ED
E4
01
05
FE
EB
19
08
F8
00
03
0F
0C
FA
F5
03
F5
F1
F6
F7
01
0D
13
20
0B
09
F8
EF
F6
00
FC
F6
1F
F7
FD
16
02
F9
ED
E6
F2
F3
09
FA
04
EA
FE
08
1C
FB
26
02
FF
00
02
05
FF
FE
FA
0B
F5
F6
ED
F4
FF
FC
FC
E3
F5
04
FF
02
0F
0F
05
F5
00
28
35
07
06
EF
FF
F6
0E
FC
08
0F
14
FC
FC
03
F3
0F
0B
0E
07
E7
01
F3
05
11
1A
FF
11
0B
11
20
F3
E1
F2
0D
0D
FC
F9
DE
06
F8
09
F9
0D
FD
02
0F
F0
08
0B
F1
FD
16
0B
11
18
07
1E
11
FC
DA
07
EF
FF
0A
DC
DB
01
FD
EB
F6
F4
F8
FF
00
F1
FE
FA
FE
FE
F9
16
11
2C
0A
14
EE
F7
03
07
FF
F9
2A
12
EA
E7
06
EA
F0
FE
DF
ED
FC
04
FA
04
F6
F5
08
02
F7
F9
13
0F
F6
08
FF
04
FE
15
EE
00
0D
1D
18
FA
F8
07
00
0B
EF
08
03
F3
F8
F1
01
05
F7
04
0C
16
1E
FE
06
02
0E
FC
F8
F3
F5
F0
F2
17
F4
05
D7
19
07
E8
F5
0B
F8
DF
E8
05
00
E9
F5
F6
0F
10
00
FC
0A
07
F3
02
00
0E
FD
0A
0A
08
F0
F3
0C
E8
11
EC
00
FB
EE
01
0D
10
0F
13
04
F8
FB
F4
F4
06
09
F8
F1
03
08
F9
19
FE
0C
07
05
F9
13
1B
17
03
F7
0E
F3
0F
12
18
14
EE
F2
0C
06
09
EB
12
0D
F9
12
F6
FC
EB
0F
F6
FA
F1
12
F3
0E
16
03
F8
FF
FA
F9
02
F0
0D
0E
01
10
12
03
18
FA
0C
08
F5
F9
11
12
FB
13
09
FA
0E
15
19
F8
E9
0E
FA
09
F3
1B
FC
F7
FD
F6
FA
1D
0C
1E
06
FD
15
FF
1A
05
F9
FC
14
0D
13
FB
F1
E4
E3
F7
F7
01
10
15
0E
11
09
10
FD
F3
20
01
07
1E
05
14
10
0B
1C
17
0E
F9
27
FF
13
0E
EA
F7
FF
EB
05
00
05
31
E2
F3
FC
08
16
00
1D
1C
1F
1B
28
26
28
13
23
12
1A
15
18
2A
05
06
F8
F8
E1
09
16
FD
F8
03
08
EF
1B
0E
F8
0B
09
08
13
14
1B
28
2D
27
2A
1F
14
10
16
06
FF
DD
EA
E0
ED
16
16
F2
0F
E8
1E
F1
FA
17
0E
02
16
FD
08
26
10
27
0E
2A
1C
0E
FD
F3
00
DC
ED
D7
01
0C
03
0A
13
03
2D
F6
06
0A
09
08
1B
24
18
0D
06
07
12
11
0F
0C
0B
0C
EE
04
DD
E8
0D
01
0A
FC
14
06
14
F6
02
F6
0B
1A
F1
08
14
0B
1D
FE
F6
EA
06
03
11
0F
0B
EF
0C
F4
2A
0A
07
FF
16
05
F8
04
F6
EE
F2
EA
F6
F9
F8
0A
08
FC
FE
EB
05
1F
F1
08
0E
F6
F4
00
20
29
F0
F4
06
F6
F7
01
00
F9
ED
01
F0
FD
F8
F3
02
F3
07
F7
01
F2
08
FF
00
0C
03
EE
08
22
09
E9
FF
04
FE
04
08
01
0E
F7
EC
EF
D0
E6
E7
16
03
08
F3
FE
01
E9
FA
F7
EA
E5
E7
E6
1B
07
0C
05
F5
0C
E8
F1
F1
F6
F8
DE
F0
DE
FA
08
F5
06
EC
0A
F1
F8
09
F9
E1
F8
EF
F5
F5
FE
04
FF
06
13
09
FE
01
FC
F9
F4
F9
F6
0A
EE
F3
07
FB
02
F4
F9
FA
F6
04
FA
DD
DE
F9
14
00
FB
00
11
03
ED
F7
EB
EB
EE
00
FB
E6
FC
E0
E4
E7
00
F9
E6
ED
02
E0
FB
FC
F1
F7
F8
06
F9
00
F3
E4
F0
E5
E8
EF
07
04
F6
01
EC
DC
FE
E8
FA
ED
E9
0A
00
F3
FA
0A
09
E8
20
14
F8
EB
F0
F8
FE
F7
F9
FD
05
FC
FD
00
F7
01
EA
FB
E7
14
0B
F5
02
F4
F0
EF
05
F7
0B
0A
F8
E4
F1
E6
E4
E7
01
E7
0A
F4
EC
E4
F3
F7
08
EE
10
0E
22
00
22
06
F3
05
06
00
0F
FD
E3
0C
FA
13
F0
F9
03
F6
DF
ED
F0
0C
EF
FD
17
00
18
1B
FE
F9
0D
04
F6
02
F1
F0
0D
FE
02
E7
EF
18
15
04
0E
ED
06
E8
F3
04
00
0B
0A
0B
15
0F
06
10
1F
00
FF
F1
09
10
F0
06
0B
D8
FA
FC
F6
00
1B
0B
0B
14
FD
14
18
0F
14
FE
F7
EB
EF
FA
FE
12
1A
E4
FC
01
F0
13
0A
00
07
18
1C
20
0E
F6
0F
14
0F
02
0D
F6
02
FD
EF
05
06
0A
14
18
2F
E5
ED
00
FE
F7
FE
10
0E
15
27
2B
09
18
19
0D
13
25
1A
F6
1A
05
F3
09
01
F8
0C
22
3D
FC
F4
EE
06
EF
10
F9
0A
2A
0D
18
22
2C
2A
18
33
09
19
08
25
18
09
23
07
3A
1D
1A
29
10
01
01
EC
ED
F6
0F
1E
0D
24
37
2D
35
33
28
14
16
2B
3E
2C
2C
24
24
36
34
22
2A
0A
F0
FB
FB
EE
06
00
EC
12
FE
1C
26
15
16
2F
3D
0F
0C
32
28
21
29
23
0D
E1
E1
F4
EE
FF
FB
11
F7
FB
00
14
0C
F8
00
01
F5
F5
F3
F6
EF
FF
12
F4
00
13
11
12
0A
08
FB
0A
FB
0E
FE
08
05
F7
01
F7
F6
FA
E9
11
FA
F9
19
0D
00
F3
FD
F1
F6
FA
09
3B
16
04
0E
F2
EF
10
0B
F6
FF
14
F3
FB
FF
F7
0F
FD
FF
F4
03
04
05
29
00
F1
E7
FA
F3
07
0A
0C
F1
FD
0F
0F
04
EF
FB
09
0E
FA
F2
1A
05
13
16
0E
16
09
F9
15
FE
EB
D4
E4
07
F0
00
0A
13
15
1B
0F
ED
00
F5
04
F3
FD
FA
34
20
02
FF
09
F9
EF
13
FC
07
FB
E7
F5
ED
14
00
06
F2
06
ED
04
F1
08
FE
FD
11
EE
14
2B
FE
0E
04
01
F0
11
F7
F5
10
F8
00
FB
14
FA
00
FD
FB
F4
F8
0A
DC
F3
19
14
10
1A
30
04
0A
F9
FC
FA
1D
07
E7
0A
F7
E4
09
FF
0C
12
E1
EB
DE
EE
F1
FD
E7
FC
0D
16
00
19
1B
2A
14
0F
18
08
FD
ED
F5
DA
DB
F8
F4
0D
34
FA
DF
DA
E8
FB
F8
11
E8
F0
01
1B
10
FD
15
1E
0E
1A
0D
F0
F1
FB
EE
E5
E6
E4
15
28
1E
FE
DE
CF
DA
D8
E5
07
FB
0D
10
15
01
FD
08
1E
F9
EE
EE
00
E5
E9
D8
EF
10
16
21
22
03
F4
EA
E1
E1
F2
FD
F8
F7
FB
F4
0C
12
0A
05
13
F6
FD
F0
E3
EE
FA
F5
12
09
29
11
0C
ED
DD
BC
F3
F6
F8
06
0F
06
F4
05
19
FD
1A
24
0A
1D
F0
E3
EF
F9
17
16
27
1C
0E
0E
FA
D1
DF
E0
EF
0B
FB
17
00
DD
F7
F2
10
1A
29
07
0E
1F
0E
F1
0C
05
F6
23
1C
00
11
04
EC
E6
EE
04
F1
04
13
02
00
E5
DF
FD
FC
14
26
FE
F0
1A
0A
08
F4
02
1B
F4
07
E4
11
0B
F4
F8
FC
0D
F7
0A
EA
17
11
F7
F2
EF
14
1E
11
12
E7
07
0B
FC
0E
15
08
F2
F6
08
FD
E4
ED
08
0C
00
10
FF
01
FE
13
05
E4
EF
19
17
15
1B
FB
08
0C
FC
05
10
F2
EF
FE
FD
E4
00
FE
0F
02
03
F3
13
03
0C
FB
E7
E4
09
03
17
18
20
07
0E
1D
0D
09
FC
F7
03
FB
07
0F
04
13
11
10
19
0D
14
FB
05
FB
E7
D4
DE
01
01
2F
E7
EB
F7
05
F3
0A
07
DE
E9
F7
16
EB
18
FC
0D
FB
0B
FB
1C
19
EF
ED
E9
EB
E6
0B
0A
10
FB
F7
0C
09
0C
F1
F3
F4
01
FA
0A
FB
F8
21
14
0E
0B
FF
0E
06
03
EE
01
EB
00
EF
F0
19
F6
06
ED
05
FB
E1
07
F2
EE
F8
EF
0A
EF
0D
FA
17
0C
0E
07
04
F6
FC
F8
EF
F9
F9
FC
1C
EE
FE
E9
07
E5
F6
FB
FF
F4
FA
FC
0C
19
12
03
15
F6
1B
F2
FD
E8
F3
DF
EE
F0
06
03
FF
E3
FA
E1
E4
EF
EF
0E
EA
03
F7
E9
05
0B
1E
09
0E
FB
FF
F5
EF
E4
EB
05
02
ED
0F
08
21
0C
F1
03
F0
F0
04
05
0B
F0
08
F1
EF
07
FA
1D
1A
FC
09
EF
F5
F0
E2
F0
FE
EF
FA
EE
1B
06
F7
FB
EF
03
0C
F7
FF
06
E8
F2
05
04
06
0B
18
04
10
F9
09
E2
F1
E6
E8
F6
EE
0C
18
15
1D
07
FA
FC
FD
FD
06
0A
E4
FB
EF
F6
FC
0F
0C
01
27
05
02
EA
FE
0E
16
13
14
F8
FB
0A
F9
05
26
26
19
0D
15
12
FC
EF
09
E8
12
F2
FB
01
F4
FC
08
03
F5
F7
13
ED
FB
02
EF
FB
E4
FB
0E
0D
1E
17
0B
0B
0C
23
0A
E8
F6
FC
07
10
E9
08
16
0F
01
EE
FD
ED
06
F6
FD
0A
0E
19
09
01
E2
FC
F2
FA
F9
16
05
F8
1A
28
0A
EE
FD
14
22
0C
14
0D
11
01
14
0D
F6
F9
0F
FE
F5
F3
F0
F1
FC
F9
03
FF
05
03
ED
07
F9
02
FB
F0
F9
FF
00
EC
ED
13
FA
F4
EC
F5
F5
15
0C
FE
FF
0C
09
07
E9
04
EA
05
1E
24
1C
00
F8
04
FA
17
F7
09
FE
08
F7
F7
0B
12
FF
FB
F7
10
EB
0D
FF
F8
F5
07
F8
FC
F2
00
E4
EA
E5
F3
FA
27
0B
12
06
FA
EC
0C
F8
02
10
01
0C
FE
F4
07
EF
E1
F8
FB
ED
EF
E2
02
F2
F5
EC
FC
F2
DE
ED
EC
FF
14
02
1A
03
08
0E
1A
10
F5
0A
F3
FE
00
02
0B
10
08
ED
07
F6
0B
0A
FA
F8
EC
00
DB
E1
F3
05
04
13
FE
02
19
E8
FD
0A
01
F6
F0
E4
17
F2
FC
F3
0B
F8
0E
FE
02
F6
0A
03
CF
13
0A
FD
1E
18
F7
22
02
F7
F8
F2
E6
EE
E0
DF
F6
02
DD
F2
10
EF
F4
0A
FE
16
0E
17
FD
FB
08
F1
F7
FB
FE
0C
F7
00
FA
EC
E4
DB
F4
FB
E2
FC
EC
EA
FD
F3
10
F6
FC
12
FF
FB
E1
0D
FC
FF
16
FB
15
13
13
1A
F0
DC
F3
E1
DB
E6
EB
E3
EB
FA
FC
02
05
13
0A
FD
EC
F9
04
13
09
0C
07
04
11
14
17
05
FF
06
E3
09
F0
E2
DD
D5
F7
19
1B
0C
06
06
F8
0E
EA
EF
1F
05
09
F2
F5
F6
F8
0D
0D
ED
F3
1B
0B
F2
E0
E0
E3
F5
1B
2E
1B
1D
12
FF
09
00
06
24
31
22
FC
F2
00
26
1A
14
13
FF
0F
1B
15
08
F6
F1
FE
F9
25
32
0F
1D
03
11
0C
00
13
34
1E
FD
FE
FD
FF
05
21
FE
EB
ED
0E
FF
F3
09
08
F5
1A
19
10
0C
F5
F7
FB
E6
F9
FD
1E
1A
22
20
1F
F8
05
1A
EE
F1
EC
E8
11
1F
05
0E
0E
03
F7
1A
FA
F6
FC
F0
E0
CB
C3
C5
FA
01
15
22
ED
FB
12
06
10
1A
FE
E1
F3
F9
0D
17
F6
10
FF
EB
0D
08
E6
F7
F1
ED
E9
E5
D3
02
EC
08
FC
08
04
14
07
0A
19
13
18
FF
F4
F5
09
EF
EE
FC
EB
07
0D
FE
ED
DF
E6
F7
DE
0C
ED
0D
06
ED
02
F1
FA
2C
2D
0F
EA
E0
EF
E0
03
F5
FC
F4
F4
02
01
F3
FD
F3
F4
06
DE
F6
02
F4
F7
EE
00
05
FD
29
1C
2C
E8
E2
E6
01
EA
10
FB
F2
F4
0B
F8
0E
E8
EF
ED
E5
0E
F5
FA
0E
19
14
0B
19
11
16
FF
10
EC
FA
EC
0A
15
0D
0B
0F
10
1A
FD
FD
EC
D6
EB
EF
E1
07
F5
0D
FB
0A
02
0A
EB
20
F1
F7
15
F8
07
FE
2E
21
14
F5
0A
05
EF
EC
D5
E7
F7
FA
E7
0E
FC
F9
08
01
12
00
E2
0F
1C
1B
07
0C
01
06
1C
F4
FF
05
F6
F1
E1
E5
E4
DD
D5
E8
03
FC
0A
03
01
17
02
04
E5
EC
12
01
02
FC
0A
F7
EB
F7
EE
E0
EE
E8
F0
F3
CF
D6
E2
E9
F8
FF
08
1D
F2
0B
05
ED
CD
FB
F8
05
F5
0F
12
FB
08
EC
F8
F3
01
FA
E2
F6
D9
E6
F4
FB
E8
10
0F
22
03
EE
14
25
08
11
00
F7
0B
0B
EE
FD
14
13
18
E5
F6
E6
E1
E1
FA
F7
01
F7
0A
1F
F4
1D
FD
FB
EC
FC
19
00
E2
DB
E4
DE
F8
F0
01
F4
0D
FC
F6
01
E2
E0
F7
FF
FE
1B
F5
0D
E7
E8
0C
EF
EC
F8
FA
DE
FD
00
E7
06
F2
FB
FE
17
FD
F5
F0
08
FE
02
16
F1
04
F9
03
1D
F5
F0
EC
04
13
F5
F9
2D
32
19
18
08
0F
EA
14
16
0D
E9
0A
0D
14
0A
0C
17
F6
EF
03
E7
08
14
F6
FF
F8
F1
FE
FA
09
E8
10
0E
25
09
EA
03
20
09
FB
10
0B
16
08
12
0A
F8
FF
03
F6
EF
00
14
02
F2
F7
EC
0A
07
F5
03
12
11
F6
02
ED
0C
ED
07
14
F0
03
F4
10
F3
F8
FF
F3
F1
F7
0B
05
F0
10
F1
00
13
05
F3
06
10
0A
0B
F9
FB
FF
EC
05
FA
E2
F4
F8
FC
F4
14
FF
F1
ED
F6
EC
0F
FD
FE
06
EA
E7
DA
E2
C1
D6
FC
DE
FA
01
F4
DA
E5
D9
D8
C9
ED
E3
EB
0B
FA
04
08
EC
13
F0
F8
F8
01
0B
F3
E9
E0
D5
FC
F0
FD
ED
F4
D3
D5
C0
D3
D2
EF
D5
FA
E1
F4
F9
F0
09
03
07
ED
EF
0F
07
07
02
03
FC
09
FC
03
F1
08
FB
E5
E5
E6
F6
EE
08
00
FB
E6
DC
07
F3
F8
ED
09
0C
0F
01
14
ED
ED
09
E0
D2
EC
F6
02
16
0C
E5
F3
08
F2
0B
EE
CC
CE
EF
08
0E
ED
F7
1E
19
1C
01
F7
FA
EA
E1
D0
B6
F7
F3
13
FE
13
09
06
02
17
07
09
D7
DB
DB
F5
EC
EB
07
0B
19
10
FF
F5
02
01
E9
E0
D0
F2
FB
0D
F4
F7
F0
EB
F3
F2
0F
F1
ED
CE
E2
25
05
04
0A
17
19
14
ED
F7
F9
FD
E2
D0
D9
E6
0F
13
04
0F
05
F7
EF
FB
EF
F7
00
C6
0E
0A
E5
ED
03
15
EF
F4
01
0D
F5
10
01
CC
D2
E3
FB
15
20
03
F0
EB
F0
E0
E9
FD
FB
F9
EA
11
FB
FA
03
FD
01
F3
02
F9
08
04
F6
D3
EE
F9
12
2B
23
FE
00
FB
F7
04
FC
F0
12
0D
F3
0C
0C
FC
02
F7
EE
F9
00
FC
19
F5
E9
EB
02
F3
17
13
14
04
FD
F1
0E
FA
0F
09
17
FB
F1
FB
12
F0
FB
DC
FE
EB
07
17
F1
ED
FE
F5
11
EC
1F
05
19
F6
03
10
08
0F
FB
05
0D
26
13
04
FB
04
0A
02
15
01
0C
FE
13
21
21
11
F7
FB
0C
15
02
15
F5
00
07
04
F4
08
FC
24
06
FC
00
18
15
F3
19
06
1A
05
FC
07
1E
0F
19
0D
FD
1F
00
07
07
0A
0B
04
17
05
F6
0A
16
12
FC
11
03
08
05
07
06
F2
06
FD
17
0E
1F
18
FF
12
FF
01
06
F8
F7
00
FC
15
03
0F
ED
13
EC
F9
F3
09
FB
18
F9
05
09
F4
1A
1C
16
13
FE
1E
12
14
13
20
1B
FD
14
13
F2
04
F0
0B
F5
F7
F6
0E
FC
FC
01
F6
13
13
FA
12
0B
01
1D
06
19
04
03
0C
0D
0F
18
06
01
0C
11
FB
F5
E6
09
06
08
FC
ED
0A
0C
0C
0A
F4
0B
F1
F2
07
06
0D
FA
F9
06
F1
0E
1A
FE
12
F9
EC
EE
F0
F3
0B
DE
E9
11
F5
F3
1C
02
E7
06
FC
F8
10
02
EC
E9
E7
F3
08
EE
18
10
05
FF
F8
EB
E3
EC
DD
DB
EF
F9
F8
11
0B
09
ED
DA
E9
E3
E5
E9
F5
D9
D0
DA
EC
F0
F3
13
09
18
03
F2
FF
03
0F
03
F5
E1
F9
04
F6
E1
E0
DD
F7
E3
F8
D4
FA
F0
FF
F2
DE
FE
14
15
F9
12
14
15
F0
16
11
0F
0A
F1
EF
FA
F7
F4
0E
F0
E7
FF
02
FC
DB
EA
07
EE
E9
E8
02
01
1B
F3
F3
02
FF
12
FF
F0
F7
0D
E3
FB
04
11
09
FC
EE
F5
F9
DF
FA
F1
F2
16
FE
F0
0E
16
0A
05
02
F2
0E
F4
D1
D7
D2
DF
F7
0B
EC
02
EA
FC
F8
EC
03
FE
F0
09
F4
EB
F1
F2
0A
0E
FF
05
ED
F9
EC
EC
E7
B5
BC
D6
DC
E1
C7
E5
E4
CE
F0
F7
FE
E1
F6
DE
E4
FD
07
09
14
13
20
01
FD
07
F1
00
05
F2
E6
E9
C8
DB
D8
F0
E1
E4
E7
D3
F5
E6
E5
CD
C1
CD
D9
F5
E0
FE
02
F9
F9
02
12
F1
FD
FA
F3
F0
DC
F2
E3
DE
00
F7
D6
CD
DF
DC
F1
F4
FC
FD
EA
F7
FB
EE
0E
F8
FE
FD
0C
F7
F6
0E
09
12
0F
04
FF
01
07
04
F9
EC
F7
F8
FB
05
13
0F
11
FC
08
F9
05
11
13
F7
F1
FC
07
F8
FC
02
F6
04
05
F8
17
08
ED
EC
F3
EF
09
08
06
F8
FA
04
F8
00
02
0D
0E
05
FD
F9
03
0C
E9
F9
08
01
F4
FC
01
FC
F4
E5
E8
F4
EE
0E
1D
03
19
11
04
E7
EF
FE
06
0F
F9
18
09
F7
E1
F4
0F
10
F9
1F
10
14
02
09
03
06
02
02
17
22
03
08
26
F9
11
07
F8
0B
0E
FF
FB
0B
FD
F9
00
00
0D
03
EF
0B
F2
F3
F7
EF
05
07
06
F7
06
1E
0F
0F
21
26
0A
0A
0D
FF
EF
EE
E1
E7
F3
F6
0B
12
04
EF
09
08
0A
EA
ED
00
F7
E1
D7
FD
EA
01
0A
1D
0F
FC
00
FB
E4
0B
0A
13
14
12
11
16
12
F7
09
08
FD
ED
F0
DC
E2
00
0C
F7
02
FC
F7
EA
EE
D2
1C
EF
ED
0E
FF
F1
04
13
02
03
16
10
01
DA
DF
E5
F9
0A
E5
FA
01
11
0E
02
15
21
F7
FB
16
17
13
FD
10
0B
EE
04
0D
FA
17
04
EE
FB
EB
E2
E7
EC
E5
E5
E9
0D
F1
05
F2
09
0B
F4
14
09
FD
F7
F6
F6
ED
F3
F1
FB
E8
07
02
13
0E
04
E2
E5
F2
0C
0E
0B
0B
F9
DF
04
FB
F2
02
1A
1A
F2
06
FA
F2
10
FC
02
F7
0E
FB
05
FD
FD
07
F7
E6
08
EB
07
0D
F9
EE
F6
F8
F1
EF
F8
F8
0E
0A
F2
00
F4
EF
FA
03
FD
F5
1C
0D
11
12
02
FD
07
E8
F1
F4
F6
F5
05
0F
02
03
04
0F
F0
08
F7
11
05
F0
FC
EA
09
0B
13
12
19
0E
03
EA
E3
F7
F6
0B
F7
01
F6
12
EF
F4
11
13
03
13
F4
F2
F1
FA
FD
E4
FD
F9
F3
08
00
07
11
F6
E6
ED
FE
06
08
FF
EC
EA
F9
02
01
F3
03
F6
19
0D
01
12
F7
09
F5
F0
F9
06
01
FA
FC
F2
F1
DE
F2
00
0A
0C
00
E8
05
E6
FB
FD
D5
01
F6
0C
FE
0C
FD
05
04
F6
F7
0E
F8
16
FB
11
ED
E4
06
22
07
F2
02
0B
13
EC
EC
03
FA
F7
03
0D
19
0F
F5
F7
FB
0F
ED
FC
00
0D
11
12
02
E4
F4
0A
FF
0B
0C
15
0C
06
02
F3
09
F7
EC
F9
0B
03
0B
06
1A
08
03
FA
F4
00
F9
01
0C
EF
FD
F8
0F
F5
FB
F1
F9
15
F0
ED
FF
FE
0F
09
FC
16
FA
01
04
F3
FC
F0
ED
11
FA
FB
FD
EF
12
FF
04
FE
F6
EE
F1
FD
FA
0D
F6
F9
F8
13
1D
12
17
12
F4
EC
F2
03
07
03
0E
0D
0F
F3
F8
10
0D
D2
0C
FA
15
F7
F3
18
F0
F7
06
04
01
FE
0C
01
F8
00
F8
EE
03
F9
0C
03
00
0D
FD
0E
0C
E0
0D
0B
F1
FD
EB
07
09
F8
EF
EB
10
0C
EC
E2
E9
FF
E9
06
EB
FD
0F
09
15
0B
0C
0A
05
F7
FD
04
F0
E8
08
F5
05
E7
FE
FF
02
F7
04
05
F8
00
F2
ED
E7
F1
EF
07
0B
18
0C
0D
FC
1B
F5
FD
FB
20
0B
EC
03
F5
EA
EF
15
F7
F1
06
FB
E4
DD
E3
E6
0D
19
19
09
1D
17
11
FE
EF
FD
10
07
FB
06
1C
0A
F8
FB
E8
0E
F8
EA
03
E2
06
E9
07
E2
05
0D
00
09
25
09
0B
E9
F5
02
07
F1
06
FD
17
18
FA
06
EF
F7
06
EB
F0
F4
FA
F5
FC
0A
10
FF
04
0A
12
04
10
F5
FC
F6
F1
EF
06
0D
04
F3
0A
F6
0D
0B
F8
EE
0D
04
FB
F9
E9
04
FA
F4
12
15
F3
EF
F9
10
FA
07
0F
EC
02
F0
FA
FA
14
08
FF
19
EF
09
F2
E2
07
04
02
F1
F5
F9
F8
D6
D9
DF
13
09
08
FE
13
F2
F5
ED
EC
0E
0C
EF
F5
14
FD
F1
E6
E9
15
FB
FC
FA
F3
0A
10
03
FA
04
EE
14
FD
11
14
0B
11
FA
FA
FE
EE
E6
F0
E4
E6
F8
EF
26
0E
EF
03
F8
14
1A
F8
05
E5
07
EC
F7
08
FA
0F
F1
F4
FC
1A
E1
F6
F9
EF
FA
08
13
EF
06
E0
E6
E8
E2
CA
EF
DA
E8
F4
0E
17
F9
0C
F1
F3
15
0C
05
F9
D9
F8
F9
CE
DC
E5
F5
DF
F3
F0
02
F6
05
EC
09
FB
03
F8
02
13
F4
02
13
08
0E
17
01
05
D5
DF
F8
F2
ED
EA
FE
FE
F2
F8
17
F9
02
FB
14
08
1E
03
0E
08
F4
12
02
EF
F6
0F
04
DD
EE
EC
F8
F2
FC
F7
F0
F1
0D
06
07
F2
FC
F9
EF
FA
05
09
EC
F8
0D
05
FF
F4
F9
14
F6
DD
F5
01
ED
F9
F4
F7
F2
F6
13
08
0F
15
1F
14
24
01
FD
04
F7
E6
E5
F8
E2
07
05
0A
ED
D9
DA
F4
01
0A
F1
16
06
00
F4
F9
13
1E
1F
1B
13
03
1C
F3
0F
FB
FA
F2
02
E1
FA
F3
10
F2
E5
E1
09
EE
FF
FF
FE
F4
10
0F
08
00
0D
29
21
0D
F7
03
05
EE
D6
01
05
F6
0A
0B
00
E5
F6
F4
F4
FF
F8
08
EE
02
06
08
EE
0F
1C
1A
1A
1B
1C
19
08
FF
E0
D2
0C
F7
FA
0C
13
09
00
0E
FA
FC
14
0A
FB
F4
F6
EC
09
06
0E
F8
16
10
01
0B
1C
F8
E7
DF
F9
F2
F2
0F
17
F1
12
0E
08
03
09
09
11
FF
F5
EB
DE
FF
F7
FA
0B
10
2B
25
06
F9
DB
E9
17
F7
17
12
11
12
17
0B
0D
FA
FB
FF
F4
F7
F7
E9
EB
D8
FE
F9
04
0E
28
13
1A
27
EE
ED
0F
FC
0E
FD
17
09
0D
1C
16
05
02
F9
F7
ED
00
DA
DA
E4
EA
FE
04
1B
16
1B
1D
18
0A
E4
1A
F3
FD
F6
0C
07
0B
06
19
F2
05
0B
05
ED
04
E6
F1
F6
F5
F1
10
25
03
03
08
0F
0A
F7
F5
FD
0E
E9
04
0E
01
08
15
06
10
FB
13
E8
E7
F1
F9
FA
05
10
1C
18
14
02
23
06
E4
EB
F2
14
F2
F6
E4
01
EF
FE
F2
0B
0E
FF
F3
FF
EC
09
02
EF
F6
09
F9
FE
0D
FF
F9
03
FB
DF
0F
F0
FB
06
DD
E4
E6
06
E5
0E
00
01
F5
F1
FF
01
F1
EC
E4
FF
F3
F7
EE
20
FB
1B
F2
00
F4
19
10
00
EF
F6
F6
F6
10
09
0C
0B
FD
FC
00
F9
E9
EE
EC
FD
FD
EB
00
F9
FE
0B
F1
F3
FA
06
0B
0B
E3
DF
F9
04
16
0D
02
0B
0C
20
FB
E3
D7
E1
F6
EC
F1
0E
F1
F6
F1
FB
EB
FC
14
09
20
F7
09
00
E4
EF
ED
F2
FA
0B
23
20
0C
DE
F0
E8
F2
EF
0D
06
04
0E
EE
04
06
11
10
1A
03
DC
EF
01
EC
E8
F9
F7
F5
0F
1C
0A
04
E5
DA
EF
F0
F2
ED
E1
E3
EE
E1
1A
1A
F9
15
15
F0
EE
02
FC
03
FB
01
FD
04
FE
1A
05
05
EE
FB
EA
E6
E7
F6
05
01
F8
FB
22
F6
12
F8
0E
F9
DE
EF
EC
02
06
EC
03
05
1A
04
15
0D
F9
E8
F9
E5
E5
E2
F6
FC
1A
03
10
F5
13
0C
0D
0E
FC
D4
11
16
FF
02
03
0F
21
0E
06
F3
E3
F4
D0
DA
EC
E7
F9
0B
F7
13
E9
F4
05
F1
F2
F8
ED
F3
1A
1F
F5
0C
08
FF
26
0F
0B
F8
02
ED
BE
D7
D2
F3
0C
10
08
03
F0
F7
F4
02
02
F9
0A
09
01
17
07
0A
05
15
22
19
F7
07
0F
09
DA
FA
EB
DC
FA
03
06
03
23
0D
FD
11
F0
FB
0B
14
EA
FA
18
F8
05
E4
F5
13
00
04
FC
E0
F7
03
0C
0C
FE
06
16
15
F4
FD
FF
06
13
FD
03
EF
01
EC
F1
FA
01
02
09
FA
FB
FE
09
EC
F5
0A
EC
FF
FB
FA
F9
F6
05
F3
F4
F2
0A
EC
10
FD
F8
F8
11
09
1F
0B
FF
FC
14
15
0B
0D
F9
08
18
12
07
FE
1B
F5
FF
FD
F0
04
06
12
22
0A
2B
09
07
18
00
00
18
17
13
F3
04
0B
F2
02
18
11
17
20
01
03
ED
E8
FC
0D
EF
09
09
FD
18
17
0A
09
1E
12
00
16
F6
FF
02
10
F9
FF
07
FC
0B
1C
16
F8
EC
06
0E
EE
11
F1
F3
FE
FD
11
10
02
0F
FE
17
0D
FF
13
28
FB
F9
07
E7
12
00
FD
16
0F
09
FE
09
FE
F1
F8
EC
EB
00
22
FF
10
15
15
EF
F1
07
F0
F9
06
00
F8
00
10
02
FA
FF
08
0C
0A
08
02
F6
18
F8
02
0F
04
21
F2
F6
0A
F9
FD
0F
04
00
E8
EC
FD
FB
11
13
FF
07
0B
0D
1A
DC
F5
F4
30
EE
0A
0E
17
04
15
F3
FC
01
F2
03
ED
FE
08
F2
FC
19
0C
0A
F4
12
0D
0D
2C
ED
FF
F5
19
FB
1A
FE
0E
F9
05
14
0C
15
11
16
0E
FB
F3
F1
1C
1C
03
17
19
F8
FD
0F
1D
01
0F
1C
F5
09
05
04
FC
0D
FC
08
FF
00
01
0A
FF
F0
FA
FE
1D
1A
FD
13
11
0E
09
2C
0E
1E
00
02
03
23
1C
05
14
FD
0C
10
07
08
FA
04
F5
D9
F6
FA
0F
0C
06
05
09
09
2C
31
1E
F2
11
02
FC
1F
19
04
FC
05
09
08
07
F1
E9
E7
FB
EF
DE
08
10
0C
E3
F6
16
06
1A
1F
FC
09
09
FA
16
1A
01
ED
15
02
11
0A
08
0B
01
11
07
02
02
06
0B
05
E4
FE
0A
F8
34
19
FD
ED
E9
F7
04
23
10
F8
0D
F8
13
FC
04
18
07
06
1C
06
FE
03
02
03
08
0B
06
22
26
1C
F8
D2
ED
07
0D
10
EC
E4
F9
0F
03
FA
F5
FB
1C
01
07
F5
FD
DA
E1
F3
10
00
20
1E
12
03
0B
F0
E9
F9
09
0A
F3
FA
F4
0B
EB
E7
12
0C
03
FE
F1
0F
06
F9
ED
FF
06
1C
14
12
20
0C
EE
ED
F8
01
05
14
FE
FD
E4
0F
16
11
FC
0B
00
02
FE
05
E9
EF
FD
FD
15
0F
20
FB
06
05
FE
E4
05
14
13
1A
F7
0D
F1
FD
EA
F8
FF
F3
05
FF
E5
F0
F9
E7
00
13
18
1C
14
18
12
0A
F6
E8
0C
F9
EE
05
01
FC
11
03
FB
E9
E0
E8
E8
06
FA
FE
F7
04
0F
06
FD
05
05
04
EE
FA
DB
F8
00
06
1C
2E
00
F7
03
05
F3
03
02
F0
01
FB
0F
0F
FC
10
23
14
F5
F3
EE
00
09
E4
F2
EB
FF
09
11
FE
FF
F6
0A
F6
F9
E6
FE
01
F5
EE
01
11
FB
05
F9
01
F3
EF
FB
FD
E6
F1
EE
F7
02
02
F4
FF
0F
FF
FF
0A
FA
FF
F4
0B
11
19
18
FA
16
FF
F8
FF
03
EB
0A
ED
E7
E4
E9
F2
0F
E6
F5
FD
E7
06
FB
F4
EC
F8
01
00
07
1C
04
09
09
08
03
E8
07
E4
F7
E2
E7
EC
EF
0A
09
0D
F1
ED
0D
18
EC
FF
E5
07
F8
13
14
1B
2D
16
25
07
ED
0A
F8
D9
F6
EB
EE
EF
E4
F3
EC
F2
08
01
30
0A
01
0C
F8
13
0B
1D
1F
0B
0D
08
06
16
E5
E2
DC
CC
DD
FB
E6
F7
F7
FA
02
03
FE
E5
FE
F5
06
EB
10
0F
08
27
0A
24
17
0B
17
06
F7
01
E8
FB
0F
05
EB
15
0C
FB
FB
F0
FC
FA
03
EB
FF
05
03
01
0C
04
FF
0B
08
02
ED
08
EB
00
16
F4
08
05
07
F9
F8
02
01
06
10
02
05
1E
0F
06
E6
F7
EB
F8
02
F0
FF
ED
E3
F4
1C
0D
F5
FD
14
27
06
11
13
0F
FE
10
01
0D
14
12
F8
08
F0
12
F2
0E
FC
16
FB
F1
0D
01
0D
07
04
0C
0B
11
F4
0A
0E
ED
FC
09
06
F6
F4
06
FC
0E
FF
EC
0C
12
FC
08
ED
F2
F0
F9
ED
00
17
18
10
29
12
0D
FE
FC
F4
F7
F5
F9
EF
11
FC
09
F6
0E
F3
F9
FB
ED
F5
04
F8
0D
0C
0B
F7
18
F9
02
17
03
F7
05
12
04
02
E2
FC
F5
F5
0D
03
EA
E3
DC
E4
E9
D5
E7
E0
E5
0F
F4
01
1C
08
13
EA
F7
12
FD
FE
01
04
FF
E8
FD
FE
05
FB
E7
E5
EE
EA
E1
F8
D9
FA
E5
EF
0F
F9
04
FB
07
FE
05
07
F0
F8
10
03
F2
0E
F6
F3
0B
F6
E5
F4
04
EF
EF
08
FA
03
FF
F6
E7
02
F4
02
E7
FB
FF
E8
E6
FE
13
F2
01
E9
0C
02
F1
FC
F6
F9
EA
E0
E6
E9
03
F1
F5
07
11
07
12
EB
0D
09
06
00
F9
F4
07
FB
FE
F0
04
00
E4
F4
FC
FA
DD
E4
F6
F1
FC
F2
04
04
F8
13
F8
13
F6
FE
13
06
0D
FB
12
01
15
10
F3
DC
FD
06
F7
E1
DD
EE
E5
F4
10
FF
0B
0E
17
FD
05
17
0B
1A
1D
14
12
16
0F
F5
16
FA
FD
F3
02
06
09
FC
F1
E8
FC
06
1D
20
14
F8
0A
05
13
18
29
0A
1B
1B
04
10
14
05
ED
EC
F6
F9
08
0D
E1
F0
FA
EB
FD
01
20
18
FD
01
F8
0C
09
25
19
04
2F
18
13
16
01
1E
0C
F8
EF
FC
01
0A
EC
EC
F7
FC
ED
12
08
F3
ED
D7
C7
CB
D4
EA
04
EF
10
18
11
23
FE
07
FE
13
E0
FF
FA
FE
EE
FF
02
F5
13
FF
EE
E5
EA
E3
BC
AB
A4
B7
B8
CC
CF
0B
1A
1B
0C
EB
00
0E
F2
FD
02
F8
01
FE
FA
00
F1
FC
FA
F5
F3
EF
DB
D9
BE
AE
C1
D1
E4
F0
00
0E
0F
FE
16
0A
01
14
00
21
F5
0C
11
04
F5
0B
F4
FE
0C
01
10
01
F4
DB
EA
E4
E9
11
11
11
FF
08
1E
0D
FF
0D
14
FD
19
05
0B
05
18
1A
04
FE
14
F8
10
EA
D7
CD
DF
E6
E9
08
0E
FA
02
1C
F7
10
10
14
F8
07
1B
F8
10
09
F2
07
F6
FA
03
FC
12
F0
F9
F3
F8
FD
FA
11
10
07
0B
04
E1
1E
13
03
04
FF
ED
F4
0E
FE
02
08
FA
01
0C
F1
F9
14
08
E1
DD
06
06
16
10
07
06
06
07
21
15
FC
F8
02
E8
FD
E9
F2
25
16
1C
0C
FE
0B
FB
21
FA
FD
06
EB
06
EF
FE
FC
15
EB
26
16
17
05
FA
F3
F6
04
EA
F6
1F
1C
FD
00
0B
FE
06
0E
F2
F4
F6
FE
EE
03
06
16
0D
FD
14
E0
EF
09
05
FC
E9
F0
03
FD
1E
03
16
1A
FC
0D
FA
FE
02
E8
F4
06
FA
F2
10
0A
FE
F8
FB
ED
FF
F6
E4
F9
FF
F6
11
FD
11
EF
04
FC
FC
F4
17
F6
08
FC
07
F1
01
F5
03
FE
12
00
05
F1
00
EB
F8
04
FD
07
0A
00
18
01
01
FC
02
FD
12
EE
F0
F4
05
14
F9
09
0C
0A
FB
FB
0B
FB
1A
E2
E9
F0
FD
FF
00
04
19
0E
18
F8
14
EC
FF
F3
0E
ED
01
ED
08
F5
14
07
09
0A
F1
EB
F9
F1
F5
EF
01
0B
07
FC
05
F7
FF
00
0C
FB
0E
F5
01
F2
08
0E
06
EC
F8
04
FC
FC
0D
05
0E
FD
F6
F6
0D
FA
FD
E8
0D
06
FE
F2
05
07
12
0E
F0
FB
0B
20
25
00
11
FF
FF
F3
FC
F0
04
1C
F7
E9
DE
F4
F4
EC
FD
FC
1A
1E
FF
06
06
10
25
07
0C
F6
F4
F3
F4
F2
11
11
0E
06
05
F7
12
23
12
30
15
05
0F
16
19
03
0E
0B
0A
FA
F7
F5
12
FE
F9
F3
0F
03
10
F9
FB
00
F1
F6
00
0D
09
0A
EC
F3
07
20
1A
FB
F5
F2
14
FA
05
0A
00
04
02
F9
0D
F6
F7
F9
F8
0E
0D
0B
0D
0E
04
05
17
F2
11
01
F7
02
0B
05
21
0D
1D
12
0C
FE
10
F6
FA
04
F9
FF
0E
1C
23
04
0D
21
22
13
31
2D
18
17
11
08
0B
0A
10
09
16
1E
08
FD
14
19
0C
0A
EC
0F
04
2B
F8
1F
10
31
39
21
17
24
37
2A
06
07
0E
0B
01
F9
10
E4
01
0C
F5
F3
FD
FB
07
EE
F6
0D
FB
09
08
F0
04
0D
14
F0
06
EE
F8
08
F1
F9
FA
10
DE
F7
F7
E9
F8
EE
01
0A
0A
07
06
F2
01
F2
E3
F3
F7
11
F7
FA
01
08
EE
FB
F7
13
F5
F9
FA
F4
E6
E4
E4
FB
03
0F
05
04
1D
0C
18
02
EB
01
09
F6
FA
FD
E9
E6
F8
F7
FB
FF
F9
0A
F6
00
F6
D5
DC
E5
EF
E3
09
E9
04
07
1B
EE
FC
EF
F1
F2
FF
F3
F5
02
FC
FB
ED
02
EB
03
E3
F6
F3
E2
BE
D2
EE
DD
0F
F2
04
FB
00
F1
D6
ED
03
06
11
FE
FA
EB
07
04
F5
E8
E6
08
07
F5
E0
E8
D8
E5
DB
FD
12
F2
01
0F
0E
DA
0D
FB
17
11
04
FF
FF
F0
F6
11
08
EC
E9
E9
FE
06
F0
E0
E5
D8
01
F1
09
11
0F
15
18
10
11
FE
16
13
E4
FC
08
0B
0C
FE
0B
0A
FF
0F
13
F1
FC
FA
E7
F6
02
EA
EA
F2
FC
F5
F7
00
FD
09
0B
E9
F4
E9
F3
F0
F4
F3
F8
F0
FB
FC
FE
12
F5
03
02
E8
D8
06
F3
EE
14
1C
0C
FB
07
EA
F3
DA
01
F5
11
09
EB
F7
0E
FA
F1
03
FD
09
02
12
FD
ED
08
09
EF
DD
13
26
FF
FE
09
01
E0
F5
12
FB
0E
F0
03
EE
07
E6
F3
0B
F7
08
03
09
15
0E
23
F8
F5
F1
08
2D
26
0C
07
F8
0D
F2
FE
09
10
F7
F0
ED
FB
EE
F4
F8
1B
F3
11
0D
F4
07
1F
FC
EC
04
04
0C
02
08
06
09
06
F1
19
10
10
06
FE
FB
03
F0
03
1A
0A
18
06
06
07
02
0A
07
0A
13
FC
0A
28
11
13
FF
F9
F3
15
F7
F9
1A
03
02
E5
EC
09
06
F7
17
0C
04
0D
23
20
0C
08
F5
1F
00
00
F9
14
F7
F0
ED
F7
1C
10
1B
0D
FE
EF
0A
00
FC
00
11
EE
0F
11
22
19
16
19
F9
12
F7
14
17
F0
12
0F
FB
FB
1D
24
15
0D
F6
01
1A
09
14
0A
E8
FA
27
1F
03
00
17
0D
F7
E9
F1
0A
E8
03
F8
F4
F9
08
1D
25
12
1A
13
16
FE
01
06
0D
01
02
08
17
F6
05
E9
08
E2
00
EF
F7
FE
0B
14
14
13
16
26
29
1A
15
13
05
09
F9
E7
E4
F4
02
F3
02
27
08
F8
1B
F5
0D
1D
F5
07
0F
13
F1
FF
11
FB
03
FC
18
FB
FE
F8
E9
F3
F5
EA
E7
11
06
F2
F1
F9
0E
02
04
09
EE
EF
E3
FD
F0
FA
0E
F1
02
01
FD
E9
DB
FB
F4
D1
F7
DA
02
04
E4
FD
00
0B
EC
07
11
13
FF
FE
E6
FD
F6
F7
E8
E8
02
E3
F5
E4
E5
DF
EB
FD
F3
0D
07
EB
08
E2
FF
09
FF
F7
09
F5
06
0C
E9
E6
0F
E1
EC
CE
EE
F0
D8
E4
F9
F1
F4
0C
02
04
F8
1D
14
F8
04
0A
F0
F7
23
EF
FC
E4
DB
02
05
F0
DF
E9
0F
EA
F2
EB
EA
0A
02
28
15
2F
26
F7
08
10
05
FE
FA
FC
F4
05
00
F7
02
E4
F7
FA
F1
EC
F0
F5
F4
13
E6
07
FE
23
07
05
F7
0C
08
0D
14
F2
05
F0
0A
11
FA
FA
F9
FB
F4
08
EE
F4
0C
EA
0E
00
02
FA
1F
0B
27
12
0A
DF
0B
FE
01
FD
EF
F2
FD
09
05
0E
14
03
F6
0F
03
0F
04
11
F3
F0
10
0C
04
F3
05
0F
14
F1
EC
0E
04
FE
EE
06
11
F9
0B
F6
03
15
03
1C
19
19
FC
F8
05
F3
1E
17
13
10
05
1E
03
F3
0E
EF
EC
FE
F8
F3
13
09
F2
F1
09
15
15
1B
23
23
18
13
18
20
1E
14
09
0C
22
16
FD
04
F8
11
F9
FE
ED
ED
E2
FB
03
0B
F6
20
09
1F
04
0A
FB
00
09
0B
28
FB
F8
04
03
0A
0F
09
05
EB
FC
EF
FA
FE
F8
F3
E6
F4
EE
0A
0B
27
02
F2
11
FE
F1
04
01
0E
0C
0B
FC
1A
F9
15
06
0D
FF
0F
FC
F5
EB
FB
F6
F2
00
F4
F7
0D
02
05
FE
E3
EC
F8
10
19
22
11
06
05
FC
F8
E5
18
12
04
EB
0D
FE
02
FF
03
F9
03
01
F4
ED
EB
E9
F3
07
0B
11
09
FA
05
0E
18
F3
EC
15
13
EB
08
02
0D
24
E4
07
F7
F7
03
ED
00
EE
F4
E4
01
E6
14
05
EF
06
16
F4
04
F6
0B
FA
06
0B
0C
F4
0D
04
E7
F8
FF
01
FE
08
15
00
F8
13
02
FB
F6
0C
0B
F8
12
F5
11
FA
00
09
2B
28
08
08
F9
E8
02
06
ED
08
F9
F7
19
0A
F8
03
0B
05
0D
0E
10
16
0F
FD
03
F3
FF
0F
06
28
09
0F
06
03
F9
14
F9
0F
F4
11
08
10
F9
0D
0E
0F
0D
EA
F9
F3
F7
F1
02
08
07
F4
08
18
FC
11
25
01
ED
F9
F4
06
04
1C
1A
08
16
03
0F
F7
01
EA
02
08
FF
FC
EA
EE
04
01
0B
03
09
F5
1B
04
E7
00
08
13
11
17
17
02
0D
FA
DB
EB
ED
0A
FB
07
04
E9
ED
F0
04
21
0A
1C
E3
07
F4
1D
0B
04
01
FD
0F
EF
03
F3
F4
E3
E2
DB
FB
09
F6
EB
FE
F1
EC
07
1C
FB
1A
36
10
12
16
0E
03
04
FB
19
F8
03
F3
FD
EA
EB
06
EC
FD
00
01
F7
03
FB
01
F9
18
25
2F
0A
FF
22
E4
FB
EF
13
24
1E
1E
11
F0
F9
EE
F5
E9
E5
FB
0A
02
05
F2
11
10
FD
02
37
2A
22
FD
0F
0B
F5
13
0A
24
1F
22
16
13
F7
F3
03
E6
00
F3
F1
03
F1
10
02
FF
14
0B
28
2F
05
17
F1
06
13
01
0A
1A
32
30
14
20
21
FE
0A
09
FE
F4
F8
F7
16
0E
23
04
FE
22
12
1C
16
1C
2F
DC
00
0A
FD
2D
13
33
2C
3A
28
13
12
09
F8
05
01
11
0B
1D
1E
0C
F0
21
19
21
FC
E9
E5
00
12
DB
09
16
0A
2F
16
31
31
0F
29
01
08
0F
15
06
1D
F6
02
FE
11
19
06
21
F4
D4
F1
F4
0A
E1
F5
02
F9
04
00
0C
09
15
30
1C
11
29
09
1D
0D
10
F3
03
FA
08
0E
01
07
0A
03
FD
DB
E7
D3
EF
E4
F6
ED
06
0F
F9
17
0C
06
1A
12
10
15
1A
1E
FB
0F
F1
00
FC
FD
FE
F3
F1
F5
F8
F9
E9
F2
FF
F7
02
EE
FE
17
FE
1B
F0
18
0A
01
1A
05
08
05
0F
F7
F6
1B
11
0A
F2
FC
FA
03
00
00
E8
DF
EF
F4
0B
04
FF
F7
0D
F6
03
10
F9
FB
01
0F
05
FD
F1
0C
FC
0F
03
11
FB
F6
F9
E1
EC
F8
EF
F5
F4
10
F9
05
10
11
06
0B
0E
06
18
0B
FE
0B
F5
FC
00
FB
F6
06
00
F7
FA
EF
FE
F1
E2
F0
FB
FB
08
0C
06
0D
23
21
1A
1D
06
EF
05
05
EF
05
0E
F1
04
0B
0A
FE
0B
14
14
22
2D
04
12
14
05
EE
F8
FB
12
04
0B
0F
15
31
11
F5
F7
F9
02
0F
F4
F0
14
09
09
0F
FD
06
0E
06
0E
EB
15
0B
0C
EB
11
F5
FD
15
12
EE
05
F9
0F
11
0B
02
05
14
14
13
F0
F0
F2
07
FC
EC
EF
FC
0E
F3
11
FE
F3
12
06
0B
02
01
01
F0
F6
F5
F9
F8
F8
05
11
00
F9
F3
FD
EA
FC
E7
FA
F7
05
F5
11
F9
06
02
F2
F4
F6
FA
12
04
F2
FC
0C
F5
14
02
FB
F8
F3
EB
F6
EC
FA
00
FC
00
E7
ED
EA
ED
EE
1C
13
09
EE
0F
09
11
F7
08
0A
10
13
1A
18
0B
F8
16
15
01
DA
DD
F5
F1
C7
C7
E1
E8
E7
F2
F5
E9
F6
E2
08
08
0B
DE
FE
01
F7
19
0C
1C
06
1D
F6
F4
FC
F5
FC
EF
E6
D6
E9
EF
F8
F8
F3
01
07
E2
FA
09
1E
0C
08
02
F1
F1
05
FC
06
0E
F7
06
F8
04
E9
FB
15
FF
FB
F1
FA
F1
E9
12
08
08
F8
FE
11
14
14
FF
0B
FE
FD
05
15
24
0F
EC
1B
FB
07
07
F7
FE
F9
16
0E
08
F4
04
FC
02
0F
F4
F5
18
E9
FC
07
04
14
F7
EA
12
07
0C
FF
0D
16
07
FA
F2
F6
EF
F5
0E
09
11
F6
F9
13
EF
F4
E6
ED
0D
01
0C
10
0A
F1
12
0C
16
03
09
11
FE
16
08
19
FD
04
F9
EC
0B
04
05
FC
04
03
0E
1B
23
1A
FC
F6
EE
FE
F7
01
FF
FA
FC
F1
04
0C
04
1E
02
04
17
0B
08
08
F2
F2
F8
EF
04
0C
01
02
07
E9
07
0B
E5
10
F4
F4
F0
EF
FB
0F
FE
19
FA
04
F4
01
FE
FA
0D
13
06
10
04
F7
27
1A
09
0A
E7
FA
F4
08
FE
18
F9
FD
F2
DE
F9
EE
11
07
FD
0C
F7
F1
0D
F1
F0
F9
ED
E1
1F
FB
F4
EE
0F
0C
F1
0D
17
EB
E8
F3
E4
E6
D3
E4
05
E8
FC
FE
F2
0E
16
F0
0B
01
FD
F1
14
17
09
F9
08
00
1A
03
04
FE
10
EB
CD
DE
DE
F7
F2
01
F9
F4
00
FB
FC
0A
FB
09
06
08
0A
0E
10
ED
E9
03
05
F4
F6
02
F3
EC
D7
F2
FD
F2
F7
FE
09
0C
EE
10
FA
F8
F6
F9
F1
F2
0D
03
EE
F8
FD
E7
EE
EB
EF
E6
DF
D1
E2
F4
07
06
FF
08
F0
03
F4
F5
E6
0B
F6
03
FB
15
1B
0C
FF
0A
01
F4
D5
D6
C3
D1
C9
DB
FB
00
11
FF
17
09
01
02
FF
F0
0F
0D
18
15
09
F9
F8
0D
0B
E5
E5
F8
E7
C5
C5
BF
EF
FF
1F
1D
13
FB
02
F6
0F
0D
F3
F3
E9
10
18
16
ED
14
09
EE
E9
FD
DF
F9
F0
BF
CC
ED
FE
14
33
08
0D
0A
F5
00
05
00
07
F7
FA
00
FE
F0
FC
01
0B
01
00
E4
FF
DC
E4
C7
F8
03
1F
36
0F
14
03
F5
F8
FA
F7
F0
F9
F0
ED
FF
FF
05
13
00
F9
F8
02
05
E6
C7
DC
E2
FF
15
15
35
25
0B
24
1A
1F
02
DB
E9
FD
F4
F8
0D
0B
09
1B
E2
FC
14
FF
D8
E3
ED
05
EE
17
F6
1D
11
0E
09
09
02
05
06
FE
09
01
12
E9
14
1D
25
07
F1
EF
0D
EF
F9
E7
02
F0
07
FF
00
01
0E
13
15
11
05
F2
EA
0A
F8
FF
05
F3
04
19
12
F3
07
F3
F8
F6
F9
03
F2
FE
07
EC
F9
F0
09
0F
17
0D
0E
09
DF
F7
03
E8
0C
09
06
E6
FE
F4
11
F5
0C
19
F3
05
F0
13
04
FD
F9
F6
FC
0B
0C
19
FD
FF
F6
E9
15
11
0A
0F
F6
0D
00
25
07
EB
04
E0
18
F1
01
DF
F2
FA
E7
F3
ED
FE
00
FC
25
F8
13
20
05
04
04
0F
F2
F2
07
06
0D
F2
F4
F5
F2
EE
17
09
0D
1B
EA
07
00
F0
FC
10
FF
0A
F9
F7
0F
0D
07
10
04
05
FD
F2
01
09
02
F7
05
06
11
F5
17
17
23
03
0B
F0
29
13
FF
F3
F0
FE
F8
F6
02
07
10
FA
FE
FF
F7
