0D
F5
D8
07
F0
E4
F9
29
DC
3E
40
07
1C
DB
A2
04
1E
1B
F2
EE
15
0D
22
06
E8
E7
20
EE
32
DD
B2
CF
D9
AB
CB
18
2D
09
00
24
2A
22
13
29
09
0E
F7
DE
01
1C
1E
FD
E1
DF
CF
D6
2E
BA
F8
C1
CF
31
D3
BC
04
11
F6
F4
18
0A
F2
07
F8
09
E1
2A
A2
20
0E
F4
F2
C7
20
F2
09
D3
30
0E
E3
C1
0F
13
C7
F8
FC
D6
19
1F
D8
DF
E3
30
C3
2E
C3
D8
B0
1A
27
FB
23
D4
05
DE
F1
17
21
14
16
18
D3
2A
3F
47
F6
EE
E2
E0
