EB
2B
D0
FF
06
E1
19
BD
C4
F3
E9
F8
27
2E
AD
E4
F8
C7
F6
F8
13
D1
24
E5
A0
1D
D2
F9
03
07
1B
0F
48
9E
F8
E8
D2
E7
07
04
40
DE
CA
12
25
D9
E7
2B
E4
D8
1F
0D
F0
F7
03
EE
00
A9
E4
04
EC
26
F5
21
16
E3
04
F1
35
0F
15
16
ED
EB
EC
CD
A5
CB
F6
EB
F8
E3
C7
EE
1F
0B
0C
07
10
F2
18
D5
E5
E3
B1
26
E0
DD
3D
2E
0B
B7
06
D0
28
BF
2F
FF
14
D9
E8
EE
06
0F
06
1E
F2
D1
D1
0D
FB
1B
EE
BE
11
3F
B5
FE
