0F
BC
45
06
E3
DD
F3
0B
CC
D8
B2
07
C1
21
2C
09
10
E5
F5
07
D5
F9
EC
F1
DE
11
0B
2E
08
B4
DC
DC
9E
E1
08
E2
C4
30
D5
AD
1B
BC
FB
F0
29
2B
E9
1E
D0
E8
FC
F1
F0
14
EA
F9
ED
93
3C
F7
19
06
CE
DC
1E
D6
4D
FD
DC
1D
FA
DD
E2
16
D3
C9
E1
2D
CE
FA
10
2D
FC
0E
0B
19
DD
00
34
CE
DF
DA
D4
C9
D5
0F
12
47
24
C2
13
C7
20
FB
D1
CE
05
0A
EB
E9
0C
DF
D1
FC
EA
06
06
06
E5
DD
F7
60
F9
E4
ED
F7
0A
F8
D9
18
F6
F8
CD
29
ED
C6
0B
B9
F9
E6
EB
C9
1C
07
15
D0
D3
B2
FA
12
DD
2B
15
1A
DF
EC
AF
06
D0
C9
DA
20
1A
EE
D3
FF
16
EC
BE
FF
1E
22
FD
02
17
1D
D6
0F
CE
2F
22
FB
AD
21
B2
1B
E8
2D
0B
0B
08
F5
1F
BD
AC
13
EF
EF
F9
C6
AA
CE
23
F6
23
19
1C
18
C5
30
27
B1
10
F0
29
C1
23
E8
DD
16
1F
23
EE
24
00
FD
0D
EB
97
AB
0D
87
13
2E
0E
E2
C3
F4
04
F6
24
12
E0
26
17
20
0D
2A
F7
F6
C0
AC
DD
1F
FA
08
