E7
EE
3D
FB
DA
08
31
1A
16
FD
20
06
F3
DA
DD
35
E7
DF
0C
CB
BE
13
E5
E1
F0
EE
26
18
29
C5
2E
2B
C7
D9
00
D4
25
EC
30
A9
B8
23
F3
E3
C1
13
07
FB
E5
2B
E4
10
87
1E
DD
F9
E5
25
BF
15
16
C6
EA
31
15
3C
2F
F6
DF
1D
1F
3A
25
DD
E2
23
D9
05
EB
24
F4
A7
EB
04
C9
FE
EF
0F
A9
1D
E3
DD
FA
02
92
17
E1
F8
EF
21
FF
12
E5
2E
EE
F8
16
E9
C7
CF
1C
D2
01
CF
19
CE
DF
DC
25
FE
DB
CA
48
D2
11
D5
24
BD
