19
17
FF
0C
22
C9
1C
B6
20
C8
A3
0C
AC
16
EC
28
D6
E1
24
32
E0
BF
0D
E5
2A
30
E9
B1
D6
0F
ED
D4
9C
05
27
38
E1
FE
B7
A2
FD
EF
B5
13
E8
1E
C0
E2
EE
28
17
DE
14
19
1E
EF
B4
11
C3
AB
1B
0E
F6
D7
EB
D8
09
DE
14
ED
BF
27
17
25
EF
07
DF
E7
E6
E5
0A
F1
FC
13
FD
D3
26
20
0C
10
F9
06
10
01
29
E8
13
D7
C7
EF
E0
F3
FF
D8
E6
1F
B4
12
16
EC
1D
14
AA
22
D5
EA
EA
FB
C9
2E
48
E3
F5
33
0F
01
D6
28
