1F
FF
DA
1A
20
08
F3
CC
F7
DE
26
E3
E3
FB
CB
11
F8
C3
E7
E3
E9
1E
D0
EC
E9
E2
2E
1A
B6
C8
11
1A
C8
9C
00
2F
C0
E8
F4
3A
0A
DA
13
00
E7
C8
26
F1
1A
27
D5
E1
C6
0D
DA
F4
A7
C9
03
31
BA
27
FE
F1
FE
E2
2A
F4
02
D1
BC
01
E5
2B
1D
D8
BD
EF
F5
09
18
B1
2F
15
03
E7
E2
EB
B8
36
08
1B
D7
0C
42
D0
1D
EA
B8
21
DE
D1
BD
B1
01
E2
FE
DD
C9
1C
A9
1B
F2
09
1B
29
EA
21
07
07
14
E2
EE
B5
06
1B
00
DA
09
11
81
D9
DC
2A
04
C1
0B
C9
D9
0C
F1
24
A3
13
02
36
1B
FE
08
DC
C8
B6
AD
C1
BF
12
F0
26
C3
0D
B8
C3
17
AF
41
E9
D1
F6
E6
94
08
BD
DC
14
0F
EB
2D
D8
19
0B
CA
F7
F0
10
BF
EA
AF
00
FA
02
FD
E6
E8
BB
DB
EE
DB
1B
DC
C5
2B
C8
F2
C3
27
0A
17
B2
1A
C2
DD
16
28
F3
1E
08
04
F6
08
DD
1B
F9
DD
E8
E2
DF
C1
E6
13
FF
1B
DB
1E
F3
D4
BB
B2
05
A7
24
1B
CA
27
D3
07
DF
F1
2C
FC
B0
23
F7
2A
12
0F
23
