F1
ED
F8
0D
00
F8
F6
0B
02
02
F9
FB
16
10
F7
08
F1
0E
F2
F4
FC
F4
FF
F5
06
FC
FD
EE
F6
F8
07
14
08
00
21
00
EE
04
0F
F9
06
EE
08
1D
22
F7
F3
F8
13
04
F4
11
F2
0C
F2
F2
0F
F4
13
F5
0B
08
F6
F4
F2
F2
F8
F6
F8
FC
FF
07
0C
18
14
FA
05
15
F7
FD
FF
F7
F3
F3
00
EC
FE
06
1D
0B
FF
E6
EA
E4
ED
E5
03
0A
19
01
FD
FE
07
DC
FC
E8
F5
E5
E7
E3
F9
0F
EF
04
1F
1E
0D
D9
EF
09
F2
02
02
14
18
22
2B
23
06
1E
0B
0F
F6
16
FA
E7
FF
02
0E
0B
10
F0
F8
FE
E8
11
06
19
1F
25
26
11
26
11
23
16
1B
02
05
0C
17
0B
11
02
08
07
01
D5
08
09
0F
EF
EE
0C
0E
FA
FB
1E
26
06
15
FC
0C
FA
0A
1D
00
12
05
F5
19
22
2C
00
06
0B
17
0B
FE
07
E2
1B
02
12
17
08
0B
1F
0C
FC
10
02
03
1B
16
17
0A
FC
06
17
1E
17
FE
FD
0D
0D
11
12
00
0C
13
0E
23
21
1F
05
1D
04
09
11
27
0F
0B
16
0A
04
F7
0D
15
1D
1A
0D
14
1F
14
13
08
F3
05
0B
01
09
19
01
07
1B
1D
13
14
07
13
10
F9
FC
0E
FD
21
0F
1D
1B
F7
1B
1D
00
F8
E9
03
0C
02
FF
EB
09
07
08
23
15
0F
0C
0B
0E
05
0D
01
F5
15
29
2E
FA
08
00
22
00
FF
00
0A
EA
0A
E9
05
0A
13
26
22
11
FC
F3
FF
E5
F2
EA
E2
E1
FB
12
25
1A
11
1C
28
12
DE
FC
ED
FF
03
FD
F5
E2
E7
F3
04
ED
F4
EB
F6
EF
0C
F6
EC
DE
E6
12
1A
FF
11
1D
33
09
E4
00
DD
EB
DF
04
E8
F3
EB
DD
E8
FC
F6
F3
05
F3
FB
EC
CB
E2
E3
EE
F2
05
0E
06
1F
E8
F8
00
F3
F6
F0
E1
E4
D6
D0
E4
E2
F4
F2
E7
F5
F9
E4
DB
ED
DC
FA
02
06
04
0C
0B
18
F2
11
D9
EA
FE
E5
F3
E7
E0
FA
04
E9
DE
F5
FA
F5
02
EB
F1
FD
FB
F1
07
EA
EE
04
11
F9
FC
FD
DB
F1
E8
F6
E8
F9
DF
FC
FC
F2
E6
E0
00
F8
0A
02
1E
FA
FD
11
E5
00
EC
13
F9
F4
FD
DC
F5
D8
E6
D6
FD
E3
F9
10
0A
05
F1
ED
F4
F1
0B
F0
0E
00
FC
0D
F9
18
F8
00
F6
F8
FE
F0
00
FB
E5
F5
0B
FB
E7
FD
FA
E8
F5
F7
EC
04
04
FB
F0
07
17
02
EF
F1
F8
FF
03
F8
E6
EA
12
F1
FD
FF
EE
F9
F0
06
00
07
08
F7
00
F1
03
12
FE
F8
15
01
E0
FB
17
EE
F5
F2
DE
08
11
17
22
05
16
07
00
03
FF
0C
FB
15
00
05
FE
11
1C
18
32
16
E5
EF
13
06
05
EA
E5
1B
0C
2C
2A
28
08
09
20
06
0A
FB
05
0F
20
1F
01
0C
26
1E
01
F5
F4
F4
F0
03
0E
ED
17
FF
43
38
23
24
29
23
18
21
18
1F
25
10
FF
24
08
12
22
07
FD
FE
05
F9
15
12
F0
FB
01
31
1A
11
18
2B
1C
0A
30
15
33
25
18
2F
01
20
11
03
11
00
F4
DD
F6
FB
00
0D
09
0E
0D
EE
FD
11
FC
0A
0E
11
10
05
12
14
12
12
0A
1E
17
F4
F9
04
F3
FB
EF
E1
05
F2
06
FA
27
F7
03
10
12
F4
09
02
16
1E
09
16
00
03
02
18
EF
FA
F7
F2
EB
FB
01
F2
F9
F0
08
0C
04
02
F9
E6
11
F7
09
F0
00
F9
15
07
00
03
2B
26
13
07
0E
00
FE
F1
06
FC
F9
02
00
11
0C
1C
1D
18
0C
0B
1B
07
08
05
0B
0E
E9
03
12
09
15
F9
06
FC
18
12
FF
08
F3
F2
07
F5
FB
ED
0C
F3
0C
0B
00
F9
ED
FC
FD
FF
00
0B
02
F0
00
06
FC
FE
03
10
11
F4
FB
06
FC
01
FC
F7
0C
21
F5
FB
F7
05
FB
F7
18
00
19
25
04
14
23
0C
1B
25
20
FF
0D
02
F6
FB
0D
15
EB
0F
14
05
FF
18
27
28
10
2D
0B
2B
20
23
2E
25
2C
1D
09
04
0A
17
15
F8
08
0D
0D
F5
09
FA
08
1E
02
0D
1D
FB
14
0C
E8
09
F5
22
0A
19
03
19
05
18
18
03
09
02
0C
FF
F6
F8
EC
FF
2B
0C
F6
06
10
FD
10
17
0D
25
18
13
21
02
0D
1B
11
FB
EA
05
FE
04
10
F3
FF
21
04
04
EA
E4
F1
EB
0D
00
F3
07
F2
07
F5
17
FA
FC
0C
FC
1B
0E
0E
F2
E8
0C
0F
04
F5
EA
D6
04
EC
10
EA
E8
EE
F1
D8
E0
F2
EE
ED
E1
F1
02
EC
F7
F5
FC
12
07
10
F4
F5
FE
F6
FC
EF
13
08
FA
05
EC
F2
E9
F0
F6
E8
E5
F8
EE
F1
E5
08
FB
01
F4
FA
EE
E0
F6
F8
E2
E8
04
E9
1C
18
04
EC
FC
05
F9
F1
00
F4
CD
F8
E6
F8
FB
F8
F8
FF
03
FB
FE
01
04
03
F1
EC
EF
F5
13
07
E7
F9
07
10
F8
0C
E4
DE
D6
E9
F4
08
FC
05
08
FC
EF
F8
FF
EE
E5
0A
14
FC
D5
EC
0E
F7
11
F7
F4
F4
04
FD
E5
CF
E9
F6
F2
01
F2
0A
14
0B
0B
FE
01
E1
01
08
FA
F3
E5
12
11
11
04
06
0F
13
F6
FA
EB
F6
F0
16
F7
00
FE
E8
F9
F8
00
15
1D
07
04
0B
06
F6
E8
E7
0B
16
02
F5
0B
FE
EB
05
15
0F
02
17
12
F2
EC
02
05
03
08
07
2D
0C
09
E4
05
00
FF
F0
E4
EE
F2
FB
F4
FE
F9
09
13
2A
15
2A
FC
0A
11
FB
10
0C
FF
19
07
17
08
12
F6
04
FE
F2
E5
F0
E9
F8
07
F6
07
16
2C
17
0A
1A
17
0B
F8
02
02
F0
EC
EE
EE
0C
0A
F8
13
FF
18
09
02
F0
EB
F2
F2
F0
FB
06
30
1B
18
1E
FA
F8
EE
02
FB
FE
F3
FD
09
FE
04
FB
ED
02
04
14
05
02
02
15
02
11
22
18
1C
23
15
1C
F4
0D
F6
02
F5
FB
0E
FA
10
25
2F
EF
04
EA
08
03
F6
FC
FC
FF
F6
06
05
1A
1C
23
17
05
0D
12
FC
FE
01
EA
06
0B
0B
07
15
EA
03
00
F5
F3
F8
04
FE
08
1B
08
FA
08
25
0E
13
07
F3
00
15
FB
08
07
F5
16
26
01
0F
F8
06
F6
F7
F0
F5
15
0C
FE
0B
1F
15
1B
10
08
0B
09
0F
06
0A
00
08
14
0A
16
02
0E
16
FD
F8
05
E5
E9
00
1C
09
19
02
0B
21
F9
00
F5
06
FB
F7
02
FB
FC
1A
04
01
1E
0D
E6
F8
0C
FA
28
EA
0B
F7
14
13
1D
04
0D
FE
FF
00
13
03
FE
F9
FE
11
07
11
1E
18
14
DD
01
F6
EF
0B
01
F7
F4
0A
1B
1E
F6
FC
01
FE
F5
F9
0E
01
03
0C
03
FE
FB
13
13
F7
F3
FE
F3
0B
EF
03
07
05
10
F2
F0
05
EC
02
F1
FC
03
FE
09
09
10
12
E9
15
FC
10
0A
FD
F2
FB
03
1D
F8
0B
FE
17
E1
E0
B3
CC
C5
D7
0E
F2
FF
FC
04
FB
ED
12
F2
F1
FF
00
0C
01
F8
01
FA
04
0D
FB
F7
05
03
E7
CF
D4
E2
D7
EE
EA
F6
F8
EE
E1
F3
1E
F9
00
E6
F9
F1
E2
F3
FE
01
F2
10
F5
0B
13
09
F2
E1
DD
D6
DB
CF
D6
D2
CC
DC
C8
B0
DD
E6
CB
EA
CA
EA
E0
14
DB
FF
09
ED
F5
FB
FD
11
F6
10
F5
E2
FF
0B
FD
E1
EE
E5
F6
EE
07
07
F9
FD
FE
EF
FE
FD
07
EC
10
0F
FA
0D
05
10
0C
0C
FD
05
04
FA
10
09
01
03
EB
ED
07
F3
13
0F
F0
F3
FC
08
ED
F4
F7
FE
10
F0
FD
06
FA
F6
ED
F9
EB
F0
FB
06
06
14
05
11
F1
F5
FC
F8
F4
12
E8
E8
F2
0A
FD
F1
13
F4
07
08
F5
0F
06
F5
09
FE
F9
F7
08
17
1D
F9
04
F5
FA
F0
19
02
01
ED
FA
FF
F5
11
0A
EC
16
F3
0C
F3
E5
E2
E3
F8
F7
0F
FA
0E
01
0D
09
FC
0A
FB
02
0A
05
19
14
F9
FB
FA
07
F8
F3
06
07
02
F5
F2
06
F7
02
04
00
F9
09
FF
02
04
F0
02
0C
EF
09
19
00
03
FA
0A
F2
FD
EF
07
EF
FF
FF
F9
F8
F2
EC
FB
04
18
0D
11
FE
FB
1A
01
F2
FB
F4
F9
EE
07
00
11
06
FE
F5
DA
D7
D0
EB
ED
FE
E3
FC
07
F9
18
1A
FC
03
F8
09
01
F6
F8
FC
20
FB
10
13
ED
FE
DB
F7
E6
F8
E2
E7
00
F0
F9
FD
FF
04
F5
10
02
F4
06
0B
FC
0E
F5
FF
15
08
F5
10
0D
1C
E8
E7
F7
E5
EA
FB
F1
ED
01
08
06
F7
0A
08
FB
0A
F2
F3
F4
EF
FC
09
EF
0C
F6
03
06
04
D1
E5
E2
D0
E9
F4
EB
07
F7
F6
F4
E8
EC
EF
EE
DB
EE
F5
EB
F1
EA
EF
0F
07
F1
F3
EE
03
E5
E3
EC
E4
F3
ED
0E
F2
F8
09
1F
0E
FF
DA
F5
EE
DF
F8
F3
07
F6
FD
0B
05
F7
E1
FD
0E
07
06
ED
F5
12
0B
0A
0D
15
1D
20
FE
E8
0F
E7
11
01
0F
1E
19
1E
2E
10
05
F5
E4
F4
0D
F3
EE
FA
10
10
0F
05
22
20
11
3C
2A
18
10
11
20
12
FC
0F
2F
1E
47
52
1C
F1
E7
F7
08
10
EB
04
3A
30
35
34
15
2E
1D
1F
04
15
1C
09
05
07
10
1C
08
10
3C
0C
FB
E4
D8
E0
F3
1F
FA
29
15
42
2F
25
14
0A
10
0A
EF
15
FB
0F
0B
0B
0D
FB
04
00
1E
16
E7
E8
EE
F4
F5
F8
F8
04
FC
0B
13
05
18
16
0D
00
E5
02
FD
0D
02
F0
F2
E9
FC
F2
E8
04
00
01
F5
00
03
01
E8
E8
F8
13
EC
16
0A
06
11
FC
FF
FD
0A
00
03
FB
F8
FD
E7
FC
F4
F6
EE
E9
E8
04
02
F0
09
F8
FA
0F
F8
09
0F
16
F9
EF
F4
10
18
FF
18
F5
F7
FD
0A
11
EA
F2
EE
F8
F5
FC
F8
02
05
E2
E5
E4
03
05
17
05
F4
F4
EF
00
02
0B
F7
DE
E5
FF
08
FA
FF
E7
DB
FD
F4
F2
0F
FA
0B
F1
E7
FC
F2
01
F4
EA
F3
E3
EC
08
0E
0C
ED
FD
FD
07
12
01
FA
F6
06
F3
FD
12
13
0D
F6
FA
04
00
F1
FD
FD
EC
E2
EE
06
06
0F
EC
10
0E
F8
13
11
FC
F5
FD
F8
F9
F5
0C
13
F4
12
F7
08
09
FA
EF
0A
F3
FD
E8
ED
F1
F3
06
F3
03
F9
07
06
1E
04
F3
F4
02
F8
01
04
F3
F7
E7
07
05
E7
F5
00
FB
EE
FA
0F
F9
09
09
0F
FD
02
0B
0E
08
1B
09
FB
FA
F4
07
06
F9
E7
E4
E4
FA
EE
FA
08
E8
E1
03
12
F3
0E
02
FD
0A
17
0E
20
FB
16
1A
FA
D7
FE
0C
F4
EF
E8
F3
F7
FE
F3
EE
F3
F3
10
F4
EA
EB
F9
FE
07
20
18
13
2D
12
14
1D
E4
FF
05
10
03
FF
11
F7
F2
09
01
FF
E7
EC
EF
E4
DF
FC
F2
F6
F6
09
F7
F5
08
06
00
18
F6
F6
FA
FC
FD
08
07
F9
19
15
13
08
F8
FA
FA
EF
11
F9
0D
10
ED
F8
FD
F8
F6
E9
F7
FF
10
EA
03
09
10
04
13
0A
E8
FA
FD
03
13
05
FA
00
FE
D3
01
08
E2
EC
F3
FB
05
FE
F3
E6
10
07
FD
F6
09
09
0D
08
08
EF
11
07
10
EC
FD
FB
FF
F9
F5
FD
01
09
ED
F1
08
0A
FE
F5
06
EE
14
F0
ED
08
FF
0D
03
15
F8
03
F8
F6
F9
01
1C
0E
FC
EF
12
FB
12
19
F8
F6
03
FB
FC
01
EE
EF
FD
04
1C
02
F4
FE
0B
0A
DD
FA
DC
E9
F6
FD
FC
F9
FF
0C
04
26
2C
FD
12
FB
FE
F6
0E
0B
F8
14
FC
EF
F5
0A
05
16
07
FF
ED
EF
18
E9
02
00
07
0A
0A
F0
FD
11
04
20
07
F6
07
F5
F1
04
E4
F9
01
0F
05
0C
F0
FA
08
0D
F2
EC
0A
0C
EE
10
EC
E9
ED
0F
1F
19
11
1D
02
FA
01
FA
FC
ED
08
07
1B
00
F6
E4
ED
03
F6
02
FF
1B
0D
07
0A
02
1F
0E
22
10
28
1E
E0
EA
0C
1D
FB
0E
0B
FF
F2
03
02
E5
F0
F8
09
0E
F9
F9
EB
E7
06
F5
09
F8
04
13
37
15
FA
13
EC
F7
05
0B
0F
12
F5
FB
FB
E5
E4
F7
0A
F7
10
0E
09
12
00
09
F5
F2
10
28
20
2C
11
10
EE
FB
F2
DB
F3
0C
00
EA
FA
02
07
FB
F3
17
FC
04
FF
FC
FA
16
04
0F
19
1B
31
21
0F
20
E9
DB
D1
EC
13
FE
FC
F5
EA
0C
FD
01
0E
0B
15
0C
EF
FC
E9
09
FE
F0
07
17
32
24
1B
FC
DB
E4
FF
0C
0D
E4
F9
EE
E4
E2
08
06
06
13
05
02
EF
E8
F7
F9
04
03
FF
19
22
17
0C
F8
EC
FD
E1
00
05
DE
F9
01
E3
E3
07
28
31
1B
28
0C
EF
FB
08
02
F2
E8
DA
EE
05
15
1C
0A
0C
E3
D3
FF
F1
E4
E0
DB
E4
F5
14
1B
38
2B
19
13
09
F6
FD
F6
EB
D9
F8
EA
0F
0E
FF
03
08
EC
D5
F9
F7
FA
D9
ED
EF
E8
19
31
23
0B
17
11
F5
0A
FC
06
FD
FE
DE
E4
F0
FA
ED
EF
0E
16
F8
F8
F5
F0
EA
EC
EE
E2
02
23
23
13
0C
06
05
FB
04
EF
08
F9
FD
E2
E5
F7
DE
F1
0F
15
1C
F8
E2
DB
DC
E2
EC
EA
ED
FC
FB
FF
07
0D
F4
02
07
11
0E
FA
16
FD
DE
F0
D5
FC
FD
22
04
0E
06
04
F1
EE
F2
01
F0
09
EF
18
FA
EE
FC
FF
FD
04
FB
09
F0
1A
E1
BD
CE
E6
F9
19
12
00
11
05
EE
F0
01
E7
F5
E0
F3
EB
02
FC
FA
FB
08
02
00
05
FD
FA
D6
C0
ED
D7
06
17
12
01
14
09
F7
0D
07
DE
E9
01
F6
F6
F2
19
F2
F4
02
F1
01
01
F4
EC
DD
BB
EE
F3
F5
10
33
0F
03
15
FF
14
05
FB
07
06
EC
F8
F6
0E
F4
06
20
0E
FC
FF
F1
08
F4
DC
DE
EE
FC
1D
08
ED
00
1B
08
07
07
08
FB
F3
F8
FB
FB
F6
FF
06
13
FE
09
02
E4
F0
E8
D9
06
11
1C
F8
FA
EC
01
10
02
01
12
14
03
0A
07
06
FA
0E
F1
10
05
07
18
EB
FC
E3
D9
EB
05
F6
08
17
06
02
DD
03
10
03
FF
F4
13
13
16
0B
12
04
0C
0B
02
F0
FF
E1
E1
F7
F3
DE
04
F6
F3
F2
18
0F
0A
0A
00
EE
F5
05
18
11
16
F8
FB
13
0C
16
07
F6
E8
EC
00
05
DB
FA
02
0D
10
11
04
28
06
07
F6
15
03
0C
0A
12
23
15
02
04
07
02
10
FA
08
0D
0B
F2
EA
03
E7
F0
0F
FD
1A
04
F7
F7
FE
F8
F5
F8
EE
E4
E4
FE
DB
CF
F3
EE
E2
FE
F8
05
09
01
0D
02
01
0F
FB
EC
0E
F8
08
E1
DB
FD
E4
F8
E7
F7
DD
E5
C0
CE
E8
FB
00
FC
FD
07
E0
DD
0C
FF
0B
EF
09
F9
07
0C
E9
E7
03
E2
DC
F9
EC
FC
FF
DE
EF
D8
DE
F8
09
FF
EA
01
E4
F5
03
EC
F2
F2
01
FE
FE
11
F0
FB
F5
F2
0B
FB
F4
F7
F1
F3
EF
EF
F1
EC
F1
09
0C
F3
05
10
0F
02
13
FB
EF
F2
F5
13
F3
FB
E7
F7
0E
ED
FA
ED
10
F3
FE
EE
EC
F5
ED
E7
F6
EF
FB
E5
FF
08
03
F9
F5
F3
0E
F9
02
0B
F6
09
ED
D6
F5
D2
DC
F1
DA
E2
EC
D7
EF
C8
F1
EF
F6
09
F6
EA
05
09
14
F6
1B
E6
02
07
02
E8
F2
F8
DF
F7
E5
E6
E0
F3
09
08
10
FA
FA
01
06
F0
F0
FA
E1
0C
EF
19
12
FE
0B
0C
11
0A
FD
03
FF
01
FB
08
0E
F3
FF
03
F9
15
F6
ED
FF
DE
FB
06
07
1F
F8
0B
05
11
15
07
0A
03
02
0B
01
1F
11
FD
09
06
01
F8
FC
08
07
E9
00
E3
EC
05
09
08
14
0F
04
01
11
E6
F5
F7
EF
19
06
09
0A
0D
FE
0F
EC
03
F0
0A
EA
0E
F5
0B
E6
01
04
EB
EE
0D
FD
0D
22
0A
EE
F9
16
FC
05
0C
0F
10
00
FC
F4
11
F5
0C
F7
FF
F9
09
E2
F5
FE
F9
DF
F5
FE
0A
FF
0B
F1
0C
F8
13
0E
18
05
FE
FA
0B
F5
FA
05
10
FC
FF
00
E4
DF
05
08
13
08
FA
04
01
0F
F2
0B
F3
F6
0E
09
F1
EE
F9
01
04
FD
16
07
15
03
01
04
0C
DE
06
1D
0E
01
F7
F2
FB
F8
FA
0B
F9
F1
EA
00
FD
FD
04
03
FA
F2
01
06
12
25
07
15
10
0D
ED
F4
21
FA
EC
E4
06
F2
06
F7
0E
FA
05
F2
F3
14
12
0C
22
F8
F8
00
08
0A
FC
20
21
12
F7
09
1A
04
FF
D1
F4
F6
F3
FA
06
0C
16
0A
F5
17
19
21
21
21
0D
18
0E
FF
16
06
2D
2E
20
EF
0E
16
FF
E3
F6
DB
08
09
FA
08
0B
09
28
16
05
20
32
22
FF
16
00
0F
FD
02
EF
F0
FC
E7
1E
03
16
EF
03
E1
04
E6
01
FE
00
09
07
2A
0C
1E
20
28
1B
02
F4
0B
00
E8
DA
F2
F6
EA
EC
F0
F7
1B
05
F4
D6
E6
FC
EA
FB
FD
08
1B
29
2C
13
16
F6
00
E9
FB
E7
F6
DC
F7
F4
ED
FF
11
0E
09
08
E1
F1
E0
DD
F5
F0
EB
08
04
1C
21
1D
F5
E8
F3
00
EB
FE
00
F2
EA
E8
F9
FF
F7
1B
27
FB
F8
D7
EC
EF
FC
E4
EA
DB
F0
0D
FC
F7
F4
EB
FD
E3
ED
FB
FA
0B
FC
DE
EA
FD
E9
1A
1B
FF
01
EC
F9
FC
E5
E5
EA
E3
0B
EC
02
E3
E0
DE
F6
FB
E0
E3
F6
EF
DF
ED
08
F5
FF
F5
0A
16
F8
14
F3
EC
F0
02
E6
F9
EA
EC
DC
FA
E6
FC
E9
EF
E6
05
F5
08
F9
EB
EA
FA
04
00
0D
0C
01
F3
06
F7
F6
F2
09
E6
F0
FA
E4
FB
E3
E7
F8
01
0C
04
F0
03
E5
E3
FE
09
FD
11
04
08
0A
07
14
13
04
0D
F4
F3
05
F5
FE
F2
F9
07
F0
FF
FE
12
EE
F2
D4
DE
06
F7
FB
FE
05
0C
08
07
FB
FF
FA
FA
09
12
F3
F4
13
09
12
02
FA
09
F0
01
FC
C9
D5
F4
14
F2
FD
FC
05
0E
F3
03
09
F6
06
03
F0
03
14
F9
1A
03
0E
16
06
0C
0E
E4
D7
BD
DE
F1
F7
FF
11
0C
01
23
0C
13
01
0F
04
FC
0C
0B
FF
ED
0F
0D
05
F6
03
07
F0
E2
E9
DA
CE
F4
06
12
FF
ED
07
12
08
07
20
05
09
0A
05
FB
E9
F2
0A
0B
EE
F2
03
F5
FB
DD
06
07
0E
04
07
F6
0D
F4
FA
EC
F1
CD
D4
D1
00
F7
E3
EE
D1
D7
CF
DD
E1
F5
CA
D3
DC
E6
E2
0F
F6
F3
F4
FE
FE
02
EC
FE
0C
05
F2
E2
D3
F1
F8
F9
DE
DC
E3
D6
02
0E
F5
E0
F2
05
04
03
13
F4
FA
0B
EF
00
EE
FA
F9
02
F3
08
12
08
F2
0B
E6
02
E1
ED
0B
08
14
F8
09
FE
04
F2
F2
F5
F8
01
F0
F5
07
05
0A
F8
F8
ED
E0
F6
EB
FA
11
FF
19
DF
FF
DF
FC
EC
EB
F2
F8
E8
12
F5
01
03
FC
0D
FD
19
08
E7
FC
F9
C8
E4
C9
DC
E2
04
EA
EA
E9
F2
F8
E3
F4
D9
ED
D2
D8
E8
FD
0B
07
13
07
0B
00
E0
D7
D9
F6
F7
F7
F9
F2
EB
E0
F4
FF
F2
00
F9
E2
E5
08
01
DA
F5
F8
0B
11
01
08
F9
DF
F2
F3
07
F7
F4
02
E9
0C
0C
F8
FE
FB
F4
EC
F3
FD
11
01
2E
19
F3
FF
FA
F2
0A
E6
F4
FD
02
01
05
F0
08
12
EF
E9
F1
F2
07
EB
F2
FA
FD
00
F7
1F
37
16
F5
D7
ED
12
F7
2D
06
17
FF
14
10
FC
0B
04
E9
FB
E5
EC
F4
05
FB
13
03
02
15
FE
22
0C
02
F6
EC
07
0E
29
F3
06
0A
0F
05
05
FC
FC
FE
DA
F0
F4
FD
08
06
00
0E
FB
03
F6
19
23
01
0C
FD
11
03
24
0B
09
0D
17
FF
09
15
01
F6
EB
ED
E1
EF
13
08
FA
FA
09
02
10
0B
1C
0C
F6
EB
18
0E
2E
0A
06
F7
0D
0E
16
08
0C
00
E8
EA
EC
F2
02
0E
03
FD
09
EF
EC
04
04
01
E2
FB
27
05
2D
15
07
FD
F8
1D
0A
0C
FF
18
F5
DF
E5
F3
FA
10
17
19
13
FA
0F
01
FA
E9
D0
EC
1E
0D
F2
15
FC
FD
16
05
1F
0A
2D
11
F2
E7
E4
F1
14
15
F7
FB
F9
0E
F7
02
01
F0
E3
08
13
0D
03
0C
F0
13
F3
1B
0E
12
26
24
F4
E4
E7
DA
FF
10
04
01
02
FC
08
10
F5
00
0B
04
F6
03
0B
E8
FE
09
07
16
09
18
15
10
F3
CE
DB
E6
FB
0F
1C
F2
05
01
03
06
F4
F5
E6
F4
FF
1C
15
FD
0B
0F
0D
F9
FF
28
2B
22
F2
EA
CB
D6
F9
13
03
06
05
F0
F9
16
07
11
E2
F6
02
0C
09
DB
FD
09
02
00
1C
26
2E
17
11
E6
C9
CB
F2
06
1C
1A
01
03
F1
0A
0F
F4
F3
F4
FF
09
0F
EC
EE
02
1A
FD
28
FF
1D
0A
DD
D3
D4
E4
F6
18
07
1B
02
12
00
EC
F9
D9
E4
0E
00
14
1F
E8
04
09
1E
FF
FB
0F
FB
00
F2
E6
F3
F8
21
18
00
F0
0F
0C
EB
11
04
00
EB
13
FC
0D
FA
F9
0E
0E
1A
04
03
06
EA
E8
E7
F0
DE
FF
0B
FF
F9
0A
F5
F2
01
F6
03
DB
F1
ED
F8
F7
FE
F3
F3
17
03
11
1B
0D
F6
F0
F0
DF
F1
09
09
EB
E2
FF
FD
09
0B
E1
07
EB
F8
FD
10
F4
17
F9
F9
1C
02
FE
F9
F0
0B
EE
01
F0
F7
0D
08
FB
00
02
E8
08
02
F3
05
EE
FF
00
F2
FC
01
FE
0A
15
09
08
FD
05
FA
0A
01
FC
F9
01
F4
F6
10
02
FB
01
1B
F0
07
F4
FB
0A
0E
FA
F6
FD
0C
08
08
15
19
13
FF
EC
FE
0E
09
0F
08
15
12
07
0D
17
0A
F2
08
E2
09
0F
12
F9
D8
D4
DA
06
12
22
FE
03
F7
F0
0C
0A
07
0D
FE
13
0E
F3
13
FF
01
E4
DD
EB
02
F4
ED
08
03
1B
FE
04
00
FF
F8
EB
F3
EF
F5
E9
F2
1A
FE
06
0B
04
F7
FB
D0
C2
D2
03
03
F2
04
F0
E5
14
F2
E3
03
F1
E6
D4
DB
E2
FA
ED
FF
F3
E7
EB
DC
F4
E4
E6
DE
D9
E0
F2
F0
0B
0E
13
06
12
F8
DC
ED
EE
E3
E3
F1
EA
F1
F6
DC
E8
E8
EF
E8
DB
D3
D6
F8
FD
E0
F8
06
09
09
01
0E
F6
FD
FC
10
E9
FF
EE
0A
0A
00
28
F7
FA
F2
09
FA
DD
EF
E5
E6
E4
EF
FA
0D
F3
EE
EF
EF
10
10
F5
03
07
0A
09
FC
00
13
0B
04
07
FA
0D
F6
07
05
EE
0B
10
04
FF
F8
13
FC
0D
ED
13
FF
EA
FC
0F
16
03
08
09
FB
04
09
17
1D
14
04
EA
E2
E8
F0
F9
12
FC
13
04
0E
FF
FE
03
05
FA
FE
11
11
04
17
0F
18
FA
03
09
04
0B
1C
F7
EF
03
FD
F3
23
19
03
13
11
0E
20
13
0C
10
0E
0B
2A
0C
12
13
20
06
06
1D
16
FD
FC
07
FE
0E
03
05
27
19
0F
F3
12
13
0E
1A
FF
FE
FB
0F
11
1B
17
29
13
22
1E
12
0B
10
10
0A
FF
00
EC
EE
1E
46
17
FD
03
06
F5
13
07
13
0E
30
21
17
15
1B
0F
13
13
00
0F
0D
10
08
11
13
01
E7
01
19
07
0F
F1
18
FB
0D
FF
08
2B
14
0E
06
1C
1D
21
01
0B
0F
10
08
10
0A
0F
04
0B
05
12
1C
23
0F
FF
00
FC
11
2E
0C
19
1E
16
17
06
0B
04
12
04
0C
19
24
04
01
FB
F8
F8
EC
F5
12
16
37
EE
14
EC
10
21
16
FC
0B
19
F5
FB
0C
0E
28
29
0B
20
FC
07
F1
FF
05
FC
EE
04
2D
32
28
FD
09
FC
18
18
13
11
02
F7
F6
06
F7
F7
02
1B
06
F9
F9
EB
EC
F8
03
18
17
01
3E
1E
13
07
0F
FA
FD
FD
0E
0A
E0
F5
D9
DD
DB
EC
00
DE
EA
F3
F4
0F
0F
F9
FD
FD
09
17
20
E7
F6
FD
EE
0D
E9
FE
E8
BC
D3
D1
E2
E3
E5
D4
D9
D6
E7
F2
17
09
0F
12
FB
F9
03
09
F6
F5
05
1F
05
F9
EE
00
CC
C1
C0
E3
F5
F8
D9
EC
E5
F3
EB
F9
F3
FD
07
FD
E6
E3
DB
FD
F4
0C
E7
E4
FE
E9
EB
C2
D3
AB
CA
F0
03
FB
E8
F7
F8
00
00
12
0F
03
F7
DE
E7
E2
00
05
18
0D
0C
15
05
FF
EC
0A
DD
DE
CD
D9
E3
F8
F5
07
FD
17
0C
03
EF
04
0B
09
EF
F1
E1
F9
09
10
00
04
FB
FB
22
18
FE
E1
ED
EC
EA
DA
F8
0A
F1
04
F5
06
EC
06
10
03
09
00
EC
F5
E8
0A
F5
02
E8
08
40
2A
04
EB
D7
DF
E8
F2
ED
FD
10
EF
07
FF
11
F3
02
F8
08
0A
EE
02
19
08
0B
F1
05
0D
21
28
1D
F6
EE
F8
02
F6
FD
E9
E8
DC
F9
12
1C
F0
01
ED
02
0C
F8
FE
1B
0F
11
FF
09
14
34
35
29
11
0B
0C
08
FF
F9
09
FC
F5
0B
0A
06
FF
1F
FF
0E
09
16
25
17
F3
08
F1
F3
E9
00
0B
2B
2F
13
05
1C
05
1C
F5
FA
F7
00
FE
13
04
01
FE
F1
03
15
F7
10
0B
F3
0F
FF
0F
0E
0F
1E
21
24
19
0D
0D
F8
FC
0A
10
13
13
08
0D
FF
14
0E
12
03
EE
FE
0B
06
F5
2D
16
13
1E
01
08
1C
FD
FC
F5
FE
10
FB
FB
F6
02
0A
F3
07
F0
E4
06
05
08
0C
F6
F6
F3
05
27
01
FB
02
F0
F9
FE
0C
FD
15
02
0F
F4
02
0A
FB
FB
08
14
0F
F1
19
03
12
E8
07
FF
EE
1C
1E
1E
F2
03
F3
F0
16
FF
FD
05
0E
EF
F9
EC
FE
F6
05
F6
FC
FB
1F
20
1D
0B
FF
0F
F3
1B
1A
12
02
09
FE
23
13
0C
1C
0B
17
1B
0E
13
13
13
01
FD
02
01
01
0D
18
F9
14
09
02
04
FB
0C
04
2E
10
23
2D
2C
35
39
27
27
29
15
13
1B
14
0B
E4
DE
F8
F3
F6
F8
03
F4
0C
FC
07
EE
0C
01
1A
2C
3C
14
11
2B
39
42
17
23
F3
04
F1
EB
F1
06
0B
10
20
0D
0A
FD
0E
01
F9
05
13
0A
17
21
13
F7
08
0D
FD
EE
1F
1C
FC
13
01
EF
09
F9
23
11
F1
FB
FB
F6
FA
FB
F5
FA
00
12
08
0E
0A
0F
12
0B
FB
F6
FE
06
0D
F7
0B
FF
03
0C
07
0D
07
0A
02
00
06
01
0F
11
EB
E8
0A
EF
EA
06
06
F9
0E
F6
F3
10
FB
E5
FE
EA
0F
02
F0
F8
02
EF
13
F6
F1
F4
F9
0C
FC
07
0A
11
FD
17
0C
F2
E8
DF
FE
DD
F9
FE
19
02
0D
F2
07
EB
F2
F8
14
F2
0F
19
ED
FD
08
E7
FF
F9
10
1F
13
18
13
1C
09
0D
2C
1E
1E
1C
10
FC
09
1B
E9
F1
07
F8
FB
16
00
F0
06
12
1E
05
26
FA
17
20
13
FA
13
0F
0D
04
17
08
FD
0E
29
11
1A
07
F2
FE
13
F3
02
FF
27
09
15
07
0D
19
FF
0E
04
17
0A
0C
1C
02
04
13
F9
0F
19
20
26
FE
02
0E
04
18
1A
04
1F
06
FD
13
0F
1A
1F
02
0A
FD
03
05
0F
10
1E
1A
12
06
F3
24
14
03
26
F9
20
01
1B
10
F6
06
01
0B
FA
F9
09
1E
09
08
17
0D
07
02
09
11
F9
F7
EB
08
23
14
21
04
F1
FE
19
F2
04
EF
F6
F9
F3
00
0B
F5
10
13
16
0B
18
11
06
F6
FE
E8
0A
08
11
2A
05
EC
ED
07
03
01
FC
15
EB
F5
F3
F6
DE
0A
E8
F3
FB
FA
0C
00
F2
14
04
03
FE
FD
10
26
07
0B
0B
17
1B
F9
E9
EB
E1
0C
E3
EF
E2
E8
F7
D9
F0
FA
F0
FE
FE
F1
E9
EA
04
14
07
FA
FA
01
10
F4
F3
E2
E6
FB
EA
E8
FE
F9
F4
E7
F3
E2
F4
F4
E2
03
E5
EB
FF
EB
F5
FB
F7
11
09
ED
F7
EE
DD
F6
01
0D
FA
E8
FB
10
F1
09
F4
FA
EB
E7
00
04
02
F8
F1
FD
FC
FC
FC
0C
02
F5
EF
FC
E6
F8
0F
F3
0F
08
06
0C
EF
F4
01
F5
E1
F6
FE
F2
FF
10
12
10
E7
04
FE
08
F4
FB
1C
06
DB
28
07
25
FE
F6
F0
06
F9
F7
F9
E9
F0
E9
D9
F7
ED
02
11
05
FB
F3
FC
0C
0C
F8
06
14
02
3F
22
10
E0
D7
DE
F3
DB
E4
F1
DF
FF
E5
E2
E1
09
FB
13
0C
FC
E8
0C
07
1E
F7
17
F9
09
22
FE
E7
C7
C3
D9
E3
E7
EF
EF
E8
E9
E2
FD
13
05
10
00
0C
FD
F1
F3
11
26
F9
26
07
28
46
F9
E5
E3
C6
C3
C2
EB
CF
E6
EF
E2
EC
F5
0C
13
0D
FD
F4
EB
FD
F1
E4
16
EF
24
F9
17
17
FD
F7
DF
FB
E2
DE
E3
DC
CD
DB
F6
06
FF
00
09
04
09
00
09
DA
F3
02
06
03
22
19
19
15
FD
05
04
0C
F2
05
F1
01
EF
06
11
0E
0E
FF
00
ED
0D
E2
F5
E1
1E
06
22
F7
13
0A
09
FE
0A
15
1F
07
0D
14
22
18
27
1C
25
17
07
0F
01
0C
06
19
1E
FE
07
F4
EF
F9
0D
18
0D
0E
0F
12
0C
0F
0F
09
20
21
21
12
1D
1B
09
0F
FE
1A
FF
05
FF
10
13
19
02
FB
FF
0F
FB
F2
04
11
05
29
1D
0D
2C
16
11
20
17
12
19
12
1A
12
15
0E
3F
00
E0
16
07
FD
ED
FA
00
00
17
15
FE
13
FD
23
20
17
04
0E
13
06
18
0C
21
03
08
0F
0C
FE
0C
04
F4
07
0C
14
13
0C
07
24
26
1C
F5
11
1F
FF
02
0D
19
0B
19
01
0C
F2
EE
F5
F5
1D
1A
16
FD
EC
0D
16
02
1C
13
1E
25
23
21
FA
02
03
02
14
09
E9
05
F6
F5
08
E9
06
11
F1
FB
06
FE
F3
0D
F4
05
07
F9
E0
D9
D7
DA
DE
F2
FF
E2
D7
D8
FD
FD
01
EC
FE
EB
13
10
F8
F9
03
F3
FF
FC
14
EE
12
F8
F7
EC
0A
F0
07
03
06
ED
06
F4
F6
EC
F7
FB
F0
06
FC
00
10
EE
FE
0B
10
EE
0B
0B
0A
FC
08
00
0F
F8
F6
F3
04
04
09
FC
14
FF
F8
12
F5
FE
06
EE
0F
06
10
F6
F4
00
00
FF
01
05
0C
FE
0F
0F
FA
02
03
EF
0E
0A
06
0E
FD
F9
18
01
02
13
ED
F8
0B
F8
EE
F2
F6
FA
F9
11
13
1B
0E
03
0D
0B
FF
08
F9
FB
24
26
01
F8
00
10
14
FA
00
0B
10
0E
00
EF
F6
10
0E
03
18
0E
F5
08
13
F2
08
08
0D
12
1E
06
E0
EF
10
11
FF
16
02
F2
1D
F0
F3
ED
FB
DE
01
0E
E7
F2
07
0C
05
05
F3
EC
F1
09
06
ED
09
F2
F7
12
15
0E
1C
11
08
FB
FA
0A
FF
05
F3
DD
FB
04
FA
11
22
12
0C
20
FC
0F
00
08
15
15
0A
12
F2
16
F2
F7
1C
E8
11
FF
F1
FA
FD
02
05
0F
F3
F8
06
F4
0F
09
1E
1E
12
F6
FB
18
F9
02
FC
F2
FE
06
E7
08
EB
07
01
F1
03
FF
E1
FE
05
00
E9
FC
0A
FD
17
07
0D
FC
F7
04
F4
0A
0D
03
0B
20
F7
FC
12
FC
EF
E3
E7
FE
EB
F5
FD
04
12
01
FB
0A
FE
F1
04
F4
02
00
F5
F6
0A
12
08
24
05
03
E3
F4
D9
E4
E4
10
09
ED
07
0E
06
0E
17
F6
F1
04
EB
0C
F7
06
01
05
07
1E
19
12
1F
13
E2
EE
E9
D7
E4
07
FA
04
0F
09
1F
0F
1B
06
01
E0
FE
F1
EC
F4
F0
01
0B
24
31
1D
12
F7
F2
F7
11
DE
FA
0F
08
0B
F5
02
12
F8
F4
FE
F5
F0
E0
F7
F2
F6
08
06
01
20
3D
35
1F
09
F4
E2
FB
FE
F7
15
FD
F2
0D
05
12
03
DC
F4
D0
E9
F6
F6
F8
FA
04
01
0D
18
14
FB
08
01
EC
FE
FB
FA
F8
EE
FB
05
11
1A
FB
10
F4
04
F7
E3
FE
EE
F7
F0
01
F8
03
0A
1F
11
0F
17
F7
FB
F0
FD
03
FF
E5
F6
0C
FE
18
04
08
0F
EB
FE
F6
EC
FB
F0
FB
07
F2
F4
1B
0F
0A
15
12
F3
DB
F0
FE
05
08
EA
0D
FF
02
FC
F3
00
E2
F7
03
E2
F9
E1
F2
F1
01
FB
1E
24
13
12
DC
F2
E0
EB
F8
05
0C
04
03
01
15
04
F7
FF
E8
EA
EB
F9
FE
FA
F9
FA
04
25
3F
28
2E
01
13
06
E8
FE
FC
12
10
1D
0F
22
19
19
07
F9
F5
FE
FB
0D
FE
03
04
12
FF
34
26
21
0A
FD
04
00
CF
F7
17
2D
22
1D
18
1D
14
18
17
06
03
0A
01
04
14
0E
12
F6
22
35
3B
20
F3
F2
0B
F0
D8
FA
F3
12
17
2D
19
25
34
31
20
0A
02
13
0D
FE
11
03
0E
0C
14
33
38
0F
F5
ED
F5
0A
02
E8
F6
FE
11
0B
1D
07
0E
1C
1F
F6
05
16
0C
0F
07
23
0C
10
17
32
1E
15
05
F9
F4
FB
07
00
06
F3
F2
FC
FB
14
18
17
17
0E
11
0C
F7
F7
15
02
0E
FC
10
20
17
0C
07
0A
E8
01
E8
F2
E1
DD
FC
F3
F2
E8
FE
0E
07
16
21
02
0E
04
10
FD
12
16
1E
0A
0B
0B
EF
0E
13
13
04
EF
F5
FA
DC
E3
F7
FE
E3
05
0C
02
FB
02
03
04
0A
1C
15
30
0C
22
F5
F7
D7
0A
10
EF
FB
D9
D9
C7
D5
DB
F0
F9
ED
E9
04
0B
15
00
04
18
FE
0B
22
0E
16
1C
12
0D
EE
F5
08
0D
F9
FB
E9
E0
F7
D7
D3
E9
E4
FE
E5
F9
ED
01
FE
0C
02
1B
04
FA
E7
EA
07
FE
17
0C
FC
F4
ED
08
13
0B
13
EC
FB
EA
02
FE
1F
1D
FF
FB
E7
F1
0E
1E
24
F0
E4
18
1A
ED
F8
ED
09
02
12
F3
05
E8
D3
F5
EB
FF
EF
04
01
DE
FF
00
FC
ED
F1
16
05
F1
F5
F7
EF
0B
0A
F6
FE
F1
08
0E
F3
FF
FC
F3
F3
13
F6
FF
F5
FB
FB
FD
F3
F4
0D
F4
07
11
02
12
02
07
F0
10
F1
F7
09
F4
F2
06
13
EF
FB
04
F3
05
06
F9
02
08
22
16
0C
1A
1B
0E
FF
06
F0
FC
0D
00
13
08
EE
0A
06
F3
0A
F9
E5
DF
06
06
DE
FE
E5
E9
E7
F5
F8
ED
FF
F6
FF
0C
1E
18
0E
F9
F5
13
F7
06
08
F4
EF
EB
D3
00
DF
F7
D2
F0
ED
EC
F7
ED
F4
E0
DC
08
07
01
16
08
E9
0D
03
0B
19
11
EA
E2
EA
E4
D5
ED
EF
0C
04
19
0C
1F
0D
F4
FD
E8
F3
F4
EA
08
F8
1C
0F
06
0A
08
01
F0
ED
E6
E1
D4
02
F5
FE
02
F0
F7
EB
F3
05
0F
F7
EC
04
0D
FF
05
FD
0C
34
13
07
02
1C
F0
03
ED
FE
10
FE
07
05
FF
FF
FC
F7
11
07
0D
0E
FF
0E
FF
F9
F6
0F
FE
00
F4
17
FF
0C
0E
10
06
00
FD
06
07
1E
0D
02
05
F5
06
01
15
13
22
06
F7
0F
1A
02
FF
07
14
21
1E
18
10
FE
0E
18
0A
FF
04
09
29
2C
1A
12
13
09
24
0E
24
1D
21
FC
17
2F
0E
03
15
23
1B
EC
07
F1
02
01
07
FD
18
09
10
1C
28
07
FA
0A
1C
11
00
16
10
14
19
0A
24
07
10
13
05
03
FD
F8
EE
FA
00
EA
F3
04
0D
27
29
10
F8
F7
0B
0F
19
09
09
04
01
15
07
1D
FF
24
FE
17
ED
E8
0D
02
12
EC
00
F9
FE
08
26
05
11
0E
07
EC
08
FE
09
27
15
0A
08
20
12
05
14
06
07
E3
FD
FD
12
EE
E3
E8
0D
0C
1F
EC
F4
E8
ED
E9
ED
F5
0A
13
14
03
14
01
06
0C
06
08
E4
F0
1F
11
FC
F5
08
F5
F6
F9
EE
EE
06
F0
07
FD
F1
02
01
09
07
F4
F6
E5
0D
FC
06
20
E2
E7
FD
EC
F5
FD
F6
FE
02
E5
03
ED
F6
F9
F7
FB
07
EF
ED
F2
05
04
07
DB
EF
0E
08
01
EA
03
0B
EC
1F
03
F6
01
F0
EC
F2
DF
F0
E1
E5
01
01
F8
02
06
03
14
F6
EE
F1
1F
FB
03
EF
F9
08
0F
14
16
F7
00
07
F3
D4
DA
FB
FF
FC
E8
FC
EE
F8
FF
FF
03
EB
E3
F3
F3
D3
F8
E4
F6
ED
EE
13
F1
11
07
FA
F3
E0
F2
02
08
03
DE
ED
EB
EE
FC
01
09
EF
F6
01
14
E8
02
BD
E8
14
03
05
10
1E
12
F8
00
FE
04
FB
F8
F4
E3
EB
F1
E7
EF
F9
F4
D7
FF
F3
F2
0F
00
E8
E9
F8
0C
F4
0A
0D
0A
15
FC
E9
F0
EB
FE
F1
FA
DE
00
FE
06
06
FB
F0
08
E6
13
1A
08
DF
02
0F
FD
00
1C
FE
FD
FD
06
09
07
0B
E6
ED
F5
00
E2
09
09
E7
EB
E4
F0
FD
04
FE
D6
F5
F9
FF
F6
13
EA
04
03
12
0F
02
F4
F8
E6
FC
E3
F2
E9
EB
EC
F2
F5
06
F1
1E
F7
F6
C3
F8
ED
F6
02
F6
07
0D
14
1D
06
17
12
F2
F9
E2
03
D5
E8
FB
E3
FB
F1
F9
F6
0A
10
FC
EA
EE
FC
FE
EA
EF
FA
F2
F5
21
09
09
19
10
00
FC
D2
CE
DD
E0
E7
EC
01
F8
FC
0D
F6
F9
FE
EE
EC
FB
EA
EC
DE
EF
F8
06
02
21
0F
13
20
F4
0C
0D
FA
E8
E1
E9
E2
F2
EC
0F
F7
EE
FA
1A
09
F1
F9
FC
EE
F8
FA
05
FD
FD
2B
2C
48
42
29
17
F2
F4
E7
05
F1
0B
07
0F
05
11
F4
F3
E0
08
05
0E
F3
EE
F5
1B
06
00
05
09
19
0A
21
24
0E
FA
1B
FD
08
21
01
F4
F0
EF
FB
0C
FC
0C
F0
05
06
F5
12
F4
00
16
28
F8
19
15
1C
F5
F4
1A
15
0B
EF
FA
0E
0E
00
07
0A
03
F7
F9
09
01
FA
FE
F9
01
14
FB
F2
FB
01
0E
ED
02
0D
FE
0E
01
13
EE
08
10
F5
EE
FF
10
EE
0A
ED
F3
0C
12
03
E7
FB
FA
16
0F
F8
F7
03
FB
E3
EE
FB
F2
F0
02
05
F0
0D
14
0E
07
E2
EF
EE
1A
FC
0E
0A
FA
F8
F7
16
0E
22
F9
F4
EA
D7
E2
ED
E7
08
EA
FD
EE
07
0D
12
F8
F8
FC
0A
1D
10
17
1E
10
24
00
F7
12
00
FC
EA
F3
F5
D5
E8
E5
C7
CF
F0
12
0E
EE
14
F6
FF
FD
12
0D
F1
01
07
14
06
05
05
02
07
FA
06
FC
05
E2
E8
FC
F4
DA
FE
E7
F9
FC
07
06
0D
09
0C
0D
0C
FE
FF
F6
04
0D
05
04
0B
02
F6
02
FE
05
FD
FA
14
F2
ED
FC
F8
FE
EF
FF
EA
ED
F4
FA
02
F2
10
04
F5
F1
0B
FD
05
1C
02
10
09
F6
07
19
01
F2
1B
0E
EE
F0
FE
FE
E9
E9
E5
FE
05
07
12
11
03
F6
11
06
10
0D
FE
14
13
FD
16
FB
EF
D6
FB
FF
FC
0C
F2
E6
F8
FA
FE
F0
F6
FA
05
02
0C
E1
01
0E
16
14
FC
06
13
0C
13
1B
F9
F3
1F
F8
F7
1C
E9
E8
14
02
07
EF
F3
FF
11
08
DE
EB
EC
13
1F
1E
0E
02
08
F9
FD
F9
E0
E6
DC
EE
18
F6
F0
ED
FA
15
01
FF
0F
0B
EE
E9
E2
E8
E6
15
19
0E
0A
03
E8
0E
F4
FA
DD
F1
11
13
FC
E1
F0
E6
11
F3
ED
EA
E2
EF
FA
EE
DD
C2
E0
0A
FC
0E
02
F6
F4
E9
F9
EF
EB
03
F5
0F
07
F9
FC
E5
10
EA
CF
DB
D9
D9
D2
DD
D7
D8
D6
07
EA
E1
F5
F5
EC
FA
E8
D0
E9
0F
04
EF
27
0A
19
E3
E0
BE
CB
C9
CF
CA
D4
DD
EE
F4
E2
00
03
E6
04
E6
0D
03
E3
F6
F9
FC
19
EF
EF
03
F2
F0
DD
D1
C1
D0
F1
EA
F3
04
F4
E8
F2
F1
F8
F0
ED
0C
F9
EA
F8
E9
F1
02
FC
19
0F
FF
EC
F4
D6
EB
EE
00
EE
10
08
FC
F7
05
FD
F8
05
07
FC
03
E9
05
F0
FE
F3
E9
12
33
14
E7
E3
F3
F4
EE
0B
17
02
18
11
1D
0E
22
0D
FA
F7
FF
DA
E2
F6
02
E1
EE
D4
02
1E
0B
0B
FE
EB
ED
06
18
02
0D
19
14
02
07
18
1A
1F
04
F1
D8
EC
F3
EC
E2
F2
FE
0E
1E
2E
1E
0A
FD
F3
03
FE
01
0B
0A
F5
01
0B
0D
35
20
F9
E1
FB
E1
FD
FA
F4
E8
FD
16
1C
09
13
FD
06
F5
F5
FB
06
02
1B
10
0B
08
0E
19
13
1C
E9
E3
DF
F7
F7
00
14
07
15
09
FE
1A
1D
1E
FE
EC
FC
0F
09
0C
1B
09
0D
17
25
13
29
0F
E8
EF
09
0A
1D
1C
18
09
1D
1B
08
24
1F
0F
21
01
FA
14
06
F4
F5
EE
04
11
0C
F5
1C
0A
F2
E9
EB
1B
1F
07
1D
08
1D
32
10
1D
08
FF
0E
F8
F9
1B
1F
11
0A
0B
FC
00
F5
08
06
03
F4
E7
F7
F8
02
07
1E
1A
26
22
08
0D
03
F6
02
10
08
F3
F6
12
06
F6
E3
E4
FA
09
F3
11
F0
DC
F2
E1
01
0D
00
1D
07
F3
0C
05
1B
08
F2
FB
0F
C7
FB
04
F0
F7
DF
F3
FE
14
FE
15
EC
E2
E1
0C
FE
03
06
00
0D
03
10
03
FF
F4
10
02
0A
09
05
1B
F4
F8
F5
19
EE
03
0D
0D
DF
EA
DD
D5
DD
F0
EC
18
DB
E6
E2
00
15
FD
F1
13
ED
17
F9
F3
10
2E
1E
0F
32
17
24
07
13
E6
E4
D7
EB
E9
FD
0C
E8
FA
13
22
04
10
09
08
0B
01
0C
F3
12
1B
FD
1B
04
0F
F8
F7
18
01
09
EA
07
0F
FD
FF
FE
07
FB
F4
F2
0E
0D
0C
FB
F1
F2
FE
EF
07
F8
09
10
0B
11
F9
03
03
07
00
F4
F2
0D
EE
08
09
11
02
EE
07
04
ED
01
08
FD
0B
E6
F4
F0
F5
FE
05
14
FF
0D
05
0C
05
E8
04
EA
E4
FF
ED
FB
F9
FE
02
FC
F9
03
FC
F5
08
FB
00
E4
DE
DF
EE
FA
F5
F6
ED
F6
ED
E5
EE
0A
F5
E6
D6
DD
F4
12
F4
10
0B
14
F1
E1
0B
05
E9
E1
FF
0B
1F
EB
E7
ED
E4
F9
0D
F5
FA
F0
F7
07
28
0A
0B
F5
01
F8
08
0C
15
FA
FA
F9
10
F2
FE
E7
01
F3
F9
EA
FD
F0
FC
FA
FD
15
00
03
09
05
F7
26
1E
07
0D
F3
FF
01
E1
00
F2
F7
EC
DE
0C
05
0B
FF
FB
06
03
06
06
FF
11
1A
F1
0C
F6
06
2D
0B
FE
13
03
02
F7
08
EF
F1
00
F3
EE
01
EA
05
F7
15
05
EF
02
F0
EB
01
0B
F6
15
08
F7
F2
01
09
E8
08
00
ED
01
F4
F6
F5
E7
F2
05
07
F2
F9
F6
F5
0A
F9
F5
F7
18
13
E9
F4
10
EA
F1
F9
E2
F1
05
F6
FB
0C
01
F5
EC
F9
E8
F0
FA
01
EC
F4
ED
EA
0E
F2
0B
06
F9
09
04
E4
DA
EE
F3
DA
0D
07
03
07
0B
FD
F9
FC
F0
E6
D9
EE
FA
EA
FB
EB
F7
F3
F6
F8
DD
11
02
E5
F1
CF
E7
03
F4
02
F8
01
06
02
08
FF
0D
E8
04
EA
02
F1
FA
05
F9
0E
06
07
FB
E1
EE
F3
E6
E2
FD
09
FC
03
10
0B
13
15
13
0C
06
19
FD
12
25
1A
10
09
16
1C
1C
F2
D7
FE
05
EE
F9
DE
1B
FF
1B
11
12
11
1B
17
12
2A
2C
2C
1F
27
10
1D
27
25
25
33
2E
1C
ED
D8
F8
FC
03
E7
16
39
09
0F
05
04
FD
05
11
10
1F
19
0E
17
0C
03
FC
0B
0F
20
0E
EF
E5
EC
06
08
16
EF
FB
14
FC
F2
17
05
FA
12
11
12
1B
FA
02
16
19
FB
0A
FB
11
0E
12
FD
F5
F3
F9
09
03
EB
F6
E4
FB
12
13
16
0A
17
FB
23
00
0C
17
09
1C
F9
EE
F0
07
F2
EC
EF
05
DC
FC
DA
FA
FF
D1
CD
E9
FF
0A
04
02
0F
1D
06
14
11
FE
06
0B
F8
03
00
E4
05
E2
CD
DF
EA
0A
F5
02
F6
DC
D3
F8
F1
FB
0B
13
1F
1D
0F
09
0F
16
FC
FD
E1
F6
F9
F6
09
DB
D4
EF
E2
EA
F9
FE
00
F4
D9
D6
EC
F6
16
10
19
0F
17
FB
F7
F3
F3
F6
F2
08
0C
F5
DC
DC
E4
D1
01
ED
0B
04
FE
FD
F1
FA
EB
FA
FE
0E
FE
FC
00
01
E7
EF
07
FF
F7
16
FC
DF
09
F6
EF
F2
0E
06
11
00
0C
E0
F9
F2
01
E7
EE
DA
01
E2
01
EC
F8
07
F8
03
F3
0A
F5
05
05
FD
05
FA
FF
DF
EF
E6
FA
EF
ED
F2
F1
E2
F5
E8
EE
F0
E4
F9
F6
0A
10
FC
07
F2
EF
FE
01
E0
E2
ED
FE
F6
15
FD
F7
01
05
F4
0F
EA
F0
ED
F5
E8
F6
0D
0F
F5
EC
0E
F8
F2
FB
FE
18
F8
02
F9
05
10
ED
0D
FB
DE
E5
EA
01
F0
0F
03
FF
01
FC
FF
14
FD
04
17
F9
08
0D
02
0E
14
EA
01
FB
0B
F3
13
0F
EA
E0
F4
DC
F2
FF
FD
05
01
F3
E9
EF
04
FC
F2
FF
0A
0C
0A
04
06
EA
12
0C
F6
FA
F3
FC
ED
EA
F9
07
EB
F2
F6
F7
FF
EF
DF
F6
0A
ED
F7
EF
F3
16
19
02
10
F0
FD
0B
0B
F5
12
01
FD
16
0D
0B
00
0B
FC
FA
F9
08
07
08
F5
E3
E6
05
E8
F4
FD
EC
03
06
08
03
F0
FC
06
EE
04
E4
FD
F5
18
F6
F3
F1
09
05
E5
F3
01
E6
DD
FD
0C
EC
F5
FC
F7
0A
12
F4
F2
0E
0C
04
F0
02
0B
11
08
ED
F8
13
F2
00
1B
FB
08
01
EC
FD
F3
0F
ED
EE
F2
0A
07
EF
FC
03
EC
F8
07
06
04
06
10
10
1B
07
0E
13
0B
13
1A
F4
12
10
03
21
09
F9
FD
08
FF
11
F3
F2
ED
01
D8
0C
05
1E
04
09
1E
07
2B
16
18
1E
0D
16
13
06
1C
31
25
23
00
F9
F6
14
ED
F3
0C
FB
D9
F6
FD
1D
F8
11
FB
19
F0
F8
0D
22
0E
1D
FD
1F
19
1B
16
04
23
1A
06
1C
05
08
04
E7
01
F7
FB
EE
01
F8
FE
03
07
04
FD
F1
14
FF
11
0D
FF
0E
F6
0E
2D
06
EB
DF
E7
08
07
05
0C
00
06
10
F3
E8
FE
EB
F0
F0
E1
0E
F2
03
04
E8
E8
02
DC
E6
09
08
FE
EB
07
12
FC
0E
EF
F8
12
05
19
FB
F4
0E
E8
E9
FF
04
09
EB
FB
D9
CE
DC
D8
F0
F0
F6
F9
15
F5
FB
13
00
FC
18
1C
12
12
00
FE
FB
01
05
EF
F5
04
E9
EE
E3
E0
DC
01
0F
05
24
16
29
E9
DA
14
1B
FB
27
22
0F
16
01
0D
06
F8
E5
0F
F5
07
F9
E3
FA
F5
E4
08
04
14
1A
1A
0E
DA
0C
25
15
22
01
03
F0
F7
00
07
E9
F1
13
15
F8
08
F5
EE
05
01
E7
F6
1A
26
24
1D
F5
FE
FB
09
1E
20
FD
19
0C
F2
ED
FF
FE
05
F4
16
0F
02
F3
F0
F2
04
08
10
06
0E
15
0D
F8
EB
20
1D
11
0A
00
FA
05
0A
0C
02
02
FD
06
00
07
03
0B
09
FA
06
0E
10
05
05
ED
DE
E3
FE
17
17
2B
19
1A
DC
FE
00
FD
13
FF
1C
FE
0F
06
01
14
F7
0A
FA
FE
F3
00
F8
EC
DB
F7
0D
09
02
09
25
17
02
18
19
1A
02
05
07
FC
E2
EB
F5
F5
03
0C
F1
12
FF
FA
FC
DF
D7
D6
DB
F3
1E
0E
0D
0B
08
08
09
01
10
F6
FF
F6
E4
FF
0E
15
12
01
FC
0A
0C
0F
1A
F5
DF
E6
E9
0C
F9
16
01
F3
FD
07
02
13
13
F1
0A
EE
EF
F9
1A
18
13
17
F5
09
00
FF
FB
DD
EE
E6
F5
0F
EA
EF
04
DE
E6
F9
07
0D
1A
FD
FE
EE
04
0B
14
09
F2
02
05
02
FD
E2
E7
03
F2
DC
07
F1
1D
EC
F3
D8
E6
06
FE
FF
FE
FA
0A
E9
F0
29
1A
05
08
00
07
03
00
EE
EA
F4
0D
FC
D6
F6
F9
F3
DD
F8
F0
0A
06
0C
04
F2
EF
FE
00
22
1C
10
0A
EE
0B
F7
FF
E8
DD
E8
02
0A
08
F2
04
10
E8
E7
F7
F9
DF
EF
EA
E5
F9
E7
1A
2B
22
14
FB
04
06
07
0A
D1
DB
F3
19
F7
0E
F2
0A
FD
00
11
EE
FF
E0
F2
ED
DD
EB
FA
0F
33
2B
0D
06
FB
E7
E4
F1
DC
DF
F6
06
12
F6
01
07
E6
ED
FD
06
EE
EF
E0
FD
F1
00
1A
00
26
14
28
FD
E9
DB
F7
05
EE
E9
FE
F3
07
FF
FD
FF
08
F0
FA
EE
DB
EC
E8
02
D6
DE
ED
13
0F
FE
1D
09
EC
D0
FC
E8
EC
F5
12
F4
0E
13
FD
F2
0D
F3
F8
FD
FD
EC
E4
E7
FC
ED
EA
F7
F9
F3
F6
01
E5
DF
D7
EA
DF
F9
DD
E0
EE
0B
04
ED
FC
08
EC
14
01
EC
02
03
F0
F5
00
F5
09
F6
EE
14
0A
F1
08
0A
04
D6
FC
14
23
09
FE
F7
00
12
EF
FC
F9
F9
EE
01
F2
06
14
12
03
1C
03
07
02
FB
E1
F8
F9
FE
FA
F1
F9
0B
FA
13
F5
0D
04
0B
FE
FB
0C
FD
1B
0A
19
1D
13
2B
04
08
F8
FC
F4
F1
16
00
FF
18
EE
FA
14
F0
00
F3
04
09
01
F5
00
0D
10
08
0C
24
17
1E
2A
2C
FD
13
13
19
1F
F9
07
11
05
F3
F0
ED
04
F0
F1
F9
F9
FB
FE
F2
FC
08
FA
F6
08
F5
0B
04
00
04
ED
F9
0D
03
0B
F9
F3
04
07
FD
EE
13
F4
0E
09
14
10
04
16
17
11
0C
F4
0F
F5
FA
11
15
2C
FF
05
17
06
F3
13
EF
10
14
11
07
0F
F6
07
0E
00
03
0F
F8
F7
0C
FA
08
ED
00
14
0D
2E
3A
30
27
1A
01
F2
07
05
EF
EA
18
05
00
FA
1D
14
24
FE
0B
17
0B
F6
03
08
1A
1C
33
20
21
0A
21
F3
02
0A
FB
FC
0A
FE
11
22
10
F9
F5
0C
FD
FA
08
F2
03
FC
FF
FE
FD
00
18
0A
FE
EE
FC
04
EA
11
0B
F9
05
16
EC
2F
F8
04
01
FA
FB
0B
EC
01
FF
FC
08
00
01
F9
FB
0B
04
F4
E3
EE
FE
EF
FE
09
18
09
00
26
10
F8
03
F9
FE
09
EB
F9
EE
F4
E9
13
0B
F0
ED
EC
E6
CD
D0
F0
E5
09
09
F9
0E
13
08
1F
FB
FB
EC
FC
E5
02
05
F2
FE
EB
F9
09
EB
DC
CE
DD
E2
DC
E0
EC
E8
F6
01
EE
F7
15
E8
0E
0A
02
F7
E9
08
E5
F0
EC
10
F4
FF
EA
E5
DF
CB
D1
DF
ED
E3
CB
EF
FE
0B
09
F3
05
FC
1B
09
F2
03
F1
06
F6
00
E6
F2
F3
00
E0
DD
DE
CE
F0
F2
FA
FB
FE
DE
ED
09
06
07
F0
E7
1B
EF
DA
E7
EF
F0
F5
07
0F
0B
FE
D0
D6
F0
F3
F9
ED
07
EB
F6
0E
DF
FF
0B
08
F8
09
F9
06
F7
EE
FB
09
04
0D
0E
10
03
DA
E2
F4
FF
03
F2
06
07
04
1E
FF
07
EF
27
F8
EC
14
07
FF
E8
10
0C
15
01
FA
FB
F5
F5
F2
EF
F7
EF
0F
03
10
13
09
2A
1D
F8
DD
F0
FB
FA
F7
F6
0E
FC
04
12
FD
F3
03
15
F8
F4
06
0D
1F
0E
00
10
10
08
0A
24
FC
E9
C4
FD
F0
FE
10
03
05
08
09
F8
F2
0E
0F
12
08
E9
09
21
FC
09
02
FD
F6
08
0F
22
09
F4
D7
DD
05
00
0A
F4
F2
0D
1B
F8
F4
09
0B
16
FB
FC
08
05
0B
DC
01
08
FB
1C
17
FF
FC
20
E4
03
10
07
FE
F0
08
F7
05
01
0B
FB
0C
0B
10
10
FA
FC
F7
01
E6
0C
05
0E
F7
F9
02
F7
CA
EC
FD
16
0C
F3
EF
FD
17
03
F5
09
F3
0D
08
FE
FD
01
FA
F0
F7
F2
00
01
08
0B
02
0C
E3
DF
FF
00
1B
DE
FA
ED
FC
05
F8
01
F6
23
0E
0E
FA
05
F9
0A
0F
10
0A
08
F6
05
FD
16
E4
F8
0B
F3
01
E4
F8
E8
03
07
FA
05
14
17
18
08
05
0A
0B
0E
02
F1
FD
08
07
0D
EB
EC
FB
08
F8
F1
F4
E2
DF
FD
E4
F0
FC
0D
F4
0E
2A
22
1F
FF
14
0D
F6
0F
0F
FE
EC
07
F5
FA
01
FE
EE
0F
F5
F0
F6
E2
E4
F3
E5
FD
FC
01
0B
0D
1E
08
06
0E
05
00
01
0E
E2
EC
FD
F8
11
00
FF
10
FA
F4
01
F2
E6
09
ED
F9
02
E4
F4
11
FB
00
F8
02
0B
F4
FB
F9
EA
E5
F5
1A
FD
05
FC
10
0E
03
F4
EC
F3
E2
E9
F6
FF
E5
D4
D0
E9
E0
F2
DC
EE
F6
09
FC
FC
EB
08
F1
ED
FF
13
0D
FC
0A
EF
EB
03
E6
E4
F3
F0
DE
E3
E8
D5
EA
F0
E2
EF
E1
E2
F1
E7
EB
E9
F8
02
EF
F4
ED
F2
09
08
0A
EC
01
01
F5
E7
F2
F1
08
F4
DC
E1
FC
FE
FE
04
FC
F8
E1
F6
0E
0D
05
F4
02
EF
EE
11
EE
07
EB
09
F1
E7
FD
00
10
FE
F8
F8
F8
02
F5
FB
F7
F5
14
F9
F2
F6
06
0B
F7
FD
07
F4
0F
F7
FC
F5
07
FC
F3
F9
03
08
08
FC
08
F3
FD
09
F7
0C
10
14
12
F2
F5
F8
02
0D
F0
F5
F8
F6
11
FA
00
11
ED
FB
0C
FC
0E
EE
0A
F4
01
EE
F9
0E
10
F6
EF
FF
F6
10
11
F1
FA
F7
F0
EC
DB
EA
DE
F0
EB
D5
D4
F1
FB
19
EC
E6
D8
D2
E4
D8
FB
F9
04
FF
EF
0A
F2
DE
E7
E3
F2
ED
01
D2
D4
D4
E2
D9
E9
ED
EC
13
F5
02
DD
EF
E7
FE
F6
05
E8
11
04
0C
FA
00
FC
E0
FF
05
DE
02
02
1E
01
EC
E9
0A
19
FA
22
F3
EA
04
F2
E8
E2
00
FB
E7
F7
0D
19
00
0B
FF
14
0E
23
00
17
1F
2D
15
01
F5
F2
FA
ED
FE
E6
09
F5
FE
F6
E9
E8
E8
E6
10
07
09
0E
26
23
18
0B
06
24
1C
F9
FF
FD
03
EB
FC
F4
F3
0A
FF
06
FC
F8
0B
F6
EA
FE
09
17
F3
16
0B
02
18
2E
FF
04
0A
E6
FD
FE
F9
F4
04
F6
F7
00
FA
F3
06
03
09
0A
04
14
06
ED
00
35
24
28
2E
0E
06
0F
ED
F9
EB
FF
0B
F7
F7
01
04
F4
0D
ED
FA
F3
F1
03
0D
0A
EB
DF
F8
1E
FF
18
04
0A
DB
F1
FB
EE
05
0B
03
E8
F1
F4
F7
FC
F6
04
FE
EA
E0
03
13
03
F6
DF
F2
F9
06
E6
D7
E5
E1
E2
FC
FF
EF
F4
E0
E9
F6
00
11
FB
02
FB
02
02
ED
E9
0B
FF
FA
E8
F3
F0
EF
EF
E3
EF
E7
05
F4
FC
FA
ED
D7
EA
0F
15
05
13
03
E0
EB
F2
D0
F8
F6
08
03
E0
EF
EB
CA
D3
DC
EF
F9
FD
DB
FE
02
DE
F7
19
07
1C
1A
FE
14
00
F1
EF
E2
FC
ED
0E
07
E3
DB
00
EA
DD
FD
0A
01
F1
09
F0
05
FA
0D
23
1A
0D
09
09
16
F8
0C
DD
E6
01
15
18
1C
FE
E1
00
06
0D
09
FF
0B
0C
FD
09
16
2C
28
26
04
25
0A
14
0A
F7
F0
01
F0
10
1D
09
0A
08
D8
10
05
0A
0F
25
08
1A
16
FE
1E
10
0F
27
08
09
13
13
07
E2
DA
01
18
1F
1B
0E
0E
FC
0D
0A
39
10
FD
1A
0C
07
21
1C
F5
15
07
1A
1D
1F
12
01
0D
F8
E6
FD
0A
07
3A
12
EF
17
0C
24
16
17
16
FF
11
00
07
08
0D
20
1D
2C
2B
19
18
03
0E
04
05
0A
03
1A
1D
16
03
00
FE
31
20
10
0C
E8
FE
E8
F4
11
01
24
15
10
14
12
1A
FE
05
07
12
02
05
11
0B
14
E3
0A
F1
1B
25
06
03
F0
04
ED
FB
FF
F0
15
1B
1D
0B
01
06
F6
FD
0D
F5
FB
18
23
20
27
EF
02
19
1E
09
FB
03
FB
EF
DC
E1
EF
D8
FC
00
13
07
09
01
F2
07
0C
15
0C
18
29
28
1C
FB
F1
12
33
1F
F0
F2
FE
F9
EC
EB
E2
C9
CF
F5
E3
F3
06
FA
08
F5
EC
FE
E8
29
0D
FE
F6
FA
1D
24
23
10
EC
F0
08
FE
F4
EB
E3
EA
E4
CF
F9
FE
EC
FB
E8
DB
E1
D7
05
1A
08
F6
07
FD
1A
2C
2E
09
EF
0F
FC
02
F7
F7
F1
EE
E7
DD
F7
E5
F8
E0
FC
01
00
EB
0B
09
05
04
FB
12
F1
0B
24
0E
07
FE
10
F3
08
F9
E9
F8
E0
F7
F5
DD
08
E9
EC
06
EC
F2
F3
15
0B
1A
F9
0E
F5
FF
2C
20
FD
0C
0E
0A
02
02
02
F5
F2
FD
E5
E8
F5
06
F4
F7
06
13
FB
F8
03
11
02
0D
FF
1D
08
1A
10
06
1F
01
1D
1E
0D
0E
08
0B
07
FE
FD
F4
02
0F
EB
E9
EE
DE
F9
13
11
03
FC
F4
16
24
05
0D
0F
0D
01
F6
E3
F5
0A
17
FE
F8
FF
19
09
F1
EF
DC
ED
FA
F8
F2
F9
FD
F3
02
0F
F4
0D
F7
E5
F3
F5
FB
0C
FC
00
0C
16
05
FE
FC
1B
11
04
03
EE
0C
03
08
05
0E
04
F5
EF
ED
10
05
0E
FD
F2
10
0B
F5
F9
07
04
03
FA
FC
F1
F5
FB
10
0E
14
F6
0E
ED
FD
12
04
01
09
FD
FE
08
F1
FE
FC
F9
0D
19
03
02
0D
F0
02
17
16
FD
F3
15
F9
09
07
F8
FB
14
06
17
13
EE
15
EC
F4
FD
FC
03
E8
FD
11
17
FF
F8
FA
07
1F
0A
FE
19
04
02
03
10
07
F7
FC
EE
04
08
F0
10
EB
E4
EA
07
F6
00
08
0B
F8
E5
15
10
F0
E7
DE
EE
02
F1
06
10
F5
FC
01
06
F6
DD
C5
DD
D4
FC
FF
FF
F0
06
FC
F5
05
0B
10
06
0C
09
03
14
06
0F
18
F5
F1
F2
F1
EE
F9
EC
E9
D2
F4
F9
15
FE
0B
FA
0F
F8
F2
05
16
1C
09
12
07
1F
17
25
11
FE
04
F7
1F
EB
13
FA
EF
F0
EB
FF
0E
F7
09
FE
04
0F
14
24
F1
19
F0
0E
10
10
1D
1F
0C
03
07
0D
00
EE
DF
EA
F5
F2
F1
FA
0D
F9
FD
0C
24
02
16
15
0D
15
1A
FE
FC
F4
05
0F
0C
0E
1E
08
F6
E6
FA
0E
EF
FA
F5
F5
10
0C
10
0E
0A
02
10
10
1A
F3
F1
06
F9
EB
F6
07
15
09
10
22
08
19
FC
06
F3
03
FE
0C
12
2E
0F
0E
E8
DF
07
F4
15
0F
F7
0D
02
F0
FC
03
1C
13
00
0F
16
11
F3
F9
04
11
1D
22
0A
24
0F
F4
E8
E4
E8
E9
FF
FB
E8
02
FB
F5
06
14
14
08
FD
1C
15
FB
12
18
21
06
0A
15
05
23
02
FF
F8
D9
DC
F2
04
FB
E4
FD
FD
DC
F5
09
0F
03
EC
17
17
F9
21
12
0E
0C
13
13
FB
20
FD
05
E3
D0
D7
E5
E4
05
FB
EF
FC
1B
09
FB
FD
1E
F2
05
36
F5
24
22
27
10
F2
05
FE
0B
ED
FF
FC
F4
DB
E1
05
F2
0F
05
18
12
21
FD
F2
0D
07
EB
23
0A
10
24
FE
FC
02
05
08
EE
02
F2
F4
E1
E4
E3
F1
02
FF
03
11
12
1D
06
F2
02
08
F7
F9
04
11
03
FA
F5
05
01
0A
E9
07
03
E0
E8
F4
F3
FB
10
0D
09
FF
1F
1C
FA
D5
0E
0E
E4
F9
EE
23
EF
FB
02
F2
01
13
FF
E9
FA
DD
D2
DF
E5
04
18
06
F8
F3
08
06
E4
D9
EF
F9
03
D9
0E
FE
F2
ED
F4
FD
FC
F3
FA
07
F0
C6
EA
E7
08
0B
15
14
FE
0D
0C
F7
05
F7
09
02
03
DE
0F
0D
F7
F2
EB
EC
F4
03
EB
E8
D4
DD
F5
13
FC
0E
16
07
05
EE
09
EC
12
E3
EA
F9
03
E6
F5
11
E3
02
F4
14
F0
DC
F3
D1
CF
00
FB
08
0C
04
0A
F9
F5
04
F8
05
0A
00
01
03
0A
DA
02
1C
EC
ED
F7
04
F7
E6
E1
F4
00
08
1A
15
10
00
FC
0A
02
F7
01
0A
15
FA
F2
01
EE
F2
EC
05
09
F6
0B
FE
07
10
00
FA
F7
0B
20
0A
05
ED
F3
13
0C
F6
F5
0B
08
FA
FB
0F
06
F0
F7
F7
EE
E3
EF
ED
F6
08
06
03
0C
15
14
F3
FE
FC
F6
06
FC
F5
14
F3
F2
02
15
08
06
F9
F8
ED
F0
F6
F8
EC
F8
F2
07
18
07
18
11
02
0E
ED
02
FA
0E
0F
0F
0F
E9
04
F9
EE
0B
EF
F5
F4
FB
F7
FD
F8
EE
04
F7
11
1D
FC
05
08
F8
15
FC
17
10
12
21
0E
F1
13
F5
F1
08
08
12
FC
FA
F1
F3
0B
07
F1
F4
15
22
16
07
1E
16
12
2B
19
27
1A
19
11
14
F4
0F
EE
0E
12
F9
FF
FC
F3
EA
0D
17
28
27
1E
2D
28
29
41
17
08
10
FB
22
16
13
18
0C
FF
09
EF
0F
01
EE
10
FD
F1
0C
15
0D
25
0A
03
31
1F
24
11
25
FA
00
1B
1A
07
00
F1
F3
FC
FA
