FD
0B
10
0E
12
EF
EC
F4
FB
EF
06
FB
E9
F6
02
03
F1
0C
01
ED
07
03
12
F1
13
FA
EE
0D
FF
FF
F5
06
15
0A
ED
F6
0D
FD
EE
FB
0C
0E
04
EB
E5
F4
EA
FF
F7
F8
F8
E5
0E
0B
F2
F5
10
02
0C
FE
EA
F6
03
E3
D1
DE
F5
FB
FE
14
22
02
03
17
3A
15
F7
FF
E7
FF
FB
FF
FC
F9
03
01
DB
EC
E9
FF
01
D9
D9
F1
F5
F8
F5
E3
F5
01
16
1B
12
FF
F8
06
0A
1C
2A
12
13
F8
10
F9
F2
EE
0D
06
09
00
F7
16
F3
F2
03
0D
10
15
02
02
E8
F6
FC
0A
08
1B
34
24
03
0A
F2
0F
F8
FE
24
1F
FB
08
06
02
FE
04
01
0C
0B
0F
EA
EF
EC
ED
F9
15
11
15
28
05
DF
E5
FC
05
F3
F6
21
13
27
29
03
07
06
FA
05
FD
EF
DC
FD
E5
E4
F8
01
0D
04
1D
09
D9
D6
E5
02
18
0B
1B
0E
17
0F
20
18
19
17
0F
F1
E2
D4
EC
DE
06
08
F8
16
13
F9
10
E3
EC
E2
F8
06
28
1A
1F
0B
13
18
0F
19
12
00
F4
F5
E9
EA
EC
F3
0E
F7
01
13
0F
FB
05
D6
F8
FA
FA
14
27
0D
03
F8
07
12
0C
FC
F7
07
10
03
EB
E6
F9
FE
05
F3
ED
ED
F4
06
09
F2
E2
DC
01
16
1C
18
EB
05
0B
09
FF
06
0D
F8
FE
F6
F1
E2
07
1E
1A
FB
FF
EB
FB
12
FD
04
F2
E5
09
22
1F
18
21
0A
F2
06
0C
06
0F
02
09
FE
F0
F5
00
25
1E
F5
EF
EF
EC
10
14
0A
ED
FC
06
11
0D
1F
F8
0A
FD
FB
FC
F6
FC
0D
02
14
E3
DB
F4
0D
0E
F7
04
F2
FD
FF
0C
19
E1
E7
E0
F7
03
08
FD
03
0D
03
F0
03
15
12
18
F6
E5
DE
08
FD
18
09
1C
0F
1D
18
0E
21
FD
EC
DB
13
14
27
FE
EA
0A
1C
03
FA
0B
FD
FC
EC
F2
E5
FD
FC
03
1E
15
FC
11
0D
13
10
00
CC
ED
1B
06
FF
EF
F4
1C
0B
06
01
F5
FC
08
03
EC
07
06
20
25
0B
0E
FC
18
27
07
F9
E0
E3
07
09
DC
F6
EE
DD
14
1A
04
FD
E9
E7
01
F0
18
1D
11
15
16
03
FD
19
14
06
F7
17
C3
DA
E5
F4
EE
F5
F6
F3
F6
18
F2
E6
CB
E2
FE
0C
0D
08
0A
2A
0C
1F
0A
15
22
FD
01
1F
CE
E1
DC
E7
00
EF
F0
07
11
EE
DD
BA
C7
E1
14
39
2D
1A
08
01
12
F8
FE
F6
05
09
09
0B
F0
FB
F3
E9
1A
0A
08
03
14
DE
C3
BD
B1
00
29
3F
1C
20
05
0B
EC
02
09
EB
EF
DE
EE
E8
FB
EE
FF
07
F2
FA
18
F8
09
FC
BE
C1
C7
F0
32
23
26
0B
F2
0C
05
E8
ED
EC
FF
E9
DF
DC
F2
F9
F7
D8
F1
F0
07
EB
E3
EB
DF
DC
D6
10
25
0B
20
12
14
04
09
FE
F4
F2
E8
EF
E7
EB
E9
F9
F3
E1
EC
C4
DC
D5
E7
CF
F2
D2
D3
F9
FF
F3
0F
0D
18
02
08
02
F7
04
FE
16
ED
EF
00
1E
02
04
ED
F3
F2
E8
F4
EE
EB
D5
E3
E4
FD
E0
ED
F3
F7
02
FA
0E
00
12
19
FF
EB
E9
03
03
FA
FD
14
18
F1
ED
FD
E4
D7
DE
EE
E1
E4
FF
E2
0F
03
0F
EF
EE
01
FF
FC
F9
F4
E7
F3
F9
F6
F1
0F
FB
03
F9
FE
10
F3
E4
F5
02
FE
F0
EE
F2
10
F9
EA
E6
E0
D5
DA
F3
F7
F3
05
15
09
F2
08
13
E4
F6
EB
FF
F9
EF
E0
F5
EB
D8
E9
E3
DF
11
EE
EF
D9
C1
C1
F3
E5
F5
12
10
01
FF
F5
05
07
32
30
F4
F4
02
F8
1B
13
09
33
F5
ED
25
2F
06
16
F4
FC
0F
11
F4
F6
01
FF
02
0F
FB
11
EF
F4
03
12
01
0B
10
0E
FD
09
04
01
F1
F1
F1
00
F6
0D
F8
FF
FD
F7
F0
F9
0C
09
FF
0D
EE
F9
FB
FE
08
08
10
01
0D
15
EE
F3
FF
FA
04
FF
0A
FA
0A
05
ED
F3
05
05
14
13
08
0A
1A
09
F7
EF
EC
F7
04
E6
EB
EC
04
0A
01
EF
09
0F
0B
09
0C
F9
0F
18
0C
EF
0C
EF
0D
F9
E8
F6
15
06
F8
03
EA
FF
02
01
FC
ED
E5
FC
D3
F1
FC
FC
F9
E2
FF
00
F3
EC
F5
FA
06
0D
E8
EE
14
FC
E8
04
08
FD
21
10
25
18
20
F7
15
09
F1
F0
E1
E9
F3
DA
FE
08
10
0C
FB
11
04
0E
0C
06
1B
F0
09
05
F4
FF
E7
EF
06
01
1A
0B
F1
E9
F9
E9
ED
03
FD
FF
06
F5
0B
03
0F
FF
23
06
01
22
04
F2
F3
01
F7
E4
F5
08
19
1B
03
FF
FE
09
EA
02
ED
FA
F6
0B
00
1F
09
10
22
21
10
08
1E
05
04
08
0B
F3
0E
12
1D
15
0A
14
20
09
F6
F1
FA
11
25
F6
10
0C
0B
14
0A
1E
02
10
26
00
1D
17
FF
29
09
14
1A
11
0B
13
0A
12
02
DB
0E
FA
10
F7
15
12
07
F1
03
15
16
1B
20
1A
14
15
07
0D
0B
21
1D
16
06
F9
10
FD
05
F2
D9
0E
05
18
2B
14
F9
11
F4
08
07
06
0E
1F
10
1F
0E
F9
12
1F
0A
0C
1C
0F
0D
F6
04
F4
E4
17
0F
17
26
0D
DF
F6
F1
EC
EF
FF
11
F5
F8
F4
D8
DD
11
28
01
01
FC
11
FC
F2
0A
07
05
F6
FB
16
17
F6
E0
F8
00
02
F2
0A
FD
01
D5
B0
C3
DD
ED
02
03
E8
0A
EC
E7
FF
0C
02
F7
F7
0E
13
28
E3
F5
F1
F7
0E
F6
FD
FC
D9
D7
B0
DC
ED
EB
10
EC
EC
EC
FC
F0
FC
02
F3
FD
F7
02
04
0A
E3
E9
E8
EC
ED
F9
F3
E4
D3
CD
DF
F3
03
EC
EE
FB
E6
F1
FA
01
FC
00
0D
18
12
FC
EB
0A
EA
06
F7
F8
EF
E4
F3
F6
EA
DD
D4
E8
E7
FC
F7
E2
F4
FB
06
11
F4
08
FF
00
0B
17
09
0C
D6
0D
07
E6
ED
EE
F4
FD
E5
E6
F3
E4
E9
F1
FB
E7
F8
FF
19
08
EA
0C
0B
FA
29
FC
0A
18
F7
F4
EF
E8
07
03
F7
F6
F9
E7
E9
E8
F5
E3
F6
F8
F8
F7
0B
F5
FB
03
04
15
1A
1B
05
07
E4
F1
15
06
E8
00
0A
11
FB
D3
FC
E9
F5
F8
FC
10
09
F4
F7
EE
04
EE
17
05
24
FE
18
02
DF
F9
0F
05
07
F6
08
E7
02
FC
01
03
E0
EA
0C
FE
FE
F1
06
F5
FD
FC
01
1A
1C
07
1A
00
EC
00
F3
F6
16
F6
05
14
FB
07
0B
06
FF
10
03
0F
07
F5
01
FE
14
0A
07
05
F0
FF
1F
1A
FD
17
0D
04
28
17
14
03
07
21
13
1E
18
0D
03
00
0C
F4
08
FA
02
13
05
FD
FE
FA
F1
15
06
06
1A
1A
25
02
10
0D
03
FD
10
15
1C
F8
F7
FE
03
07
18
0D
14
14
18
F5
1B
06
00
08
F1
0E
14
23
03
04
FE
0D
03
15
FB
03
0D
14
00
05
00
EF
08
FC
FC
01
FC
0D
0D
F9
FB
17
0C
25
07
14
FC
ED
04
F5
F7
0A
F5
FE
ED
05
08
FC
03
E6
E8
05
F1
FE
0B
2A
09
12
F5
F1
0D
1F
29
16
20
22
19
FA
FF
FF
04
00
05
F2
0C
00
12
F9
08
08
06
F5
EA
FD
10
11
F4
FE
00
E9
F3
FA
09
22
02
17
1C
09
11
1F
09
20
23
19
16
0D
11
0E
FE
F4
F5
13
0A
05
FE
F2
0D
0C
0B
0B
1B
3A
1A
00
14
09
1B
07
FB
21
1E
06
0B
FB
01
00
13
F9
08
06
0C
F5
0F
FF
05
0E
FA
0C
F5
0C
0F
0B
10
FC
14
0E
10
12
13
F2
F9
ED
F5
06
FF
11
EF
ED
08
F3
00
F8
EE
FD
F7
F1
0C
FC
F0
FD
03
FB
0E
03
F6
F2
F6
F9
0C
F6
13
0D
1D
0D
0C
13
08
F9
05
FF
1E
12
FA
13
01
17
0C
06
12
0E
FF
0B
01
FB
01
16
07
F9
12
02
07
03
F4
FB
F2
F1
EE
E5
0A
03
15
0F
FB
F6
1A
15
01
03
FF
12
F5
0B
08
D6
0A
F4
05
F0
02
02
05
1C
EC
0E
EC
E9
F5
06
08
01
F3
06
FE
0C
0F
1A
FD
F0
10
F5
F3
F6
FF
E7
F0
07
FE
F7
F6
11
1D
F3
13
FE
F1
0F
EF
F4
F0
07
E9
09
F9
F5
02
16
1B
10
FC
FF
02
FA
00
10
0D
0A
DC
CC
0D
11
EB
20
08
FE
DA
E1
FE
E7
E2
DF
EC
E1
F3
EE
0C
F2
07
0A
F2
01
12
FA
F0
F8
DE
E2
FA
FE
07
F8
0C
1A
F1
FC
DF
01
EE
EF
04
FB
F8
FE
07
0B
F3
09
EF
EF
05
FA
07
01
CD
E6
FA
0A
06
04
00
01
05
FC
F1
EB
F0
07
0B
09
F5
F2
FF
03
03
EB
E4
08
F2
F4
F1
EB
F2
00
E1
F4
FD
03
07
F5
FD
17
00
09
E8
FA
E7
02
01
00
F8
15
19
FF
F8
E5
06
F5
01
FE
D4
EC
F5
E9
EB
E3
FF
0F
10
07
0C
FE
EA
DF
F6
06
E1
F7
F3
E6
F3
11
F0
EB
FA
EE
08
E6
E1
C9
FD
E0
F8
05
F1
0F
06
FC
EC
05
04
02
E7
E5
FA
E0
DC
F3
E9
F4
FA
FE
13
F6
10
FF
E1
F6
EC
0B
F9
FC
13
F9
16
0C
F6
08
E8
DF
E8
ED
E8
EF
C8
DC
EF
07
18
FA
1C
1D
22
38
0B
F5
E8
FB
0C
E9
F8
08
0B
1A
19
00
03
FC
E4
06
E1
F2
DE
F7
0E
04
0D
03
05
19
25
30
11
33
FC
04
F2
EB
FC
02
06
20
1E
19
F9
FB
F3
F6
F0
E4
EA
F9
E9
EB
09
FC
ED
FE
16
FC
14
25
0C
F9
F8
01
F8
FF
15
1D
2B
15
2A
1F
21
03
F8
FF
FA
F7
04
F8
1E
07
03
F3
FC
06
19
22
12
0D
06
ED
F2
08
04
10
00
22
31
1D
22
1F
04
F3
F2
09
04
19
08
FE
F2
FB
03
FD
32
1D
04
03
02
F9
0F
F5
F0
07
FF
08
0F
2E
28
13
0A
03
08
17
FB
FC
0C
1F
ED
FF
04
06
19
F5
09
F8
F2
F9
00
F5
EB
06
16
0C
08
27
27
08
18
FB
15
1D
06
0A
FE
09
07
16
23
2F
13
EE
F7
F0
FA
F3
E8
EE
FB
00
09
0C
02
26
26
00
15
0C
0E
17
01
0F
02
FE
FB
1D
02
FE
07
EC
F9
FF
05
EC
F2
F7
01
ED
16
F2
1B
06
07
13
0F
F7
1A
05
04
0B
0E
1C
01
FE
14
18
27
EF
F8
03
F0
0B
00
09
0A
06
FE
05
FF
FF
1C
01
FC
15
FF
10
0E
0B
0E
0D
FC
13
20
1A
19
01
18
F2
0A
02
FB
EE
0D
FE
12
FF
14
13
03
0A
0E
07
F9
0F
0E
FC
18
10
19
16
21
1D
0E
F3
1A
0B
0F
0C
EB
E6
F4
05
FE
0B
1C
FE
09
FC
FE
F6
F6
E8
EC
06
0F
FE
17
20
0A
28
28
FC
03
07
06
03
E4
F2
DF
F1
EC
FF
02
EA
FA
0C
06
DB
00
E5
FD
DF
F6
EC
ED
0B
1D
21
FC
00
FF
FE
F8
FD
DC
FC
C5
D9
C3
B9
B4
C8
E0
E9
E2
F0
ED
01
E2
F3
F3
F7
FF
FB
F1
02
0F
0D
FC
F4
F0
EC
0C
F4
E9
F7
04
FA
F0
F5
09
17
F7
FC
06
EB
E8
ED
00
E0
FA
F7
F3
F2
F3
FA
EE
05
08
FA
13
04
EE
0B
00
F7
01
FF
03
11
E1
F8
FC
ED
ED
0C
15
F8
F0
F8
F4
FC
F4
0F
F4
F7
FF
05
01
03
11
EC
F7
0A
FB
EF
FB
04
F7
14
F7
11
F8
13
07
04
04
13
02
F5
ED
11
FA
14
FB
F1
EC
02
F5
00
17
23
1F
1B
14
F6
E4
00
FB
F9
10
0F
FE
13
EE
0F
08
01
FF
04
F2
0E
11
EF
F7
12
E6
10
0E
14
05
F9
F9
F6
1A
0E
0E
0A
19
00
06
06
E6
06
0D
00
14
0F
EC
14
F0
01
02
0F
F6
F4
23
0D
09
05
1C
19
21
0E
0E
0F
0F
02
F1
F1
02
FE
E6
0C
F6
FD
0B
0F
12
03
01
F9
0E
16
0E
12
05
1D
1D
2A
0E
12
0B
F0
10
11
03
FF
EC
F3
09
FC
0A
EC
FF
07
0A
22
12
0A
FD
F6
F5
EC
06
0D
19
07
15
00
13
14
18
25
1B
03
0A
14
FD
09
12
0E
FE
F8
12
01
12
0C
08
0E
F9
00
F8
08
0F
17
13
FB
14
10
FB
F7
FF
0E
EB
FC
F8
22
1F
29
20
E7
EB
E3
02
09
00
F9
FB
11
F7
F8
0B
04
1A
04
19
F4
07
E9
02
FB
0E
F7
12
07
1E
0C
05
EB
ED
CB
FD
F4
F5
06
10
07
F9
02
FD
F6
14
0D
FC
05
FA
EA
FA
E9
0A
F9
1C
1F
3D
24
1B
E6
DC
01
13
02
F3
0A
01
04
FD
0E
E9
06
08
F5
F4
09
02
05
F9
13
14
15
04
24
25
0E
13
E5
FA
04
12
F2
F6
1E
F9
12
F0
0F
F1
01
02
04
F8
F9
0E
14
05
F7
F6
DD
DD
01
19
00
15
E0
E9
F7
F7
03
F7
05
F3
08
FE
FA
FE
F3
1B
16
10
F8
13
08
02
ED
D4
DD
BD
DF
F2
18
06
FB
DE
DE
09
04
EF
ED
15
F3
03
F9
FC
F5
06
38
1F
FF
0B
0D
F3
E1
D6
BD
B3
95
E1
0B
07
04
EB
D7
0B
13
05
EA
FF
09
F0
06
F3
FD
26
1B
02
FD
ED
FD
FE
DF
DF
D8
D7
C6
FB
EE
F5
08
09
D7
E0
04
F7
FC
FF
F6
07
06
F1
16
19
1C
F7
EC
02
FE
E8
F7
D4
D6
D7
E4
04
08
04
08
06
F1
07
FA
FD
ED
DF
FB
EE
F4
FC
06
0B
F7
F2
EA
F3
E0
FE
E1
EE
FF
F6
FB
F7
07
13
F0
15
F9
0C
1D
F8
FA
E1
D0
F3
FA
06
F8
07
07
F8
F6
F0
FA
EB
FB
FF
FC
00
07
01
01
21
14
27
06
12
2C
18
F6
F5
EA
CE
DD
E3
DC
EF
05
EE
EF
F2
F7
03
F6
05
FA
06
07
08
1C
FF
15
07
F2
22
3D
1E
F8
F4
F1
DC
C6
E1
F2
EA
06
FB
07
1C
F8
FE
06
10
06
2D
1F
06
06
05
FD
F9
05
F1
25
1B
15
09
F1
EB
F2
DB
F8
06
EF
1B
09
1B
2A
10
0C
18
2D
1F
08
FC
07
0C
11
0D
FC
21
0A
3E
31
19
02
03
F8
01
F8
02
15
09
22
0F
12
0F
17
37
2A
14
01
E9
0F
10
15
F8
10
0C
1E
16
2B
18
23
08
10
F6
F5
ED
14
F3
FB
FF
25
20
18
0E
22
2D
19
09
04
0D
10
F9
FC
01
08
F2
18
01
18
15
1F
00
06
02
F8
03
F1
0C
0C
1E
24
0A
13
27
26
0D
FE
F2
13
10
0C
2B
00
10
15
FA
25
08
07
18
14
EC
F3
01
FB
0F
0A
0E
06
10
0C
37
28
26
F6
0B
FB
EE
00
10
EB
07
FF
18
25
0D
17
06
0C
FE
FD
05
08
F8
10
06
2C
11
04
3B
2D
1A
FB
EF
00
F9
FA
08
FA
EC
F9
F1
02
0B
00
F3
16
07
FE
01
F8
0F
FD
02
1C
15
0D
19
10
F9
0A
07
11
13
F5
F2
02
FF
0A
06
E8
17
11
15
10
21
22
01
11
03
F0
06
11
15
FC
09
18
0F
EC
F5
0E
00
0B
0D
03
E4
EA
EA
E5
08
F7
EE
FC
DB
00
EB
E2
BB
C6
E9
F2
00
F0
F7
F7
05
F5
0B
FA
ED
F1
13
F4
0E
FA
0A
ED
11
F7
F7
EB
F2
18
1B
08
13
ED
12
FB
11
EC
0A
08
0C
04
00
F7
FD
09
11
FB
F4
FA
F6
F5
E5
EF
E1
CD
E6
F4
20
07
12
E7
D3
E8
F4
FB
EF
FC
14
08
13
FD
13
F1
EB
F6
08
F7
DC
EB
06
FF
E6
EE
04
03
09
ED
C0
B7
BA
D6
EA
E1
0E
00
0A
12
00
0F
0A
24
11
EF
F4
23
07
28
21
02
0A
16
0C
07
F8
EE
D1
B4
CC
DA
F5
F1
01
0E
06
DA
0F
F5
F5
21
FA
06
27
17
FA
07
F7
1C
04
05
EE
F2
00
01
E9
EC
C6
DF
DB
F2
02
F6
01
F2
F4
12
F1
10
0E
1E
1F
05
01
FD
0C
FE
FB
FF
F5
04
0B
08
F1
08
E7
AF
C8
F2
E7
E4
0F
F8
29
06
18
FE
1E
2C
0C
F4
04
FF
0F
1E
05
F4
F9
00
19
07
DE
DD
CE
D5
D7
DC
D3
D6
DD
1A
EB
03
F5
F2
17
34
07
0F
0D
F3
0F
00
14
0A
F6
18
05
0B
0A
DC
F4
BA
D6
C7
E1
ED
F5
1B
00
FB
05
05
0B
17
13
15
0C
19
F7
FA
E3
FE
01
07
1F
08
08
F9
DE
DA
CC
D9
D6
E1
E4
1B
07
14
15
F8
FF
3C
05
08
FE
F9
FA
01
E5
F4
FE
26
1C
15
FF
F5
F6
E3
D8
C8
E6
E9
FA
03
06
0C
25
F4
09
25
1A
F8
00
E1
CB
D5
D4
F3
0B
21
10
1D
F9
F3
D5
CC
BD
CF
E5
F7
E3
10
07
1A
2D
EE
FC
11
02
EC
CD
D4
D4
D1
03
0F
04
27
12
0D
EA
E9
E8
DA
E3
ED
F2
FE
FA
E7
F8
0C
14
F8
E7
EA
E4
B4
C0
DD
F1
FE
FF
11
1C
11
03
0F
E0
FC
06
F4
03
E4
E8
1C
27
0F
16
03
1E
14
E4
DF
C5
CF
D5
FF
0C
0D
13
14
11
09
17
FB
FA
00
F8
FE
F9
EF
0F
21
24
11
13
12
19
26
F4
03
D1
DE
FE
0F
0C
F4
0D
04
0B
10
FB
F0
05
00
0D
04
FD
13
07
04
0B
29
14
FA
F6
18
11
11
0D
0F
0D
09
0F
0C
05
03
1B
00
13
08
05
F9
0B
15
21
1D
2E
04
EB
15
09
18
29
19
F9
06
18
22
2B
1C
18
04
06
16
1D
13
F8
F3
FD
12
14
17
1E
15
12
2D
0A
20
08
08
1B
0D
16
0E
03
16
06
0B
04
0C
F7
0D
03
17
0A
FE
00
0B
F4
03
02
2A
0C
1A
FE
18
3E
01
0A
23
F9
16
0E
FE
F7
FB
04
ED
F7
03
FF
01
F7
0B
E9
FF
EB
F6
17
1D
0B
06
19
34
15
0E
13
05
0A
0D
F0
0F
F6
F1
EF
ED
E8
DA
F8
F5
0D
02
09
02
F6
FB
03
07
FD
0E
20
20
0D
09
15
04
07
FA
EB
FB
0C
F1
FD
E0
FB
DB
E9
08
19
FF
05
03
0C
01
FD
EC
E1
ED
07
37
19
05
02
12
24
09
F3
F0
ED
F4
FE
08
FA
04
EA
F0
0C
03
06
07
E9
F0
F6
F2
ED
F9
00
06
FF
1D
1D
1F
31
20
00
04
22
08
00
19
F5
FD
E0
E6
0F
F2
02
0C
0E
E3
FA
ED
E6
F2
F7
17
F7
FF
0A
0A
19
26
1F
12
2D
F9
0A
17
0A
ED
FE
FF
F3
FC
E4
F1
FB
EF
FE
E6
F8
EE
FB
15
08
0C
FB
1E
14
2D
27
15
0D
12
09
0B
16
ED
05
0B
EB
F3
0C
17
FA
DC
E4
E1
EB
0E
26
02
F6
F3
EC
FE
07
1C
12
07
23
15
20
00
F9
0A
E7
F4
F9
F5
DD
F7
EC
F6
E4
F5
F5
FA
EE
05
F5
FD
F9
04
FE
F2
FE
E7
27
FE
DF
FD
F9
EB
FA
E4
F2
F6
F1
0C
F9
12
02
F3
E0
08
11
03
0F
08
EC
EF
F9
14
0D
EF
EE
E3
10
FB
F8
EA
D9
E4
12
0B
16
FC
10
F3
11
07
12
F5
FE
F9
13
FC
0F
0E
F6
F5
13
F4
0E
02
12
01
FA
12
17
19
02
FC
FF
0E
ED
F6
FE
EE
10
0C
FC
09
EE
03
FC
0A
F6
FC
0C
24
1E
F6
12
19
15
05
F7
FE
0E
1C
26
0D
24
07
1F
FC
0E
0C
F7
F9
F9
FC
FA
01
F0
02
FB
05
26
1C
1B
0F
1C
F9
F6
33
33
2C
3A
47
1F
33
46
28
29
2D
08
F4
05
F4
0F
06
0A
F6
F2
14
2C
11
12
11
07
14
0C
09
20
19
10
11
1F
18
0B
14
14
07
F0
EC
13
ED
F1
04
FC
E5
11
FE
0E
24
27
20
0B
14
13
FC
0E
26
11
22
ED
06
EC
E9
11
08
F9
16
06
0F
07
17
13
FB
FD
13
1D
0A
1E
1A
FF
F3
01
F6
10
1C
16
1F
0A
FF
F8
F0
08
15
0B
34
28
13
09
15
F0
0D
14
25
0F
19
04
07
08
01
1A
01
FE
FD
0D
18
17
FA
F8
F4
12
2D
2B
2A
10
FC
D4
01
FF
15
1E
18
0A
1C
0D
FE
12
03
F1
F9
10
19
FD
0A
FF
0A
F5
12
FA
1C
2B
33
14
E8
0A
13
FE
FF
0B
1A
FF
FF
00
06
FC
07
F5
01
12
16
FB
07
F4
09
0D
22
FB
26
30
21
03
E9
F8
F2
F7
02
11
0B
FF
FF
FC
FA
10
13
15
FD
12
F1
EF
07
F5
FC
EC
04
F7
3A
62
36
09
EA
07
17
F8
E1
FB
FF
03
04
00
0A
09
13
F6
E3
F4
FB
E2
EF
E8
00
D2
D5
F0
20
35
2B
08
01
00
03
06
E9
FF
F3
D9
EB
EE
DD
01
12
F0
F2
D3
E6
D3
DE
E4
F7
DA
E4
08
0B
24
17
00
11
05
FE
08
D5
D5
D0
E1
EB
EA
F7
FB
05
10
FD
DE
D4
CD
E8
F7
DB
E1
D0
04
24
FC
0A
1C
F9
08
E9
0D
D5
D7
E0
D8
E9
EE
F0
0E
FD
0C
EE
EA
F4
FA
FD
E2
E7
DD
EE
E6
19
29
0C
1E
16
00
F7
00
F7
D6
E3
E8
F9
FC
02
14
03
08
F1
E7
F4
E8
E2
00
F8
ED
07
F6
35
1C
26
1C
21
05
DB
17
14
F9
03
F7
09
05
0E
00
F5
F4
01
05
F5
EB
EC
13
0B
07
01
07
28
1B
1C
13
EA
DF
DE
1C
0B
F5
18
0C
F8
FC
1F
FC
03
F1
EB
EE
F8
04
0F
0E
02
12
24
22
45
3C
40
00
0E
E5
EA
2B
05
FC
FA
05
07
EE
07
0C
01
F5
02
F3
EC
03
11
0D
0D
09
0B
32
31
46
3B
20
00
00
D1
F9
12
0E
0B
F1
F6
FE
F1
E7
FB
F1
D9
F9
F6
0C
FF
08
10
1E
17
20
51
45
F4
09
0D
E7
E2
05
05
05
14
24
10
09
16
13
19
F4
EF
F0
F6
07
04
12
0E
2D
2A
48
31
49
1A
07
F5
F2
E9
FE
1D
1D
1F
17
1E
1C
0F
25
01
0C
FC
16
FF
14
02
11
10
22
33
29
26
39
1E
F9
16
FA
1B
2D
09
0C
1B
1C
14
2C
0C
21
0C
0A
01
18
1E
1C
09
1C
0F
03
1B
12
07
1A
0B
11
0B
F0
01
43
2B
0A
04
12
FF
22
FC
FE
1C
1C
00
05
F7
15
18
0B
FE
16
1B
24
08
FE
05
F5
F0
FB
1D
16
02
16
F1
16
0D
1C
06
09
07
FF
FD
06
F1
10
15
02
00
05
08
11
05
04
0A
F9
01
F9
07
EB
E2
E9
F4
06
FF
1B
0B
27
0D
17
19
FE
0B
05
FA
F9
03
E5
DA
E5
2A
1D
0E
0C
08
EC
0D
17
0A
F2
F0
F9
FF
0F
10
12
23
36
0E
3B
2D
05
1E
08
FB
E7
FA
DF
F5
15
12
0A
10
03
FC
F1
F7
ED
02
F0
F4
EA
FF
0B
0B
0A
01
F8
FC
10
F8
FF
F7
F3
26
1F
09
F8
F8
0C
FB
05
FB
FF
10
F1
16
0C
00
F7
E4
FE
F0
DE
FA
DC
09
0B
09
F3
F0
EB
09
0A
00
05
FA
FE
FF
05
08
FC
FB
F8
06
EE
F3
FA
ED
0E
15
FC
E7
EF
F9
0D
13
F0
EE
FA
EC
0D
FF
10
F6
01
F4
10
13
0F
01
1F
0D
FA
13
20
11
1E
17
1D
07
13
0A
08
09
20
0D
F2
13
F1
FC
FE
F0
F7
FA
03
0D
16
0F
05
F3
17
FA
0E
0B
16
20
FA
22
F9
06
11
08
1D
29
FA
0D
FF
F8
FB
F0
FD
07
F1
FA
FC
FE
0F
1B
0F
03
FD
F4
21
10
00
FB
14
0F
FB
09
1D
10
09
08
08
F8
00
04
00
01
17
EA
0A
FF
02
F0
08
F2
D4
FC
07
EA
F2
FF
0F
07
EF
04
0D
FA
10
20
10
28
05
09
DF
09
05
CE
11
F5
07
F8
E7
F5
01
F7
EF
0B
F2
F9
E9
F0
F9
FE
EF
F9
EF
F6
19
06
EC
0B
0C
02
FB
1E
FD
ED
FB
15
14
F9
11
13
15
14
1A
21
0B
04
F6
07
09
0E
11
05
FD
0D
06
0D
E6
0B
01
11
FC
0D
FD
F1
FF
03
F4
FE
08
07
11
05
0F
07
09
F2
12
02
06
04
16
15
0A
04
0A
F2
FA
01
F8
00
FF
05
F4
0F
14
F2
0E
13
0D
FF
17
F4
0A
03
FB
0E
17
0D
27
2A
1F
F9
E9
04
00
1F
FB
F6
FE
F9
05
19
10
0A
F5
07
16
09
09
0A
04
16
15
0A
EF
FC
0E
18
19
06
00
06
F4
06
11
F2
E1
F1
20
1C
0B
13
07
25
FF
19
09
0E
0C
01
F7
0D
FF
0E
10
13
23
12
E7
F7
01
0B
0B
16
F8
3C
1C
37
2E
37
12
38
27
0F
FD
05
12
03
FF
E9
0C
ED
0C
0C
03
15
03
0C
15
13
03
05
1E
40
26
29
20
26
1B
17
05
09
0E
25
01
09
00
F9
F6
07
F3
EA
FB
ED
F9
E7
0F
F3
04
18
16
31
12
0F
F6
13
03
FD
DF
DE
10
1A
16
14
09
0E
0C
FB
01
FD
EC
CF
E8
FE
14
09
0B
10
0A
13
03
F2
0E
F1
EA
05
D9
EC
02
14
13
0E
01
11
04
0D
19
0B
07
E4
F7
10
F6
1B
0A
FB
FD
F4
F7
05
02
F9
00
F7
E8
FB
EA
0A
21
1A
F5
0A
EF
1E
FD
10
14
CC
F6
0D
0D
FE
F4
FC
00
F9
0F
E6
E6
EC
F6
F4
F0
E8
FA
06
F3
14
0A
05
01
E4
05
15
EE
DF
F0
02
15
0A
0E
09
FB
EF
E5
F7
DB
F7
E2
F3
FC
00
08
01
FA
F9
0D
EB
F3
FD
F7
16
F1
E2
EA
14
0C
1C
08
F3
EE
FE
E5
F3
E7
00
14
F1
EF
0A
FB
06
F6
03
EB
ED
FD
E5
EE
DF
F0
F5
E4
0A
05
1E
03
10
13
09
F6
0B
ED
01
EF
1A
0D
F7
FD
E6
FB
07
10
E7
FF
04
F3
F6
EF
F9
F4
0B
07
1E
01
0A
06
F5
F6
E9
EA
0C
0B
06
07
10
0A
09
F6
11
FD
13
FD
FA
09
E1
06
03
0B
DC
E6
05
0B
F6
EE
FB
F2
F8
F2
08
FD
F4
0D
10
FD
02
07
08
FA
03
03
0A
00
E3
F6
FD
07
FE
EF
06
0E
0E
FA
F2
FD
FA
FD
FA
F9
F5
09
14
23
FF
0B
F7
0C
EC
F6
E5
F9
09
EF
EF
04
00
02
F8
F3
1C
23
0F
21
01
02
FF
13
06
20
04
13
1E
17
F1
EA
09
05
0F
16
01
EC
0D
07
0B
0D
0C
0F
21
38
12
19
1A
1B
30
15
1E
06
0D
0B
1D
07
13
F6
F9
F9
20
23
16
DA
F3
0F
13
0A
FC
0F
24
1E
1A
15
15
2A
1D
08
0D
23
13
08
1E
1F
25
12
04
20
25
0A
15
DA
FE
0A
04
00
EF
14
01
0C
FC
0B
01
FB
16
0A
FD
16
11
01
10
11
13
15
14
26
11
F4
10
06
F6
08
EE
11
0B
01
F4
0B
1B
0A
F8
EF
05
F5
03
F4
12
03
F3
15
FD
F3
0E
FD
18
0F
EE
09
03
F1
00
13
08
F1
FE
F6
FB
02
08
FE
0C
F5
19
F8
F9
EF
EF
FC
EE
FA
FD
FB
FD
04
10
FB
07
03
FA
F8
0C
FB
16
24
29
2B
2B
2D
27
19
1F
21
10
1C
0C
15
26
1B
2E
2A
1B
20
06
01
F6
05
0F
11
02
F5
02
13
31
0F
32
22
3D
1B
1C
0A
17
13
21
2C
2F
23
34
2F
13
30
27
F4
0A
F5
11
ED
EE
F6
F2
1F
2C
2A
4D
44
3E
26
33
2A
1D
0F
17
FA
FD
0E
23
10
17
2B
22
18
06
FE
03
E7
E5
F2
DE
0C
FF
00
0E
F5
05
FD
00
EE
FF
10
18
0C
05
07
0F
09
05
24
11
03
03
F3
0D
05
ED
F3
DC
D8
E8
DF
F3
01
1B
0A
DE
00
F6
FC
06
FD
0F
01
02
03
0A
03
09
08
F2
05
06
FC
23
D7
EB
FA
E6
EF
05
FB
F7
FE
FA
0B
F6
07
09
FE
F8
03
13
01
11
11
1C
13
1B
FA
10
EB
14
ED
CC
E7
F2
EF
FE
F5
F7
0B
04
04
FB
FA
0D
FE
FA
FB
FF
06
0E
01
15
20
15
13
05
05
03
F3
D0
F6
E8
FA
0D
04
00
FE
FF
EB
F7
E8
E9
EF
F5
F7
F5
EF
05
27
28
31
10
09
0A
E9
11
03
DB
E4
D9
0C
05
10
0D
18
0D
F4
EE
E6
EA
DF
DD
F6
EE
F5
17
31
48
25
14
FE
11
F5
04
0B
CF
D4
05
10
12
06
04
F6
0C
04
F3
03
DA
CE
D3
D8
E0
07
0F
18
3C
2A
0F
EF
00
F5
01
E6
EC
E5
FA
0E
0F
19
FD
04
0D
09
0E
F4
FB
D8
F6
F7
F2
05
12
36
47
27
FF
11
FB
05
04
02
E7
FE
F0
FD
0F
F7
05
F9
23
22
F7
EA
E4
F4
DD
DC
E0
F3
F0
2B
0B
11
11
FD
F2
F2
EF
01
DB
F3
09
F4
FA
08
14
04
03
1D
F0
F2
EF
E3
EF
EE
ED
05
12
1A
22
FA
CE
FD
1A
F0
F6
F7
F0
D0
F6
02
E8
07
19
12
06
12
06
F3
F9
E1
EC
E1
EF
02
16
13
19
FA
DA
0E
08
0A
E2
F6
DE
F4
F0
F8
F5
0C
00
19
03
17
FD
EC
E6
DD
E3
DE
F0
1A
F5
F4
0D
14
CF
DC
04
04
0E
DF
D7
F6
E0
FF
09
06
17
FE
06
FC
FD
E0
E7
D4
EB
09
09
FC
05
0A
00
F1
E6
D5
0B
EF
EF
D8
F2
FF
FA
F5
EE
0F
1E
12
F7
ED
E1
EC
E1
09
09
FF
17
01
E6
F1
F7
03
EF
01
0F
06
DD
E3
10
08
00
FB
13
05
15
10
0D
FB
07
02
0D
06
0F
07
0C
0B
FF
FA
01
00
04
EA
FE
F3
EC
E0
05
0A
28
23
15
29
18
11
13
14
05
13
16
18
05
F5
F6
09
07
F1
21
0C
05
11
FE
04
F7
EE
F9
0A
08
1D
11
09
21
0F
1B
0B
18
1B
1D
08
14
08
07
07
17
24
FE
0A
00
F4
0F
F0
E9
04
F1
ED
07
08
02
17
07
0F
17
09
04
0B
0D
0A
1E
06
FC
07
12
F8
12
F4
00
EE
F8
0A
F0
06
0A
0A
02
05
09
19
0C
06
16
1B
F8
04
0E
FF
02
FC
0E
19
F9
1F
EE
F5
03
0C
0E
F6
F7
08
08
0C
03
EC
10
1A
11
F7
0E
FD
0D
0A
00
0E
ED
FE
0E
FD
F2
F9
E8
FB
02
14
05
03
06
F5
F2
F3
F3
0F
F7
16
1E
0F
29
0F
0A
1E
F9
FD
07
FF
10
F5
01
E6
F7
F9
E8
EF
00
FF
03
0E
15
FE
FA
F1
F4
09
09
20
06
24
00
18
16
19
F0
16
F4
E7
F2
15
15
F0
15
FC
0E
0D
02
08
FA
09
0A
ED
E7
E8
EE
1B
1B
FB
0D
0D
08
13
0E
00
08
F5
EF
20
05
EF
00
FE
FB
04
11
11
F4
10
FA
09
EF
F4
0E
0D
12
06
0C
02
FE
10
09
11
FC
F4
DE
F5
FC
F5
EE
0E
03
F7
12
0D
F4
01
FF
10
12
00
00
EF
E6
F9
09
F1
08
F4
F0
F5
04
0A
F9
FB
06
FA
07
03
F9
F8
0A
FF
00
EC
CD
DC
11
F6
E9
05
F2
E6
FF
0C
EA
0B
09
FD
E2
E4
F1
E0
FA
10
EE
F1
03
F9
FB
F8
EE
F9
14
F9
0A
05
FC
E4
06
1B
12
0D
1C
0A
F8
E4
09
FF
F9
F0
E8
FD
EF
01
02
03
F3
FB
E6
F8
13
F4
21
06
12
14
17
12
01
FC
01
F8
FA
0B
0B
F8
1A
0C
20
0B
E6
09
06
03
11
15
F9
18
ED
00
10
F7
FD
18
06
FF
07
05
FB
0B
E8
FA
09
FA
F4
F1
FC
0A
00
F8
02
F4
F4
F7
F9
F9
11
16
F4
01
F7
0E
F7
0A
00
0D
03
EB
E5
E0
FC
05
F3
03
12
10
01
05
FA
F4
09
FC
06
0D
F7
ED
FD
0F
FE
13
12
12
ED
E0
0D
EC
ED
07
04
E3
0D
FC
18
14
13
02
01
E6
01
1E
00
04
F8
0E
02
1E
17
04
05
02
E2
E4
F3
FB
F8
ED
00
F5
E5
06
13
0D
FB
13
E1
F1
16
10
0B
F6
F3
07
09
08
02
08
0F
0D
F5
03
0A
FB
EA
09
10
FF
00
06
10
14
09
0A
06
E5
D1
11
01
EF
0F
1A
0F
2B
0C
FA
F7
16
01
F9
F7
04
FD
F5
01
FE
09
FB
F6
FB
0E
FB
E3
FA
F7
F2
11
F3
0F
0A
0B
1F
F6
EA
F0
07
EB
EC
00
13
01
0D
FF
FC
FF
16
19
0A
20
17
06
00
E2
0B
01
1A
13
00
1A
0C
02
DE
E1
F9
0F
09
09
11
DB
F0
F1
F9
0A
01
13
14
16
FD
05
04
E6
FC
14
0B
1C
12
10
10
06
E8
F0
F2
06
F8
E5
EC
DE
12
0C
19
F3
15
15
13
EA
02
F2
FC
D1
FD
07
19
08
1A
FB
FD
02
E8
E9
FD
EE
FF
0A
08
12
10
19
01
16
12
0B
FA
DA
FF
F3
08
D7
F3
14
07
09
27
1C
14
07
F6
EF
04
E2
FD
F9
0B
07
10
0B
FF
19
F1
FA
15
DA
EC
06
16
E2
0D
03
0F
22
1D
1C
FF
1B
09
06
02
E9
F1
EC
F9
F4
14
18
0F
FA
ED
F4
14
C4
EF
FB
07
01
00
02
FF
06
FF
07
FB
16
F8
ED
07
FE
E5
E6
EA
F8
07
03
0F
14
10
07
05
E8
DC
03
F1
09
12
FD
0D
FA
F1
0A
0E
05
EE
F6
01
01
F4
D4
EF
E5
0A
07
07
06
06
10
14
F8
CE
0D
F1
07
06
EC
11
F1
04
F3
F6
05
04
EE
E6
03
E8
D0
EC
FC
10
25
18
24
FB
0D
0C
F3
FE
F3
FE
FC
11
F4
01
0F
F8
0E
0F
FB
02
F5
F1
EE
D2
DB
EC
F2
0B
18
14
FE
FD
F5
F0
CB
0A
00
02
12
FD
F9
0A
14
04
09
17
F9
FC
09
FB
FC
04
EA
0B
07
19
0E
17
0E
13
ED
FD
DD
02
13
F4
02
E1
05
F1
FC
0E
1F
FF
0A
E7
0B
01
F8
02
F1
F3
FF
24
10
0D
0C
F9
F5
D5
F5
18
13
0F
12
02
E2
0E
F3
E8
00
10
E6
F7
EC
E5
EE
FD
0B
FB
20
1A
1E
14
F8
01
07
EC
0A
17
FF
06
17
E2
06
0A
07
E4
F2
06
F0
F8
E2
F8
E9
FE
F9
16
0F
09
27
19
02
FB
08
F3
07
0D
F0
FC
FB
14
F4
0A
03
F7
06
16
0A
0A
01
DE
DB
F2
03
F7
EF
FD
19
17
FF
F3
DD
D5
F2
EE
F6
F6
FF
24
FE
FD
0B
10
FF
0C
04
05
FE
D7
E2
E2
E4
E4
F2
FC
04
FF
FF
F3
F6
F1
FC
00
F0
FE
02
08
10
0F
16
1B
14
19
04
FE
06
0F
F4
05
ED
E7
FC
EA
F7
01
FB
F4
F1
FA
F8
08
0C
0F
F7
14
FA
01
0A
F9
1A
12
FC
F5
01
E5
D8
F0
EF
F3
EC
ED
E9
E8
F7
EC
F4
07
00
FE
F0
FF
02
FA
0F
F0
EE
01
F8
FF
FA
FF
F4
08
FB
05
ED
F8
14
FD
F1
FB
F2
F7
00
FA
F1
09
0B
EE
0C
13
20
02
01
0D
05
0C
16
1A
1D
20
11
FE
E4
1C
0C
1C
1C
04
1C
07
01
07
FB
08
FC
00
FE
EE
03
14
11
0D
18
13
30
14
11
18
11
1C
13
26
12
2B
1B
35
18
0A
0F
0F
0C
EC
06
01
13
EC
FD
08
07
0B
05
F4
06
07
07
1A
FC
EF
0C
06
FC
FB
0F
0E
FD
2A
EE
F9
FE
FE
0F
16
0C
0D
F8
03
F6
0A
1C
28
18
26
25
17
32
0E
1D
23
22
16
28
FA
F1
02
E4
FD
0D
F8
07
0A
0F
08
0C
F8
FF
F7
F7
F5
F5
12
F8
EE
0D
0A
14
EE
04
0D
FE
F5
10
07
E7
EC
F2
F1
04
0B
15
06
0D
F5
FD
F3
03
E7
06
F1
06
0D
11
00
DD
DF
DF
E9
08
F1
F4
24
01
E8
EA
F7
EE
E8
FA
0C
26
EC
02
15
03
0A
03
F8
0D
EF
F9
EE
E8
E8
F4
F3
E5
FE
FA
F7
04
EB
06
FE
15
04
F7
26
F8
E9
18
0F
03
03
F8
F9
05
01
0C
EF
F4
E3
FF
12
F3
10
0F
0C
0B
F6
EA
FB
01
F1
19
F7
09
FC
F6
F0
FE
04
F2
06
FA
06
FE
DF
01
F7
02
EC
05
0E
10
17
03
05
03
F1
03
F8
F8
05
05
F7
FF
F0
F8
E7
FC
ED
E8
F4
F6
ED
00
09
FA
19
12
14
18
26
2E
14
1A
F8
0D
03
12
09
FA
E9
F3
EE
E8
E5
06
FC
13
F2
17
F4
EB
E4
05
11
0B
08
F4
12
07
1C
1E
F0
FD
FD
F5
0F
F0
05
00
F6
F1
F5
02
F1
06
1A
0F
00
F3
E5
ED
07
10
0F
E7
1C
2B
02
F7
03
F9
15
06
FB
DC
FF
FD
03
04
0C
0B
FB
F9
08
FC
0D
F6
FE
F4
FA
F1
F1
EC
01
F6
F8
0B
E5
F0
FC
18
ED
F1
E5
EC
E1
EE
04
09
05
25
19
01
12
FF
04
FD
0A
02
FD
F8
EC
F0
0B
E4
E1
EC
F9
16
F2
EC
F7
ED
F1
E8
00
EE
FB
13
15
11
10
06
F3
FA
E8
FE
E2
E0
F1
03
04
D9
F4
F8
24
02
07
05
E5
06
0F
FA
11
F8
12
16
15
FF
F9
F0
E2
F6
F1
E6
E7
F6
FC
07
F9
CB
F1
0E
03
FD
03
F7
05
F1
FD
FA
06
F5
19
0C
17
0E
FA
F5
F8
FC
F8
F7
ED
0E
FD
16
C5
ED
EE
F4
F8
15
1B
07
EC
00
0A
13
0C
0D
FE
1E
09
08
01
0A
0B
F5
EB
00
F7
19
FF
EC
DD
FE
FC
FF
F8
07
FC
F0
13
0F
0F
F9
20
22
04
26
0D
F9
0F
F8
F3
01
07
04
0F
0D
10
FA
E6
DE
EA
07
FE
FB
F9
0A
13
1C
12
F9
12
05
17
1C
18
1D
25
03
0E
1F
07
10
11
10
09
E1
DF
EC
F1
1A
13
01
F8
EE
1F
FE
0B
16
13
0A
F9
12
1C
1C
0D
16
24
1F
08
2A
09
1D
F7
E4
F1
EA
08
FF
1F
1A
F6
F2
11
07
0D
FA
04
F2
02
FA
09
FF
1C
1B
0E
0F
20
0A
14
12
F1
06
01
EB
ED
FF
FF
01
2B
FD
03
0B
F5
08
FE
F3
F7
1B
04
17
06
10
FA
14
21
22
F0
EF
1E
0D
0C
00
00
09
FB
F7
1B
CF
DD
F1
F7
F4
F6
FF
0F
00
1C
F4
ED
06
DB
F7
FA
09
E0
05
ED
07
15
F0
01
08
F0
07
0B
BD
CD
D7
E4
F3
01
F8
FC
F3
F5
03
08
11
F3
EC
01
EC
F5
F3
05
08
F8
0B
EC
F1
04
12
F4
F2
E4
F2
F3
E8
E5
E2
E4
CF
D4
DA
CB
EE
FA
02
00
EB
04
FA
13
F4
01
EE
11
02
11
07
F6
02
0E
10
F0
03
EC
E9
E6
ED
01
D9
E6
E9
EC
07
EB
01
01
0C
FA
EE
07
0D
F2
11
F4
FC
F6
F3
FD
08
F1
F3
FF
01
03
14
1A
02
FB
F6
12
FD
F8
10
FE
FF
03
04
08
09
EC
FD
FC
EC
0B
F9
F7
FF
F0
05
06
0E
09
FA
F6
0E
05
FF
0B
19
13
20
04
1C
06
08
0B
0E
FA
F4
0E
09
F7
FC
F8
0C
04
FD
FD
1B
11
FF
EE
E3
D4
EB
06
03
03
21
FC
FA
F7
12
16
0C
F6
FB
11
04
F3
F7
0C
F1
11
01
00
FD
F8
13
F4
0A
0F
04
12
15
15
1D
14
FB
FB
09
0F
07
FD
02
19
1A
20
F8
05
0F
17
17
06
0A
07
EB
09
FB
00
1E
15
1D
0C
F3
D7
DE
EE
F2
FC
0A
0A
01
08
01
0C
11
20
18
0C
05
EC
F8
F7
F5
0F
06
06
03
F1
EB
FD
F7
E3
ED
DB
FE
DE
10
29
0B
F6
02
0E
1F
06
06
08
F2
12
00
04
02
F7
08
F4
F3
E8
E6
E3
F2
D5
F7
F8
F3
FA
0A
10
0B
1A
FC
17
EE
13
F3
FA
F4
0A
0B
FD
FD
F7
F7
EA
FF
03
E0
E2
E6
FD
E7
00
FC
0A
24
0A
E9
0A
EA
20
0F
11
ED
0F
07
0D
0A
17
FA
0C
EB
FD
EE
F6
22
10
14
00
F7
0F
0F
10
28
01
15
00
14
05
0C
FF
11
10
1C
F9
04
F8
FE
09
0E
0F
15
1E
1D
0D
08
11
10
01
28
4C
FD
F6
0F
F6
17
22
18
13
06
0B
E9
EF
F8
E8
04
1C
38
15
28
25
00
10
07
12
24
10
07
27
0C
FC
17
03
1C
2F
16
F8
EF
01
FC
F2
F6
13
1D
2F
32
28
06
2A
06
03
17
0A
04
10
02
16
35
14
F5
FE
20
23
19
F3
00
0D
FF
E7
F9
15
12
0B
12
0C
FF
05
19
F6
FF
E2
EB
E3
F7
12
FE
F9
F6
FB
17
0E
25
08
0C
11
FA
FD
00
F1
F5
FA
F6
0A
12
0B
F2
06
F0
EB
E5
02
EA
F7
F1
FD
FB
00
F7
01
19
32
16
FF
FC
EA
DD
FD
03
F9
EE
10
03
15
0A
09
F8
F3
FF
FF
19
EA
EC
F1
12
03
0E
07
F6
1D
1D
01
04
DA
E3
E5
F1
DF
F8
0A
F6
FD
0A
0B
06
0C
16
13
E8
D8
EA
ED
0B
03
19
0F
0E
0B
FC
00
D5
E3
CD
F6
EE
F2
E7
F4
F1
FF
0F
27
10
11
0C
18
ED
DD
F6
11
FC
0D
0A
20
F9
06
F0
13
FB
D9
CA
D2
CC
E6
F1
E9
D8
07
FE
15
F8
0A
0D
08
EF
EA
E9
29
26
27
0C
3B
F3
0C
02
19
06
15
0F
F7
FE
FD
F1
01
EA
F2
FF
0F
0F
14
1A
E3
E1
DB
01
FA
0E
10
34
07
F2
15
0F
10
08
0A
12
F4
FF
01
E5
FA
EC
07
F5
0A
04
FF
EC
FA
F7
0E
0E
F7
FD
1B
0D
05
07
F7
0F
FF
16
18
0A
13
FB
F9
E7
F9
E3
03
EE
04
10
FC
F4
F4
04
FA
07
ED
E8
08
21
FB
F5
05
09
03
F7
02
EE
08
03
FA
05
E5
01
FA
F2
10
F1
F1
01
FC
12
07
EE
F7
F1
13
32
0A
0E
EE
FC
FE
11
FC
03
03
EE
07
07
E7
08
FF
14
0E
F5
E1
EF
09
11
FF
D7
EE
03
00
1D
30
0F
02
18
00
05
FE
EB
F9
F6
F5
0B
00
00
02
07
09
04
FB
F0
F7
24
F5
0F
0D
F0
09
0D
36
1F
29
17
26
EB
EE
FE
EA
0E
00
05
FB
02
1B
08
F7
04
02
07
EE
FD
EA
03
07
05
0E
F8
15
31
28
3A
1E
1E
0B
23
0E
18
2B
0D
12
15
16
15
31
39
1D
0C
02
1F
02
E0
02
EC
06
FA
14
05
23
18
23
33
25
2B
48
44
55
3E
2F
26
2E
2E
44
43
22
1B
08
0E
09
14
0A
10
00
ED
F0
05
FF
06
1A
3C
23
1D
16
29
26
31
1F
1B
1C
04
03
20
1B
1A
17
0B
F3
EE
F4
ED
EE
10
FF
04
0D
F5
03
EF
F1
0F
04
18
04
09
03
07
04
EC
EE
0D
00
0F
0E
13
0F
01
09
F7
F5
F2
F7
18
14
1F
FB
0B
F7
15
1E
09
16
06
F6
F3
0E
15
31
04
F7
19
20
EF
F2
FB
10
09
FC
F3
04
EF
18
11
00
06
2A
21
28
18
08
FF
14
1D
F4
FE
16
09
FB
F4
14
F9
05
0E
0D
EC
F2
FC
05
FF
F6
21
09
20
2C
26
0D
1C
F2
0B
10
09
08
01
FF
04
1D
04
0F
10
F0
FC
01
0D
F5
F0
F8
0D
18
17
05
F6
1B
FD
FD
06
F3
EF
0E
0E
F8
FD
FD
FF
F3
19
04
02
01
E0
EB
0D
09
E4
FC
EF
F6
E6
07
F3
0E
1D
17
11
0F
0E
15
FD
07
FE
04
F6
EA
FE
FE
FA
FA
0F
FA
F4
05
0E
E2
F1
E6
02
E7
EC
FD
07
FA
FC
FE
01
FF
17
F3
E4
F3
01
E8
07
0A
00
FE
06
FC
10
EB
0E
D7
C7
F2
04
FE
F2
F4
05
10
FD
11
1C
1A
F5
06
E9
FB
EC
E7
FC
0F
09
10
FB
06
02
FF
07
EF
C8
E9
E7
F3
E2
FE
01
06
07
08
2C
28
0A
E3
ED
FB
14
F7
03
1C
0B
13
12
EA
F6
FB
16
FB
E4
0F
16
F7
EC
EB
02
F8
FA
0F
3A
23
F2
D5
C9
DC
FA
01
FE
F9
10
1C
EE
07
F7
10
04
F9
E6
09
EE
05
F8
0A
F7
15
1F
0F
20
F9
D9
D6
E8
E6
E1
E4
F7
FB
13
FE
FE
F6
02
09
E4
F4
F9
0E
FF
F9
F5
00
FA
FE
15
F7
01
E5
D6
D6
D6
E6
E5
F0
00
F4
E5
F0
01
01
EE
05
E2
D3
E2
FC
17
03
11
12
0B
03
0C
01
E5
E3
ED
D8
E8
ED
F3
01
08
F6
05
E3
FD
FE
FF
FB
E9
FF
1B
FE
0B
0B
0D
12
0B
F9
F9
0E
F6
F5
EA
E0
D7
E1
00
FB
0A
F9
0A
F2
0B
02
FD
08
04
06
01
FB
FD
05
FD
0E
FB
F4
FF
F8
E6
ED
F4
D7
F8
03
08
02
21
0E
0C
02
06
0D
07
03
09
EF
02
FA
F7
0B
F1
12
13
EF
FD
13
FD
F9
EB
E7
FD
05
FE
0F
09
18
22
12
0A
0F
E8
04
F4
DD
0C
F1
F5
FD
EB
FE
FD
03
E1
E4
FD
E5
EA
F1
0D
02
18
01
FF
1A
1F
0F
26
F9
F5
EF
FF
F0
03
06
EC
F4
FA
02
F6
FC
F6
F8
0C
0D
E8
08
02
1C
15
16
1F
10
0E
07
21
06
13
04
F1
F9
F3
EE
FA
04
FF
FB
E8
EC
F2
E9
1A
09
23
21
09
20
12
24
08
14
04
00
09
F3
01
10
F9
F4
F6
F1
08
00
F4
F3
FC
06
14
18
2A
19
12
19
19
13
12
0B
22
09
0B
06
F5
15
F3
14
EE
01
07
0C
F7
01
03
13
0C
17
FB
24
19
FF
15
10
1F
1E
23
15
13
1D
15
1E
0D
F7
01
E6
DC
F6
F4
00
0E
FB
FB
04
1B
18
23
15
14
0F
FB
08
07
10
F5
17
0F
27
0C
FF
01
08
19
FA
E9
E7
0F
F4
F9
F8
F7
20
19
04
19
10
FE
F2
00
FF
10
14
04
05
EE
06
10
02
FC
1B
0B
F2
06
E5
F9
0E
F2
00
1A
0F
0A
22
0D
FB
1A
02
05
0F
F8
FC
0B
FA
FF
10
FB
FE
23
EF
FA
F0
FF
F5
DD
EF
0D
12
0E
14
0F
0E
02
11
FC
F3
FF
06
04
EC
ED
FC
EF
1C
0D
18
FC
03
12
FA
F8
05
0D
1C
18
06
FB
FF
FC
EB
06
E1
D3
EB
F3
02
ED
FC
EC
F0
EE
27
0C
F3
FA
04
F0
EE
F9
F9
06
F9
FC
06
05
F6
E9
0C
ED
06
E6
0C
EF
EA
DD
E4
E3
F2
F9
0E
04
F1
12
11
FC
02
02
F2
FC
FE
F3
FA
E0
00
E7
ED
F9
04
0A
F8
08
05
04
01
F6
F8
E1
FB
08
F9
06
EE
FD
00
EC
0B
04
0D
0A
08
EF
F0
F5
06
FF
10
04
0A
F7
11
FA
13
F5
14
0C
F5
0C
01
0F
EF
04
F7
F7
F6
F0
F2
21
17
11
12
13
05
0E
FE
FF
0D
0D
0B
06
09
1A
0A
14
19
02
01
ED
F6
FA
ED
09
16
F5
09
23
0A
30
20
26
08
FD
FA
14
F9
E9
DC
E6
EC
F2
F8
0A
24
0E
FE
0A
0F
01
EF
FE
18
F7
FB
27
34
38
06
23
12
33
1E
03
15
FC
E8
EE
E6
F6
00
00
16
13
0E
EC
F9
01
03
25
05
02
0F
12
26
26
19
1C
1A
15
20
17
10
28
20
06
05
FC
F0
FA
CC
DF
0C
08
09
FE
F4
01
03
1C
22
1E
12
10
01
07
14
0D
09
13
08
FA
14
FB
01
F0
13
0B
EF
E9
02
18
03
05
01
14
1F
2C
34
16
07
F7
0A
12
FD
07
04
06
0D
06
12
0B
00
01
F8
F2
EF
04
F0
17
06
10
0A
02
1D
2A
25
2E
1F
F4
08
12
F2
FD
0B
04
1B
F9
F5
0A
EE
0B
09
00
EA
EA
EC
0D
09
04
1F
07
32
3A
05
1A
0A
22
05
0E
F7
0D
03
22
0C
06
09
11
F7
0C
F6
02
F8
FF
E2
17
0D
23
1D
07
2C
32
21
20
1A
0F
13
12
FF
17
09
02
1F
1C
08
02
11
11
F4
F7
F6
FF
DE
00
03
2A
08
2E
17
18
05
1A
04
01
FC
FF
EC
F7
E8
0A
0A
03
0D
0A
05
1E
07
F7
0E
DE
EC
EC
12
26
05
23
14
F1
EB
E7
03
FD
04
E3
EE
E0
EF
0C
F8
F8
EF
13
03
23
18
18
10
14
E7
FA
00
0C
31
FA
E9
F1
F4
DA
DA
E6
FC
EA
E4
D7
01
FE
F7
EB
FD
FE
08
F4
18
2A
27
38
0C
04
27
11
13
F8
DF
C4
CE
CE
D3
D0
EC
D7
E2
F8
0C
FE
13
FD
F1
E9
EB
E8
F6
0C
43
4B
25
18
0E
12
09
1E
D3
CE
F6
DB
EA
F9
E5
FC
F5
13
F8
08
F8
EC
FB
01
F6
FA
F8
F4
21
38
36
1C
1E
02
18
FB
FB
EC
F0
0A
05
F1
E6
00
F6
0A
04
0E
00
E5
F8
F3
ED
F1
F2
1B
03
23
1A
13
1B
12
18
08
F4
ED
13
F6
17
F3
00
19
05
1C
2C
F9
ED
09
F9
EB
05
F1
0C
0E
16
14
31
27
0B
01
0B
FA
09
FB
00
F4
FF
05
11
0D
05
0E
0C
F5
F8
F0
04
F0
F4
0A
04
20
23
26
2D
0A
06
F6
F8
F8
10
16
09
EB
F1
17
FB
0A
FE
26
0B
ED
EC
EB
F9
FA
F8
F7
F7
0C
28
33
30
F7
16
03
0C
FE
18
06
FF
01
15
FA
03
0F
FD
1B
FA
11
EB
0A
FD
FC
05
05
0B
20
21
17
16
08
02
FD
F6
0A
FA
01
0B
1B
FD
09
25
13
15
0D
18
07
17
FC
08
15
FF
0E
0F
FB
11
F2
EE
0E
08
F8
0D
FF
06
12
09
27
13
FF
05
F7
13
FE
06
0B
0F
05
10
F5
0B
F7
F5
E9
E7
F3
10
0B
0C
09
FF
FD
02
0F
1B
2A
24
08
F7
15
0A
F6
04
FD
F0
0C
E9
FA
F7
02
F7
F9
E4
F5
FC
12
11
FE
11
ED
0A
11
0E
0E
03
0D
18
FF
0E
05
10
16
12
0C
08
03
07
F2
FF
F2
F8
F1
1E
11
F4
F1
F4
FE
F6
04
E9
FB
E8
F5
EE
FB
F9
0A
02
0C
FE
FD
0B
F1
00
ED
E8
DA
03
FA
15
1C
03
FA
05
EB
05
E6
E3
F9
F6
F6
0C
F8
FE
0E
E9
14
06
16
FF
00
EF
E9
EA
D6
D3
F9
0C
19
FC
ED
12
0A
E6
ED
EE
E3
06
1A
F3
0F
FB
06
EB
03
F8
17
ED
F7
00
01
0B
ED
1F
FF
1D
00
08
F7
FD
11
0E
01
0A
1D
20
1D
0F
0E
19
FD
2A
05
15
07
0B
02
06
00
FC
FB
1A
F6
FA
07
08
0B
FD
01
ED
14
FA
03
0E
FA
07
0C
0B
FF
04
F3
F0
0D
F0
01
ED
10
ED
EF
14
08
14
FA
FF
06
FB
EE
F2
09
15
35
FD
06
0E
F6
20
1C
0A
FB
0E
F6
1F
07
26
1D
10
17
09
FA
0B
06
07
0B
10
18
FF
06
0C
F6
0D
00
08
05
2C
29
1F
1E
21
22
FB
16
F7
13
0E
01
0C
0E
F2
F9
FE
FA
12
F2
07
04
06
02
FD
FE
F4
EF
07
0B
0E
02
06
00
05
EA
FD
09
0C
F2
08
04
09
0B
00
08
07
02
F0
17
0A
09
F9
E9
01
05
01
FF
FF
01
01
12
07
01
04
05
FD
14
0B
EB
DC
F7
0D
FA
09
F6
11
1F
19
17
FA
FB
06
EB
F3
03
01
0C
0D
11
F3
EB
F4
E3
EF
F8
EE
FF
F5
CA
E1
FC
1C
EE
2F
1C
0F
F7
FF
06
07
FB
FD
02
15
F5
11
01
E4
02
09
FA
EF
F9
E3
E5
F4
E5
E8
1B
22
F1
14
26
0C
FB
12
E3
02
DD
E5
FE
F4
1F
FC
0B
F5
E8
F3
EA
F6
FA
DE
E5
F1
F7
D4
05
0C
0E
0B
0F
16
04
07
ED
FD
F0
DD
F4
0F
06
0D
24
ED
F1
DF
F8
DC
E6
D6
E0
DE
EC
D6
18
05
01
0A
25
10
00
E9
00
E0
E3
DD
F2
26
29
19
1B
0E
FC
F9
E9
E4
EA
FD
D8
E6
D8
E1
17
07
17
25
0C
F9
DD
F6
D7
F0
F6
01
FE
2E
20
0B
F8
FD
ED
F7
EF
EF
F8
E9
F5
F3
EC
F8
29
03
1D
FF
05
E2
DB
FB
F3
F5
11
27
32
13
1C
F5
DE
F3
EF
F1
E6
F5
10
00
F6
D2
DB
2A
0C
1C
22
0A
0A
FA
F1
F1
FD
1C
17
2E
21
14
0B
E4
EC
F0
EB
0D
0C
FD
16
FA
06
F4
EC
F6
14
02
16
16
09
FE
01
01
11
2C
1F
09
15
F9
EE
ED
F6
F6
E4
F3
0F
FF
F2
FE
F6
E4
D5
F6
FF
18
10
02
FB
FC
0B
FB
0C
12
00
F5
04
EA
E8
E0
00
F6
00
08
11
18
0A
FC
FD
FF
E2
F5
04
02
F9
FC
FB
F4
1F
15
1B
0F
F1
00
F9
F3
F1
E9
0B
FF
FC
08
1B
0A
00
08
04
ED
EA
F7
03
19
F6
0E
EC
02
EA
08
F6
15
08
F4
00
EC
F7
FE
01
FA
16
02
FF
06
21
08
F3
00
C3
FA
02
02
FB
F7
0A
FC
FE
0E
03
01
09
ED
ED
FD
E6
ED
02
0C
09
12
03
FF
FF
EE
EB
F0
F2
D1
FB
EE
1D
0C
EF
FD
F7
FC
03
FF
05
09
00
01
0D
FB
14
0D
0B
01
0E
07
FC
04
FB
E5
D7
12
07
1A
FC
EE
F1
F1
FE
F7
08
F3
0E
1D
FC
18
18
07
04
FA
F8
FB
04
03
09
ED
F9
F5
F0
14
09
14
0C
DB
DE
FA
F8
13
ED
F6
06
FC
03
03
0A
0B
F0
01
10
0B
11
F6
05
E1
F7
05
07
FF
11
F6
1D
E3
DF
F6
ED
05
FE
EA
FC
EC
0D
05
F9
01
13
0D
02
00
F0
FA
F4
02
ED
F6
0E
26
05
06
00
F5
ED
DC
FE
0C
FF
05
F3
FC
FB
FE
00
F7
FD
F9
05
F8
E9
ED
F7
01
D4
F1
13
0E
05
05
0F
1D
F5
E5
E6
F7
FB
18
05
FF
0E
F4
0E
FD
EB
FA
E9
EA
F3
05
F5
D3
11
05
FF
04
0C
EE
00
19
FE
F6
15
F5
EE
FC
F9
02
FA
F0
00
0A
FD
0B
0B
14
F4
1A
FA
F6
FD
0E
28
08
05
0B
15
08
1C
10
18
23
F6
EE
E0
F9
E9
F4
FD
03
F4
14
11
0F
0A
14
F9
E8
EB
F7
F4
04
F0
0F
FA
0D
F8
FD
F6
13
21
1C
06
08
07
02
F5
FC
1C
17
10
14
FD
2D
0E
1E
07
00
F4
02
00
F7
F9
06
08
3A
02
00
FF
00
FD
00
0B
1D
F6
FB
06
0B
F6
F8
00
29
2B
16
08
0F
ED
0E
EF
F4
F3
10
12
EE
12
FF
F0
0C
F0
F8
03
F2
04
F9
F4
ED
12
0E
EF
FA
05
F1
F7
FB
FD
F4
07
F2
01
0B
FB
13
F8
02
E7
09
07
EF
F0
F5
09
FE
06
00
12
FC
07
F6
F7
EF
FC
F3
04
EE
0F
0B
08
05
00
F7
F7
0B
16
13
0E
FD
12
11
FC
F8
F5
12
15
13
FF
F8
FA
15
FA
E5
0B
0C
FA
04
ED
ED
19
EF
0E
0E
0C
07
01
F8
FB
09
06
FF
F0
FB
FF
13
F5
F0
F7
0E
FC
FF
22
06
0B
FD
E5
E1
EB
FD
F7
03
F5
01
07
0F
FA
F3
F1
F8
04
0C
F3
02
0C
1A
F0
F8
17
0A
0C
02
12
0A
FD
0B
F6
03
FF
FB
F5
1D
14
0C
01
E8
F7
ED
04
FE
0D
F1
00
F1
07
F0
08
FA
E9
E5
12
07
0E
E1
EC
E0
E8
EB
FE
FF
01
09
12
FD
F2
02
F4
FC
FA
F8
0A
F8
F1
ED
ED
0F
E0
EE
FC
F8
F0
EC
EF
00
0F
02
00
0A
1D
03
F9
F8
F8
F1
F5
F1
F5
EF
EC
F0
01
00
E8
FD
F1
EA
F4
07
FD
FA
00
05
F3
0F
04
03
00
20
09
02
F5
F8
DF
FA
F5
F8
E6
FF
0F
F0
04
07
EE
09
FE
F1
02
05
0F
0E
06
17
09
14
1D
1E
00
F7
EF
F6
E3
EE
DB
F9
EC
11
0E
FB
F0
E5
01
E3
10
09
11
F2
0F
06
1B
09
13
16
FF
0D
0E
07
0A
E3
F6
F7
F9
FB
F2
E6
FA
05
04
F8
FD
DA
F8
FA
09
EE
19
09
00
F5
F2
F6
FD
FE
0D
0C
EE
00
1B
1F
07
10
FA
F5
01
02
11
21
04
F9
F5
13
E8
08
04
F0
15
0C
FE
01
EA
F0
15
06
E9
06
09
31
F9
0E
0D
0A
0A
03
FB
FD
08
E5
ED
F2
FE
ED
14
FD
FC
E9
F4
F5
06
0F
08
01
01
0C
18
0A
17
19
14
F1
02
FE
01
E9
17
12
10
EB
EB
13
1E
FB
07
F8
FD
14
11
14
00
F5
F7
15
1D
21
0C
03
08
08
0B
F4
F8
F3
12
1A
03
EC
03
0C
FC
04
16
19
17
07
0B
25
22
09
1A
1B
1F
1B
13
F2
0E
FE
12
F2
06
07
02
F0
F7
FC
FD
1C
02
19
0F
09
0A
20
0F
22
3B
2A
03
14
07
FA
F2
0D
FE
00
FB
0C
F4
18
EA
FA
00
D3
E5
F2
F4
F1
0D
F8
FC
1D
20
2A
28
1A
2C
26
0E
02
FC
FB
FB
FD
EE
0E
FF
0D
F3
00
01
00
F1
06
08
05
0E
0D
02
F2
09
FC
1F
10
0E
1B
1E
06
12
F0
08
06
F7
FE
11
11
F1
ED
F3
FC
D8
F5
FE
F6
FD
FE
F1
00
F1
04
EF
04
12
10
14
13
0B
ED
F9
0E
18
0D
1D
FE
02
EE
FB
F8
E1
D3
F3
E5
DE
E2
E6
F4
D7
E1
F0
E5
0A
FD
13
1A
F6
0C
15
0D
FB
08
F9
04
10
ED
D9
00
E3
D6
F1
02
EA
F5
F5
F7
E8
F9
E7
05
F6
FF
14
FD
18
00
ED
00
00
18
0F
F3
FF
FB
DE
05
DB
F8
10
07
05
FD
FD
F9
F8
01
0A
07
F2
02
02
FE
13
EA
F5
00
05
EE
F5
0A
ED
DD
0E
0C
EC
FD
FF
03
10
0B
0F
F5
FB
F5
FA
0D
FD
FC
F6
0E
F7
0F
03
01
27
1B
EE
F0
F3
F0
05
FF
F2
D2
0A
F3
07
0E
01
00
FD
20
FC
F2
04
FA
06
0C
FA
14
23
11
11
29
18
0B
EB
0F
F0
10
ED
EB
00
FC
E5
10
09
0B
20
1B
04
FE
16
12
2D
0D
19
03
0F
20
09
0C
F6
FD
F7
EC
0B
0D
10
F5
0C
FD
09
F1
0F
FD
19
01
08
19
05
05
0E
F9
00
00
19
13
F9
F3
FF
10
F9
06
FD
EC
03
F2
FE
07
EA
06
F7
FA
F2
F7
10
F5
1E
0A
0B
0E
01
FA
00
FC
F8
01
01
F8
14
14
FF
0E
F6
00
10
0C
0C
EF
03
FA
07
EE
0F
F7
FA
F4
EC
F0
FA
F3
F3
FD
F2
0A
FB
04
03
EE
F6
0C
EF
09
09
08
1D
23
11
01
1F
1A
37
10
0E
1D
0C
15
22
1D
13
1B
18
25
0F
EE
14
F7
EC
F0
0A
12
08
24
12
14
1C
3B
25
28
1A
23
17
26
2C
2A
3A
47
46
55
18
17
F2
F7
10
EF
F8
0A
02
26
1E
15
2A
29
18
1B
1E
FE
07
FB
08
04
22
16
29
2D
1D
0E
E9
0A
F9
EE
03
FA
F5
F2
0A
0F
04
F5
08
F5
0E
F6
09
FF
09
03
F4
EE
0A
FC
13
13
F1
08
ED
D7
EB
1F
23
11
0A
F6
12
FB
F4
10
01
E3
E9
FB
00
FD
15
09
01
FD
10
0D
F8
FF
E2
D4
E1
D2
E6
FD
1B
FC
F3
FB
F9
F6
E8
01
03
F7
03
F4
FF
17
1A
FA
17
2D
15
02
02
F6
E8
FD
CC
BC
C8
00
FE
EF
F7
F7
1B
E1
02
F1
03
01
08
0A
08
F8
1B
15
1E
22
19
0D
F3
05
FE
04
DA
EA
E3
E6
DD
03
08
11
F1
05
FF
15
F4
05
21
F6
03
15
05
1F
17
20
FA
01
F0
FC
FF
0E
F9
F7
D7
E4
FF
09
07
04
0A
0C
02
03
F8
F9
06
11
16
0A
11
19
14
EF
08
F8
EE
0B
EC
FF
14
F3
02
FC
EA
ED
FC
0D
04
0B
ED
1C
15
13
06
16
1C
0A
0D
1D
14
F4
07
03
14
13
10
0B
11
17
09
F8
E1
05
17
04
25
16
0A
1A
13
05
1F
0F
2B
02
18
FE
FA
11
13
02
24
06
05
13
14
10
27
F8
08
00
FA
12
1D
20
0A
09
1F
19
FB
03
FB
02
E4
F8
F1
01
06
1C
28
06
FF
04
24
36
22
03
DF
04
03
F9
1E
0F
15
19
04
08
0B
F7
F0
EF
D2
E9
EE
02
FA
14
F5
F4
06
13
21
29
09
0E
E9
FE
F5
F9
14
FB
F0
E0
07
F9
F5
EB
FF
F0
F5
EE
03
00
F1
EA
0A
FA
0E
04
25
21
07
0B
F9
F5
F5
F4
FF
FB
F9
F0
F4
EE
E9
ED
07
EC
F1
FE
EC
EE
FD
09
14
EB
F0
FF
1A
F4
0D
08
D6
FD
1B
E3
05
DA
09
01
F6
F3
F6
E3
10
FA
0A
E4
EB
ED
0A
F8
F0
F3
07
F7
FF
EA
F9
FC
E4
EE
14
E7
00
FF
F3
F6
DD
05
02
EF
1B
12
FF
F2
F5
00
DF
E8
E6
F5
FB
EC
FF
E9
02
F5
E9
E4
05
0D
00
F2
E6
F7
D5
E0
E6
FE
18
2B
FD
03
E8
F5
FC
E7
01
FF
00
FD
F5
06
05
06
F7
DF
0F
04
EB
0C
EC
E5
D1
F9
06
1B
0D
1F
23
04
EB
F0
EE
F2
FB
18
1C
EB
17
02
EF
F8
FB
FB
F9
11
0B
E8
E5
D0
EB
E2
EF
09
0D
09
0E
12
0E
F6
05
EB
FC
03
1C
F3
FC
16
05
03
07
EE
FC
05
E5
FA
DD
D3
F1
FE
07
0E
1A
22
05
0C
12
F9
F6
00
19
FF
FD
F4
08
E8
DE
0A
13
F4
EA
F0
CF
F2
DD
E7
CA
E3
0C
11
10
0A
15
16
21
F5
11
04
F4
00
F6
05
05
F7
E8
F3
10
F1
F2
FD
F0
EE
DA
DB
F3
E2
FB
04
03
00
FC
F6
06
F8
F8
FD
F8
F5
ED
E6
FA
26
05
F0
D9
F6
F5
0F
FF
F6
08
FF
F5
13
FD
F4
F5
09
01
F3
04
FD
1F
11
F8
EE
00
0D
16
0D
19
05
EB
0D
FE
04
0A
15
19
21
0C
15
FB
08
03
06
20
03
1A
0B
21
19
10
20
16
2D
05
05
0D
F4
01
FD
EF
F5
F9
15
F8
19
15
28
09
29
27
27
45
49
37
3E
2E
33
3D
1A
2C
20
2D
29
05
F5
10
F4
EE
F3
FB
F7
07
F5
00
01
10
FB
09
05
1E
0D
33
20
05
24
26
12
FC
27
13
10
0F
14
09
0C
