0C
06
F2
0D
F6
FA
FD
EE
FD
F2
F2
0B
06
02
F5
F6
10
F2
12
01
0A
FE
EC
10
05
10
F3
0A
F6
05
07
F4
14
15
18
0C
0A
11
FE
16
FF
13
EE
FC
F4
01
1B
22
0E
26
03
FB
FB
F1
F3
0D
14
0D
03
17
1C
F0
F1
16
15
15
1C
01
18
FC
FD
F2
09
01
FF
10
0E
2E
20
0E
0F
FA
FB
F8
09
0D
04
11
04
16
08
FB
17
F8
FF
10
15
18
F7
F1
24
04
F3
F4
03
1B
11
06
15
28
0B
10
0C
FC
EF
FD
0C
08
E5
DA
DE
F4
F2
09
E0
ED
F5
09
FC
12
0D
0C
0F
21
11
22
02
F2
E0
FF
03
0C
04
E9
F7
17
03
0A
FA
E1
F5
E0
EF
FA
01
F7
E7
0C
09
FD
0D
0C
F5
0A
03
EF
D7
FF
F1
09
FF
00
E8
14
F4
17
0A
F7
04
F7
EA
EB
F0
F6
12
F2
03
FE
FF
03
F1
DD
EC
DA
E3
02
FD
18
F3
00
F1
14
FF
05
FB
FB
03
F9
01
EE
F1
F5
FA
F9
10
0B
E7
EA
F0
E9
CC
D8
FF
F2
14
F4
13
0C
0A
F3
F1
00
05
F7
F9
11
09
10
10
17
FF
F4
00
FD
F4
03
F2
F3
E1
C4
F8
DE
0C
0F
15
0E
00
0F
FE
05
14
00
0E
0B
FB
02
FD
16
06
FC
01
FF
01
F9
F2
F7
D7
D6
E2
08
1A
1D
17
03
E6
F0
06
11
09
1B
02
FD
01
1B
00
F6
13
F3
12
06
03
F2
FE
05
DA
D9
CC
03
1D
11
28
1C
07
ED
F8
02
FF
F9
02
0B
12
16
EC
F4
FC
14
FB
F2
0E
22
FE
05
D2
D1
C7
FA
14
FE
1A
23
14
07
F4
0D
F4
F2
F7
0F
12
E2
DA
FF
FB
06
13
FD
0C
0C
05
09
EF
EF
DA
F2
11
04
26
21
1B
24
23
14
06
F7
F2
F7
E2
EC
D2
F1
12
07
08
04
F2
14
11
06
25
DC
D8
ED
03
F6
1D
0B
1F
1A
19
1A
0D
19
FB
05
F0
E2
EE
E7
F8
11
FF
03
0A
1F
1D
0C
2C
02
F5
E1
0D
10
0B
E6
F5
18
02
16
21
0C
0A
0B
DF
E8
F0
E8
00
F0
FD
16
05
1D
29
11
01
F6
DA
DA
08
F1
F4
D9
00
13
00
25
2D
06
28
0A
01
DF
EF
03
04
11
F8
FE
22
22
13
12
F8
F0
D4
D5
05
F0
F6
E5
DE
F7
FD
1F
0C
0A
30
0D
0A
F3
FB
08
15
03
17
10
0C
FE
09
EB
E7
FB
DF
DD
27
04
ED
DF
D5
E1
FE
16
11
1A
25
0F
FF
15
00
1C
0F
03
24
09
F8
F4
FF
DF
05
01
E2
06
EF
07
05
E7
F0
EC
F1
0A
F1
EC
FB
17
FF
07
18
08
09
F6
FE
0B
E9
E4
DA
F1
F7
FB
0F
00
F5
15
ED
D4
E2
F8
E3
E4
EB
FA
EF
08
14
0D
0D
FE
08
12
E7
05
F2
F2
D1
D3
EC
1C
09
F8
10
0D
EE
D8
FB
F7
FC
EA
D2
EF
F5
FD
11
14
1B
10
08
0A
F9
EB
FA
DA
E5
F3
05
16
07
0C
0A
0D
EA
E8
EA
F8
F7
EB
E9
FC
FA
FF
F7
10
F7
FC
0B
0C
FD
D8
F5
E9
D9
DE
FD
F2
FC
FA
03
F7
E9
F5
FA
EB
FA
F7
F0
E9
04
FE
03
E9
F7
FC
F1
D9
F1
E8
D9
EC
00
E8
ED
E5
E7
0C
F0
06
10
F2
FA
F9
08
F0
09
FD
03
0A
ED
03
D9
E8
FF
01
04
E7
1C
11
05
FC
E3
FB
FE
0D
F5
F7
EB
E2
EA
0B
F9
09
0F
0D
0C
FA
02
11
FD
FA
F8
14
12
21
21
2E
1C
F5
F1
F4
06
0A
0D
FC
FD
10
F4
12
12
23
15
04
18
0A
03
1C
10
34
1F
0A
05
20
1B
2B
13
2A
16
14
0B
0B
0E
EF
F1
09
F5
11
11
19
57
F6
21
01
17
0D
18
02
1A
03
F7
0F
26
16
18
0A
12
12
05
F5
F9
06
04
0A
04
11
11
0D
04
F6
EE
FF
19
FC
FD
F0
ED
0C
F6
FC
04
F5
13
07
FE
FA
F8
EF
F3
08
EC
03
02
EF
21
F2
F8
0A
0D
F6
F3
16
0A
0D
1F
17
FF
11
0C
1A
06
10
FD
01
FF
F4
ED
13
F6
0C
0A
07
00
0E
04
1B
00
05
1C
0C
10
15
02
E2
F5
F5
F3
F5
F0
FE
EC
F3
FE
14
11
0A
03
2B
04
0D
F6
06
0A
E6
FA
0E
2F
28
24
19
0B
1F
F3
EB
F9
01
E0
CF
01
E9
05
F2
F0
16
35
2E
1D
EE
FD
DE
F3
F5
02
1E
0A
0D
32
2E
2D
03
14
F8
F4
F9
FC
EF
D4
EF
03
12
FE
FF
08
F6
F6
FF
DD
F5
0B
F4
FD
01
11
0F
22
0B
19
18
12
FE
00
F2
EF
DD
05
DE
0E
16
F3
F2
F1
0D
05
D2
CE
CA
D4
D2
D4
D5
E5
F2
05
16
2D
23
18
11
08
06
F4
DF
E6
DF
F2
0C
F7
06
F7
F8
D0
DE
E0
CB
DE
BE
C7
C4
E0
E2
0B
11
38
22
2A
10
0C
19
F6
00
CD
D0
FF
02
09
E1
FD
E9
D7
CC
C3
D4
BB
D0
E6
E4
D8
E5
F5
FF
12
27
23
1B
19
03
F1
F9
DC
D6
1B
0E
12
FF
0B
05
F7
E6
B3
BF
DF
FB
F3
02
EC
D9
E8
F6
0A
25
14
09
17
FD
15
F7
EB
D4
E5
12
01
0C
E5
F1
D9
D0
DF
EF
FD
0E
0F
0D
F8
C6
E3
0F
09
09
11
12
00
0F
FE
F2
E8
EE
E7
02
F8
F2
FC
D4
E1
E1
F3
F9
15
10
0D
06
E8
D0
EF
F8
FC
18
09
20
2E
1A
08
F8
C7
E6
FC
FB
FE
E5
E9
D3
F6
01
01
02
11
04
05
F0
F6
E4
FD
08
05
F2
2B
21
1B
14
04
F5
B9
EF
00
FE
F7
F6
E3
EA
11
EB
FF
03
FE
03
04
F2
EB
FC
15
FE
FB
F3
1A
0B
12
03
F1
D7
F2
02
00
00
01
E9
FD
EC
0B
EE
F7
F5
FE
EC
F3
F4
02
07
05
08
0B
03
0B
12
02
FC
E0
D7
F0
1E
10
12
F1
19
E4
DE
07
1C
05
FF
15
F1
F8
05
E0
FC
07
FF
FE
0B
13
F6
F9
F9
EE
E2
FC
1E
23
15
11
18
11
1E
0A
F7
08
F1
05
19
0A
0B
0E
F0
F1
FC
03
11
00
01
F7
E5
F4
EA
F1
0C
FC
2D
F4
28
F5
FE
1C
F0
FC
FD
03
FD
01
03
06
07
DE
DD
F6
FB
FA
0B
DC
D5
F4
FD
F4
29
0F
21
1C
17
0D
00
F2
E0
0A
FC
01
0B
03
F9
FF
FC
F5
FA
FA
0A
08
0C
EE
F3
07
21
29
3D
09
13
F6
FC
F6
05
18
04
08
09
F6
FC
FA
F9
F5
0D
FB
F8
F9
F3
F3
F7
F6
08
2E
0F
32
1E
0B
19
08
F5
0E
03
1C
08
04
F1
0D
E5
03
0C
02
0B
0B
E7
FF
EF
03
EF
FD
FD
0D
0E
18
2B
00
01
FA
0F
1F
18
FF
12
13
02
08
FD
FF
00
FB
FE
FE
F4
00
FC
0A
09
05
11
17
20
0E
10
13
21
22
FF
09
F5
0F
26
FA
E9
03
14
06
ED
FE
F3
0B
F1
EF
F3
F2
F2
FC
01
1C
25
01
03
09
18
F4
F8
F3
19
07
20
F5
11
09
FC
FC
F2
06
05
06
EB
F8
F1
C7
D5
E5
F9
20
08
04
FF
14
EE
EE
F1
0B
04
40
25
FF
FF
00
E1
F2
FE
0A
F6
FA
FD
0E
FA
CA
D0
DF
04
0C
0A
0E
F1
0E
FD
0A
F4
0D
0E
07
11
F6
12
03
1C
0F
04
10
06
10
FC
1A
14
21
21
0D
08
05
0C
F5
EC
F9
11
ED
ED
14
03
0A
0E
0A
05
F1
01
0F
22
0C
25
0D
14
2C
42
36
20
2E
15
01
0D
0B
D9
F7
10
09
F5
03
07
ED
E8
01
F2
07
02
07
27
05
F2
19
1D
FA
FA
1E
21
13
04
01
F9
0E
0A
FA
FC
01
FD
EE
04
F2
FB
0C
FB
0D
04
F5
04
02
00
0B
13
0D
14
F7
EC
FE
0F
ED
F9
13
06
11
10
F1
0C
F7
F2
DF
DD
13
EB
0A
FA
E4
10
FF
09
E3
1E
31
0F
F7
EB
E1
DE
FD
03
04
0A
14
0B
0C
F7
F5
0D
EF
F8
02
F8
F2
E6
E3
FB
0E
E1
E2
E9
EF
EF
FC
DC
D7
D7
DC
F5
EC
0F
0B
F9
F7
FF
E8
17
FC
EE
F6
F2
24
04
1C
17
11
F8
10
F9
01
F6
DB
E9
E2
E4
EE
EE
09
F6
E3
08
F7
F2
0A
12
03
10
F6
13
07
1E
F5
21
31
25
17
15
19
17
04
F2
ED
F0
E1
0D
19
FD
EB
04
F9
0A
DB
09
08
FB
07
12
0E
12
16
09
09
03
0F
1B
0D
07
16
F8
ED
0C
0C
15
16
29
21
08
F4
F5
20
E2
F8
01
08
04
0D
FF
F0
FD
E8
F6
0C
E4
FD
0F
F7
F2
F1
F5
18
21
38
0B
2B
0D
01
F5
FF
0B
0B
10
11
0E
FC
02
F1
EF
EF
09
02
F5
07
17
FA
09
F5
05
0F
0C
2A
14
0E
10
22
ED
FC
F3
16
1E
0E
02
0F
12
F6
F4
12
FA
0B
03
11
25
F8
F6
12
03
16
31
28
36
16
22
F4
E8
0C
F2
02
EA
0A
07
09
01
04
19
1D
0A
DF
EF
F6
0B
0C
0A
15
04
07
28
1B
32
1D
07
E8
FD
F3
08
F1
EA
09
FA
03
26
00
10
0B
EF
DE
F4
F5
0E
0F
0D
0D
0F
01
02
40
34
08
FF
DD
00
F6
06
F7
EA
EE
09
01
10
03
04
F1
EE
E6
F8
F7
0D
16
07
05
FD
DE
FE
30
26
0D
0F
D2
F1
05
E9
E9
03
FF
13
10
FC
FD
F5
10
EB
E6
F9
0E
04
0F
10
F1
D6
E7
EA
02
16
2B
19
04
0D
0A
F3
03
EE
F2
F7
04
F9
13
1A
01
26
F2
F3
F3
0C
13
00
F5
DC
E8
03
0C
3F
2B
22
05
00
FE
02
E0
0D
FE
0F
FD
E8
F6
0A
28
18
FB
07
12
17
06
03
EF
EE
EA
19
22
38
38
05
1B
FD
09
08
00
18
FE
22
00
F2
EB
F6
0E
14
F6
09
EE
0D
FB
F7
08
07
F4
28
31
25
37
08
E0
E5
F9
09
14
12
19
FD
13
0E
13
08
13
FA
F8
F0
FA
0D
FF
07
FA
F3
FA
38
2F
4B
32
2A
00
FA
F3
07
16
0E
37
13
F4
F2
07
04
FB
E7
E0
EA
FF
F7
EB
08
F8
06
F6
39
4A
24
11
0A
FC
FF
10
22
19
31
29
33
20
0A
EE
F9
E0
E4
00
12
03
15
02
EE
FA
01
17
4A
43
33
14
03
02
F8
F1
03
0A
2E
24
29
0D
0D
FE
F2
ED
EC
00
08
17
0C
EA
F9
0F
09
04
2E
19
FE
FD
07
13
1A
14
2B
11
27
35
28
1F
FB
F2
F2
ED
E7
08
0C
FD
0E
F0
F0
04
17
22
25
28
18
02
01
F7
09
1B
1E
18
27
25
04
0E
13
15
F2
FF
FC
F7
07
ED
08
01
16
EE
F6
F7
21
04
21
1B
07
F3
F3
01
1C
17
02
FE
FE
F6
12
FF
18
20
13
06
06
00
04
0F
F9
F5
F2
F9
08
19
0A
11
1A
06
0F
0D
0F
F5
08
00
EC
FF
11
0B
1C
1A
1B
0C
F1
06
F1
F6
F2
F8
E5
06
00
FA
03
1D
FB
F4
07
FA
0F
E6
01
DD
F7
06
E9
04
21
21
14
13
12
EE
FA
F7
06
FA
E8
F2
F3
08
0E
16
0B
F5
08
00
0A
DE
F2
F4
FB
0C
04
0A
01
22
18
12
09
01
FA
F9
FC
E4
08
FF
F1
09
06
10
FF
0A
0A
F1
12
06
05
1A
12
0F
11
FB
10
19
10
1B
F4
15
02
03
22
FC
E9
FB
1C
19
FC
F8
EF
F9
09
EE
12
00
FA
E7
EF
07
06
F3
F4
03
18
FD
F2
F1
03
FD
05
ED
E4
EB
F7
0B
FA
FB
F6
EF
06
EC
F5
EF
10
ED
F2
F3
EC
02
0B
07
01
E9
07
0C
0B
06
11
F0
0E
0B
0B
F5
01
F0
FD
F8
0F
00
01
0A
06
F9
18
F7
10
1B
F9
FB
F3
0D
02
09
15
FE
12
12
12
11
15
F1
EE
ED
F4
0E
FD
07
F1
16
04
F9
F2
0A
00
F4
06
0D
11
20
18
22
27
2F
28
3A
25
22
FE
14
EC
F1
0A
EF
FA
11
F7
1B
EA
0E
02
08
01
10
E8
08
FD
02
0B
26
10
24
00
09
12
08
12
10
FF
F1
10
EF
E3
09
1E
10
F1
F0
FF
EF
ED
DB
EC
FB
FF
F1
05
01
0A
04
14
08
0E
02
13
0F
00
F3
EA
08
0B
1E
0F
05
FC
F0
E5
D8
D2
E6
EF
F3
FF
F8
01
E2
F0
09
E2
F4
FB
F5
10
04
17
16
14
0D
F6
FC
00
01
00
FF
EF
00
EA
04
05
07
F9
12
19
F6
04
13
0A
FC
F1
FD
F3
F2
EF
08
FE
1A
F8
04
1A
EE
0E
EE
FA
F0
FA
05
1C
0D
21
13
20
06
05
15
F1
10
F6
F3
ED
09
FE
10
F2
F6
FB
F1
FC
FB
F4
FA
E8
00
F9
F8
0C
FE
F9
02
0A
15
1A
15
FD
FC
00
FC
F4
FD
E8
FC
00
16
24
E1
04
F1
F2
EF
FE
FD
0A
02
FF
07
0C
07
0E
0E
14
05
EF
E5
03
07
02
01
10
E4
05
F9
20
ED
E7
E8
FD
EC
FB
0B
0D
06
0D
14
F9
22
FE
F8
00
F5
EC
F4
E9
F3
F9
F3
09
04
F7
F7
14
0D
EE
03
EE
EF
00
15
F7
FE
FA
FE
03
1F
1A
F6
F4
EA
E8
FD
ED
07
DE
F1
E2
FF
FC
03
1B
F5
EF
0E
13
11
0D
0F
06
09
F3
ED
1A
26
02
13
04
04
FA
F3
F8
F1
E0
CE
EE
F9
1A
0C
F9
E9
F1
1C
15
0A
FA
10
05
FE
EE
EB
F0
1E
27
20
03
1C
0C
F4
F9
04
F6
D6
F6
F3
04
F4
03
E6
FE
12
13
13
04
F3
FE
E0
DF
F5
09
0F
26
11
1B
1C
FF
F9
15
F1
DE
D0
E6
F5
F8
08
EE
F5
E8
10
1A
19
FE
FE
F1
D9
E6
DD
EA
F9
18
F3
10
1C
02
15
F8
08
02
E4
F0
07
FB
15
00
FB
F5
F8
EB
01
F5
13
F6
DD
E0
E8
FE
11
ED
06
15
23
07
01
FD
F6
ED
D3
D7
0D
0B
F0
F9
F1
08
FA
00
11
0E
05
05
06
E8
01
0E
0D
00
FE
FA
1A
10
07
EA
F5
EB
BF
D6
FA
06
20
04
12
EE
17
ED
19
FB
F1
F1
DF
EF
E8
EC
14
F8
00
F3
05
F6
F7
F0
EB
D8
C8
F9
07
1A
00
07
09
0C
0E
FC
05
F5
F3
EC
DB
06
0A
01
FC
F7
F9
11
F3
06
F3
E2
D1
E5
EB
F1
0B
08
F0
05
11
0C
FE
03
10
F4
E5
E8
F4
F0
07
07
17
02
10
0E
01
E4
E1
FE
FE
F7
12
09
FC
04
0A
F7
F2
FF
EC
EA
EC
EE
F8
F4
E6
0A
FA
01
0F
0E
01
F2
F6
E8
E0
EE
F4
DD
0C
1A
EE
06
0B
F9
05
F2
F7
E1
F1
FB
FA
12
05
03
02
E9
F9
F7
0C
FB
FC
F2
DC
EC
03
0C
1C
08
09
0B
FB
0A
FA
FD
06
0B
F4
F3
FA
02
0B
EE
F6
ED
07
EA
E2
E6
F1
EF
FB
EF
00
11
F7
0E
1C
EF
0D
F8
1B
FD
2D
2B
1B
1A
18
EF
1E
1A
09
E6
F8
01
08
00
EF
07
00
F8
0A
FF
18
01
1E
EE
03
11
0C
1E
24
33
3A
29
2D
16
FF
1E
27
14
F3
09
06
2D
29
18
22
22
0D
09
1A
F7
E5
FF
F6
F0
05
1A
21
20
36
2C
12
03
16
21
21
2D
2D
1E
08
28
16
39
29
29
0E
F9
FF
11
0C
0F
05
F6
EC
FD
13
12
15
1A
00
1A
20
11
07
1A
14
00
13
FB
FB
02
F9
F8
13
F9
00
14
F2
F5
F4
08
05
10
FA
08
0E
06
00
F4
01
0A
F0
EA
EC
07
06
F8
03
F7
EF
EE
13
FF
EF
F6
FC
FA
F5
01
F9
11
0B
0C
F1
ED
F1
F6
18
0E
14
1F
22
13
01
FD
21
0B
1E
16
10
02
07
13
0B
01
06
EC
06
EE
E9
08
FB
FA
03
FF
17
1A
1E
30
24
20
0E
11
1D
16
02
1B
F5
F2
0B
F6
ED
08
F1
FF
FD
04
F7
FC
14
1D
16
06
09
0F
F9
ED
0F
FB
1D
0C
F9
FB
0D
12
0B
0C
09
27
1E
08
F4
12
EC
15
13
13
0A
0C
19
12
14
EF
0C
07
04
F4
10
08
01
08
09
0D
02
F3
F5
FB
F4
0F
13
0E
17
13
1D
0F
F4
FE
07
E4
F7
FE
F2
02
F1
0D
0D
F1
09
F7
F2
06
0B
FF
01
FD
F0
06
EF
1F
00
16
27
11
04
0D
0C
F8
07
07
FA
F3
00
0B
03
EB
05
EB
E9
F7
FD
0B
F2
02
08
F6
FA
FC
F9
FB
10
F5
FF
18
13
F4
FE
EC
E8
F6
F4
00
ED
FF
01
E6
F5
0E
E7
0E
EB
EC
F8
FC
F3
DF
E4
0D
1A
FD
F9
05
F4
07
08
F1
01
ED
F4
EF
FD
DF
F8
FB
F5
EF
FE
F0
F6
F9
FB
17
E9
CB
05
02
14
04
18
02
01
F0
FE
01
00
00
0B
07
E7
F9
E6
F4
03
05
EC
F4
FD
FC
F9
FB
F4
D5
E6
EC
02
F2
0E
F1
F5
01
09
F1
F0
04
06
FB
F2
F7
E9
EF
F5
F6
00
F4
E1
FC
EA
04
DA
EA
FC
F9
00
13
00
02
06
19
FC
10
0C
FA
0A
18
01
EF
FB
04
F5
00
08
23
FB
FF
F7
06
09
E4
DF
00
F5
FB
F2
16
0C
0C
FF
0D
1A
19
19
14
1A
19
FB
06
02
10
08
2B
0C
1F
E9
E2
09
F0
DD
F7
02
FF
0E
F5
04
13
08
00
0F
21
1A
36
1B
2E
20
05
0F
08
12
2E
1D
14
DC
FB
0F
EE
EB
F6
F0
DE
03
05
16
F7
FB
0F
1C
16
25
22
13
15
09
08
0E
03
09
FE
F4
06
F8
03
0D
21
02
DB
DD
F1
08
02
00
08
1D
0D
1C
14
29
2C
08
13
FA
F0
EE
FC
10
10
E5
ED
FE
03
E1
15
00
F1
EB
DE
05
01
08
00
11
0A
0E
2D
09
10
FB
E9
FB
FE
ED
FF
EE
00
E5
D8
E3
02
0C
14
04
D6
D3
D7
E9
F9
08
EF
0A
F8
FE
08
1F
FD
FD
F8
ED
03
ED
04
0A
F2
CF
EE
EF
E1
EC
12
03
EA
DF
E1
F1
F4
00
F8
04
F9
08
F3
06
01
01
FA
F3
0F
0C
F3
FF
E4
C7
E0
07
F5
F9
F7
0B
FD
F6
F5
E1
F6
F7
F3
FB
EB
E4
FB
F7
F6
FB
15
06
11
EF
05
F4
E6
DD
FB
F6
FF
FE
03
FA
0B
18
F4
FD
FC
FB
F9
E9
E5
EE
FA
0E
0A
F1
12
0D
FA
EE
06
EE
E2
CD
FF
10
EA
07
12
24
0E
1C
05
FF
F7
F5
FE
F2
0C
02
08
FB
19
0E
03
FB
EB
07
FB
EF
DF
D7
F0
0A
07
16
0D
04
0F
16
13
0E
FF
05
FC
FD
EE
00
F3
02
05
F3
FB
EF
02
E3
00
DC
F1
F1
F4
17
FC
11
0F
1D
15
02
FF
FD
16
05
F0
03
00
10
02
10
1E
16
F6
04
15
F0
F3
F4
00
E5
FE
FA
FF
F5
F8
11
10
11
FF
0E
04
19
05
03
F1
05
FA
0E
02
0B
FC
0F
F6
F3
FB
E9
FA
CF
EF
EC
03
EF
FD
2C
09
06
E8
EA
F7
18
09
00
F5
FD
06
0F
07
05
FD
F8
01
FB
F1
F3
0E
E9
FD
E2
FD
FB
F6
F2
E9
F5
0C
FD
FC
0A
08
EB
04
EC
06
F9
E5
F5
12
17
03
1A
F7
E4
0B
F7
EA
EE
FE
F0
FF
14
FB
EA
E2
F7
EA
F3
F5
EE
EE
F8
DC
F9
EC
F5
F4
00
1B
FD
FC
F3
08
FA
FF
EE
ED
F5
FC
FE
14
EF
F9
0A
0D
0B
F7
08
06
F9
12
F8
0E
04
F0
13
11
09
F6
FF
09
F5
05
14
0A
F7
F3
FD
01
1C
01
14
15
22
1E
0C
0D
FE
03
F7
1C
07
FA
17
F8
13
0D
F9
12
FA
F5
11
F1
0F
F3
0E
16
04
EC
F6
24
2B
1B
11
03
F6
05
0E
13
F4
F1
10
F5
1B
31
26
2A
24
0D
0B
F2
F7
05
00
17
F1
E0
FB
F7
14
18
18
02
0A
12
02
0D
02
F3
FF
17
16
24
1C
1B
0E
28
0B
0A
11
0E
F9
01
FB
EB
00
0D
03
07
05
EF
01
0E
12
EE
FA
EB
F4
07
F8
07
1E
FA
F0
FF
DE
0B
08
0F
0F
F3
E3
E3
F9
0A
F3
EF
0D
FC
18
F7
F1
FC
04
10
09
EE
EA
03
F5
F4
E4
ED
DF
10
13
F0
11
14
DF
15
EE
0A
F4
F7
07
04
EB
01
07
08
FE
15
1F
0C
FD
00
F7
F4
C8
DD
E9
FC
F0
EF
F7
FB
0B
F3
FC
E2
F4
0C
03
FD
F9
04
06
06
02
07
0A
15
F7
FB
F1
E8
F3
D5
E5
06
2A
EE
17
FD
0A
F9
F7
ED
E6
06
02
EF
F1
06
EC
FE
17
FE
12
06
10
F8
F1
F2
0B
C8
E1
F6
09
EF
0E
09
09
F6
03
0B
F5
ED
F3
F9
05
0B
05
09
FA
07
01
00
0C
F4
08
0C
FD
D0
D3
F8
F5
EE
04
FC
FE
06
13
F3
F4
00
F7
00
03
F7
FD
FC
DC
FA
FC
F5
11
F6
0E
0B
F1
D4
EA
EF
FE
EB
ED
F9
0B
1E
04
0C
E8
FA
F8
F0
E7
F7
F3
F2
DE
D6
E6
0B
01
00
1E
22
0C
CE
EC
EA
05
0D
F2
11
10
15
0D
0E
0A
F5
E1
EF
F0
E9
EB
D1
C9
EC
ED
0B
20
0D
18
1E
30
09
1C
1C
FC
F8
FA
0D
16
23
12
00
FC
FC
F9
F5
F0
F3
E4
F5
DB
ED
FE
F9
12
28
14
21
1D
FE
11
0D
F9
E8
0C
03
FC
03
14
23
1C
0E
FE
1B
0B
00
EE
F2
F9
EB
11
0A
0D
0F
FF
10
0C
08
2C
23
0A
0D
E1
FE
EF
F8
F9
03
09
15
06
05
EE
00
F7
0D
FE
FD
01
12
22
1F
05
F5
0B
F3
30
06
13
EA
18
F0
FA
FA
FE
03
18
22
23
19
01
FE
FF
F0
14
0F
02
0B
11
F7
0A
07
F2
26
2B
21
F7
FF
E6
F9
FB
03
ED
0C
20
0F
10
FA
06
FA
FA
0F
F6
0A
04
F8
F3
11
16
F0
EB
3C
42
32
05
F1
E5
CD
EC
DB
01
18
20
27
09
03
10
FD
04
FA
0A
10
01
10
02
10
1A
16
EB
2C
0E
17
FC
FA
05
E9
EA
E5
10
17
17
10
23
17
F2
02
E6
02
FC
EF
09
11
22
FB
29
07
07
33
2D
0C
EF
04
06
F5
FB
02
16
01
1A
1D
10
F9
FC
FF
FD
FF
06
EF
F5
FB
01
10
08
0C
20
1C
0A
FD
F0
1E
23
07
08
0F
17
0B
06
08
13
14
04
F0
F5
FC
F2
E5
FE
F1
FD
EB
FE
22
0F
0C
FB
00
03
0E
23
24
1A
17
0E
11
04
07
13
F5
F0
F2
00
FC
EC
F1
E0
E3
E8
06
12
15
12
07
FD
1A
ED
F4
0E
01
E8
FA
0C
02
04
FC
11
01
04
F3
FC
EE
FA
F3
EF
F3
DC
EA
F8
13
27
FB
E9
06
06
02
F1
D8
FB
F0
01
F0
13
0C
01
F0
11
F9
E5
FC
E9
F5
EF
00
F6
12
02
17
01
05
F0
13
14
F2
1A
EC
F4
F4
ED
FA
0A
FB
F3
03
F6
05
E9
EB
F7
DC
FB
0D
20
F4
09
0C
FB
FC
09
F0
FA
0F
F2
20
0E
12
21
18
0D
ED
FC
F8
FE
E7
F8
05
F2
EF
00
F3
F0
06
FD
E7
2B
FB
01
F4
03
00
FD
FE
E3
F4
F7
FD
F7
00
07
0B
EF
FF
E6
E6
EC
EC
07
E4
0C
F1
E2
FE
FA
14
0C
F6
0C
07
00
06
01
FE
0E
08
F0
08
FD
F9
0A
FD
FE
0C
FC
F6
FC
08
07
FE
12
EE
07
11
FE
F2
01
F7
06
11
E7
FE
08
FE
E4
E5
F3
03
EF
EA
08
06
FD
06
F6
0F
0F
F2
16
EC
F2
F0
F5
01
02
F0
FD
FA
FE
F3
ED
E2
FF
EE
05
EC
D9
01
FD
F7
0A
D3
D3
DC
F2
EC
0B
13
02
02
0D
FE
01
F4
0E
0D
14
1F
28
29
16
F4
05
03
FF
03
DE
DF
F5
D6
F1
DE
F2
DF
F9
05
F6
23
E7
03
F7
09
0E
12
2B
0E
01
F5
13
09
03
10
FA
0F
EF
E9
D1
E7
D8
E5
E4
D8
DC
F0
09
FA
11
21
0E
F0
27
1B
2D
08
F3
00
F7
1F
FE
0E
07
15
F3
0B
F6
EC
F0
D8
C1
D7
E1
E0
DE
E8
FA
21
05
03
F7
40
13
EA
04
04
F1
F9
05
08
06
06
04
1D
1D
09
F1
D0
D5
D1
D3
F1
EE
F4
04
F9
02
01
F9
45
33
F8
FC
E8
F9
F7
F9
FC
F2
06
19
14
0F
0C
F7
EA
CD
D9
E9
F0
DC
F1
F8
F5
EF
10
FC
30
32
05
F8
04
08
ED
F9
F3
08
F4
24
1F
0E
12
FE
FE
DF
E0
D5
C3
D7
EC
ED
EB
F5
01
15
1D
05
1A
14
F4
E6
FF
FA
02
FA
F8
2D
2D
24
07
FF
F7
E6
E5
D3
BE
DA
E7
FF
FC
13
00
06
0D
12
11
F3
06
0E
07
08
06
FF
1B
3B
2B
0D
02
E9
DC
F7
F0
E3
D6
C6
CF
ED
0D
FC
F8
0B
20
F1
14
0C
03
17
F9
00
03
01
F0
2B
17
15
01
01
0E
FF
0B
F4
E6
E3
F1
E8
0E
01
00
EB
1A
19
12
F9
0A
08
12
0D
EF
D8
13
24
1A
05
F6
04
FD
15
FA
F7
06
04
06
01
FF
04
EC
0A
12
29
EC
0A
08
F5
F7
FB
F0
02
FD
21
04
10
03
15
11
F5
07
08
1B
03
15
0C
06
FE
01
0F
F2
0E
F2
06
FE
FD
FB
F6
ED
F5
F3
19
1E
12
10
0D
FA
EE
FC
01
06
F8
14
37
0F
05
08
F2
F3
16
FE
02
02
F9
08
EB
FC
FF
06
FE
11
1E
19
08
0E
FE
03
03
0E
04
01
29
19
0F
1C
05
17
16
E8
F7
11
F4
09
EA
ED
14
0B
0D
FF
0B
03
0D
F6
13
12
03
EC
04
25
28
10
0B
03
0E
F2
F0
F3
F8
1B
F4
F9
F6
02
0B
06
10
F6
01
0A
EC
F1
05
F7
0A
F1
E8
11
20
2D
14
09
0E
F2
0D
02
08
F2
F5
FF
DF
08
EA
F8
10
02
08
0B
F6
0D
F6
02
11
0F
FC
33
1F
19
01
03
F2
F1
14
0B
01
0A
E9
D7
E5
E9
F1
06
FA
FF
04
FB
FE
F6
04
00
0D
F5
06
22
1B
10
F3
02
EC
FA
03
FD
FD
F5
EE
F8
E5
D8
DF
FA
0A
F2
0A
09
F1
03
F4
F8
01
E3
20
0D
02
16
1D
10
ED
13
E8
F5
02
00
04
0D
F9
F6
00
F2
0A
02
FF
FB
0D
12
F6
03
E4
F4
06
FB
0C
ED
02
0D
0C
F7
10
E9
E9
FA
06
F2
F4
E9
F6
EF
FD
F1
F6
08
F3
FD
0A
01
F5
FF
15
1A
02
F9
FB
0C
01
F2
F5
E7
D8
F4
E1
E8
FD
EE
08
04
FC
00
E3
13
F9
18
F7
FF
F5
FF
17
05
12
08
EF
FC
FE
FE
00
02
E7
F8
E0
F7
00
02
ED
ED
F4
E8
09
F6
ED
1C
0D
0F
12
24
21
0B
20
01
F5
F1
00
EF
03
09
EC
04
09
E4
F9
02
FA
09
05
DD
EB
F5
F0
FF
12
00
00
0D
E8
14
06
F7
F5
FF
10
15
00
19
16
14
1E
15
10
FB
0B
14
31
0A
0F
08
26
FC
0F
1F
F2
01
1A
12
11
11
F3
F2
FB
08
11
F2
03
FD
01
22
FF
13
1B
FA
1C
FF
05
1B
19
26
FC
19
22
03
FD
F5
0F
EC
F1
FA
FC
F0
FE
04
04
05
FA
F2
FF
06
04
13
0A
0B
01
0F
0D
F3
12
FB
03
0B
05
02
F6
05
EE
FA
ED
FC
0A
0A
00
F8
07
FD
FF
F7
01
0E
F1
17
13
07
F6
E1
0A
00
10
FE
FE
F9
05
05
F4
ED
EE
FD
00
01
00
13
04
11
22
31
03
0B
11
1A
1F
21
08
F2
06
F5
18
19
F2
01
F7
09
0C
11
1E
FF
F1
F5
07
00
08
11
1D
17
17
05
1F
07
EB
EE
FE
FC
0A
07
FB
F0
02
F9
14
F2
F8
08
20
25
0A
F7
2A
15
02
35
1D
26
11
1D
15
08
12
11
0D
19
EB
F5
0F
1A
0E
F4
F6
D8
01
11
16
02
28
1C
21
1F
15
FB
1D
17
0B
03
10
FE
09
05
09
0A
00
FF
06
14
05
F7
18
F9
FB
17
0B
1F
11
12
1B
0B
FB
F0
0A
08
F7
00
10
F1
0B
04
0C
FB
F2
06
FD
18
41
0D
3F
35
13
1C
09
0B
23
15
00
01
FF
FF
F6
04
04
0D
03
EE
05
03
14
1D
FD
F9
F9
0F
08
21
15
14
DF
1C
0D
29
06
FE
F2
F6
E9
FF
F2
06
12
29
2B
14
0E
FD
17
11
24
F3
00
1A
13
09
0C
0D
0C
1A
FD
19
2E
03
12
E2
0E
0B
0A
04
04
1F
18
0D
06
00
06
07
03
F6
EE
E6
FB
00
ED
F9
07
1A
18
2B
20
0E
10
F3
E9
07
F0
0A
0D
1D
14
E7
F2
F4
06
FA
E9
D7
EA
D9
03
09
13
09
FF
FB
12
1D
18
0B
1F
05
ED
F2
07
F9
04
F9
FD
F0
F7
EA
F7
EE
EB
C9
E5
DE
EE
F2
1F
01
09
10
18
1B
04
FA
F3
00
14
EA
FF
DE
FD
0E
1A
05
03
09
F9
F1
FA
DD
DA
C9
D0
E1
FB
FC
28
0D
19
18
F3
FC
0E
F8
07
0A
E5
E4
D5
FE
02
0D
FA
16
01
FB
FF
FA
DA
C7
DD
FF
03
12
01
09
13
08
DD
DB
EF
F1
EA
F9
D8
C9
CA
FD
0A
04
12
07
12
1F
FC
FD
F6
EC
D8
FC
2B
02
15
FF
15
ED
E2
D7
E2
C3
C5
E0
D1
C2
E4
0C
03
F8
ED
EC
F2
00
FB
06
F6
EA
DF
EC
06
1A
08
13
05
F3
DC
CF
B8
BF
C2
D5
CA
E9
08
1E
25
F0
05
F7
0B
F5
EC
08
02
EB
03
21
3D
1A
F5
0C
F6
E5
DC
CB
EC
C8
D2
D8
D8
F1
0B
0B
06
FC
F4
F4
0F
10
F3
EE
FB
F0
12
33
3D
25
03
02
FA
00
01
04
E6
F0
EA
E0
ED
EF
0B
EB
00
F0
F0
0A
FE
F7
1D
0E
11
08
15
24
34
07
05
FA
FC
19
FA
0A
14
0A
00
08
FB
FE
07
0D
FC
13
04
04
F9
1A
18
FD
01
08
0C
06
0F
14
F9
07
F3
1F
11
06
0F
11
1B
1B
14
20
14
F9
F3
05
0F
FB
06
15
F1
0A
17
09
22
FE
20
15
04
08
0C
22
0D
12
11
21
29
2F
26
04
14
FB
12
09
FF
FC
09
F9
03
05
27
19
FE
F8
FB
FB
FC
14
F8
09
3B
0E
0F
1D
27
24
15
0E
FB
F8
05
10
18
0A
05
FD
09
ED
07
13
E7
F6
15
F0
FF
F2
F2
1B
1B
1F
0A
1A
06
0C
F8
0A
04
18
02
FB
FB
00
FC
F0
EF
0A
1A
1D
EC
25
16
0E
13
0C
0F
0C
F8
00
14
11
26
0F
09
05
F0
15
FA
F9
FA
0C
0F
11
EE
F2
E8
FD
FF
02
21
EE
ED
FD
FA
12
0D
0C
0B
10
22
15
03
25
17
1F
19
FA
1E
11
18
0A
F0
1E
F2
00
07
08
1D
0D
F5
F2
05
0F
EC
FD
02
13
09
19
19
1B
24
24
0D
22
28
1F
2A
2E
2A
16
04
1C
EF
09
F3
02
FC
F1
02
F2
0B
00
01
02
21
1E
23
22
10
37
14
FA
1E
12
0A
21
EC
E6
0F
1F
F4
FC
FF
F6
0B
0E
FB
F2
06
ED
FC
F5
F5
ED
FE
14
0F
0E
03
1D
FD
03
F3
F1
0C
EC
EC
0A
F4
06
03
06
F8
10
0C
13
12
F9
EB
E9
FC
03
10
07
F4
FA
0A
FF
1F
02
05
06
E6
07
06
09
EE
08
07
14
0B
FC
0A
10
F4
F6
11
FF
0C
F7
FB
00
0C
F6
EF
04
DD
E9
E9
E3
F5
F2
FF
02
15
18
F9
07
0A
12
26
16
FE
FA
07
F9
05
13
FE
0C
23
08
0A
F6
F6
0C
02
06
03
09
E5
ED
14
03
10
14
00
FD
1C
0C
EC
EB
0D
E4
FC
24
09
07
1C
F0
EC
0B
0A
0C
05
F3
F4
00
EB
07
10
03
17
05
04
0D
F8
F6
E8
FC
EF
04
17
00
1B
0A
02
15
13
07
08
00
FB
F9
F5
FE
FE
F4
09
18
04
0F
0B
0E
FE
11
E4
EF
03
09
03
0F
20
08
0F
16
FF
FD
10
10
12
07
05
FD
F3
E0
06
E9
0C
EA
12
19
0F
18
00
FC
1A
09
0D
04
11
0B
25
27
0E
24
1E
06
08
10
0A
09
10
06
E7
E8
E5
02
0A
23
03
0F
04
03
0C
0A
12
1A
08
15
05
03
25
1C
0C
1B
21
0B
16
12
02
F3
DE
DA
F6
E9
16
08
17
17
04
15
FB
02
EE
03
F8
E6
F4
00
F7
1C
17
27
0C
0F
08
FF
0E
09
FB
ED
DE
20
F3
1D
22
12
FA
08
F6
DC
F7
F0
DE
E1
D3
DA
D6
00
1B
0F
15
09
03
14
07
F7
F7
FA
09
FF
0E
0E
0E
06
F7
D2
E4
C4
E0
C1
CA
D0
EC
E4
E5
E9
F2
0B
05
F7
0F
F8
FA
FB
FA
01
E4
0B
26
0A
FF
F8
D2
C8
C2
D2
CE
D8
DA
06
FA
E0
D0
E0
E7
F4
05
03
F4
03
03
F5
08
F4
F4
F4
0E
16
FF
EB
C0
A8
C8
E0
D5
F9
0B
F5
F6
FF
E1
E7
E6
ED
EF
FB
F5
FE
FB
FF
17
04
10
FF
EC
04
11
E2
EE
D4
05
F2
EF
0C
FF
FC
01
F4
E4
ED
F0
ED
FE
FA
ED
F8
FE
0C
FD
0E
06
04
0A
EC
E5
ED
FC
14
0A
FB
0F
02
F4
04
EB
FF
DB
F3
06
F4
05
F7
FA
06
09
16
0E
06
0D
16
0B
00
EF
E6
F9
09
11
15
0D
08
09
00
F4
FF
FD
E3
EC
03
11
F9
08
FF
15
0A
0C
1F
1A
09
0C
02
E8
F6
16
15
F3
11
ED
FE
FE
02
F7
01
02
F0
11
1A
0E
0C
06
FB
14
07
E9
09
11
05
F9
0E
F0
FA
1A
11
F3
0F
0F
EC
F2
09
F1
FF
F1
07
1C
F8
09
F2
10
F0
02
F4
F6
FB
FC
17
EE
12
00
09
20
F3
0A
06
04
09
11
00
0E
14
11
06
F8
0A
01
E9
05
F7
19
FA
07
0A
08
18
F3
0E
EE
17
22
FE
FC
12
FA
00
12
FF
1D
00
FB
FC
19
EB
03
FB
05
FC
13
FB
FD
16
13
F3
EA
00
17
02
10
0B
0F
14
01
12
11
05
19
20
10
18
08
F7
00
00
00
FF
EF
0F
14
23
0D
27
00
07
FF
18
0D
EF
05
12
12
FB
F7
F6
FF
15
FC
F7
11
FF
FF
09
08
FA
F8
FE
03
0D
FB
06
0B
F6
F6
17
18
14
00
04
ED
0C
F9
14
01
F5
0B
FF
09
E9
00
15
07
08
13
04
22
26
FB
0C
09
11
05
20
22
0E
0A
EF
03
06
F5
21
F8
FF
FB
F4
F7
F3
EC
F7
E4
E5
EF
0C
0E
00
00
06
F5
F1
0A
F6
12
13
FA
1A
18
03
12
07
1F
0D
FC
10
FC
F6
E5
D1
E1
FD
ED
F5
E3
0F
12
EE
0C
F3
11
F4
F2
FF
FF
2E
20
1F
34
2F
30
3B
35
3C
1C
02
11
01
01
E4
FA
01
F4
0A
02
02
FF
EF
F9
11
F8
11
08
10
16
15
19
10
0C
1F
1F
10
0C
08
07
0B
ED
F3
14
FD
13
0E
13
03
F3
FF
04
FE
10
FD
14
F2
FD
F4
03
F9
0E
10
F1
02
F8
FA
03
05
04
01
01
02
05
F3
03
06
0C
EE
ED
02
F1
EF
14
13
F3
0C
1C
06
03
03
F2
05
F4
EE
01
06
0B
F1
FC
18
13
06
12
F8
F8
EE
FF
0E
F1
01
00
0A
DF
07
0F
00
FC
04
04
03
FC
EE
E6
F5
04
F9
F8
FE
FE
FC
13
ED
02
F8
0E
13
11
1A
08
FA
1D
19
19
06
13
09
06
F0
11
F4
FA
E8
02
F5
E5
F6
04
F6
05
F0
F2
10
F3
07
08
0F
04
05
1C
17
0B
04
FB
20
00
F4
00
D7
FA
FB
FF
FC
E3
E0
FB
0B
1C
15
FA
F0
1A
11
FF
F2
F8
18
EF
06
12
22
26
16
06
04
02
EF
FF
EC
07
08
00
F0
EC
14
26
1E
F3
E9
FF
23
F3
EE
DC
ED
F0
FE
0B
04
FA
18
15
08
0F
01
EB
F0
EE
05
E2
F7
F5
0F
FA
FC
EB
F9
FD
FB
FF
F3
FE
DE
F7
EB
05
F2
11
13
15
11
16
F4
04
F6
F2
F5
ED
DF
FF
03
F7
0E
F4
E6
DF
12
F6
0E
FA
00
E4
F7
FC
03
F3
11
1C
1A
0C
03
FD
FF
05
F7
FF
F0
D9
0C
05
10
09
F5
F9
FD
0A
FB
F5
FE
F7
F6
07
FE
FF
00
02
01
FB
1C
1C
08
06
07
0B
CC
C7
E1
0C
0F
F5
FC
E2
11
18
02
14
0B
04
F5
FD
F2
E6
E8
08
10
F6
FC
03
2C
17
12
F0
CD
BD
DB
EA
12
E7
F6
E7
06
F9
07
E6
09
F1
06
FD
F5
04
03
19
11
14
1C
26
34
19
07
01
DA
C0
E1
05
04
E8
EF
D6
03
FB
1A
0B
F1
08
05
F5
F2
EE
1C
2A
11
12
10
0E
10
1A
F1
F8
D7
CC
EF
F4
FD
F1
F0
FD
E4
02
F5
F3
0B
0C
06
F6
F8
F5
1A
2E
2A
23
02
06
0A
F5
D0
CE
D9
E6
DA
02
08
F6
12
FE
F7
EE
EA
FF
F6
EE
F8
F4
FB
07
09
2B
10
F8
F9
F7
E6
DC
D5
D5
DC
EB
05
0D
0A
06
19
00
0B
F5
E6
EC
F8
F8
F8
FA
09
F4
13
04
FE
F2
D6
D4
E5
E6
D7
F6
E0
E1
F7
F8
FD
FA
1C
14
09
FB
01
FE
08
ED
FF
00
0F
10
1B
05
F8
DC
EB
EB
E9
01
ED
F9
E6
F7
FD
F4
EE
0B
06
0F
10
0A
F0
F8
F5
15
09
F6
11
05
11
EF
DE
F2
0A
EC
EF
F9
FC
0A
EA
0A
F2
EB
00
0E
15
1C
04
02
11
F8
F9
14
F9
0C
02
14
F4
F9
01
F2
F0
03
02
F8
F3
0E
08
0F
F4
E2
F5
0B
DE
03
07
FA
08
EB
13
F2
EC
10
E2
FA
09
F2
00
00
0E
0D
FE
07
02
14
01
FF
FE
DE
F5
F3
E8
FA
06
22
01
12
0B
0E
F1
07
EA
FA
F2
F1
F0
0B
03
FF
06
17
FF
0F
FD
06
FB
F0
03
FD
0E
2C
F7
F7
11
12
F5
04
F7
00
F3
F6
08
07
02
01
11
07
08
0A
12
F4
F4
E0
01
01
F2
1E
0C
2C
15
0E
FE
00
FE
F8
0A
01
09
00
FB
0C
0F
F6
FD
08
F5
13
0E
1D
F8
FA
19
FA
00
FB
FF
0D
0E
08
13
09
0F
FD
ED
F3
EB
0B
09
08
F6
02
FA
17
17
01
EE
1B
1B
20
10
06
FE
F4
0F
F9
14
17
0C
EC
FF
F0
F0
FE
0E
F1
01
ED
0A
F8
03
F4
09
14
0C
23
12
11
00
F0
F7
F6
FE
FD
DD
F2
14
F1
13
02
F9
01
ED
FF
0D
02
06
FA
F8
17
05
24
09
1B
02
E4
00
EE
FD
07
13
0C
0B
F5
F6
F0
08
0B
20
11
06
F3
FC
1B
F9
01
16
F8
F4
12
0D
F7
02
11
F4
13
03
F2
02
02
FE
EE
CF
DB
EA
F4
F7
0E
0C
01
E5
0D
07
FF
EC
07
FC
F1
ED
F6
ED
0B
0B
14
07
F9
FD
FA
11
F7
12
06
F2
09
F1
F8
EF
10
14
12
0A
FA
F2
10
FD
EF
01
04
04
FF
03
F4
FB
01
0E
0C
08
0A
F9
FA
13
FE
EF
F7
08
E7
EA
0B
FE
26
1E
0A
04
F7
03
02
14
FF
F1
0E
0C
F7
09
FC
FC
02
02
0E
0C
E7
FE
E4
F5
04
F4
17
15
17
EF
06
F1
FE
EC
13
FA
12
0F
F3
14
05
0A
02
0C
F5
F9
F2
17
10
FF
FE
11
1F
20
22
FB
11
0C
12
02
12
F9
FD
01
03
F6
EE
06
EF
FC
F1
0B
09
F1
05
07
16
29
1D
20
FF
1F
26
18
04
FE
0C
FA
F7
F8
0A
C9
EA
11
ED
1F
F9
0D
1E
04
08
12
09
18
03
13
0A
0F
15
03
F6
11
18
0C
13
14
F1
17
EA
E5
D8
FA
03
10
01
FA
08
F3
EC
0A
13
11
F9
F4
00
09
08
02
18
0D
0A
00
04
05
0E
0E
EA
FE
E4
EB
1E
F4
0B
FD
02
F7
FE
F9
FA
FA
07
F7
01
F4
19
11
20
0B
1A
09
02
03
FE
FB
08
03
E1
D8
17
12
18
FF
F5
09
F0
0E
15
FC
E5
FF
12
F7
0B
09
1C
1D
0F
0D
12
0B
06
0F
0D
03
DA
D9
10
F4
F9
10
0F
03
12
FC
14
FF
FE
F6
FE
EE
E4
EF
29
18
27
15
13
FE
FF
FA
FB
F7
D7
FA
10
06
00
03
14
0D
09
0A
F3
E4
ED
D8
DC
E1
C2
EE
0F
0B
1B
08
01
12
12
1C
03
00
D8
DC
F7
09
F4
06
F6
F1
E3
E1
D4
D0
EF
F3
DB
E2
CA
E8
0B
1C
F1
F6
05
13
13
01
03
12
F8
EB
CA
EC
05
00
0C
EC
D3
C1
CB
E5
D4
D7
FE
E4
D8
EA
0F
FD
08
F5
FC
16
06
09
E4
E2
09
19
F5
FF
0E
F3
F0
EB
E4
D1
EB
F1
E9
FC
E5
E6
F1
10
05
EC
F6
05
F3
0C
01
0B
F3
F3
07
0D
12
FD
0E
E2
E3
DF
E2
EE
FD
E9
EE
04
EC
FA
02
10
F7
F9
F5
05
FA
04
01
15
F3
01
E5
F9
0B
F7
04
07
E8
F2
01
0E
1A
00
10
0E
07
0A
0D
0D
06
15
F1
01
F0
03
02
FB
0B
09
E6
F9
23
10
FD
0F
F7
06
0D
0C
FD
0F
00
FC
FE
0D
01
F9
E9
F1
F9
06
FF
F0
11
F5
03
FD
13
11
0E
F6
FF
FD
04
03
05
F1
06
14
04
04
FF
19
FF
F0
FD
FE
FF
EE
00
FC
F5
FF
F7
FB
FD
FE
08
2A
0A
02
F2
1E
11
09
F5
06
0C
02
FE
FD
F2
FD
E7
0A
0B
10
FA
0F
02
FD
FF
20
04
01
E4
F7
F8
03
FC
FC
1A
02
FC
02
15
FF
07
04
F1
08
04
00
FD
0B
FE
F1
05
F7
06
0D
09
F7
00
07
F0
14
EB
09
14
0F
1C
15
02
20
07
F3
04
01
F4
05
06
02
06
E9
07
F3
03
F5
00
12
EB
F0
15
06
FB
0C
01
FF
07
12
FE
F7
F2
FA
08
0F
01
07
F9
05
F7
10
F1
F8
07
EE
0E
1D
0D
19
14
15
03
07
ED
15
12
12
0E
16
1A
FE
FA
08
F7
F1
09
E6
04
14
FC
06
FC
F6
EC
F3
F7
0E
EC
10
0F
10
10
F9
0E
F9
0F
01
02
FC
FE
FC
17
0B
0B
FB
04
18
F6
F7
10
05
FA
11
F0
12
EC
11
06
06
15
F9
F1
0B
FE
16
FC
FD
09
F4
FC
F6
F4
03
F6
E4
D7
EA
FA
FD
0B
FE
30
F1
03
06
ED
02
F7
FC
01
FB
1D
1A
0F
0F
FB
FE
0C
E8
FB
F8
FF
01
DF
F8
DA
F2
FB
19
23
09
F0
02
0D
E5
EB
E8
F8
FF
EB
ED
1F
F6
00
02
03
ED
EB
F1
FD
FA
EA
09
F7
0B
15
1D
13
EF
08
11
10
14
19
11
FF
0F
08
14
1B
F5
39
1D
F3
FC
F9
01
0D
F8
E9
12
12
09
0A
EF
0C
F2
FF
12
ED
12
F6
F9
14
F6
07
11
F1
F7
F9
01
08
1C
F9
EE
10
13
0B
05
14
05
FB
F9
03
F2
12
12
14
FA
0A
15
1D
29
25
27
2B
13
2D
0A
FF
13
33
39
0C
10
16
0F
14
0F
F8
F5
ED
F0
07
F4
27
25
18
14
FE
0A
2F
2A
35
16
1C
0C
0C
1B
09
1F
1E
00
1F
1E
18
2A
0E
14
08
14
0A
00
F4
18
FF
15
21
08
13
16
17
15
0E
03
0E
F8
1D
0C
FA
1B
21
13
0F
33
0B
05
0A
02
10
05
F8
1D
17
0D
01
00
07
1C
1D
04
FE
1B
EE
02
03
14
FB
1C
F9
0A
F8
EB
EE
FA
0C
23
F9
F3
01
FF
0D
F9
FB
F7
08
0B
1B
08
09
F3
F5
F9
12
FC
F7
F8
FB
FE
06
FA
F5
13
1B
12
05
EC
F0
06
01
F1
0D
10
02
FB
FA
EE
FC
0C
1D
15
1B
17
FD
0D
FD
EF
E4
02
F1
F0
07
EB
0E
FE
06
E7
F0
0B
13
0C
FE
0A
14
05
F7
EE
19
18
03
15
0D
09
0A
E8
01
FA
FC
EE
F0
F3
2B
20
28
0B
22
FE
09
0A
0E
13
F3
07
08
22
F1
0C
1A
0D
EA
F9
F9
F9
01
EA
07
E3
FC
03
1A
28
F8
1B
11
0F
F5
16
13
FC
F9
0A
03
07
F4
06
0F
FE
0E
0B
F0
FF
F7
09
02
F3
F6
E8
12
12
0B
16
13
0A
FC
17
F3
03
1A
10
0D
02
F2
FB
F2
F8
01
1D
06
0F
FC
01
E2
EA
DC
F8
30
0D
24
01
04
01
09
27
07
18
19
09
EB
F2
ED
E5
F5
03
01
09
0B
1D
1C
21
F0
DF
E3
F9
1A
02
27
12
FC
0F
07
F7
FF
FB
F0
F3
F1
ED
DC
EF
FF
06
04
F7
0B
FD
32
51
4D
39
10
08
F5
1C
0A
0D
10
0E
F5
F5
F8
ED
EE
F3
FB
E9
F5
02
F5
FB
F5
F5
11
13
FE
23
45
20
1E
05
F0
03
FF
07
F1
0F
02
FD
D8
D9
EC
EB
F5
08
FB
FD
01
FF
FB
11
E8
E8
10
13
19
33
29
03
0C
FC
0A
E7
02
EE
E5
FB
E4
FA
1C
1E
00
05
00
FB
FA
05
0D
00
EE
05
01
17
05
12
11
18
1F
FE
FD
D5
02
10
F6
01
F9
12
15
1B
12
E9
EB
F6
03
FD
E0
F6
EC
ED
F2
EC
FC
15
1C
06
0A
E2
EF
E0
E5
DA
D0
E4
09
27
33
30
09
F5
F4
00
0F
F1
EE
EC
05
EC
02
E2
ED
43
3A
FF
09
F0
10
E4
E5
FB
DC
FD
0A
26
12
27
25
13
FB
15
00
01
EC
E3
0C
FB
FF
0A
FB
09
2E
F9
07
F8
01
E4
EB
D3
DE
11
FD
15
1B
0C
08
FF
FB
EF
01
00
FD
05
0F
F8
0D
FB
EC
12
24
FB
F8
1B
EB
DD
E8
E9
E6
07
04
FC
16
16
23
05
FD
F6
EE
EF
EA
08
FF
07
0B
F7
14
1E
0A
E4
FD
FA
F8
ED
F8
EB
F1
E5
0C
06
06
FD
1A
12
07
FA
F5
FD
0A
02
EC
FB
EE
1A
1C
06
00
FD
DC
E5
EC
11
EB
F7
EE
0D
FB
EE
FA
03
07
11
13
0B
F4
F5
E1
DB
08
F8
05
F2
10
26
0D
0A
F2
F4
02
06
FF
F5
01
FA
06
FB
11
00
07
03
00
0B
E3
FD
F8
F0
F8
13
FA
0A
E4
1D
00
14
03
03
FE
E4
0A
EE
F9
E3
E9
F9
F9
FE
F4
0F
07
07
06
EE
DF
05
FB
FC
00
01
0B
0A
24
FE
0A
F4
EF
08
07
13
04
FB
09
0C
0E
13
02
18
0B
FD
F5
00
10
FD
17
22
FB
E8
E1
0D
11
00
12
F6
F7
FD
01
05
17
1B
2D
2C
1A
30
2F
25
3A
0F
08
15
00
FC
11
34
2F
FD
07
FA
FF
F8
0A
08
04
FE
1A
20
FA
04
19
08
21
01
1E
32
31
27
33
29
1F
FC
1D
1C
29
F3
F8
0A
07
04
ED
EF
06
02
06
EF
14
F0
EC
EE
FC
FA
F5
0C
0B
F1
ED
0F
0A
05
01
F6
0D
06
F2
0F
11
F9
EC
FD
12
10
16
10
F2
F4
F4
12
1E
00
29
24
2A
05
0D
17
0C
13
FC
18
14
18
0E
0A
02
0F
14
EE
F7
05
10
FA
FB
F5
FB
0B
0C
25
13
23
16
2B
18
0A
35
1B
1B
0A
19
0B
12
FF
08
F3
ED
0F
01
02
F2
21
E6
F5
F7
E8
00
E8
0A
04
0E
05
0A
2D
26
16
0A
10
04
F1
FD
FE
12
12
EF
E7
01
EB
F1
E1
D7
E8
E4
E9
07
FA
FC
F9
06
00
F2
0D
FA
1D
0A
0C
F3
2F
0A
FE
10
D7
FA
FA
FB
E5
0A
ED
E2
D8
F9
F4
E6
05
18
FB
FC
00
0A
0C
04
FE
02
FF
06
28
0D
17
1B
EB
11
F5
11
F2
0C
E8
F4
E7
FC
EF
03
0C
13
05
1C
19
13
07
0E
FF
28
13
1B
07
3E
1C
0D
F7
F3
E3
24
DD
DF
F7
D9
ED
02
F9
00
01
0E
0B
17
12
1A
0D
1E
24
11
2F
26
10
23
3A
1F
00
F8
F6
12
DA
EC
F6
E8
03
01
EE
F4
15
14
FB
FE
EF
F7
EB
02
06
08
06
FA
EE
F3
2B
1B
16
F3
08
EE
F2
FC
E9
DA
01
E7
05
F1
10
0D
F6
DE
E7
DE
D5
C6
D6
C6
C5
C0
C2
DF
FA
08
23
EE
ED
FC
F3
08
0D
04
E8
0F
FC
04
FB
F4
F8
DC
E2
D4
C5
B4
A5
B2
B0
BE
C2
E0
D7
EE
0B
EE
07
F1
FA
0B
07
FC
F4
0B
07
0A
07
05
F4
F3
DC
E8
E6
F3
E1
E1
C9
B7
BF
C3
CC
FA
07
F0
EC
FE
DE
F4
0A
0E
08
FE
F5
F8
F9
14
04
FC
F9
18
06
0B
0F
F6
E8
ED
D5
D0
CC
E1
01
05
0A
E9
F1
F1
06
21
FD
F1
04
FE
0F
F5
0F
F5
F8
08
1B
14
17
13
F4
08
F8
E6
E0
F3
F9
FE
F9
EF
E5
EC
FF
FB
18
0A
F9
0F
F2
08
F2
01
F7
1A
FC
1E
F9
0B
02
F7
10
FA
F9
FB
11
09
F4
EB
EF
F0
FA
FC
F2
0B
F5
FD
F5
F4
03
F5
FC
FB
1B
FF
FD
FC
07
E5
03
0B
FF
EE
11
0A
E2
E7
F1
E4
EE
04
06
03
EE
03
01
14
FC
E8
17
15
06
07
F6
E8
F6
00
F5
ED
0F
03
E8
07
D7
E3
18
11
05
02
F4
02
11
F7
15
07
EF
0B
0D
0B
14
F3
E9
0F
05
E4
ED
FE
22
FB
FA
F9
D4
EA
06
06
18
10
20
14
1A
FE
F7
F2
01
06
0D
09
03
EE
EC
F7
06
E7
F0
01
23
EB
F1
02
EA
F1
EE
11
FA
06
F4
20
00
0B
F7
FE
02
12
01
11
FA
F3
09
F2
01
F4
F5
03
00
01
01
F1
EE
E0
10
14
15
04
01
03
FE
F7
F3
F9
FC
FA
FF
17
13
FB
0A
0F
14
05
04
16
15
F4
09
0A
EB
F8
18
01
0D
05
FD
0B
09
18
0B
FE
F2
08
04
16
16
06
11
0B
07
FC
13
13
FE
F1
F9
02
DF
FC
07
22
03
FD
F7
06
03
F4
08
EC
00
02
06
FA
13
06
03
1F
12
0E
0F
00
20
07
FF
13
FB
F9
E8
07
0A
08
F0
0B
F8
F4
FF
ED
03
EA
FD
0A
F7
04
F3
FC
13
FF
13
F8
00
E8
0F
FB
EF
F8
E9
05
0F
EE
E7
02
ED
06
F9
FF
04
00
F0
FD
14
F4
08
08
28
FB
F9
FF
F6
F0
05
FB
F8
16
F5
F9
04
FF
08
FF
03
FE
00
FA
0E
FD
F3
16
19
1E
16
12
1D
09
15
0F
EF
F5
F2
F3
00
00
12
FE
F9
FF
ED
EB
FE
00
0D
FB
16
00
F8
0D
15
11
0A
13
06
EE
10
1E
EC
F0
FB
F9
03
09
FA
F5
F5
F4
0D
0B
EB
F2
F2
0F
02
0E
FC
05
09
E7
09
ED
F8
EE
F5
F7
0A
04
06
EE
F9
07
13
F1
F4
EF
00
0D
F6
06
02
0A
F5
11
13
0E
12
08
10
FB
FB
09
F0
00
EC
FE
00
13
FC
02
0E
02
F2
F1
00
F5
F9
F7
F7
F4
EE
FD
E9
05
D8
E5
DA
D3
DF
FA
F0
05
06
F9
F3
0F
FE
F9
F1
F5
FE
03
DE
F0
D9
E7
DE
E5
E9
DA
FA
E4
C5
9D
AB
BA
B9
C7
CC
F2
0D
ED
0C
02
14
05
0C
07
16
FA
FE
00
F7
08
E8
EE
EA
19
10
06
F9
EE
DB
EF
F3
E0
01
F7
11
F3
01
03
03
0C
10
FC
0D
EE
04
07
02
0F
10
0A
12
2A
13
0F
1A
22
04
FE
0F
F8
05
0A
18
FB
0D
0D
FA
0E
FF
E4
FC
01
EF
FB
0F
F1
16
11
01
0B
1D
19
26
29
26
32
16
0E
28
08
10
14
FE
13
FE
FE
EB
11
F7
FE
08
EE
F3
ED
00
FF
F1
0E
E5
E9
FF
0A
0A
07
0E
0E
2C
29
08
0D
0D
FC
E9
0B
EF
ED
0F
F4
EE
E5
E7
FA
DD
F4
EC
F9
F9
03
FB
06
FA
0D
1C
1D
10
2B
19
0C
0A
EF
D8
F3
07
E7
FF
EB
EF
E5
ED
09
EE
FF
00
EB
EE
FE
0F
FF
21
F8
1F
11
16
24
0A
2B
14
FE
E1
FC
F3
F0
F9
E0
EE
02
EC
F0
E1
DA
E0
E4
00
F4
F8
26
08
27
1D
1C
13
2A
35
06
F1
01
CF
E3
02
EE
E6
F1
EE
08
0A
F4
E3
EB
F7
E6
06
05
21
F8
F7
12
12
32
2A
1E
01
FE
F5
E9
06
F2
F6
02
EC
08
FD
18
FF
10
19
0C
E5
11
18
08
FA
F0
0D
0D
05
17
18
FE
13
23
17
05
00
F6
01
05
07
10
03
19
1B
0B
1F
12
25
1E
0A
17
FA
EF
F0
00
22
FD
17
F0
0C
04
09
14
0A
F2
0C
18
1B
01
23
1A
02
17
F8
1D
2D
21
0C
FD
FF
07
E7
F5
FB
14
FD
F4
F7
0C
FB
0E
03
EE
F0
0C
1A
21
19
1A
04
0C
F9
F5
1A
07
03
00
F7
EF
F8
F0
E7
02
F1
EF
09
01
EC
12
08
09
E9
29
0B
16
29
08
13
DE
FB
FE
08
0C
00
0A
FD
0C
F0
E8
FE
F2
F9
09
F9
1F
08
FA
F7
0C
E5
13
21
FE
06
01
FD
01
EA
EA
1C
0A
1F
25
F8
F7
03
E6
EC
F7
05
EF
FE
08
0E
FB
11
F5
EB
02
25
09
0C
05
06
02
FB
DE
12
11
11
00
F6
FC
07
ED
06
EC
05
F0
12
1A
1D
FC
0D
F1
F6
16
0E
2E
1A
23
F5
F8
EC
EA
10
1B
13
FC
FC
FE
06
F1
EB
F0
F9
0C
05
0A
1C
17
02
EC
1C
1A
37
25
3E
09
05
E5
EB
F6
F3
11
24
16
0B
FA
03
0E
FC
FE
13
10
EB
11
04
FC
06
18
0F
1E
28
3A
3B
12
FE
FB
E9
EA
F8
FE
F9
13
25
F9
F8
FB
14
18
15
0A
FC
FD
05
11
FA
F0
0D
FD
1C
1F
33
31
28
F7
F0
FE
F4
F8
06
02
0A
17
05
11
FB
14
FE
0E
07
1E
E9
FB
03
03
09
07
03
16
FF
15
0E
1B
0D
0F
02
03
02
F2
FC
20
FA
0C
0D
1A
24
23
17
F6
02
05
0C
02
F6
E2
F4
E5
03
03
FE
01
03
1F
15
1E
0B
01
15
1A
F9
0A
0D
20
1F
FC
0D
19
01
F5
03
15
EB
ED
E4
F3
EB
05
F1
F0
0C
FD
F0
F4
11
F3
14
1E
18
09
00
26
33
F5
14
05
EE
EC
F5
02
06
F2
04
F2
D4
E1
FC
F1
04
E6
EC
04
F0
0A
EF
00
EC
F6
0D
FB
2E
F1
13
E8
FB
12
F2
FE
03
12
01
F8
F5
E5
02
F2
FD
00
08
1B
0C
F8
10
11
01
FB
FE
F0
EE
06
E9
01
03
02
06
0E
06
F8
FA
DC
CD
F7
E7
FB
E9
DC
C9
F1
13
EE
E1
F0
11
FC
00
FE
EA
F0
F6
04
EC
0B
04
0A
0F
03
F9
05
0B
07
0B
ED
0A
F5
E8
05
03
FC
0A
10
03
04
03
00
F3
04
FE
13
02
FF
F8
0A
F0
10
15
E4
F8
08
F9
F2
16
FB
22
09
0A
F7
F2
FA
0E
01
06
E5
F4
04
F9
03
F6
0B
12
11
13
1C
0A
ED
F8
F9
05
08
F0
0C
10
1B
26
0F
25
29
30
08
26
17
F6
09
12
F3
05
FF
F7
1E
FC
E8
00
0C
EA
F9
35
38
12
FD
F6
F2
D9
0B
16
F8
01
08
FA
2C
48
35
2D
0F
F1
0E
FB
10
18
0A
15
F9
08
0C
F4
0D
08
EE
ED
08
FF
F8
13
EC
F3
FF
F8
12
13
14
0F
DF
13
F0
EC
F9
E7
18
03
0D
0F
F9
0C
0A
0C
E8
F0
08
E7
08
EF
09
09
E0
F3
E7
FB
F2
F0
DA
1A
F6
E7
15
13
00
FD
03
01
EE
EC
F7
F8
F2
EB
06
07
DF
F9
03
15
02
00
F7
08
DB
E4
E5
F7
16
22
13
20
1B
1A
F2
09
FB
00
06
FF
F3
EE
E6
EF
E5
F4
07
0E
05
0A
0A
09
F4
E3
F3
DE
10
12
34
19
FE
FB
F9
0D
EC
F2
F7
01
02
EF
E0
E2
ED
0A
04
13
17
00
0B
FB
12
E2
FD
01
12
FE
20
02
24
17
0B
ED
05
F9
FC
00
EA
E1
D7
DF
E4
F3
FC
19
0B
0F
18
15
FC
D2
E1
01
05
EF
01
05
1C
1E
FB
02
04
10
0E
F2
00
F4
E6
E2
E4
DF
06
25
1C
1C
06
1B
09
E7
B4
06
FC
EC
E5
04
F8
07
02
17
FE
0C
03
F9
F2
E8
DA
CC
D5
FA
FE
14
0E
00
06
1D
01
F1
D7
FD
F9
15
02
10
FA
07
FC
04
17
08
0B
F2
E9
ED
E6
C1
D8
02
1A
0C
05
F4
23
09
1C
0A
EE
01
F2
1D
FA
F2
14
05
16
24
17
17
0B
FE
EF
E7
D6
DA
EA
FF
02
20
03
00
0B
1C
0B
0F
F2
00
F1
1D
F2
F0
E7
07
0F
04
16
15
0A
F2
E9
F3
F2
E6
EF
F8
17
0B
FE
0E
01
F5
F3
13
D8
04
F5
E3
1D
F1
FB
00
10
17
26
17
FD
FF
D3
DB
DC
FA
01
21
1A
0D
0B
17
1B
EF
FC
13
ED
F2
FA
F5
F3
F6
03
01
0A
20
37
09
F7
E6
ED
EC
EF
06
16
1C
19
06
25
08
0C
F0
EC
FA
FB
F3
00
EE
F6
E3
02
F2
10
2C
19
1F
D9
D6
E9
0C
22
16
0D
13
02
03
0E
13
05
13
FE
F4
ED
0A
0D
04
11
09
EB
F1
0F
28
22
F6
F0
D2
0B
02
16
13
0D
07
03
00
00
FE
0E
F2
FB
09
05
FB
F4
FB
F8
F1
FD
0B
0E
0C
19
08
E7
EF
FA
FF
06
10
1C
19
05
14
11
18
24
14
F5
EC
F9
EC
00
1B
0B
0D
FA
EF
F2
EE
16
FF
11
11
14
FE
F8
13
F7
FA
01
12
FE
F2
16
E8
FC
F5
27
15
F0
0C
F6
2F
FE
12
EE
04
0E
0C
03
08
F6
FC
FA
EA
F8
FB
FD
13
F6
0A
F8
FC
06
FC
13
17
12
00
FB
03
0F
0B
12
00
07
F6
15
15
03
00
FB
F2
04
F6
EE
FF
F3
00
09
F1
FA
09
17
21
F5
02
F7
FA
F8
FF
26
0D
1A
0F
03
F5
EE
0D
F5
08
ED
0A
F1
F2
F0
18
04
CB
E9
F5
F6
0E
11
EE
F7
FB
EC
0B
0E
18
14
1F
13
13
0C
07
EC
F4
EC
ED
0A
F7
DD
F8
FE
CD
EE
2F
F9
EF
12
05
F0
11
17
08
2B
08
01
E4
D4
F0
E9
0F
FB
1D
F7
D9
F4
F0
E4
EF
FB
E6
D7
F8
05
00
14
EC
EF
EE
16
DD
14
26
1A
23
17
F8
EA
09
07
07
0E
E3
EB
DD
CF
0C
08
F6
03
0A
F2
08
F1
03
FA
14
1B
33
4B
48
27
21
46
2E
1B
01
10
36
35
F8
DC
0A
ED
13
28
03
0A
01
01
06
00
F2
13
EE
FB
10
EE
EF
14
FF
06
00
0F
02
03
F8
FB
0F
11
0A
F7
F5
03
F2
FE
05
0D
FE
F3
EE
0D
02
FC
FA
1C
19
01
F9
FC
0A
07
03
15
16
02
1C
0C
00
FC
FF
17
00
0F
11
06
F9
0C
13
03
01
03
0E
0E
15
FC
11
1A
31
2C
13
22
13
05
19
0B
1C
27
1A
07
0B
03
FC
03
06
03
EC
0A
00
0B
FF
16
04
FB
ED
0F
0B
0F
0A
0B
1B
1C
19
1F
19
13
22
01
F3
EB
FF
02
F8
07
03
05
FD
FE
00
07
05
07
08
0B
12
F3
0D
09
18
1D
01
05
E9
FF
19
18
11
0C
28
19
00
08
F1
13
F8
04
26
1D
1A
17
0A
17
0A
FC
18
F9
01
04
12
EE
13
01
00
0E
18
1C
25
F4
EC
0E
FB
0E
0C
FF
FA
05
0D
06
FA
F4
0B
01
13
1B
10
08
05
0B
FE
F8
02
FF
F5
1D
0C
FD
09
EF
05
FC
F9
F2
09
09
F3
F7
FE
FE
07
FE
0C
12
0A
0E
FE
01
0A
11
12
0C
F7
24
24
25
20
D7
F4
04
F2
F2
09
FC
FF
F6
FB
F0
01
09
0F
01
FF
1A
09
F7
FD
F5
ED
01
F7
0F
20
0E
26
E4
F1
F0
03
15
04
0C
FB
18
11
FF
F5
07
11
08
07
EE
FC
F3
F0
ED
03
FD
FF
0B
0E
03
F6
F4
00
FE
08
02
F7
EE
F7
FE
17
00
0C
01
05
E9
E7
E2
FB
F3
EC
EB
F8
F6
EB
FA
12
21
01
F2
F2
FC
EA
F2
FF
05
11
0B
FB
02
08
10
04
FA
01
FE
02
F7
0F
FC
FB
E2
FF
03
12
1C
1A
00
E3
FB
F7
F1
FF
06
0D
04
09
03
18
00
22
1E
0F
F4
06
0C
F8
FE
F9
06
EB
DD
DE
10
04
08
F4
E6
05
14
19
FC
FE
FB
04
09
0A
0E
0F
1D
0C
00
02
F8
00
E7
F2
FE
01
D5
D7
07
E1
0D
0A
F0
06
FA
00
06
06
08
0D
0D
01
09
FF
13
0D
FB
FB
E6
EC
E2
E5
08
FA
14
E7
F2
01
FA
1C
01
F2
E9
D0
E5
DC
04
15
09
1A
23
1C
FE
F4
09
F9
E6
05
FE
08
0C
09
FD
FA
1A
E6
0B
07
1D
03
DC
C2
C4
C9
C5
E8
FD
0B
1C
0B
03
FE
F6
03
FC
01
07
F6
02
05
FA
EE
CA
F9
0D
FE
09
0C
D0
C6
AB
A2
AA
B0
CD
E3
E7
D4
E0
F3
F1
EA
FF
0A
FA
06
FA
10
F0
EE
F8
E9
04
03
28
20
F7
D3
CB
C0
B4
8A
82
81
9D
BE
D1
05
FF
FE
F7
07
02
05
0F
F9
FA
F6
F9
EB
F9
00
27
22
FD
E4
0C
F0
E8
C8
B6
B4
BB
CF
E2
E9
FE
01
06
0C
FD
0D
FD
18
0D
03
FF
11
09
F2
11
41
20
0C
F1
0B
0A
1B
F7
09
F0
01
FE
F7
F1
E7
04
F2
FA
EC
04
0A
FA
E5
E2
F6
EC
16
15
3D
26
17
1E
09
12
12
1E
18
23
03
0A
03
F1
FB
F6
F5
05
13
0A
FB
ED
E6
F6
F5
0E
F3
08
0E
1F
06
F6
09
12
1B
30
24
1A
0B
05
08
FE
FB
FE
EE
FE
F0
04
0A
F2
EF
07
10
05
FF
1F
1C
0B
F4
02
F8
16
0E
0F
19
0C
08
0A
02
F8
08
EF
F2
E4
F0
FF
E3
FD
EA
18
F9
ED
0F
14
24
01
13
09
15
1B
25
13
0A
10
09
F9
09
17
11
07
FA
E3
E4
E8
07
FB
FD
0D
0C
14
07
05
08
02
13
22
2B
3D
10
27
0B
1D
1D
06
13
00
0C
04
FF
05
FD
15
14
12
0C
E9
0D
F1
EE
05
01
19
21
37
0A
0C
1F
09
0E
17
19
2F
1A
1E
34
22
12
16
2A
0C
0D
10
E8
0F
F2
F9
01
0E
0B
F1
E0
F7
F9
EC
F9
1D
0F
F5
F2
25
14
F4
02
E5
03
0A
F6
ED
0A
F5
04
00
00
