00
EF
02
F6
F2
09
0D
03
FF
0D
FD
0B
F7
F8
FF
10
09
0B
0D
09
12
0C
0B
02
12
0C
F9
F8
F2
F7
EE
09
06
EA
FF
F4
F1
E5
08
13
FF
F8
19
19
28
FE
0F
0E
F7
FD
FC
04
F0
FB
08
0F
00
F2
01
EA
15
F3
13
0B
0B
00
09
FB
0D
07
0F
26
2D
F6
0D
EE
FD
13
0F
FB
00
1D
09
09
02
0A
1C
01
0C
F5
10
02
FB
00
06
05
F6
0F
09
E9
FD
13
F4
03
FE
10
E9
03
09
EA
04
F4
F7
0F
08
FC
E8
F7
0B
F9
E1
EC
11
02
19
02
F8
F5
F8
08
0E
F8
FF
FD
F8
FA
EC
E3
FD
DF
F6
04
11
0B
00
0A
FF
0D
0F
08
0A
01
01
1B
FD
0D
0A
F7
F2
E4
F0
03
ED
E0
E9
FD
F8
08
FE
1C
03
17
04
04
F5
03
04
01
FF
18
16
0F
0B
F0
FD
F8
F6
14
FC
F3
F6
E9
E6
F7
1A
ED
07
11
03
0E
F8
1D
06
02
1A
06
F9
1A
FD
05
07
FD
02
EB
F6
02
F9
FD
F5
EC
1A
EC
ED
07
FF
F9
E9
04
17
12
02
F3
18
06
19
05
10
27
11
03
F4
04
E5
ED
16
15
07
10
1A
0D
FA
03
FC
00
DF
ED
FA
0E
E7
06
04
06
09
F8
F7
0C
2D
16
07
10
F1
02
0C
00
11
14
1C
36
16
FE
0A
0C
E2
FD
ED
0D
E9
EF
05
1A
02
FA
FD
F8
11
1C
19
12
0D
05
12
0F
0A
06
21
2E
36
08
00
01
07
FA
E8
00
F5
F2
F8
01
DC
E0
CD
E3
07
10
04
0D
02
E3
DF
06
08
18
11
1B
2E
EF
F8
F8
F6
F6
03
E8
CA
D4
DB
E2
EB
DE
E9
D7
E3
FD
F3
E7
02
D8
F7
E6
F6
F9
F9
1E
52
06
FB
1C
0B
0A
E4
CD
B7
D5
BD
E5
DB
F7
E1
F3
05
F7
F4
FB
EF
DB
ED
E7
D2
F7
0B
17
3D
FE
07
EB
0F
02
D5
EF
CC
D9
C0
EF
E8
EE
F4
07
06
01
FB
E7
FF
F2
DF
EB
04
F6
FD
0D
3E
19
FF
E2
F4
E2
DD
EC
FA
EB
01
01
F2
09
0B
09
08
15
1B
04
EB
F0
D6
0C
FB
17
16
0B
2D
0E
0B
01
F0
EE
E6
FB
06
0B
12
0B
1A
0F
0E
16
0C
08
F7
F7
D9
E9
FB
FE
0A
EF
03
38
44
FC
11
F6
FD
E0
FC
11
2A
10
FE
01
F4
14
0D
20
09
19
0C
F4
F3
E6
01
0D
FE
0D
27
32
29
13
F7
ED
ED
FA
E8
17
0F
05
07
1D
02
01
1C
28
03
06
F9
E3
E3
01
EA
F7
02
00
1B
14
00
15
11
0B
28
F3
08
0F
27
29
02
15
19
1E
15
11
15
F3
E1
E8
F3
F7
00
EF
FC
06
0C
15
0B
18
0D
E8
1A
FA
1A
15
06
0D
07
21
25
18
11
0A
0A
EE
F1
FC
EB
0D
F7
08
04
0B
0F
2E
00
01
09
1F
15
0A
19
03
02
13
FC
09
F3
11
FB
FE
EC
FB
FC
08
0E
FD
07
FB
0F
08
12
04
07
F9
1E
EF
10
1F
2A
1C
02
02
16
FE
F1
F5
EF
E5
EF
03
09
FE
01
16
00
21
14
FA
12
15
14
F2
F6
F5
D4
FF
21
F8
FE
E2
E8
FB
F6
E9
E9
12
09
00
EE
FC
0A
E8
13
03
26
FB
E9
08
2B
03
09
09
DF
FA
03
F5
E6
F8
DB
F0
EB
E2
EA
EB
E7
03
FC
F5
F2
FC
F3
0C
00
E7
EB
29
FC
00
F0
F1
E3
06
25
FC
F6
02
F5
DB
DB
EC
E3
04
0F
15
01
13
FA
E3
D8
11
F2
FC
05
0D
07
00
06
03
05
0C
F8
04
0E
FE
F2
F2
0D
09
10
0F
FB
1A
00
F9
F4
DC
06
EE
FE
01
0F
0D
ED
EE
05
0A
FD
FE
18
08
19
12
0A
1D
0B
03
FC
17
12
FF
45
F3
EF
11
04
FF
E6
1B
F0
03
EE
FF
0C
01
FB
F1
08
0F
FE
F9
F8
F3
0D
14
FF
01
01
07
FB
13
09
EC
10
F5
0E
EF
F9
13
F5
01
14
09
09
01
00
E7
EE
01
03
E6
F8
F9
05
EE
E4
EF
F4
E9
E2
F7
E5
E4
F8
FF
F0
15
0F
0A
F4
14
0C
E9
E6
F3
FE
F6
FB
FB
09
03
F1
F1
DC
C7
F2
EC
FF
EE
F9
DB
E7
F2
F4
FD
F4
FF
ED
14
22
FA
E7
FF
EF
FA
F0
13
07
F0
CE
E8
E8
DB
EA
F2
F1
EE
E0
03
04
08
FD
ED
05
0F
07
02
02
EF
EE
F7
FD
E7
0C
15
19
FE
FF
F3
F6
FD
F8
F6
E6
F4
0D
00
0F
DC
F0
E7
19
EF
0B
F3
0C
0E
02
E7
F1
EB
0C
FD
F6
08
EA
0A
01
05
10
F3
F4
FE
E8
FD
11
F1
E6
FF
FA
0B
F1
0C
EE
04
E9
E4
FB
0A
08
EF
EF
EC
04
FF
02
FA
FF
F0
FC
07
FB
F7
F6
09
E8
FB
E9
07
F4
F8
FF
DB
ED
F6
F0
FC
F1
FC
02
F0
FE
11
EA
EB
01
FF
08
FE
12
F8
FE
ED
D4
F2
E0
06
F5
F4
FC
EC
E4
0D
11
F7
E7
F0
EF
06
07
F3
01
15
00
FE
F9
00
0F
11
EC
D9
EB
EF
E9
0D
F8
FF
FC
EB
E4
12
07
FD
F5
FB
06
FC
0D
00
F5
15
FB
02
FF
0F
FC
F0
F0
D4
E9
DC
06
F7
F3
E6
15
EF
D9
FB
06
05
F3
1D
FE
15
05
12
FD
17
1A
FF
00
15
EC
C5
E6
DB
ED
F1
04
FC
00
00
D5
EA
F2
12
11
FB
12
0C
02
21
15
0D
06
1D
0D
09
06
00
D8
DD
EC
D7
EA
FF
EF
DA
F7
DB
CC
D6
1B
1F
07
FC
FA
09
16
14
13
22
09
0B
0A
18
F1
ED
D4
DF
F5
E9
F6
0E
22
0A
01
E8
DF
E7
19
FC
06
F4
EB
FD
0A
0A
04
FF
00
F9
1B
0D
F9
F9
D5
D8
05
01
09
05
2D
19
FC
F2
E9
FA
EC
FF
08
F2
F6
04
ED
EE
05
19
07
10
08
15
0E
E5
F6
DD
FB
27
1A
0A
FE
F0
F0
02
09
F3
15
17
FC
0D
EE
F1
F1
E7
08
0D
14
F6
1D
00
E3
EA
FC
0B
0B
1F
18
12
05
18
F7
EB
08
ED
09
05
F7
0E
04
E7
E1
F3
EC
FB
0D
16
06
FF
EC
F9
15
1F
1D
18
1D
21
0C
1D
F1
E6
E7
FE
F9
0A
FF
F7
F1
E8
FA
F0
01
0C
11
0D
FC
F0
07
FB
1D
FE
13
F2
FB
13
EA
13
ED
04
F1
02
FB
F5
F9
F9
EF
E1
00
01
10
18
00
0F
FF
F6
01
11
F6
05
F7
F8
1E
08
08
EF
07
FA
EA
1D
F4
FC
03
E2
C7
DA
FE
18
11
12
FB
EC
FD
E9
F5
FB
06
02
DC
E3
18
09
F0
FC
02
0A
E0
15
FC
04
F2
DD
D6
E2
13
1E
13
08
F7
F0
08
0F
ED
07
EC
02
D1
CE
F1
FA
F9
0C
0D
EB
02
1C
0C
E7
E3
D4
D9
FF
00
06
03
01
F4
FB
FB
13
03
F7
EA
EE
DA
ED
E2
E9
E6
F2
EC
09
EE
F9
FC
10
DD
D4
EB
E7
E8
F7
06
0A
10
F9
FD
F9
F5
F7
19
0F
F9
0F
0E
07
FE
0D
FB
0F
FE
E2
F4
FC
F3
F2
FD
F9
F0
EB
EB
13
F2
F0
08
11
FB
0A
22
1A
10
FF
18
F2
F8
FA
13
FA
04
E5
EA
F8
E9
CD
E5
FB
EE
0E
ED
FC
FC
E7
06
F6
13
FF
33
10
01
FC
04
13
01
03
F0
02
0E
F6
03
FE
FF
F6
E9
E7
EB
07
D1
00
00
ED
F0
F2
E6
CC
F3
F3
F9
F5
EC
F9
F6
F2
02
F6
14
17
00
FD
E9
F3
E6
D5
DE
C7
E3
E9
EA
D6
FE
E7
04
DC
E9
D3
D8
CF
0B
09
00
F1
FE
F8
10
0B
03
EB
F6
EE
F7
E0
DD
E2
F5
D2
DD
FC
0E
FC
F2
FA
09
F7
F8
E0
01
0A
F5
F7
FE
0A
09
FC
EF
FF
14
13
F5
06
FE
FF
09
06
06
FB
12
06
01
09
F5
03
FF
12
FF
FF
F7
F2
0B
F8
11
F9
F0
14
03
06
16
21
F8
10
F3
E8
F1
FE
FB
F7
04
02
09
FE
1D
17
15
F9
F1
F3
F0
14
12
F0
0E
F7
02
08
07
FB
FD
0F
12
11
FE
F3
09
04
22
12
00
EA
FB
F3
E4
04
FF
FC
F2
ED
0E
01
10
03
FE
F1
00
ED
E9
DB
09
FB
FC
FB
EC
EB
07
FC
0C
13
05
E0
15
EF
09
FD
F7
14
F3
0F
CB
CA
E4
F6
FA
FC
FF
FE
07
EB
02
FA
0A
03
13
09
1D
0A
2A
2D
24
19
F7
F4
04
ED
15
E6
E1
E8
EE
EF
0F
F8
14
FD
19
00
F3
06
0B
F1
0A
F0
0F
FB
08
1A
24
07
FB
0C
FB
EF
0F
E2
D8
03
0C
03
14
07
FD
13
03
0B
0E
06
0B
1B
15
FB
1B
08
13
12
15
11
17
0D
FF
0E
F4
DD
D8
0E
03
F7
0F
F5
0E
05
FB
04
11
10
10
03
02
02
08
11
25
03
EC
F8
27
18
07
EF
FB
FC
DB
F9
15
12
F4
0A
05
0B
0E
EF
F8
03
03
00
F1
F8
FA
FD
F2
E0
DF
EC
1A
04
F5
F3
14
11
FC
12
0C
0D
F9
0F
09
17
06
F0
E8
D2
E8
F3
F2
D5
D5
D9
F6
F0
FF
FC
12
1D
07
F6
F3
12
FA
01
07
06
12
12
10
18
0A
F8
D9
E3
FA
DE
CA
D0
C3
DC
E6
D6
E2
FD
1F
1F
EB
11
1B
0A
03
01
FB
14
19
17
F8
0E
08
F8
E6
EB
13
04
08
F3
E6
FD
E5
F2
F8
F0
1A
F9
EF
04
F3
11
12
FB
10
0E
10
15
04
1C
FC
12
F1
09
FD
FE
0C
10
1D
04
F1
E8
EF
C5
0C
13
0A
00
F8
F8
04
08
16
11
05
F8
0D
02
04
F6
0D
FB
F4
0B
07
0B
07
08
FF
E9
FB
D7
FE
FE
E6
FA
0A
D6
F6
07
FA
F4
15
F5
25
05
F6
12
EC
FC
FA
EA
F2
FD
FC
04
E5
20
FE
D9
FB
EF
F4
03
05
F2
DE
00
F4
02
14
01
15
F8
18
03
FB
F0
F0
09
06
09
02
FE
F5
FE
0D
DC
EF
E9
EB
FC
0E
FF
D3
E0
D6
E0
02
0C
0C
15
10
07
E7
EB
FC
16
05
13
F6
03
E3
05
04
DD
EB
F3
12
F3
16
0F
E9
F1
D4
E7
DE
E9
FF
13
0A
EF
DB
01
04
12
02
07
EA
04
E9
FD
14
FB
F8
09
02
ED
0B
FC
0E
FB
D6
ED
D5
D3
DB
D6
C4
CD
D1
01
11
00
FC
FE
EE
02
FA
17
0B
06
FD
EA
02
F7
E6
ED
F2
FF
EE
F8
D8
C5
C7
C7
C3
D1
D9
01
F9
05
09
FB
05
0B
F7
FB
21
FB
04
03
F5
02
D2
FC
0F
FA
FC
F6
EB
EC
F0
E4
F7
08
F6
FA
F9
F8
F2
11
EF
08
13
15
1E
17
E1
12
0A
E4
CD
11
04
F4
02
FD
00
0A
02
0C
F9
F6
07
0F
11
F5
EE
08
F7
14
08
12
29
1A
EE
09
14
02
ED
FD
0C
E7
00
EA
1D
F6
FC
10
10
FB
16
15
03
F6
F2
EE
FF
F1
F5
19
19
1F
16
FE
03
04
08
D7
FF
05
02
F2
F1
F1
0C
05
16
F6
10
0B
F9
F4
05
FB
0A
0D
0B
09
1A
FD
00
FD
07
12
F2
F9
E4
00
EF
00
12
08
08
14
11
0E
F3
1F
FC
F4
F4
E6
FD
1E
EE
09
09
F4
F2
08
EF
FA
E7
01
E4
E6
DD
D4
F2
F9
FB
FF
F7
05
0A
FE
14
FE
F4
EB
09
17
1F
09
04
07
FE
F7
FE
0C
F1
F0
FA
0E
11
0C
EF
14
F0
FC
10
E8
0A
EF
EC
01
09
06
0B
FB
0F
FC
07
02
F2
07
F8
02
0C
FC
0E
05
07
0A
10
F5
FF
E7
F0
EE
0D
FF
FA
F6
12
FB
F1
F8
07
F4
08
F1
ED
EC
F9
15
0B
F4
F7
09
0B
FF
01
00
11
F0
0E
13
F4
F8
14
11
FF
09
F3
F2
FC
03
12
01
FA
07
05
F7
06
07
FB
FD
16
08
FF
F4
13
0E
E4
0E
1A
1B
09
FD
02
F7
05
FE
0F
0A
FA
0A
FF
FE
F5
EF
F5
0F
0E
0E
ED
FF
FB
29
0B
23
05
23
0E
15
0A
1A
22
F1
1A
1A
18
15
0C
17
07
FC
F4
F7
04
13
0E
19
1A
2C
FC
12
10
19
21
2A
45
50
4B
20
FE
02
FA
FD
E4
FB
1C
13
F7
0F
09
03
F5
10
FB
FE
F2
11
0E
21
11
31
18
33
2D
2E
28
04
0F
02
EA
EB
DB
0E
07
37
12
0F
F5
FE
09
F0
1B
F6
19
F9
F3
F9
1F
1B
00
21
11
FA
09
0E
11
11
00
07
05
FC
ED
24
01
0F
F7
0F
F8
F0
16
01
F8
0B
13
FB
00
09
02
0F
F0
F9
F2
08
0C
FE
12
0B
0D
03
06
18
0E
05
E3
0D
09
09
1E
0D
0D
0E
17
FC
FD
0D
FC
F5
04
00
09
F3
E7
07
F3
04
0A
1D
0A
21
03
F0
FC
03
F8
04
09
F0
00
FB
F9
FC
1E
11
0A
0C
FA
01
FE
05
F0
0C
F2
F1
24
03
0D
15
0B
0D
0C
F8
08
F6
1C
09
FF
F4
11
FB
03
0A
06
12
0B
E9
FA
EC
F0
08
10
05
FD
1D
11
2B
21
0A
0F
EA
0B
1D
22
03
F6
0C
03
F3
FE
FF
F9
F9
EF
F3
F4
F6
01
09
05
00
1C
14
2A
08
20
F0
E5
F8
F8
EF
0E
00
0D
EA
DC
DE
F2
F2
0F
0E
07
E2
E6
F1
F4
F9
06
06
01
17
1B
2C
0C
0D
DF
03
ED
EA
F8
01
FB
EE
E4
F2
F2
0A
FC
01
12
EA
F3
F3
E9
02
ED
F6
FC
1C
27
28
0A
09
16
04
FA
F2
F8
F7
F1
01
F9
E9
F6
06
03
09
16
EB
E4
EE
E9
08
03
D4
E4
07
30
1B
0B
FB
1C
02
FB
F4
0F
E7
FF
EC
E4
01
F9
14
07
10
01
09
E8
F4
E1
D5
EF
D4
05
13
29
0D
0A
0A
17
F6
EE
FF
06
10
E6
FE
FB
02
10
FE
05
FA
07
EA
FE
F9
DA
E8
E7
EF
F1
FB
2E
00
06
11
F8
07
13
FC
00
0F
FB
09
F9
FA
04
FF
F7
F7
F2
05
E6
DF
F4
FA
08
F4
0C
18
0F
2B
20
FF
EF
03
18
11
17
0E
12
F1
F7
13
FB
FB
F9
E8
01
F5
02
14
F3
0A
FE
11
17
2B
2F
07
02
05
1E
EB
FB
0F
2C
2D
1B
14
13
FE
07
07
F9
EF
F5
0F
02
10
07
F9
05
1F
17
45
24
1F
10
E2
F1
06
18
0F
2B
2B
1D
1D
14
24
00
15
07
01
0B
12
04
2B
1F
21
30
12
34
3E
17
11
F5
F0
EE
14
1F
04
32
14
26
0C
24
2E
02
28
13
FE
00
06
15
18
0F
28
0E
29
13
27
05
FA
1A
0B
F2
15
08
25
FF
F2
0D
22
0D
2A
08
19
1C
23
0F
0F
13
0E
28
24
1F
19
17
05
03
FD
0C
F4
EA
EE
12
05
06
F7
03
02
11
FD
03
1A
14
1F
16
07
1B
F4
26
1C
10
00
04
02
FF
08
E9
04
12
09
3A
27
19
FA
F1
0E
08
08
FF
19
00
02
08
0A
1C
F7
02
0F
F9
14
F4
05
0B
EB
04
10
FE
F4
FA
17
EA
D9
FA
F1
0B
10
10
05
10
1F
0E
17
16
03
24
00
17
EE
04
FD
1A
0C
02
0B
14
FD
1E
FF
06
FE
F1
17
03
08
06
0F
16
18
09
0E
08
FD
00
0D
DD
F7
EB
F4
F2
F9
10
ED
FB
EF
01
0E
F8
F9
FA
F9
10
F3
03
10
FC
F1
E9
F9
0F
EA
06
FE
FA
F9
FC
1A
01
ED
0D
F0
01
02
FD
0E
F1
EB
FB
FA
E7
EC
EB
02
F7
0A
FF
E5
0C
E7
F6
ED
DC
E3
FC
0F
FB
FC
05
F6
13
0C
0D
F2
13
F6
EF
0F
10
F4
F6
03
FA
FF
ED
10
F5
00
FA
07
FD
0B
EB
15
FC
0E
FB
0E
10
F2
15
07
EE
0A
0B
FC
21
0E
F5
F3
F5
FA
F6
FE
26
05
34
1C
45
38
35
F9
F5
F4
F3
0A
09
FC
EE
16
19
F5
10
12
04
F4
E9
E5
00
F9
F6
DE
E7
FF
F9
F0
12
F6
02
15
FA
10
0A
EF
F0
13
EA
FE
03
F9
DB
F3
0A
0F
E0
EA
02
0D
09
F7
0F
08
05
08
19
F4
02
F0
1A
10
10
FC
F7
0E
0A
03
0D
03
E0
F4
E1
D8
E3
EE
F8
F9
F3
06
0A
0B
11
14
E7
18
F9
12
20
FA
04
26
F9
F6
10
EC
EE
0E
FC
12
FB
EF
DE
01
07
10
F6
FD
F9
F8
E8
F4
0E
F5
F4
EE
04
10
0A
0E
00
F7
29
16
1A
02
24
16
04
03
FC
15
04
0D
FE
E7
F8
FF
F1
0E
FE
F3
0C
00
10
EA
EA
DB
11
34
10
19
F7
1A
F2
FB
06
E4
03
DF
01
DC
05
0B
08
1E
10
0A
FC
06
F9
20
08
F0
E4
ED
17
27
06
1F
13
F8
F6
FA
F4
EE
DA
EF
F6
F9
F2
FD
04
13
FC
06
FE
0F
0F
14
16
12
EC
0D
0B
03
FA
14
19
01
FE
03
F2
E5
E1
F0
0F
18
01
F6
18
14
02
09
FF
FB
08
FE
1E
20
FB
04
08
15
03
0D
06
1B
18
F9
FE
EA
EA
FF
07
15
10
1E
04
0A
05
05
00
F9
08
0E
0E
17
13
FA
13
0E
26
24
17
FE
20
1C
E3
EF
1A
07
0D
1F
1A
14
FE
0F
13
F3
0C
1B
11
08
20
10
F0
F6
14
0C
1D
37
09
24
F9
04
E8
1B
0E
11
0F
15
00
0B
E1
02
05
01
0C
F6
EE
06
F0
F5
04
12
FF
0B
1A
14
13
0D
F7
F6
F9
F9
07
F7
0F
0F
FB
F7
D7
F2
E4
F1
E1
01
E6
E7
CB
E6
17
F9
F7
14
0E
F0
0E
09
10
03
10
F7
02
F0
06
06
F1
E6
DE
F3
E9
EA
FA
13
FE
F0
EC
D6
DD
FE
05
F7
06
F6
18
10
0A
FF
FD
FA
03
01
06
E5
D8
E0
03
FA
F7
0D
0C
EE
D2
F5
E7
F4
EA
01
07
F2
FE
ED
1C
FC
0D
EE
EE
F0
E5
E6
E8
E4
F4
F1
10
00
FB
F9
F3
DD
D2
D7
E8
EE
EB
21
02
F5
11
E5
06
1D
01
05
F0
FA
0A
E1
C5
ED
F8
18
1D
3B
FE
EB
E9
C6
C8
D1
E2
04
13
16
18
1A
1A
EA
12
19
16
13
19
FE
04
F9
FA
F0
24
23
10
28
06
F2
CC
D7
D2
DF
F4
FB
F2
EA
0B
16
05
EE
EF
22
02
E8
FF
05
0A
05
06
FA
22
1B
03
05
EF
CB
D7
D0
DF
F1
14
F9
F2
F7
10
0C
F9
FE
FD
0B
FE
FF
FC
06
F0
1E
12
0B
F4
10
F5
E3
EA
DF
B8
DD
D6
F6
DD
06
F6
1E
ED
FD
03
DB
ED
0E
00
0D
FA
02
0A
06
19
F8
0C
0A
EA
DE
D5
CC
F2
CE
EF
D8
E6
05
12
F2
EB
F6
15
D7
F1
F7
00
F5
FB
14
09
F4
1E
0A
FC
F4
E4
DD
F2
E6
D5
E9
0F
05
E8
ED
F1
0C
05
14
0A
D8
F6
D2
DF
04
15
17
02
F2
F1
D8
D1
EC
D7
E6
02
D4
E6
06
1C
FC
FB
D6
F9
10
04
00
07
05
05
09
0B
E5
FC
01
F5
F6
00
FD
E4
DE
EE
0E
02
ED
03
E8
E7
D8
EA
FA
FB
EF
FC
FD
EE
00
02
FF
F3
07
FB
E3
EB
FB
F5
F7
06
F8
07
15
F8
E8
FF
F3
EF
F4
F4
0A
F1
05
02
15
F5
F9
F7
F9
02
00
0D
1C
06
18
2F
35
0E
F4
1F
19
F7
D6
0B
F3
05
16
06
FF
F8
F0
14
02
00
F6
17
1B
0E
F5
FE
26
22
1E
19
0B
20
17
27
11
0A
F5
03
23
14
FB
13
15
F8
0E
08
03
F9
F3
00
08
F8
0E
07
0B
EF
F0
16
17
04
F2
00
0E
ED
10
0B
01
EE
00
F4
0F
0A
05
F0
EC
FA
FB
0D
06
0B
01
FD
10
17
E8
FD
03
F5
24
FA
10
00
19
20
13
0B
17
EE
EC
00
EF
FB
0E
03
01
0F
16
F9
06
1C
1D
31
37
1E
1A
12
1C
F8
FE
FE
03
F9
0A
FB
02
0E
0C
11
10
06
0F
10
05
F3
0B
06
0B
17
0B
04
1C
27
1D
1F
FD
FA
13
F6
E3
FE
09
FA
0F
18
09
06
F4
F9
0F
12
0A
03
1D
18
0A
14
1C
12
06
12
04
1C
0B
FF
EF
0D
0C
FA
FB
FF
EC
E2
ED
F9
F0
05
FD
FE
27
14
2A
24
2F
26
07
11
F2
0B
0C
F9
25
14
FB
14
FB
09
F2
04
EC
F2
F7
EA
10
F9
0A
EB
0B
15
12
2D
08
11
FD
01
F4
FB
FE
21
1D
26
F4
15
F3
04
09
FA
F3
D8
E8
F3
F6
F0
F4
EF
FF
22
02
0D
0F
03
F6
EA
F5
0E
14
1E
21
21
04
FC
E6
01
F9
F9
F3
E6
D4
E7
F9
F3
08
D7
F9
1D
0F
0B
0F
E2
F4
E6
E5
06
F4
13
0B
0C
0D
F6
10
FD
EB
DA
E3
E3
E1
0F
F7
07
EE
03
FE
FE
15
1C
FB
FA
F0
EE
E4
F6
F8
FD
0F
F4
F6
F7
15
0F
05
EA
EC
DB
F8
F7
09
0E
0E
F2
FC
E7
06
14
0F
09
FB
E4
F4
E5
EB
F6
14
0F
0F
0E
FF
F0
F4
FF
EE
F9
D8
F5
F2
00
E8
FA
17
EF
0B
FB
FC
19
03
F8
FC
EA
EF
0A
0B
F9
0F
FC
FF
01
F7
0F
FA
EA
E1
E8
FB
F8
05
FF
FC
09
F0
F9
ED
EC
FA
FC
E6
D7
E9
1A
1B
FB
0A
0A
F6
14
07
14
23
FE
F7
E7
18
00
FF
05
FA
F9
00
F9
0E
12
FA
FC
F8
D9
FC
13
0A
06
03
0A
08
0A
09
05
14
1C
00
FE
F8
F0
FF
E6
07
0D
09
0C
0B
08
0D
ED
0A
F2
0C
11
0F
1D
F1
E5
F8
FC
0F
03
E6
EA
03
02
0D
E5
15
00
17
0A
20
0C
08
0A
13
11
FF
0F
F7
FB
FF
00
12
12
02
01
17
12
11
EF
00
0B
06
EB
01
14
06
FF
14
13
10
0A
12
22
22
12
FC
F5
04
03
F7
F2
13
FC
F0
18
05
0B
05
01
06
EE
28
09
0C
0A
00
00
11
19
10
1A
08
1A
0F
05
F9
0B
0F
EA
0C
0A
F1
15
10
13
0D
E9
EA
14
03
FB
0D
00
EC
0B
FD
06
14
16
0A
F7
F4
08
00
01
02
02
03
0C
17
21
FF
EF
16
15
FD
0B
07
0C
EB
FB
F6
01
08
F6
12
F1
08
0D
EB
07
FC
FA
09
FA
F6
09
05
18
07
08
FF
03
FB
13
0C
1C
02
0E
05
0C
02
07
F9
FF
E6
EF
02
08
00
F9
F6
06
0B
0F
03
2A
0A
17
22
0D
F6
15
FE
10
19
06
F9
03
1A
06
09
08
F8
EC
F5
03
01
10
F6
07
01
18
27
22
05
04
00
F4
0A
0C
11
0D
14
11
17
05
00
21
0E
19
F5
0B
15
02
F2
FC
EE
10
11
17
0A
F7
1F
F7
F8
06
FD
12
08
18
14
01
14
01
02
03
0E
FE
03
0A
FD
F3
10
04
F7
04
FE
10
00
05
F7
0A
18
F6
11
0F
11
00
05
02
29
09
F3
10
EF
18
FA
F5
EE
EE
F9
E7
03
F4
F3
F3
FE
14
23
F9
16
09
09
FB
F8
0B
E4
20
1A
0B
09
00
1D
05
FF
FF
F8
02
F8
EE
FF
F4
EE
05
02
12
0D
05
F0
ED
EE
EC
F3
13
F8
0D
0F
23
1E
19
13
23
1D
25
1C
15
0E
10
07
06
03
10
0C
16
0A
0A
E6
0E
0C
F9
FB
01
FA
EF
E7
09
F7
21
0B
04
25
14
08
22
17
F4
11
12
1F
0C
04
F1
07
EF
F8
0D
07
12
FA
04
FE
03
F0
11
F6
0B
ED
F0
0C
F4
0B
12
0E
01
12
F2
09
0A
07
0E
F8
0F
ED
0C
03
FD
F2
09
F8
F5
F8
18
F4
0F
04
0C
03
10
FB
F8
1F
15
0A
0E
06
0D
0B
03
07
FD
F8
FE
F4
F0
ED
08
F1
0C
F1
1A
03
13
05
07
04
04
08
10
27
0F
04
14
1B
F8
F7
06
12
FC
FB
F1
05
00
01
05
12
00
06
FC
0E
02
F3
FE
FC
01
11
0F
03
F3
FF
FB
F7
F0
F4
10
12
F7
04
E1
F9
02
ED
0D
F1
F7
02
EA
05
FF
F2
0B
FE
0A
06
04
E7
F5
EA
FB
FD
13
05
F8
0B
FB
07
1A
1B
0F
F9
F7
15
F7
ED
DA
E0
E1
EF
15
20
12
1B
12
17
FC
F4
FE
F6
FA
0C
F7
0C
E4
F2
05
02
F1
0A
03
FB
F6
F1
F5
FC
FC
11
24
11
0D
19
27
05
02
ED
06
ED
09
1B
18
1C
11
03
19
0B
FC
F4
0D
00
09
05
FC
ED
11
00
00
07
23
27
29
13
0E
13
06
12
04
18
08
03
04
F8
08
04
0A
FE
FC
E8
F9
11
0B
F4
F7
05
08
FB
07
2D
11
16
EF
FB
FB
EF
F1
F6
0C
F1
14
ED
20
0B
0C
EC
F2
06
FB
03
EC
F6
F9
F2
0F
FB
F4
F6
01
E7
F7
F8
F1
F6
0D
FA
ED
FF
EE
FC
11
04
F4
FA
E5
0A
0E
0B
F0
0F
FD
ED
DF
F0
0A
05
04
EC
02
07
09
EA
EB
0C
FB
F7
EB
F0
F8
F8
F1
01
EF
FE
03
F8
F8
05
EE
E8
F7
EE
F6
EE
FA
04
01
0E
02
10
FD
ED
18
F1
DC
EB
FE
F0
E5
F1
FB
03
ED
F6
17
E7
F0
F0
E6
01
05
1B
11
0A
08
F9
12
06
22
13
11
0A
09
F8
E0
F5
F5
09
F0
D9
F3
04
07
F0
F4
06
FA
E9
12
02
22
19
0F
FF
04
24
1D
29
28
16
E6
F9
F3
11
09
07
F8
FE
F9
07
FE
F3
00
ED
06
FB
0F
2E
07
09
F5
03
FD
1D
F7
05
13
01
DC
E7
0E
0F
F9
FD
DA
E0
04
EE
F7
05
FA
F6
FF
1F
14
00
02
F1
F5
0A
00
04
FA
FA
09
F8
F1
F0
FD
F6
0E
EF
16
F3
01
F4
0D
EB
0F
19
0F
0F
09
14
EE
0C
EF
15
F2
0E
EA
FB
E6
E0
EF
0B
2D
07
0E
FA
FD
F6
0A
FA
FC
FA
0F
01
0B
1D
22
17
0D
F3
F2
12
F7
05
FC
09
E4
E8
F0
24
33
1A
18
ED
1E
03
F3
07
09
DF
03
F2
FB
FF
23
FD
00
0F
E4
F5
F4
0A
00
06
EF
EB
FB
10
16
10
04
04
FF
FF
0A
10
FF
05
E4
05
F3
01
03
21
19
F8
F9
05
EF
15
FC
FF
0A
06
F2
FF
29
16
ED
E5
14
14
1E
1B
1A
07
11
FC
02
13
08
F9
02
0B
14
0D
F0
F7
EB
FD
F0
EA
08
0D
FA
FC
F2
08
1A
1C
17
22
05
09
0A
07
14
13
1E
03
0E
08
09
08
FE
00
EE
0D
04
02
F6
17
EF
FA
FF
FC
14
1F
20
0C
06
03
07
FD
F9
14
15
07
FB
F7
F7
F7
F3
0B
EC
0A
EE
F5
FD
E7
F1
0D
0E
0E
10
F9
F1
07
EF
12
00
F8
00
ED
0F
F2
F8
04
F4
F7
F8
F9
06
F3
01
FE
F6
E6
DE
FD
0E
02
06
15
F3
0F
E8
FA
13
F4
FC
0E
10
FD
E9
0D
00
F8
F5
F3
05
04
15
04
F7
FD
DF
03
F6
F8
1D
FB
F0
F5
0D
00
EF
F7
ED
EE
ED
12
05
F6
16
06
04
0F
12
05
0E
1B
FE
0F
FF
13
09
F2
10
01
1A
16
1C
05
F6
FE
FD
09
FD
0D
1A
14
07
19
21
18
FB
13
11
FB
24
F5
F2
14
02
09
ED
01
FD
DF
01
06
1A
05
E7
09
0B
F7
13
1C
18
FF
28
18
13
16
0D
0E
06
03
08
FC
00
12
00
F0
F9
FB
FA
0C
FF
06
EC
F3
F9
05
03
FA
F7
03
0F
F9
0C
14
F7
03
F6
F6
F5
09
0F
EC
FA
F6
FD
12
0A
13
14
0B
17
F3
01
03
F4
07
23
15
1C
06
17
11
1A
18
0A
14
F5
FB
F1
06
0B
18
1F
F9
FE
00
FA
0C
14
18
1D
04
1C
11
1E
03
0F
00
04
19
11
03
09
13
F6
00
FA
03
09
12
FC
FE
0D
1B
1F
12
1D
FD
FF
00
18
0B
0D
10
E7
04
02
03
00
FC
17
14
17
0F
13
E4
E9
F6
FC
F7
00
16
27
2A
23
0D
0B
FC
03
FB
08
FA
18
0D
F7
FE
01
F0
F7
FE
00
20
FB
F0
04
12
16
0F
00
FB
19
FD
0D
00
FB
07
03
01
0F
04
03
D8
05
F3
E4
11
1A
21
0D
23
14
FE
FC
FD
FC
F8
F4
FF
14
F8
10
ED
F0
F0
0A
F8
FC
F3
0C
DD
F1
E4
D4
E7
FD
F9
FE
F8
12
EE
E5
E2
DC
EA
F3
F6
0E
F7
07
FC
FF
FA
FC
F2
FB
04
EB
EE
E7
E5
DC
DE
F1
18
E4
E8
22
05
ED
C5
DD
E3
E6
FA
09
EC
11
EC
05
F1
F8
F5
F0
F0
05
FF
E9
E7
F6
03
FC
13
F7
02
12
F3
FE
E3
E5
F2
F0
FF
01
0D
FF
F6
02
08
F6
F7
FB
E7
01
01
FD
0E
F0
E7
FC
02
F3
F8
12
EE
F2
DE
F3
F8
06
EF
07
01
05
F8
EE
F8
F9
E6
0B
F8
FE
10
02
FC
F6
01
FF
27
18
F8
FB
F3
0E
00
06
0F
FC
09
EA
F5
F6
05
F1
E8
F7
F8
FA
F9
ED
0F
F6
11
EB
F7
06
13
01
0D
EC
EF
13
FB
01
0C
F8
E3
01
F7
FC
01
E8
E2
04
DB
F8
E5
EB
F6
12
FD
F2
05
01
FC
1C
FF
F7
0D
0D
EC
0A
1A
FD
EA
E8
F8
08
06
0E
F2
00
03
E7
F2
06
08
F4
0B
02
04
2A
19
1D
F6
09
0A
F8
05
02
FA
F1
F4
EC
F9
00
FE
0E
05
FA
FC
F9
01
02
0A
0A
02
19
1E
1D
10
1D
0E
09
F8
10
E6
FA
0B
06
12
E7
04
F7
0C
14
16
FF
F6
02
00
02
FC
14
F3
FD
10
1C
13
11
0D
01
07
E7
FF
00
1E
1A
FC
FE
0B
13
03
0E
1A
FD
09
F6
0A
0E
09
F8
02
14
1A
0E
06
1D
12
0D
E6
EB
E5
06
0F
1E
FD
0E
FC
16
19
03
06
09
06
18
12
19
07
FD
17
12
15
0C
10
11
F6
05
FD
EE
10
02
05
19
0F
15
FC
16
24
1D
1C
02
0B
0D
12
FF
2B
06
03
04
13
2C
14
EB
F2
EA
E9
FE
0C
0F
F2
0D
FA
1B
04
06
20
09
07
1D
20
2A
14
12
06
18
23
22
27
1A
F0
FC
FE
01
04
0F
0C
FA
06
06
FA
0A
08
FB
FE
F8
1B
17
09
17
FD
22
23
22
00
1E
20
24
EC
E5
FF
F4
EC
12
06
15
03
FC
00
08
16
F7
11
F2
F3
F9
06
00
03
F7
0F
03
18
01
22
05
ED
ED
06
05
01
09
14
19
07
F5
02
FC
00
ED
02
F6
E8
04
D2
DA
DC
D5
FF
F5
0D
19
32
1D
1C
02
00
FB
F6
F6
1C
32
14
E8
04
EC
01
FF
E3
EE
DE
D5
C3
C1
D0
CE
D5
FA
01
08
16
23
20
13
FB
01
08
F8
F5
08
E7
00
F2
04
FB
DD
F1
DF
D9
C6
C7
D4
D3
EF
FB
F4
F4
ED
04
15
21
0F
15
FF
10
02
0B
E9
F3
00
DF
DB
EC
FB
02
FE
EF
DC
E3
14
11
F7
04
10
1D
FF
20
17
17
07
07
FE
FC
01
15
FD
19
1B
F8
E7
E4
ED
F0
05
14
F6
FC
1A
08
16
14
0B
01
10
FD
FD
F2
ED
FB
ED
11
F6
13
10
02
04
0B
F5
FF
E2
FE
0C
0A
FF
05
F1
EE
0B
0B
0A
FF
FD
13
F3
F9
FF
FA
10
F3
10
09
FB
11
FF
0E
EC
EE
FB
FC
0C
FE
09
09
F3
07
ED
0C
EE
0B
00
F7
02
12
03
09
0D
05
02
05
07
06
EC
07
E8
0B
FC
E5
F9
E5
D9
DA
04
F6
FF
F2
ED
11
04
11
14
0D
05
09
0B
07
F6
FE
E6
0A
EE
F4
FC
19
FE
17
FF
EE
1D
F5
0E
1A
17
02
1B
1B
1A
FB
19
FB
0A
14
13
EE
09
E0
F1
06
F7
F9
FC
F3
12
00
0F
02
F7
F6
03
FA
05
15
FE
F5
02
F3
07
14
12
FE
F8
EC
E8
F9
F0
01
1F
E7
01
16
07
F0
F5
08
F5
F6
03
FC
0E
0B
01
FE
EE
FE
0E
F0
DD
F4
F2
00
0F
02
1A
30
04
0F
0E
11
14
08
08
08
0E
00
16
0B
FF
F4
0B
05
08
1A
FE
EB
FC
0E
FD
0D
0B
0B
FA
12
F5
03
F6
F7
ED
ED
05
F4
E8
F7
01
FD
0A
E4
FF
FB
FA
1C
0E
12
FB
F0
F8
F7
01
04
02
09
14
17
F8
E7
E3
FA
EC
E8
EC
F9
F1
F3
F0
FA
E4
FB
ED
EF
07
FE
0A
E9
08
01
10
FD
EE
F8
05
ED
01
FE
E2
E8
09
F2
F6
0C
0B
0A
FF
EE
06
FE
FA
F6
F5
E3
F6
EE
0F
F2
EC
04
04
0F
F7
E7
E8
F0
F3
04
F1
F9
E4
FC
FC
FB
F7
01
02
EF
EB
01
C7
FD
0C
0D
F3
F8
10
07
F4
E5
FB
D9
F9
01
DD
E6
01
E7
FC
E2
03
EB
F5
EC
FA
E7
04
CF
C9
FA
FB
12
F0
0B
03
FC
05
E7
F1
EC
04
F4
EB
00
F8
DE
DC
EA
01
F0
E7
09
EF
EF
E9
CE
D6
F5
DB
FB
FC
FF
05
F9
E9
EE
EF
00
0B
F9
0D
F8
09
DD
ED
EB
E7
FE
EA
05
EE
F8
12
DA
F2
EC
FB
0D
FA
1F
12
0D
E8
13
FD
F5
EA
FA
11
FB
0E
F3
F5
E8
EB
03
F3
E3
ED
F7
05
16
F9
10
13
0A
14
09
07
0D
FA
1E
00
06
02
00
0D
06
1C
06
F4
09
01
13
05
0A
F2
FC
09
0C
12
F9
F7
04
03
F2
20
07
19
20
13
1B
06
27
1D
2F
06
16
0D
FB
10
1C
03
09
F2
07
12
F0
FB
FF
1B
FF
0E
11
EC
FE
ED
1C
10
0D
1C
26
21
2C
25
15
FF
15
22
17
FE
1A
16
0A
0B
F8
FC
1E
F7
F3
FC
E3
F5
E6
1D
10
2D
FF
FC
02
11
1A
01
F6
1B
26
2C
0D
08
1B
06
03
11
EF
1D
26
1D
16
EB
01
FB
07
0A
10
FA
12
20
0E
0B
0D
0D
19
06
19
1C
1F
20
FD
1A
13
19
1C
1A
11
08
1A
07
FE
FC
FD
01
F7
02
04
F1
FC
F8
08
05
08
0F
05
0D
06
00
11
F6
16
FC
FC
FB
0C
02
ED
FD
DF
FF
F7
00
0B
0C
05
07
05
05
01
04
05
0D
10
FF
00
03
1E
0B
F9
0E
07
F5
05
FB
07
04
F4
FA
F3
F8
0E
E7
F4
F1
0C
F1
F5
EE
ED
ED
FC
0C
F6
10
F7
F6
12
0F
EA
01
FA
E4
F9
0B
01
F0
1E
19
08
03
E3
05
F6
0D
F4
F1
EE
E1
E0
08
09
E8
F7
0B
E4
F6
E4
EA
17
0C
0C
EC
F9
F5
07
FB
F0
DE
F9
EC
F3
03
FF
F4
F3
F3
F6
E7
DA
E5
EC
F2
F0
F4
EC
F8
FF
24
0A
13
F7
EF
0D
F0
09
DD
0E
F3
00
F9
04
DA
E0
E3
E7
F4
F6
FF
D5
E7
EC
FA
D3
FB
1A
00
F1
0F
08
E6
12
F2
E4
F8
F6
DB
D4
C0
E3
E8
E0
E8
01
F3
0C
F1
EF
F1
FD
FB
F6
F2
F8
F8
F7
11
0A
ED
F8
05
EF
E2
07
E9
DF
F0
E3
DC
F6
E8
CE
FC
E3
04
D7
DD
E8
F0
0B
F7
11
14
F9
0F
FF
01
08
07
F8
E7
01
F4
E5
F4
04
05
F6
FE
F4
F9
E7
F2
FB
F7
EA
EC
05
F1
0D
EE
09
F2
FE
F4
07
F5
FA
10
FC
ED
FA
EE
06
EB
09
02
06
05
15
0E
FF
01
03
0D
F7
0B
F6
F2
F5
14
10
F8
EC
06
0C
1D
18
17
FC
0A
04
E8
05
00
F6
EE
F0
F9
F9
0B
F3
01
F5
01
F1
FB
11
03
FC
F0
18
1B
00
04
0E
25
01
0D
06
06
15
FB
1A
18
1E
18
FD
F0
0F
F5
03
15
EF
05
F5
FE
F7
F7
F6
06
03
10
19
19
12
07
12
15
12
15
FD
00
0F
F3
17
34
00
F2
09
08
0A
FE
0B
0B
FC
09
00
08
FC
F9
11
04
1F
0E
00
06
02
F8
08
E3
E3
F9
EB
0E
05
05
02
0D
11
11
FE
F1
09
0C
FD
F6
10
EE
F5
F3
10
02
FD
F6
0D
14
14
19
16
05
02
04
12
F3
E7
18
06
04
F8
F3
E8
DC
0A
E1
0C
F3
EC
02
F7
F6
FF
11
09
03
F5
15
12
00
02
05
E9
F5
F9
00
FB
16
11
F0
E4
DC
F9
03
0B
0F
02
EF
F0
F5
0C
F7
15
F3
00
00
10
15
0B
0C
F7
FF
FF
E5
FB
03
1F
00
EB
EC
FC
13
F8
F8
0D
F7
00
EA
E4
E3
F9
FA
1A
0B
03
0F
0B
F6
F5
F0
FE
C5
F7
FC
14
0B
F8
0D
1D
14
FA
07
02
0E
E8
F1
ED
EE
D4
CF
02
1D
0E
14
FE
02
15
F6
0C
C8
F2
02
FF
19
0F
F4
1C
FF
17
EF
F5
F6
EE
E4
F2
EE
D8
EC
ED
0B
0A
08
02
11
03
FD
FA
D4
F4
EC
EF
0E
FA
F8
F1
FA
EF
04
EF
03
EE
F1
07
EA
D7
E4
EF
FB
F2
0E
12
07
00
EE
F4
E9
F6
03
F0
F4
ED
EC
EB
04
FF
E8
EB
F1
FF
FA
F4
E4
DF
03
EE
E7
FB
03
01
11
05
05
F0
03
EF
ED
07
FD
FC
05
07
F4
05
F2
04
F8
FB
0F
E2
07
EF
F1
E4
E8
EA
FF
0A
12
07
F6
E5
03
02
1A
ED
F0
0B
F0
E4
EA
11
17
04
F8
F1
F3
EE
FE
EB
EE
09
E0
FB
0F
13
FA
15
F9
13
07
F9
18
0F
EE
FF
04
F7
EB
01
FC
FE
04
FB
ED
E9
F0
F8
F1
04
F3
08
FC
08
0B
03
0F
F9
F7
F3
18
FE
FF
0E
12
0B
F5
E1
F8
F0
EC
0C
08
F4
E2
EC
EB
FA
E1
09
01
FF
19
FB
01
EB
ED
F7
0E
EC
07
04
1F
17
F8
E9
ED
0B
FE
F9
ED
E4
EC
F4
E6
E9
E2
10
04
0C
FB
F4
D9
ED
FD
FA
FC
10
03
EE
F5
01
FA
FE
F4
06
FA
0C
0C
FF
0C
F5
0B
03
17
0E
20
16
EF
FE
F2
ED
E1
F3
FF
01
0A
01
0D
13
11
FF
FE
12
F2
0B
FC
0B
07
21
0C
01
1E
0B
FE
05
00
E9
FE
DF
F5
02
12
1C
01
F9
F7
FC
08
21
15
09
17
16
22
30
22
1C
16
0A
11
07
08
0E
10
05
F2
06
1E
30
09
0A
16
08
FC
02
0A
0A
14
15
10
0E
27
21
17
08
04
08
16
12
00
10
05
04
F8
29
19
1B
F1
05
F3
1D
13
1E
0E
13
17
F8
13
1B
03
08
0F
F4
03
0B
F6
24
11
24
08
F6
FE
25
0A
18
EB
FC
0B
05
00
1C
1B
12
F2
1A
03
10
00
0F
FB
F6
12
16
FE
10
23
FA
F0
14
20
0C
2B
16
22
11
0E
F5
0A
0D
16
FB
F2
FE
0A
18
01
F2
FF
03
F6
20
FC
26
18
F3
EC
12
FC
0A
F8
03
15
12
0F
13
00
F7
F6
F1
E4
F0
06
01
E0
DC
E8
FF
E5
F4
FA
E2
EA
FD
F0
FB
F6
FB
16
06
FF
05
0B
04
12
EA
FA
05
0B
12
FC
ED
F8
06
0C
E8
06
E1
E1
DD
EF
E9
F0
17
07
1D
07
09
F8
14
EE
EE
F0
0A
06
15
12
0A
F1
0F
FD
0E
04
ED
FC
EA
10
10
FE
FE
01
FC
EE
F9
F6
04
0E
FE
FD
02
FD
F5
05
F5
13
F3
F3
07
0C
09
0C
12
12
0E
EF
0A
F3
EC
FC
13
F9
EE
EF
0F
00
F7
01
FC
0F
ED
12
F8
DE
F1
FD
FF
0A
EF
EE
E5
08
FE
FB
ED
04
E0
D9
DA
EE
E4
00
04
10
0D
01
03
09
E1
E2
FA
FD
EC
07
22
0A
FE
FC
08
18
10
EB
0A
EE
EE
E3
DB
DB
DD
01
12
F5
0E
10
09
FE
DF
F2
FD
00
F4
EF
11
0F
0D
E0
FB
04
0F
F8
02
E2
F8
D9
DF
FF
FA
DF
06
E8
EF
F9
F2
EE
09
E7
04
01
F1
FF
F6
0B
0F
FA
00
0F
0F
15
16
08
01
02
F7
14
F1
F0
FB
EB
0E
0F
04
03
0A
10
0D
FE
25
12
08
FC
0D
EF
EB
FA
FC
FF
E5
FC
EE
FC
0C
0F
07
11
02
02
0E
FD
08
F0
0D
1B
FA
10
0C
03
11
17
12
ED
ED
00
EC
E9
E0
D0
F2
0B
11
13
FA
23
F6
F0
ED
F1
1F
FB
08
21
1A
F3
0F
05
0E
12
0B
04
0C
03
FA
D5
E7
EA
E3
EB
F5
FA
FB
02
1F
FF
FA
FB
01
FC
04
05
FC
EB
0B
FA
24
07
06
FA
F2
03
E1
D4
F3
F8
F3
15
F2
01
16
28
0E
0D
09
F2
05
F5
E8
0A
ED
E4
E7
13
01
0A
FC
FF
F0
E5
E7
E7
F2
F8
0A
F4
0F
09
FA
0F
F4
08
12
FE
05
0F
D8
E7
E6
E9
EC
EB
F6
F8
F1
F8
E9
F0
E9
EF
11
04
14
0D
FA
14
F8
FC
E5
EE
F4
F4
0A
F6
E3
05
02
E7
F6
FF
E7
FF
F0
EE
F0
08
FF
FF
02
E8
06
F0
F5
01
E4
F8
D6
05
E8
0C
FE
12
10
E0
DC
F0
DE
04
04
EB
0B
0A
20
FB
22
FF
F6
F5
FE
F6
08
11
E5
E6
01
F4
F9
11
FD
01
0A
D2
E9
DC
ED
F2
F8
F5
FE
07
1D
03
1E
1B
1E
F4
06
06
1C
0B
0C
17
FB
FF
0B
07
0A
18
FC
EF
10
EE
FD
F7
E3
0C
14
19
06
1E
0D
01
F9
07
10
FC
0D
02
F7
19
0F
FC
F8
1F
07
12
1D
17
11
00
03
01
ED
06
FE
03
04
20
FB
11
F3
04
18
FF
17
19
10
10
1F
06
01
FF
E9
FF
1B
06
04
1B
1A
0F
04
12
12
FD
2A
1A
12
10
11
F1
FB
00
01
21
11
00
32
07
02
FE
03
0F
FD
04
13
F7
0B
04
14
0F
17
1B
12
1F
FE
00
FA
07
05
02
12
03
0F
27
32
FB
ED
FB
01
F5
19
EF
F7
EF
0F
17
FD
F9
FC
07
09
24
0A
01
03
05
01
04
FC
06
29
28
0F
1C
17
E6
11
F2
03
F7
FA
F6
0B
F8
FA
17
17
FA
1F
19
0A
FD
FF
E7
FB
E1
15
1E
FD
1A
EE
00
03
11
F0
0E
E9
F4
F0
11
FF
FA
FD
0C
0B
F2
05
04
14
04
FE
E2
05
06
0C
F9
FE
E0
E5
FC
FC
05
11
EE
F3
09
0A
EE
11
FB
0A
FE
FF
F2
09
0F
0C
13
09
11
FA
05
16
04
E9
EF
F5
11
0F
0E
FB
10
0D
0A
17
16
01
01
05
EF
02
07
16
08
16
0A
FD
01
0C
1B
E8
EC
F1
E1
00
EA
F2
02
FD
FD
15
08
10
04
EB
05
03
04
0B
F6
FF
17
FF
1A
08
EE
F9
F9
E5
E4
E6
E6
0A
F8
12
14
EE
0A
07
EB
EC
04
03
04
04
04
16
FF
14
F7
F2
02
F1
E9
E8
F6
E5
EA
F6
F2
FB
0C
0A
EC
F6
EB
F6
D1
E4
DA
F9
F9
F5
04
F9
F1
ED
F4
DD
E9
FD
DD
F2
DF
07
FB
E3
F6
0E
1E
EF
00
11
F4
E4
E8
FF
FB
FF
E0
DA
EC
E5
EF
E2
D9
EB
E9
E9
D8
E7
DF
F3
D9
07
F4
F0
03
07
ED
04
08
EF
0E
08
F3
E0
FA
DC
06
DB
FE
DD
EE
E8
EF
F9
FA
FF
E0
F7
0F
19
FD
12
F5
F1
13
00
0B
EE
0B
0F
EB
11
F7
0B
0C
12
1A
04
26
F6
0A
F4
0F
F8
F2
FC
FF
F5
0F
07
0E
EE
12
10
06
09
F2
FA
0F
F7
08
18
02
F0
09
F7
13
1E
FA
F7
0D
FD
14
07
05
00
0E
F3
F7
F7
09
06
F4
F2
0B
11
0B
FE
03
26
0C
0C
FA
0B
1F
03
06
00
F4
09
12
F8
F9
0C
0F
0B
F5
04
0F
09
03
02
F4
02
21
F6
F4
03
07
FE
08
10
0B
03
01
07
E4
11
01
0D
1A
12
FD
2A
12
12
02
FD
03
EC
07
F4
0D
02
F5
04
F4
FE
F5
F0
FE
F0
F7
08
0C
FB
FB
0F
EC
F1
EF
FE
F5
0E
F8
11
01
ED
09
EF
F4
07
DE
EF
E5
E9
DD
EC
FC
00
EC
F9
0F
0C
F6
08
EF
0B
0E
0B
F7
F5
F4
09
0B
FC
F4
EA
DC
FB
E1
D8
E9
FD
E1
05
F4
03
08
0E
08
03
FB
09
0B
DF
DD
E7
D7
FE
0F
F9
0C
E8
02
F4
D8
E5
E7
C9
E6
E6
0D
00
08
12
0E
F7
F5
0F
FD
F9
03
D4
DD
C8
FA
F0
02
0A
FE
FE
F0
E0
FB
CA
CF
D1
F0
FC
00
1B
08
13
EE
F2
F9
E2
FE
F6
01
E5
E9
DF
FA
EA
F4
EF
FE
F9
ED
E5
E6
E6
D7
09
11
0B
FD
10
00
FE
00
E1
F2
F6
EB
03
E1
D8
ED
F0
F7
02
0A
FE
E2
03
EA
EF
D7
F3
FD
F0
17
0D
0D
FE
0B
F9
E0
DA
F0
FB
E0
E7
CA
EA
CD
ED
F1
19
0C
F7
17
EA
FA
EF
F8
0C
0A
0D
06
0D
FF
FC
FE
09
02
ED
EC
09
01
0A
D2
E1
EA
F2
E1
09
EB
E5
15
F4
F5
DB
EC
0D
1C
05
F7
00
06
FC
0E
07
08
EE
0F
18
03
F2
CA
01
06
17
F0
0F
0D
F4
06
F6
E4
D8
0F
03
FE
0C
0C
F7
EC
11
1D
04
FF
16
FB
0E
F5
D7
ED
F1
0A
F4
F2
FC
E4
EF
F9
E4
F8
E8
FF
22
0E
03
FE
02
05
00
0D
15
02
F7
FD
EA
01
EC
ED
F3
F1
25
11
0C
E4
0A
E1
F2
E5
F6
12
12
06
1E
0A
0F
EF
0A
20
0C
0C
FE
F2
F7
EC
01
E4
FD
F4
0F
00
F8
04
05
F0
0C
0D
F5
07
25
FF
FE
0E
F9
0C
FE
0D
FE
13
F6
EE
F2
F0
FB
1D
FE
FE
28
0B
0C
11
0E
F6
12
EE
F1
04
18
0E
0C
1F
21
FA
12
12
17
EA
DB
F8
02
01
12
11
05
03
2A
09
F8
00
FD
08
12
00
0D
02
0C
0B
06
0A
1D
1A
13
17
04
E2
E3
FD
03
FB
0B
09
26
0C
20
0E
14
11
FA
E8
F1
08
00
05
FF
0E
00
17
02
F8
0A
0D
17
F2
FA
FC
F3
FA
FD
07
18
3F
2A
25
1D
F2
E0
FE
F0
12
F8
F3
F5
E1
03
F9
10
18
F0
FC
14
0C
F1
12
11
06
16
1B
04
37
27
06
0D
1B
F9
FC
FA
14
03
F3
DC
FC
EE
F4
06
02
FA
14
FB
09
07
16
01
24
13
15
0B
25
01
02
F7
FE
0E
1C
30
0C
00
05
FC
EE
EC
04
E3
FF
EA
FF
F6
FF
08
F9
FC
1A
19
0A
0A
04
01
F0
F2
FA
FD
F5
0D
18
04
09
FC
F1
D1
EA
E5
0B
F1
F5
F6
03
02
01
0B
07
FD
1F
FE
F4
04
EF
FC
11
12
F7
F8
F4
F5
E4
F1
0F
F2
DF
E2
E9
F6
CE
F6
E5
01
FB
FB
EE
16
F7
FF
F5
03
FB
10
04
FF
1B
0B
FF
13
F3
00
04
F0
0A
04
03
0D
F8
F9
11
F7
08
0D
0D
F7
0A
EC
01
14
F1
0A
FE
FF
F9
18
1E
21
02
1B
0F
1E
0D
28
11
14
3A
12
11
20
24
FB
1C
0C
F6
11
0A
FC
F5
0A
01
ED
F5
02
05
F0
0C
13
00
07
03
16
20
00
17
23
13
2F
17
1F
F2
03
04
E7
EF
0A
F1
09
F7
FC
07
0C
01
FB
04
13
FB
0D
F6
09
F1
01
1F
05
14
EF
08
0D
FA
06
0C
10
01
F0
F6
00
0A
EE
10
09
11
0A
E9
FA
0B
F0
06
FF
E5
E6
E5
F1
F4
F5
F8
FB
EE
EE
16
07
FA
09
FB
0E
0E
F5
F2
06
01
FB
0B
01
F1
13
19
0C
06
04
F1
07
00
F5
05
FC
03
FB
0B
DF
F6
05
09
06
0D
02
FD
0E
FF
0F
ED
FF
04
10
16
12
15
09
16
14
08
1B
FD
04
EA
F2
E9
F0
08
FF
F6
EC
14
0A
09
FD
F5
E7
EC
08
05
F9
1A
F6
19
12
FA
0E
FF
01
08
EC
08
EE
FD
F2
07
F1
E7
04
13
F5
17
06
07
04
F8
FC
F9
F8
0E
F1
0B
0D
05
16
FE
10
F8
FD
FA
EB
0E
08
F3
FD
F2
F2
EC
12
EF
E4
E2
FB
E9
FA
FF
00
18
00
10
09
06
02
F8
15
F6
10
0B
10
03
1A
FB
F3
F2
09
02
1F
FE
F9
EB
0A
E8
09
F9
07
00
02
1B
08
24
19
20
11
06
FC
18
F1
09
07
DA
D7
E0
04
25
05
FF
15
17
0F
F5
04
FF
16
05
1A
0F
2A
16
08
0B
16
EF
06
06
E1
12
FD
E0
FD
ED
F0
F7
00
00
FF
1C
1B
04
07
F9
00
0A
F1
F8
03
08
F2
FD
F8
FA
F2
02
06
07
17
FA
F9
02
F9
12
F2
08
0D
03
16
1F
05
13
02
E6
DB
C9
E8
E3
14
EC
FB
F7
E5
ED
FA
E5
EB
F0
F5
FE
1F
16
18
F7
FE
F5
E8
F9
DB
DA
E1
D7
BC
BB
CC
E6
F6
FD
03
F4
0A
E7
ED
EE
FC
E0
07
EE
FF
1A
07
0E
E9
DE
CB
C6
BC
B1
AC
C4
DA
E9
F0
F8
0B
0A
FA
05
FB
EB
E5
E9
DA
ED
F7
10
ED
0B
EF
FB
F3
C4
C6
BE
CE
C0
CC
F5
F9
FA
03
01
09
F6
00
FD
03
00
05
F7
F0
04
2D
12
FF
13
FE
0B
E2
D7
EE
F7
F3
00
FC
07
ED
14
FD
16
00
1D
00
FD
0E
F3
0A
E5
0A
06
1C
27
F6
FF
01
16
EB
F3
08
F4
F5
0E
F6
12
17
02
0B
02
06
F7
ED
FD
02
F8
0E
EC
0B
01
15
16
06
02
F2
18
FB
02
FC
FE
FC
0F
15
FC
03
F2
0F
09
05
F5
03
01
11
07
F9
01
07
E6
15
FE
11
04
06
0C
07
0C
1F
F8
14
FE
06
F9
FB
FB
01
18
F8
0C
F5
0B
F5
0C
FE
E0
DF
FB
F0
12
10
17
0E
11
19
3A
1B
13
17
12
05
FA
F9
F2
F6
19
F9
08
0C
0E
FD
FE
EA
04
E7
EE
F6
03
1B
F6
DF
15
12
2D
2A
20
F5
F1
04
01
F4
14
1B
FA
1A
0C
22
FF
21
01
05
01
07
17
0F
16
03
00
01
10
1D
25
19
1C
FB
0D
06
0A
F8
F5
0B
0F
12
05
F6
01
F7
1A
16
F2
0F
10
16
FA
09
05
FE
18
18
22
1A
01
FC
EE
0D
FD
FE
0D
FF
EC
07
10
00
08
19
0B
FA
F9
1F
08
07
0D
F6
0A
0B
00
EE
0D
1B
F6
01
FA
1E
F5
06
14
F8
05
F1
01
13
00
07
02
02
00
01
04
FB
17
EF
F6
13
0A
EA
19
F5
08
08
F9
06
F3
EC
F3
EE
FE
F5
FF
F7
04
FF
04
F3
ED
05
11
1A
24
11
F8
0D
01
1A
FB
10
03
06
FF
19
0D
F3
08
10
12
11
EB
00
04
EC
08
F4
DE
FA
09
0E
0C
0B
0C
08
09
F7
0F
EA
09
0F
04
2F
11
07
13
F9
09
1A
FA
FD
FF
FD
E3
0B
EA
ED
FC
0C
0E
FB
0F
0D
F4
FD
02
02
F5
0E
EF
20
0C
09
10
E9
18
0E
11
0F
11
03
EC
F9
01
FD
ED
16
FF
FB
08
F3
F7
FF
F5
16
07
FD
14
1B
05
12
07
F6
E9
05
2D
4C
03
F1
E5
EF
FA
1C
13
EE
07
ED
02
F4
F9
EF
0E
0C
07
ED
FB
EE
ED
01
08
03
00
F8
06
0E
04
0D
05
EF
FC
EC
09
FA
13
F5
FA
F0
0B
0A
05
07
EF
F3
09
0C
EE
E8
0B
08
F9
02
E9
EB
F9
E9
01
EF
E4
FE
06
F6
FE
14
14
15
FC
03
02
14
E8
F4
04
03
F5
F9
F6
E0
00
E2
EA
F2
FA
FA
02
11
10
02
06
0E
07
05
02
FB
FB
EE
0D
E9
F4
F3
DA
E6
FE
1D
F1
13
01
15
E9
05
FD
00
03
F5
06
F9
E9
00
02
EC
02
10
09
ED
F5
ED
FE
08
EE
FC
15
21
12
F7
13
02
F9
01
FE
10
F7
00
1A
19
25
EF
FA
FE
EE
F5
14
FD
D5
F9
03
0B
12
2F
05
18
FE
09
FB
F7
09
FE
FC
0D
FC
12
FB
05
0A
E9
01
13
0F
06
0D
E7
CD
EE
EC
01
0E
00
1E
0B
0C
E5
01
F5
07
08
F3
0C
EF
05
17
11
E4
DF
EB
0D
0E
04
03
F1
DA
EB
E4
09
07
1F
1D
0F
DA
00
F8
EB
0C
12
0D
F5
16
00
0F
06
EB
E7
FE
F0
01
F6
F8
DC
F4
FB
FF
FC
1C
25
0E
F6
F8
F5
EC
0A
08
0B
ED
12
0D
0B
04
F6
0E
F0
F9
ED
ED
F9
E8
DD
F1
F9
00
FE
12
05
04
F6
D8
DF
EC
E9
F2
EB
F8
13
FB
F7
01
04
07
02
00
DC
0E
E4
E6
DA
01
FE
07
16
21
1B
19
15
E8
E6
D5
F8
F5
FB
E9
FB
F4
04
0B
F6
F6
16
14
D7
F9
F3
03
DA
03
02
FD
F9
1F
23
23
FB
08
E7
04
F9
09
EA
00
E9
05
00
F3
E4
16
FF
17
ED
F0
FB
F0
EE
E4
0F
0E
14
0E
FD
0C
07
FE
07
0B
F3
FC
01
FC
0C
FF
EF
F5
F4
F6
00
F0
F3
0E
F5
E4
DA
FB
18
09
15
F7
FF
FE
04
1D
F7
EB
07
F9
0A
FF
FB
0F
08
F9
02
00
EE
DF
E3
05
F9
09
FB
07
13
E8
FA
F6
18
0E
0D
14
FC
F2
E9
F5
07
08
F4
F8
0B
FB
FA
13
FF
02
F5
0A
0D
02
08
00
0B
F0
FE
F5
FE
18
1B
F4
FE
03
F1
F8
02
15
FD
FC
FC
F0
05
0B
09
F4
FA
F8
09
F9
FB
E6
E7
11
F9
FE
F7
01
F3
0A
11
F7
FD
0D
F0
F6
EB
08
E9
08
F5
0D
07
0A
F8
FB
F1
00
E9
F8
F2
FE
F8
F5
EF
09
FC
04
FD
04
07
F8
E3
F7
FE
FB
08
02
19
17
F5
E2
09
ED
06
F7
E2
DD
EC
09
F4
07
F6
F6
01
11
FD
FA
E7
06
E0
06
0F
0D
05
F2
0B
FE
E4
F7
E9
F7
FC
F4
E6
E5
EB
ED
03
03
F3
04
04
20
09
02
FE
01
E2
FC
0F
06
F4
1D
02
05
D3
F4
01
0C
1C
F5
EB
02
0C
0C
04
F9
F1
F9
03
FD
FF
0B
FC
04
00
10
FF
02
1B
0F
02
FF
E3
F8
FC
0B
FE
F6
19
F6
11
07
FA
ED
08
FA
FA
04
ED
ED
F6
F0
F2
EC
EE
0B
0A
04
07
E7
F5
04
04
F1
0B
F2
02
F8
02
EF
E7
FE
F6
E4
EE
F5
FB
F6
1B
00
02
F2
0E
09
1E
02
15
F3
04
25
11
03
F0
07
0E
0E
EE
F2
EE
F7
F9
EE
F6
0C
0F
11
10
14
11
F9
0B
04
16
FE
EC
D6
F3
17
03
F1
0A
F8
F9
FD
E5
10
FC
0E
0A
F7
FF
FB
F9
FB
05
1B
F1
09
12
01
ED
ED
F1
EA
FE
07
FF
03
F7
F1
FA
FD
F7
0C
0E
DF
EC
05
07
F2
FA
09
05
08
F0
0C
FB
10
DF
F4
FF
17
F2
EB
0E
05
12
FB
FE
F5
01
F9
E7
FF
08
F9
16
05
ED
09
E6
EC
02
E8
09
F3
DC
E2
F6
E6
07
FA
11
F3
12
EB
EE
F7
0B
EE
0F
0C
EA
E6
FB
08
FB
08
EA
F1
00
06
E6
F4
D5
DA
F9
F6
F5
07
EE
F4
EC
03
F0
0A
EE
0D
06
FE
07
11
0B
0E
FD
F4
F2
F6
EC
F2
10
08
F1
08
03
FC
EE
EE
F8
EC
05
05
F7
0B
01
03
F3
CD
F3
FC
E8
E0
FA
EB
ED
E1
F3
07
F5
FD
ED
F0
EF
0C
0D
F3
04
05
FE
12
09
FF
03
F2
E6
E0
DB
E5
E2
CA
CB
F1
F9
F5
FD
D4
E7
FB
12
14
03
11
01
0F
0D
FC
03
D0
E0
FF
F8
E5
DF
DB
E2
DC
DE
D6
F5
0B
FB
0A
FF
EE
03
F4
EF
FA
25
22
FA
15
06
0A
F5
F2
DC
FD
FF
F4
ED
02
D7
D6
E6
E7
FD
0D
F4
ED
F6
00
F7
05
F0
FC
0D
0E
1B
F6
21
FB
06
F6
D5
F5
FA
E5
E8
F4
F2
EF
FD
08
1A
00
05
FE
0D
0D
EA
02
F4
FF
0D
F7
0F
11
0B
0A
06
04
EA
F6
FF
E9
EC
E1
F8
FA
09
F8
F3
18
15
13
0C
07
09
F9
10
F2
F4
07
FB
03
ED
0A
F4
F3
F6
0B
FB
FC
E2
F8
EC
FE
F9
F3
EF
04
FB
10
F1
FD
FC
FD
00
F9
0F
F1
F5
FC
FF
F3
FB
FD
07
F0
ED
E7
ED
F2
03
05
F2
E9
10
03
00
F3
08
05
EC
FB
F7
FD
03
FA
EB
F6
E7
FB
EA
DC
FB
F2
05
F8
FF
02
FA
F0
FE
0F
E1
FA
EE
13
16
0A
04
F9
01
FB
E4
EF
D0
F9
F2
0D
D7
F8
EF
D5
FF
06
F2
08
0D
11
0E
0C
F7
0D
F3
F3
FA
21
01
06
09
03
EA
E4
DD
D9
DF
0D
E1
E6
D7
E9
08
11
21
10
03
0E
19
05
01
0E
09
10
07
FB
10
06
22
2C
ED
F7
DE
D3
09
EA
05
F9
F6
FD
FC
1A
09
1C
0E
F8
13
0D
04
04
0F
1F
21
11
12
FB
12
1E
18
F4
FD
D3
F1
DA
FE
F7
03
EB
FD
0F
01
06
07
0F
17
16
FD
10
17
07
0D
FF
F7
00
13
13
F0
DF
ED
C5
F0
F0
F3
EE
ED
03
EC
EB
06
03
FF
0B
10
02
FB
0D
11
0A
23
FE
10
0A
FA
13
D6
D7
08
C4
EA
E4
0A
0D
0E
0D
E8
F7
0B
22
0C
0C
17
04
07
0A
1B
07
0F
1A
15
FB
F8
0D
F4
D5
0B
E5
11
0B
FB
EF
F5
F8
0D
FF
FF
24
03
01
16
F8
04
05
15
2D
1E
0B
FE
FA
FC
F3
ED
E8
EC
F0
08
02
F3
F9
E5
F0
12
1D
14
2C
1A
01
1F
FC
F9
10
15
2A
F9
FB
DD
EE
10
EC
FE
FE
09
F5
EF
F9
06
FD
DF
E4
0B
FB
15
0F
1B
14
0B
24
0F
08
17
10
E9
EE
E6
F2
E7
05
FB
EF
EE
F2
F3
F0
FE
EA
15
13
01
F7
04
07
FD
1A
05
1C
FD
03
F4
F8
E2
E1
05
E9
02
EF
0D
0F
F0
EA
FF
EE
1A
1C
F7
02
01
EE
F3
04
05
FE
E8
FB
00
F0
F0
F3
E8
E8
FA
F3
FA
F8
04
08
0F
E4
DE
FC
0B
0D
EB
06
F0
F9
FB
FD
F1
01
FC
F6
F6
EE
E2
03
E8
04
03
F3
ED
F8
FE
10
1A
02
FC
F3
FE
EB
FC
F5
E1
E8
FE
F9
F4
E8
F9
02
F6
05
00
E7
EB
F5
F7
E3
0B
06
FC
0C
F8
04
F5
07
09
F6
EF
E6
F3
F1
F3
EF
F3
E1
F5
FF
F4
EB
FE
FC
E9
17
FB
0E
0D
16
01
12
06
ED
04
10
03
ED
CC
DE
E5
DC
D6
FE
ED
05
E2
E9
E0
EE
FE
0D
FE
01
FA
11
02
19
23
F3
E2
04
06
15
0B
0A
F3
F1
0C
DF
D5
EC
D9
EF
F2
F3
ED
07
03
EA
FC
00
05
FB
15
E9
02
F0
14
FF
F8
EF
FF
F3
00
F4
01
E5
EC
F8
FD
EA
10
0E
00
EC
D4
D2
E5
EA
E1
DE
E4
FE
DB
1B
F1
0F
EF
13
11
0F
0A
E5
DB
0C
F8
F9
0C
FF
E9
EA
DF
FB
EC
0D
D9
F5
0A
D7
E6
F3
DB
01
14
F3
F3
F7
11
FB
0E
08
0D
FF
0D
04
05
07
F3
0E
F6
04
F4
0E
ED
EC
F6
04
0B
0B
F8
01
05
FC
05
13
F8
12
F4
FD
0D
F6
F1
08
F7
F8
0C
F9
01
FC
ED
FB
05
05
F9
E3
FC
EF
03
F4
F4
EF
F5
FF
0E
12
E8
E4
F0
0E
E6
F9
F9
D3
D1
E1
F3
EA
0A
0C
0A
0D
21
FA
F2
14
EB
00
0B
08
F7
12
10
0E
F4
01
0A
08
F4
FE
F2
E2
F8
D8
E1
D9
FF
08
FC
17
1C
09
06
F3
06
0C
E8
0A
07
10
F3
FE
FA
22
03
E9
E5
DD
D8
E1
03
00
0B
16
10
08
FC
F7
0A
FB
06
ED
08
04
15
0C
0C
04
0E
12
01
F6
F6
17
05
E8
EC
EE
F7
08
F9
0A
01
0A
F9
03
FF
FA
E9
FF
04
FC
E9
02
FA
06
E1
FD
E0
EA
FD
F7
09
0C
E4
EA
FA
FB
FF
EE
F6
F2
0A
FF
09
F8
04
05
0D
15
12
EE
FA
10
D8
09
ED
ED
04
E8
F9
0F
11
0A
F4
F1
08
14
01
FF
FD
E9
11
F7
F9
08
F3
17
0A
07
08
0D
EA
FA
EE
EF
04
FB
07
02
0C
08
F8
F8
14
19
13
0C
EF
04
05
F2
FD
0E
FA
1C
F6
FF
11
03
01
02
F7
E5
DF
F7
FB
F7
01
F7
00
E3
10
04
06
EE
EC
F7
07
F5
08
F2
07
F5
06
ED
0A
F4
DE
F8
EA
D9
DD
FB
08
07
EB
06
EF
08
03
07
F0
E9
F1
F7
F2
12
02
0F
09
11
F4
07
F6
F6
F9
FE
DF
D0
08
F1
09
17
01
08
FF
1C
FD
0D
F7
E5
E8
F6
F6
00
05
05
FF
05
FF
FA
03
FC
0D
09
D0
EA
FC
00
0B
07
1C
0E
18
0A
04
13
F4
07
05
F5
F6
0B
FB
0D
10
10
02
E8
07
03
07
FC
DF
E6
F8
FD
FA
FE
00
16
16
0F
01
18
0F
12
E9
F2
02
01
FA
15
07
F1
E7
FD
F2
E0
F4
E2
FA
E0
03
0F
0B
02
18
F8
FD
0E
1C
FF
12
15
F1
FF
E9
E9
E8
02
EF
E9
EF
DB
00
FF
04
0C
0C
F8
EC
09
0A
F1
22
FA
1B
04
0F
1F
1B
1A
F1
E0
FA
00
F1
E1
DE
E5
F6
FA
0B
FF
00
F7
F3
E7
D4
DE
07
03
0D
14
11
08
16
00
0D
17
F8
EB
E8
D1
DB
F0
03
E3
EE
EA
13
0E
15
08
F0
F9
D8
DB
E6
F9
F0
F1
FC
01
20
19
1F
29
00
EA
DB
FA
EC
F3
02
05
DD
0C
0B
F5
F2
E8
FE
D8
EF
FC
F1
FA
EC
05
08
FB
FF
06
0D
08
F8
FA
03
E5
F1
E7
DE
EC
0B
F0
FE
19
F7
F4
F3
FC
FD
F4
FA
E5
FF
F7
F1
EC
14
18
0B
0E
0B
F5
EC
05
DF
F0
D6
EA
16
FC
13
FD
FE
0F
02
05
05
FB
FB
F0
F9
E0
E4
05
0E
FB
16
01
04
03
F7
F6
EB
DF
DE
FD
07
03
17
E7
15
23
21
0F
F8
FE
FD
01
FC
0C
F8
F4
06
12
F9
FF
EB
E8
FF
EF
D8
F4
EC
EC
F8
0E
FE
08
F6
FD
08
11
06
23
10
EC
E9
FA
0F
07
03
1D
07
0F
F6
F5
E8
E4
DC
F0
E2
09
04
F6
F7
0E
EB
0C
FC
F6
F1
FD
F6
11
02
09
05
F4
FB
15
19
01
0B
FF
F1
EE
E8
F0
D9
E4
F8
ED
02
FC
F1
12
0C
F8
05
EF
F4
F9
04
09
09
FC
16
FE
13
01
F0
05
0A
0D
F4
0F
F9
F6
01
FE
0C
F4
EF
06
E7
F8
FE
F9
15
FA
1B
1B
F5
09
16
01
F6
14
06
14
E6
E7
04
05
0C
06
F5
07
0D
F2
F2
F9
1A
F4
05
EC
08
F9
0E
E9
E6
F6
01
F0
F4
0F
26
09
EE
F7
F3
04
01
09
F1
0C
EE
F2
09
04
F2
F6
F2
EA
0B
00
E1
DC
FB
0E
E8
07
1E
00
0D
EB
EC
0A
F2
F7
F5
01
ED
07
13
