02
F3
0D
F9
F5
0B
0E
F0
F3
11
EF
F9
0D
F2
06
FE
FD
FE
05
ED
09
F9
13
F5
FE
F4
07
0A
FE
0B
FB
EF
14
02
ED
FA
F4
FF
FA
06
05
0E
0A
02
F8
E5
14
09
02
FF
F6
04
04
0B
11
0C
ED
12
06
02
0B
FE
0C
10
09
0B
F7
0D
03
FC
F6
19
FD
15
14
05
14
FE
08
0D
F9
E0
08
02
02
02
DD
EB
F7
11
F4
FB
09
03
ED
F0
F3
FA
DF
01
0D
F2
02
F9
0E
0E
2B
1F
FC
01
17
0B
F0
10
ED
09
1E
F8
06
FF
0C
13
03
08
EC
01
0D
0C
F8
0B
0C
21
1C
19
20
12
18
FA
02
0A
04
F8
0A
EF
FF
03
1D
0E
01
12
0B
EE
08
E7
0D
FF
19
11
01
0B
09
01
F8
03
14
E9
E9
02
EE
1A
F6
12
03
15
0D
0B
07
01
12
05
F5
F5
F7
FF
E1
03
E4
00
E7
04
14
17
08
FC
05
F8
12
EA
F4
24
11
13
06
14
04
0F
F7
01
E5
EE
DF
F7
E6
F0
E6
E8
F5
E7
FF
FC
0F
07
14
06
FA
F4
16
F8
1B
08
11
09
02
06
08
F6
F5
F5
CD
D4
D1
F3
E9
ED
06
DD
E9
F5
0F
E1
0D
E7
F5
EF
00
15
21
FB
14
05
04
EB
DD
E3
DB
D2
D3
EB
D4
E3
E4
F5
E1
00
FE
E5
F1
EB
00
18
FF
FA
F2
EF
11
FA
01
09
02
FB
EE
F3
FA
F7
E2
F6
F3
E7
F4
FA
F5
F1
F3
E5
07
EB
D9
21
FD
ED
DD
10
FC
F6
F4
FA
10
13
29
25
33
1B
F8
0E
EF
EA
E9
DF
01
F3
EF
FF
E9
E1
E2
14
F9
E7
D8
0C
FB
EF
FB
F7
FD
1F
15
21
3A
22
13
F7
0F
0C
0B
12
F6
F9
04
FF
0B
03
DC
04
E9
E8
CF
E6
FA
01
1B
0C
10
25
0C
1C
13
24
06
FC
05
13
FA
F8
F1
FD
EF
05
13
18
F1
F4
01
08
FA
02
E5
EF
19
0E
17
0C
13
19
22
17
16
18
0F
0C
01
09
14
15
11
FF
08
07
D6
DF
08
07
13
E1
E5
FB
18
19
07
09
0D
F5
09
07
13
15
09
11
F7
13
0D
05
13
10
08
0F
EC
F7
FC
12
FC
F3
D0
F2
FF
04
01
07
02
FC
FF
1D
20
07
1E
FA
FC
03
00
FC
12
12
06
EF
E8
E3
FE
0F
06
E9
D7
F3
F9
14
F5
ED
05
0F
11
0A
22
21
F9
F6
13
03
F7
11
F9
F8
F7
E3
E3
F0
F5
F8
00
E4
D6
03
F8
0B
F7
EA
0A
0D
04
07
07
05
14
11
F7
1A
14
06
FD
ED
E0
DA
04
08
F4
FD
13
F8
E8
13
02
EA
04
01
EA
09
F2
01
F7
10
F4
FD
03
05
F4
F9
F4
F5
FA
D6
E5
FA
13
F3
17
02
E1
EC
EB
05
01
01
04
F7
E7
FD
0B
F1
FF
07
0D
F5
0B
09
F8
FF
F3
EA
F7
F1
F7
07
19
13
12
DF
E4
F8
02
F1
0D
08
0C
18
03
0E
FC
12
09
0A
19
F0
FD
FF
CC
EC
FD
F4
FE
0D
15
33
0A
11
E3
01
EC
09
F8
0B
13
02
FC
FC
09
0B
10
20
07
06
FB
DF
D4
DC
04
F6
02
ED
FA
31
0F
0B
10
0C
09
FB
F7
EE
02
01
0E
0F
0E
05
02
08
09
F2
DC
F7
E6
FC
13
0C
01
02
FA
2B
23
F8
0D
0F
F9
07
0F
F7
08
F4
E4
FD
05
0F
F6
FC
EE
EE
F9
E3
DB
FB
0C
13
FE
00
F1
0A
E1
DB
F7
EB
E3
FA
F5
05
EB
06
0B
FC
EE
EC
E3
D1
C3
E1
E6
F6
E6
FB
13
F8
09
F9
0F
09
ED
03
FA
D4
CD
E1
CF
CC
B6
D7
CE
D5
EB
CE
E3
CD
CD
E0
D5
EB
E5
0E
11
EF
FC
F2
14
01
FD
0F
F2
EA
E6
F9
FE
F6
E2
F9
EA
EE
F0
04
F3
E6
07
E2
F2
04
0C
FD
F9
F7
FA
F3
F2
07
06
05
FE
0E
08
F1
05
FA
FA
0A
F4
05
FB
FE
EC
03
ED
F8
FC
EF
10
FC
F0
F9
07
EF
FC
F4
07
F7
F5
0E
FB
F6
EC
14
F5
13
16
F3
0C
F4
0E
F8
07
DC
DE
EE
F1
F7
07
FF
12
F0
EF
F7
07
06
FF
02
FC
EE
00
E5
EF
EB
09
F5
E3
E6
E3
E0
07
F0
E2
FA
14
00
02
F8
F0
0D
18
EA
E5
FC
F1
E9
FD
ED
D6
EB
01
E4
09
F3
F6
EE
E8
EF
F9
0B
0C
DF
EC
F9
E5
10
0E
12
FD
0C
FB
EF
ED
E8
DA
DA
EB
EE
E1
E2
DD
F2
01
F9
E5
EB
EF
DE
F7
E3
F3
E5
02
09
08
08
EC
EE
FA
ED
DF
E6
EB
DF
F9
EF
F1
D4
DC
E1
CD
E5
E9
F4
00
E3
EE
0C
07
14
08
1B
0F
F7
24
1B
13
FF
11
FB
F4
10
0C
05
FF
15
17
EF
0A
04
F8
F8
F0
1C
20
20
FF
23
15
FE
1B
EA
04
1D
FA
FB
FC
0B
07
FF
14
0A
10
30
1C
18
0D
06
0C
10
10
21
1B
16
32
28
F8
FA
EC
F8
FA
EA
F9
12
06
0A
F6
13
0F
F9
16
23
24
1A
FF
13
14
18
07
1A
FB
22
25
11
10
11
FA
16
F6
FE
F8
12
09
06
14
F1
09
FF
1B
14
01
1A
03
16
03
FA
12
F5
0A
05
2B
21
13
04
07
17
EC
ED
FD
E4
05
0D
FC
0B
0E
F2
11
0A
0D
1A
17
0F
08
06
03
0E
0F
F0
12
3E
1F
F4
17
FA
25
F9
FB
01
F6
04
0F
13
FC
0E
29
19
0F
15
14
1B
15
08
FF
05
EB
0D
F4
29
0B
E8
08
F5
00
17
10
01
1E
13
02
1A
14
10
11
0F
F9
01
F8
0C
F9
F7
16
FC
02
09
CF
ED
15
EF
E2
0A
12
0C
26
04
15
0E
0D
14
11
19
F9
ED
FE
F3
F3
F0
E6
FE
07
FA
FD
F1
EF
04
E3
F2
07
FE
0F
04
18
0A
19
09
0C
16
1B
03
E1
DE
EC
EE
F3
F1
02
04
0B
1E
09
13
F8
10
F8
F0
F7
FA
F3
03
0C
FE
08
FC
05
01
0E
EA
F1
DC
F2
01
0C
11
12
F7
01
0D
07
1C
1F
F2
E8
01
1E
E2
00
03
FE
F3
16
06
0E
F6
FF
F5
E8
ED
FC
F1
F1
16
FF
F6
04
F9
FF
05
F2
EC
DD
17
01
FB
FC
E3
DD
F2
1B
08
1A
12
0A
E9
F5
02
04
FB
08
09
09
EE
0A
02
FC
ED
EE
F2
F2
28
1A
E9
E8
D9
04
F3
03
0D
E7
F6
FB
07
EB
09
FC
08
01
E5
F9
01
19
07
ED
EE
E8
00
17
0B
F3
02
F2
EC
03
F3
F5
0E
EE
E6
E2
FB
FA
F6
FE
D9
DD
DA
E9
FA
FA
E3
F4
E0
EA
0E
EF
03
0C
F4
F0
FE
EC
FD
00
F4
01
03
E5
F7
04
09
FB
ED
F8
ED
EA
DB
ED
E0
F5
FB
F4
11
E9
0E
0D
FC
EA
EF
F5
F4
03
F7
04
FC
FE
05
FA
0D
F3
DD
DA
E4
E7
F6
E9
F5
EF
EE
0B
1A
FE
12
F0
03
E2
F6
EB
EA
EA
FD
0B
FC
F7
F7
12
14
02
E8
F7
DF
F6
E6
FA
F6
F7
04
1A
17
EC
00
0E
0E
EA
E5
EB
02
FE
07
FB
F0
15
F1
05
F0
05
E3
E9
FF
E7
F0
F6
F0
13
0B
F8
01
16
10
FA
13
FF
08
0F
17
0D
1E
05
01
15
FA
F7
05
0A
07
0B
0D
15
04
1D
18
FB
05
10
DB
04
10
F7
0E
F2
1E
33
1F
28
20
0F
FA
FA
EF
FC
FE
1C
2A
36
29
32
15
19
28
15
04
03
18
08
05
F1
FD
ED
0B
09
FA
22
0B
06
06
07
22
0D
27
32
13
31
24
23
25
0C
19
2A
11
1E
12
0E
04
04
EE
EF
F5
13
15
13
FF
FB
F9
0D
0D
FC
02
2C
FE
1A
06
14
0A
02
06
FD
F1
F4
0B
09
FC
FC
FE
F5
0C
06
07
10
14
F1
04
FD
F4
F0
00
FF
0E
05
FD
04
FA
12
FB
07
FC
08
FB
F7
F6
F2
03
00
11
EC
05
E6
D2
DA
EB
04
E2
E5
0F
19
06
FB
07
05
10
ED
DA
E7
F1
0E
0D
00
ED
F1
EC
FC
F8
E9
F0
DD
DD
EB
DF
EB
F3
FF
F3
F9
E6
DF
FD
F8
FD
0B
04
01
E1
E9
06
0A
F7
12
F7
05
01
F5
EA
EE
D5
C8
D5
EC
EA
F4
D3
03
00
F3
FC
FC
FC
16
2B
15
F4
0B
F6
19
04
02
FF
F5
FE
06
F4
0B
0F
1A
0E
FB
14
01
F9
F8
00
FE
F7
E6
11
0C
15
12
27
0F
15
E0
F6
13
F8
02
FD
0C
12
13
0A
F3
F1
FC
FD
05
FF
FA
FE
D0
D5
E4
04
09
05
22
1A
2F
0D
06
F5
F1
F7
FF
1B
10
10
F8
FA
03
04
EF
02
09
08
15
F2
CF
A7
BE
FE
00
16
03
19
1B
1B
1B
F9
16
11
03
14
18
0E
11
0A
FC
EC
F4
06
01
1C
1C
F4
D3
B9
E1
02
14
0C
F8
10
11
2B
17
10
06
05
F9
04
20
11
17
F9
03
F3
FD
18
0C
19
06
D1
CB
BB
00
08
1A
0B
FF
2D
15
27
EF
F4
1E
2F
12
19
19
FC
FB
EE
ED
04
EB
0D
F6
0B
06
CB
CF
EC
14
22
0A
11
FF
1B
2F
14
E3
E8
1A
49
2D
12
25
04
EE
EC
FA
FB
11
18
2C
1D
F1
BE
B6
05
22
18
1B
F9
08
01
06
11
F0
FD
1A
17
1F
09
10
00
F5
F5
F6
0B
02
23
2D
10
DF
DF
E3
15
2C
23
FE
0B
F9
06
00
EE
0E
EE
06
10
00
FE
03
01
0B
1C
0B
06
15
2D
25
FF
C5
E6
13
10
14
01
08
FD
1D
D5
D4
CC
FF
04
F2
1F
F6
FB
01
21
1A
16
16
1A
0D
1F
1E
EE
BB
E2
F6
12
0B
FC
03
00
F5
F3
F4
F1
F6
FE
17
2D
1B
09
0C
FA
09
F8
00
0E
0C
03
EC
DC
E6
F5
FD
1A
0E
15
03
FE
F0
FD
F8
CE
F5
F3
0F
1B
0C
09
DC
02
0D
F4
04
09
F1
FD
EF
F6
E5
FE
0D
10
FD
FB
04
F6
13
FD
D7
C6
F3
01
1D
FC
16
0B
F6
FE
17
1A
FC
00
ED
E2
00
E6
EF
05
1C
13
13
05
16
F7
15
F3
E2
DF
D6
E8
FA
1E
19
01
F7
02
FC
04
08
F1
D1
F1
FE
F9
F7
FA
F8
07
12
0B
19
07
17
FE
FA
02
ED
F5
F8
0C
1C
FB
F5
EC
0F
F3
0B
D7
E7
06
02
00
F8
08
12
F3
F8
06
0B
2E
17
FA
EA
E9
FB
FC
12
06
19
18
F8
FA
00
FC
EE
01
FD
FA
EC
F1
E8
DC
E7
F9
F4
08
F1
14
FF
F7
01
EE
E2
18
EF
10
04
F2
EE
D4
E6
F4
E4
DC
02
01
EF
EA
F2
FB
F5
F1
EC
17
0A
1E
13
11
FB
EF
D8
18
F9
07
2A
00
E6
D0
C9
DA
E7
FA
F9
FC
FA
F8
FC
F2
FB
FC
06
FF
09
FF
13
1D
18
D0
F7
ED
ED
FA
12
F8
E2
F4
EA
EE
F1
00
FF
0A
12
FB
F9
F7
F0
0D
F8
0F
1D
13
0B
02
E4
FC
11
EC
FF
09
06
F5
19
06
FD
16
00
FF
FE
ED
03
04
00
0A
0B
EE
15
25
03
0D
0A
F3
EB
E9
06
ED
F9
F5
FD
17
2D
08
14
0F
FA
14
14
24
03
0C
01
14
FC
F6
F2
05
E9
02
EE
E1
05
E0
F4
05
07
0F
E5
F1
05
16
1B
25
00
05
FE
1C
0B
28
05
25
23
03
FA
E4
DB
E9
07
12
06
E8
01
03
12
04
FD
FA
EB
EF
F3
FA
FF
00
00
F5
FA
10
06
0A
22
F8
F6
FB
DD
E3
0A
ED
EC
0C
05
FB
14
FE
F3
07
10
26
E8
F3
F1
DF
0A
FD
F2
2E
17
08
1B
FB
ED
08
10
10
21
1E
F6
F6
ED
FC
0B
F7
06
13
F5
09
07
F2
FB
09
ED
FF
EE
F8
01
F6
EF
EF
08
03
04
08
FC
EE
0F
0E
01
F1
F8
0A
FA
FD
FE
F3
08
ED
F7
DE
FB
FA
F0
00
F1
F8
ED
DD
E2
01
E3
FB
F0
F1
0D
06
04
12
F5
EC
FE
03
05
E9
F7
E0
EF
E0
EC
CC
D2
FB
06
06
E8
05
FC
D4
FA
F4
00
F6
ED
15
F6
07
03
13
F7
0A
0F
F1
08
FB
F2
0A
FE
13
F2
DD
F5
EA
0E
01
F5
0A
DB
F8
F9
27
18
06
20
FE
12
F8
0F
F3
23
1C
ED
0E
12
E9
F5
F7
FA
F1
EF
06
FB
04
FC
FD
12
1D
FC
09
02
25
1A
2B
07
06
FE
F2
0D
FA
E2
0D
09
F0
F9
FD
FB
0C
FC
07
00
0A
04
EF
02
FF
00
FA
FA
04
0D
08
0E
07
EE
FD
F0
EE
F3
07
04
FE
ED
01
F8
ED
07
F5
0B
FD
F6
FC
FB
0C
FA
02
04
05
0B
F3
F3
EE
02
0C
03
FC
F8
0A
0D
04
0E
04
EE
FF
00
F0
09
0D
F7
10
FC
FD
F8
FF
F5
EC
FC
08
EB
F2
FC
01
00
1B
11
0D
15
1D
0F
13
FF
08
00
F1
EB
08
F9
0B
00
FB
06
0D
09
E3
06
E5
01
EA
1E
05
09
08
23
18
1F
0C
0F
1B
0B
FE
FF
02
FA
04
0A
14
09
FF
EC
EB
E2
E5
FE
FB
02
EC
09
F0
01
09
10
F9
16
0B
FF
0E
0C
EC
F3
01
F9
25
28
0E
FB
02
18
F9
D6
BF
CF
19
11
0B
10
04
08
21
03
FC
0D
0A
0F
E5
FE
E3
E8
F7
05
28
24
0F
20
F9
12
E0
ED
E1
F0
F3
11
F8
01
E5
06
FD
F7
09
F4
EF
F3
F4
F8
FC
E1
0E
1C
1A
0F
0F
13
23
1D
06
F6
E6
EE
EE
F6
E7
ED
FB
F8
F9
EF
FE
EE
F2
FB
07
ED
02
00
16
16
1E
1D
05
23
04
F2
EF
FB
F8
12
12
FF
D5
05
FE
0C
0B
FE
E9
02
FC
F1
F1
19
EF
0F
19
25
1E
17
14
F0
FA
E3
F3
E1
12
FF
29
0C
FB
07
12
0A
F9
F6
F3
EE
09
F7
03
F8
F9
1D
0E
2E
11
18
0C
01
D8
05
FF
ED
FB
03
0B
08
E7
FC
26
18
02
01
FC
F7
1A
10
1C
06
08
1F
0D
14
26
10
03
00
EE
07
F3
EF
05
1E
1A
F9
EA
08
10
09
F3
FA
04
02
25
08
2C
21
18
17
23
17
05
FA
01
F2
FA
E9
DF
EA
FD
00
0B
E3
F6
F2
FF
F5
FE
FD
05
14
18
02
1F
08
0F
1F
0E
F0
E7
EC
EA
FC
F6
F6
F8
05
E6
08
FA
E5
E2
F9
F3
F1
FF
F4
0D
EA
EE
F7
08
E8
F1
FD
F2
01
F7
F3
F1
E5
05
F4
08
FB
22
00
E8
F3
E8
0B
F8
02
02
F1
0C
06
F1
F5
E5
EB
EC
ED
F0
DF
F5
E2
E9
0C
F2
EB
F4
02
1E
01
E7
DD
0E
09
EB
F6
E0
FA
F5
F6
EE
01
E8
01
F9
00
F1
01
F7
05
FD
FA
0D
14
02
08
13
0C
04
EE
F1
F7
0B
EE
04
F2
13
02
ED
04
FF
EF
02
07
01
FE
FF
EF
02
0F
13
16
EA
04
1D
FB
EA
00
09
DF
0C
E4
EB
F8
FD
0F
F7
EC
E4
EA
FB
F5
FE
DD
00
FD
FE
FE
04
14
F7
F4
1A
FA
0D
F5
FC
FF
08
E5
06
08
06
06
FA
0D
F8
08
00
E9
EB
FE
03
0C
24
11
1D
22
1A
02
16
E8
0C
06
EE
F6
EC
11
00
09
0B
09
F7
F3
F9
00
10
22
1A
FA
07
05
1C
02
22
0A
E1
FD
ED
0C
FE
10
0B
FD
02
E6
11
F5
02
1B
1B
09
0A
FD
04
FC
FB
09
1B
0D
0F
0C
FE
FA
E0
ED
F3
ED
04
10
F0
0D
F7
0B
FD
14
0B
F8
FD
F0
10
EC
FE
0E
22
1E
1C
05
19
0D
1B
07
0F
06
06
EF
05
01
04
F4
0E
0B
FE
01
05
0A
0D
0B
12
05
07
F0
F1
FD
0B
F3
13
04
F0
11
05
14
01
0A
0E
0B
F8
F6
00
EE
FE
0A
0B
F1
F3
F8
EB
E5
DF
F7
12
F7
F0
FC
F3
E9
FD
EC
F2
14
0A
0B
EE
08
06
F7
E3
ED
F8
EF
08
09
0D
E7
EA
ED
DF
ED
EF
0C
E5
E6
DA
EA
D1
C6
E4
FC
08
0E
08
F1
13
F5
00
05
08
FB
E9
F3
F3
F9
DE
EA
0C
FF
0D
E9
F4
F3
F5
F9
DC
08
EA
F8
EB
EA
FC
F3
09
FE
F8
04
F4
EC
F2
E6
03
06
DE
EA
08
14
13
15
0E
0E
FC
12
FB
1F
1E
02
FC
02
F2
04
14
E7
E0
E0
C6
CC
D9
08
EC
0C
08
FB
04
F5
07
0E
15
03
17
19
05
10
0B
00
0D
11
F8
14
E8
06
DE
F0
DF
E0
F7
F2
E5
FA
FD
F6
FE
14
17
F6
08
09
F9
00
0B
0B
1F
40
1F
03
19
EB
EB
05
F4
C7
E4
F1
E4
0D
05
09
F8
EF
F7
FA
0B
F2
F8
EB
06
FC
00
17
1B
1A
2A
09
0F
E7
E8
F1
E7
C3
E5
E0
FF
0E
F8
FF
F9
06
19
EF
FB
FC
05
06
00
07
11
0C
12
49
30
11
05
EE
E1
FC
EB
C9
D8
02
EC
FC
18
14
1D
08
16
EB
EA
FD
E0
FE
05
FF
0D
11
0B
38
3B
13
0F
00
F6
04
D7
D0
D0
F5
FC
0E
24
0E
17
12
1A
FA
EC
DF
F6
D5
EB
EC
FC
0A
11
31
20
22
FC
FA
06
F8
D3
EB
EA
FF
1A
1C
17
19
01
03
1A
1D
13
E7
E1
DE
F1
FA
E2
01
10
29
26
39
F9
00
EB
06
F9
D3
E4
07
FB
08
F3
EF
00
0A
29
24
07
E4
E8
EF
F3
EB
00
E4
FA
FB
32
24
F0
18
EA
03
01
EA
FD
EC
EE
EE
05
F9
05
05
11
13
06
F6
F8
E4
06
0C
01
E8
ED
EF
24
12
09
09
01
F2
FE
E6
F0
EB
FE
FB
FC
10
16
F4
12
01
EE
E3
EF
F3
EB
FD
E4
D8
F7
E1
23
15
09
05
E4
E8
13
F9
F0
FA
E6
F5
FB
16
15
17
19
09
FD
01
E7
F3
E7
EB
F0
EA
DF
10
27
0D
FC
F2
0D
00
11
F0
FD
FD
ED
00
15
F4
10
09
18
0F
10
01
DD
E7
D9
E8
FE
F4
0E
01
28
1A
FA
EE
03
D8
F2
F3
E5
02
FB
F1
19
10
08
18
0D
FC
0C
ED
DF
F7
F4
05
F2
01
FA
0C
03
28
0F
02
10
EF
09
04
13
05
0C
01
FE
19
1B
1E
21
15
EA
EB
03
FB
FC
F5
EE
11
1B
10
0D
19
FF
17
ED
E8
DD
FE
E9
01
09
10
FD
12
FD
1D
0A
F3
FD
FB
F5
03
F0
1E
13
0B
03
FC
16
FF
E5
04
F9
E9
DF
01
04
F6
03
FE
09
F0
09
F9
0E
F1
F3
10
16
0B
0B
0F
0E
0D
09
FD
12
0A
0A
1A
F7
EA
F7
FC
FC
F7
03
0F
01
00
05
0C
FB
F2
08
F5
1C
05
17
19
0A
29
FB
04
14
F7
EC
1F
10
EB
F0
18
07
06
F6
13
00
13
10
17
03
F3
12
FE
10
02
1C
08
16
0A
FC
11
F4
F6
F0
0B
0B
FF
FC
0C
F1
02
E9
02
01
F2
0E
11
0E
19
03
0E
05
00
00
05
0E
09
14
EB
EE
F9
FA
09
F9
F3
CB
D5
E4
EF
EA
F4
FF
FB
10
07
F6
FD
01
0B
01
F9
EE
F8
D7
E0
08
19
FB
11
F0
13
F0
13
EE
DE
D8
CE
CF
E3
F1
F4
F6
05
EC
00
08
06
FF
FF
E3
E8
EC
09
01
0B
10
04
02
05
04
03
04
ED
EE
02
DD
F8
EA
FD
12
03
1D
0D
00
EE
F0
F7
08
FE
F1
F1
19
FA
F1
0B
12
F7
F5
11
00
0E
F3
E6
F8
FC
04
F6
EA
07
07
03
EC
FC
FB
F4
FD
EF
E0
EE
00
00
FB
F5
ED
EF
11
F6
FF
11
04
09
06
0B
0D
06
F8
FD
11
17
FA
06
0E
FE
F9
ED
0C
EC
06
FE
EF
FC
F6
0D
0A
F3
05
01
F6
25
1D
04
0E
1C
21
0B
F9
FC
12
1F
33
2C
30
30
20
1E
0A
00
FA
FB
FA
F3
F0
FF
1C
05
12
27
1B
14
3F
30
10
FA
EF
0C
FE
F0
0D
25
38
5D
67
3F
28
17
10
00
08
12
FB
FD
1D
22
2C
28
55
34
16
00
FE
1F
11
FF
0A
23
08
22
16
25
38
1B
0B
09
FB
0E
F9
02
0F
E3
DD
F4
13
39
23
EC
F5
EA
F3
F4
FA
E6
DB
EE
FE
F8
16
FB
19
03
DA
D6
08
0C
02
09
FA
15
FC
FA
0E
0F
ED
FE
E2
EF
D7
E4
E5
EE
F4
00
F5
FE
ED
FA
05
C8
AB
C5
D9
00
01
06
0B
21
FD
05
FD
EE
DB
F5
DE
F8
FE
06
F7
D8
E9
ED
DE
ED
E7
E2
DE
BE
BE
B7
B9
F3
E9
13
0D
0D
DB
FC
F8
EF
E2
EC
F7
F9
02
E9
D8
00
FE
E8
ED
DB
D6
CE
B9
A8
BB
97
C7
07
F8
F4
FA
10
F3
06
16
F3
0E
1D
0C
0A
F8
F6
05
EA
F6
EA
E0
BD
C8
C8
E6
DB
C2
CC
DF
FD
FB
19
0A
1D
F5
26
07
F6
0C
20
1E
0C
EF
05
03
08
FA
F3
C8
E2
D2
F1
F2
E9
E4
E5
B3
F7
FE
FB
25
32
1F
18
21
1B
16
01
02
0D
05
11
0A
16
FC
F7
00
F8
F0
02
09
F0
0D
01
D3
DC
E3
08
27
19
05
26
25
11
F4
14
FC
08
EE
03
F8
EF
D9
11
10
F9
0B
F7
09
F4
FD
F9
EB
F6
E8
10
09
1F
0D
24
FF
FC
FA
04
EF
DE
F6
0E
FE
05
FD
04
FA
01
1C
17
14
F0
0A
FB
F7
EA
06
0A
FA
1A
08
14
10
FB
ED
F6
ED
0A
10
17
04
24
06
21
F8
07
1C
09
13
0B
05
1D
EF
F9
ED
F6
E8
25
04
EC
04
05
06
03
0A
08
1A
04
08
1E
1D
22
03
07
0A
08
04
21
06
07
05
01
FA
EC
0D
E3
0C
DC
06
1C
07
FB
05
11
F7
12
05
10
EC
F3
09
06
07
13
1B
0F
F3
15
F9
03
1B
13
F4
EB
EC
DB
0F
0B
F6
F2
0F
01
1B
01
05
0D
00
FA
FA
15
26
1B
20
0B
12
12
FC
FA
09
FA
F9
03
EE
F9
FA
0C
EF
FE
ED
0F
18
02
F8
ED
02
EF
02
11
0F
0D
1B
11
0D
FA
30
09
0D
11
F5
04
D7
EB
0B
08
ED
00
E7
F9
2A
1E
06
F2
EB
10
FA
18
17
01
F6
0E
F6
01
33
F0
F5
F1
EB
E7
D0
F9
0F
F3
F0
F5
EB
1B
14
27
00
17
01
25
0E
00
FD
EB
FC
FB
00
00
41
08
EE
05
03
DA
DD
F6
EE
DF
FB
EB
08
FD
14
15
18
08
FF
07
FC
0B
F4
E2
FF
E0
EB
03
40
1F
F1
0B
01
FE
F4
EA
F8
ED
E2
E6
06
F5
18
00
0A
13
FB
15
06
04
E3
F7
CE
E2
F6
FD
1E
16
FA
F0
06
18
24
02
F9
EA
00
11
FD
FC
F6
FC
F4
FD
F9
E7
DF
DB
DD
EF
F1
FE
F2
FA
03
F9
0E
0A
F9
F6
13
FB
00
F0
DF
E9
D2
E0
CB
E0
CC
D8
DC
D2
C5
D6
E2
DC
EF
19
F6
E5
E4
F1
04
06
0E
F7
03
16
0A
F3
EF
F0
E6
DC
DD
EE
DD
CC
E0
F6
F7
07
F4
F9
14
29
0E
0C
E8
11
F1
F9
03
F2
FF
0F
07
01
FB
FA
F6
ED
ED
F4
FD
FF
01
FE
16
25
15
F5
01
F5
CF
FB
F7
FB
EF
08
FE
F9
08
ED
1F
21
1B
0A
14
2B
FB
18
12
FB
12
2D
10
34
2C
2D
30
3D
25
03
0F
02
0D
0B
EF
14
08
FC
F0
12
0D
15
24
3A
32
36
19
21
51
4A
22
17
0C
0D
04
1D
06
F5
12
0A
0D
F8
F0
01
F2
0A
F3
08
01
F6
EC
11
F3
19
F4
F0
F6
FA
10
08
0A
F0
F0
0B
F7
FC
13
F5
00
FC
11
05
0F
01
FB
00
03
FA
07
07
F0
04
0E
F3
09
F0
0E
1A
0B
FE
0D
F1
F6
F0
0F
00
05
0B
02
F7
09
17
01
F4
05
FC
FD
07
EE
FF
EC
E4
DE
E6
F5
0A
1F
13
1F
06
28
1A
0B
F2
F8
F4
11
0D
F5
F9
DF
F2
FF
F6
05
F7
CC
E3
F2
E0
E7
FF
D9
11
06
F3
1B
19
07
FD
EF
E4
F2
10
0D
20
15
09
14
F0
F5
F2
F7
FC
E2
EC
EB
F5
07
1C
00
02
0D
F9
04
F7
00
0E
05
0C
0F
11
F7
0C
12
20
01
07
03
F2
0C
02
F5
EE
F9
FF
F9
E4
08
02
0A
0D
08
E7
FD
FC
F9
17
FB
F2
EF
11
14
19
1D
27
1E
15
0C
EA
EE
F5
EA
F5
12
1A
0D
19
17
FC
10
FD
F7
0C
0E
0D
09
00
FF
17
21
07
00
1E
07
11
F7
00
F6
1B
12
02
1D
27
13
1C
10
15
1B
0C
1D
EC
FD
F7
EC
FA
02
07
FC
2D
04
1E
0C
00
06
E9
03
11
FE
12
26
21
24
20
03
09
16
09
FF
14
00
F3
E9
23
17
11
17
21
09
FD
00
08
E1
FB
09
08
05
17
0B
16
09
1B
02
1A
F8
0A
14
00
FB
07
EF
25
2E
1E
09
19
04
EC
F4
EF
E6
EA
11
F3
F8
0E
04
0E
00
04
FE
08
FD
1E
F8
0F
20
0A
F4
1E
25
1A
1C
FC
ED
F4
11
E7
E7
EE
FF
F4
08
1A
02
FD
F7
0D
F7
FC
01
1C
07
0C
FA
2C
12
03
1D
29
03
1B
11
0E
07
DF
01
0B
EB
F2
08
08
0E
01
09
F8
04
04
08
01
EF
F2
11
20
14
0C
FB
03
F3
0F
FF
09
EB
EB
DF
D4
D4
D3
E7
04
F8
0B
02
0B
F6
0B
ED
F4
E9
EA
05
ED
01
07
22
1E
FE
0E
F2
FB
06
F3
ED
EB
DC
F1
08
07
1D
FA
F6
F8
F4
F2
0A
E7
E7
DB
EB
F1
FD
F7
17
0F
11
1F
08
14
F5
F3
F1
07
FF
05
0A
F8
1B
EF
05
FA
E5
E0
EB
D9
FC
0C
09
EE
FE
0B
12
06
00
00
0A
14
F0
0A
F4
EA
FC
01
EE
FD
FE
1B
FD
0B
E4
DF
EB
DC
EC
02
EF
05
F7
F5
0C
F0
F9
E2
0D
F8
FC
0C
07
06
FD
07
10
0B
F8
0D
07
FB
F2
E2
E7
F5
DC
E3
08
15
FB
17
01
FE
E7
EF
F3
F0
08
F1
FD
FE
FA
0E
F2
09
0D
19
01
01
D9
D8
FC
D1
EB
DA
0E
19
0B
02
1D
20
E6
DB
F7
F0
ED
06
10
01
EA
09
0D
0C
FC
FC
0F
E7
D1
D1
D2
E9
F0
E4
F1
1C
0C
06
F0
07
F3
D8
EF
F6
08
07
ED
E7
E8
FE
0A
F7
0D
15
F0
C0
C9
CD
E6
F8
EF
EC
03
24
FD
F5
F7
EC
DF
F2
01
0E
F9
F8
FC
F6
F4
ED
04
FB
0B
F6
DC
C3
BF
E7
FC
F9
E4
05
E9
11
0F
F0
E4
16
0E
FA
1F
0B
0D
03
09
00
13
F2
F9
0F
00
E8
D0
B2
D2
CE
E0
D7
FA
13
F3
04
13
04
FD
02
ED
F1
0A
06
11
04
01
15
14
11
04
FB
FD
DE
CE
C1
BE
E0
E0
F6
FC
EB
F7
F5
F5
F5
0F
10
E4
F7
1C
FB
FB
F7
FA
EC
FA
12
07
FE
00
ED
D9
C9
E3
F6
EF
E6
EC
E3
F1
F6
F7
0E
EF
FE
1A
04
0F
09
03
1A
19
11
15
18
24
10
26
34
22
06
16
12
03
ED
FF
ED
05
F0
F8
03
0E
EF
0B
00
F7
1D
26
29
20
17
33
0E
1F
23
13
11
0A
15
EE
12
12
FA
F4
06
09
F1
F0
FD
0E
10
F7
F7
1D
0C
0C
19
04
1A
1F
10
1A
3D
35
21
FF
04
09
FB
04
0F
F5
0B
FB
ED
01
F2
F4
13
11
F0
EC
0D
05
EE
00
FF
04
0A
04
F5
02
0B
12
08
12
06
08
FC
EE
EF
FC
12
F3
F4
04
0D
01
01
F9
F7
13
10
29
0A
07
0C
20
04
19
06
2D
20
25
2C
1D
29
15
00
0E
F1
01
03
F4
0D
02
1F
03
23
27
04
0A
1F
24
18
1A
0F
1F
FB
29
2C
27
36
36
1E
15
F6
10
FF
10
01
F9
EF
FE
05
10
1B
04
0C
FC
19
1B
14
28
24
01
1F
21
1C
21
36
0E
00
15
01
12
12
13
F8
05
02
FC
F6
03
0E
07
EC
EB
F2
06
F0
05
09
01
1D
08
14
08
0D
1F
10
21
0C
14
F9
F2
0C
F8
0E
E3
05
12
00
F9
FB
F7
0B
0A
FD
FD
F4
F2
00
00
03
17
1D
07
25
11
24
2E
26
16
13
FF
F8
F0
F5
F5
09
F2
13
0C
08
08
0B
06
15
10
28
0B
0F
02
F5
F2
16
F8
11
0E
19
F9
00
F2
F7
E0
08
06
19
0A
02
01
FB
08
1D
0E
2A
24
12
F9
ED
F8
FF
0D
F9
F7
F1
11
03
00
F5
09
EF
ED
15
19
FC
03
14
F7
05
0F
20
16
06
0D
00
E9
DB
EF
D1
E8
DC
C7
EC
FE
14
F4
E7
0D
1C
12
04
1E
04
F9
0B
0D
0D
0A
1B
F6
08
D8
D2
D0
C1
C3
AF
B3
AD
BD
E6
F9
09
0B
F0
11
17
34
FD
FA
17
F5
13
F4
15
07
02
17
E3
E1
D6
F5
EF
CF
E2
CB
AA
B3
BC
D4
07
18
D8
12
1E
2B
02
E7
05
11
01
0A
FA
F6
F6
F8
EE
D3
05
0F
04
0F
F4
FD
DF
E8
CE
CF
F8
06
02
F1
FD
FB
0C
00
1A
EF
FA
FE
07
05
06
F6
D8
F8
11
17
05
14
1B
F5
04
26
D9
CC
D3
04
F8
0C
08
F1
FB
07
14
FD
09
EE
0B
FD
F2
F8
FF
F1
FF
08
17
19
0A
0A
12
11
F9
E9
DB
EA
FA
04
0F
00
E4
EC
03
FB
F6
F4
15
F7
F3
F6
01
0E
10
F7
FC
00
12
08
1C
10
0D
F0
E1
FD
F2
0C
EA
E1
E7
D7
0A
0E
15
F6
15
06
FC
ED
05
F6
EB
FE
07
04
F8
07
FE
0E
13
FB
D4
0D
F5
1A
0E
F9
EC
E1
F5
F0
00
1C
04
1B
F2
FD
F2
E7
EF
0A
17
04
06
E9
F3
03
F6
FF
CD
F7
06
0B
0D
08
FD
E3
ED
01
F5
03
FD
22
00
00
E6
FE
F5
08
FE
0E
06
07
EB
F6
F1
F8
04
F7
1D
FA
03
1C
17
F7
ED
FE
FA
05
FE
14
03
EB
E0
F3
11
FB
FF
14
04
0C
06
F6
FB
02
ED
F4
04
0B
09
22
1C
EF
FC
EE
F9
01
07
F9
F5
F2
F7
FF
1B
0A
06
FB
02
FE
0E
01
EB
F4
E5
FC
08
13
F8
04
0A
12
F3
06
FB
EF
F1
F1
04
06
FE
09
01
00
FD
0B
F4
0C
01
20
04
FD
F8
F4
02
F0
ED
15
04
11
0A
FB
F7
EE
02
EF
FD
F6
0A
FC
02
0A
14
FD
1C
07
01
FC
09
FD
05
F5
0E
07
E6
03
F0
E3
0C
F4
EC
FB
F8
12
03
03
1C
17
04
02
FA
F3
06
F3
EE
12
FF
FF
FA
09
0E
EF
0B
0D
EF
FF
EC
0B
0A
DD
01
1D
07
0A
F6
07
00
F2
F4
EF
0B
E7
E3
0B
04
0B
FB
FD
FF
F9
04
F9
F2
12
1E
18
06
00
FF
00
13
11
13
08
12
0E
02
06
FC
0A
F7
FE
11
E2
0A
09
F3
0B
02
06
FD
0E
FA
04
1E
16
03
26
33
1B
FD
24
22
39
21
1C
0D
0E
03
00
0E
FC
E7
EE
08
05
0C
15
03
09
08
F8
F5
EE
F5
13
22
0C
16
33
4D
4D
34
3B
27
F9
28
1B
1A
F7
0B
0D
ED
EC
13
F6
FC
FB
18
06
0A
F8
01
09
09
E7
FD
19
F9
FA
02
08
08
04
12
F0
F5
0D
F5
03
FE
FE
F4
00
F5
14
FB
02
0E
F9
0D
FE
11
F6
08
F6
08
09
F3
F4
07
F7
F2
EF
F9
0C
FE
02
EE
EE
FC
0E
FC
11
0F
FF
0C
FF
21
0B
1C
0B
F3
22
04
0F
1E
29
30
1D
FB
22
FD
FC
EE
10
03
14
F9
02
00
00
1A
2F
33
2D
35
2F
47
21
2A
3E
0F
1F
10
24
28
34
2C
1D
23
0E
FF
F2
0A
03
F5
09
06
14
08
20
3C
21
16
41
2F
2D
21
22
1A
13
16
0D
18
12
21
0A
0D
08
03
13
06
15
FC
F1
02
FB
25
0F
19
21
17
2C
21
15
12
0A
F8
F9
18
05
F8
04
F0
03
05
0F
FC
07
0D
F9
F8
00
ED
00
F9
01
0F
08
08
14
05
F8
F2
14
1C
17
0E
0F
06
07
0D
01
14
01
FC
E1
13
06
08
FB
12
F9
F3
0C
14
F7
16
0A
04
0A
E9
0A
FD
FF
F4
07
12
F6
08
00
14
11
08
04
00
15
F7
F2
0C
F5
06
0F
0A
19
08
04
FE
F5
03
0A
01
F9
07
10
FA
09
18
1C
23
3B
02
0A
E2
09
04
FB
F2
FC
FC
07
0A
FC
FD
18
EE
0B
EC
F1
08
F2
DA
EB
0F
EC
F2
FE
2A
34
2C
01
11
FF
0C
F9
06
06
0C
F0
0C
F7
03
00
F3
02
E4
FE
E4
F7
DB
DE
DC
FE
F1
EB
F7
09
2A
12
10
F2
20
08
08
16
10
EE
F4
FC
F3
F6
0E
E9
FD
EF
F9
DA
F2
EE
F5
C9
D8
C1
E4
00
17
06
0C
E8
09
F3
0F
F6
FD
F6
F7
F1
EA
08
0D
0D
F8
EB
F5
EB
FB
EE
DD
DD
DA
D5
D5
15
EF
11
EE
09
00
F1
F5
DE
06
E9
EE
EE
F6
00
11
0B
0B
FF
E9
0E
00
FE
EC
EF
F4
E2
E9
FE
FB
F1
F6
02
EA
0B
F4
E8
D6
F2
FF
FF
F8
09
0D
1A
21
17
EF
EB
F5
01
09
FF
E9
E5
01
03
15
F0
0D
E0
FF
05
E0
DC
F5
EF
FF
EC
FF
00
0C
13
0D
16
0E
06
F4
FA
F9
F2
F6
00
EA
04
04
0B
F1
DD
00
FF
EA
F4
FC
E0
FD
02
04
F2
0B
00
00
00
16
00
F7
0B
10
FA
02
F8
FB
08
14
F6
09
09
F5
23
01
E6
FF
EE
EF
F0
FC
F6
04
14
F8
FE
F5
09
21
1A
F6
15
1C
07
05
2D
2C
04
0B
EE
0B
16
0D
E5
F1
EA
E7
E4
E6
F6
DB
F6
04
06
11
FC
07
22
14
FD
1E
1F
08
29
29
F3
EC
09
13
1E
07
FF
F9
09
F4
FF
E5
FC
05
E3
FA
03
03
22
0A
21
16
10
15
23
24
2E
FF
FC
FD
F9
17
1F
23
09
27
0C
12
1B
F1
FB
0B
F5
0F
0F
01
1C
20
2E
0D
1D
12
3F
28
28
FB
03
0E
F9
15
15
29
23
0D
14
16
10
23
12
16
06
08
0D
0A
F9
0D
0A
25
1F
2F
18
14
1E
F8
06
FF
F0
03
0F
18
0C
12
10
13
2E
1C
03
03
0B
0E
0A
03
03
0A
13
22
0B
23
20
11
11
0F
E8
05
F3
10
18
24
F2
F8
FF
08
0B
0F
F9
0C
F9
ED
EF
F3
0A
FF
04
11
27
2B
0D
15
F4
E9
02
11
F8
1F
18
1A
0A
05
03
FD
16
00
EF
FE
EC
E9
F9
E9
E4
04
17
0F
25
2F
FB
20
03
06
11
05
0B
16
09
08
01
00
11
0A
0F
FD
FA
21
15
EE
FC
FF
F8
D6
F4
E3
14
0F
12
17
10
00
0A
F9
0E
15
05
08
17
FB
08
F4
F2
04
FE
27
09
1C
09
FD
EF
E3
FD
09
12
1D
FD
1B
27
09
F6
FD
FD
EF
0F
1B
17
12
E5
02
F3
09
04
FD
F4
16
10
FB
09
F8
E8
F6
01
14
23
11
EF
FA
F4
FC
08
01
FB
F5
07
05
0D
0A
F3
F0
01
FD
FE
E8
F5
0D
E8
00
02
FC
FD
FF
04
00
F6
F1
FD
F7
ED
F4
F7
FA
0B
F4
EC
EF
13
11
0E
02
03
0C
09
ED
13
F9
FE
F2
EF
11
0C
09
EF
EC
11
11
07
0B
05
F1
03
0E
FC
FF
FB
FF
09
12
FF
FD
06
F8
0B
28
32
12
3A
1C
0D
0B
02
F2
F2
F3
0F
13
F3
0E
0D
00
03
F8
DF
F6
FA
07
F2
0D
1E
33
20
49
53
4D
54
4F
23
0E
F9
03
14
07
F9
21
13
1A
F2
1B
13
F0
EA
F2
CD
E5
F7
FA
05
1A
F4
18
FB
10
05
0A
27
13
05
F9
EE
F1
F9
03
F5
D8
F7
EF
F1
D7
E8
EB
D6
DE
E0
E8
FA
F0
F8
0F
F0
05
07
05
22
03
01
F9
E9
EC
10
12
F9
EF
04
E4
E6
BE
DC
D3
E2
DF
F1
EA
E5
EC
FF
02
11
1B
13
03
2D
1A
EE
00
EE
F2
E1
15
F5
04
02
E3
CC
CE
D2
DC
EA
F0
E7
EC
EE
E9
FB
0C
12
0E
01
15
0B
15
F5
0E
0A
00
EA
0D
EA
DE
E0
C7
D2
E4
F2
EA
EE
FD
00
FB
FB
EB
F6
03
12
21
0E
11
19
24
06
F7
0A
DD
11
EC
E0
E0
E7
D5
CE
D3
D9
E9
F5
19
29
19
07
06
F3
FA
0E
19
1F
07
22
1E
1E
0D
02
0E
F8
E7
05
FE
EA
C4
CA
D0
CA
E6
14
42
23
1B
F8
FC
E0
F0
FD
E2
16
1E
13
2B
1A
1C
12
1A
14
13
01
EA
D5
D6
DC
CE
E6
F2
0E
33
31
1E
FB
0C
FC
DB
E9
CB
E9
DF
F5
1B
14
E3
15
F9
FB
18
04
F9
E5
E2
02
C9
DD
12
09
1E
29
1F
00
03
DB
E8
D5
E0
CD
C4
E4
08
F9
DE
16
04
00
0D
EF
11
E0
00
F7
E8
FA
F5
09
0A
0C
0B
19
13
F3
E1
EB
C4
DD
CE
CE
E6
DE
D1
EA
19
02
02
FB
F1
0A
F5
F8
FC
05
F9
08
F5
0B
29
2D
FA
0A
E8
EC
DC
E9
C6
B5
BB
E2
C9
EE
12
0F
09
06
04
F4
F6
F5
F5
09
F9
FB
0B
10
10
0E
0E
FB
0A
F6
EC
FE
DF
C7
BC
EF
EB
F9
04
03
0C
05
EE
D7
F3
FB
0D
EC
08
EF
FD
16
31
04
F6
E3
EE
F4
0F
26
FC
BD
DD
EB
DC
04
10
EE
EF
F3
F4
F0
E7
E5
E8
F4
F6
EE
FC
2A
23
04
F4
F0
E4
13
EE
12
ED
D4
CD
E7
FB
E3
03
F9
F8
F8
E7
02
EA
F9
FF
18
17
F4
FE
22
0C
F8
E2
EF
FB
0E
11
F3
F1
C8
D5
DD
09
D2
16
08
D7
D8
0D
EE
E1
E5
EE
02
FD
07
FD
06
09
FE
EA
EF
00
08
0F
15
E9
C7
C2
DD
F9
18
10
06
E6
E5
11
F9
01
FA
FF
F9
13
EC
0A
09
0D
01
02
05
0E
0A
1E
01
D1
E1
FA
F4
07
0B
F7
FD
01
E3
E5
ED
F5
FF
01
07
0F
12
07
F3
EE
EE
01
0E
29
14
0C
F2
DC
D6
E7
FE
08
0F
1A
DC
F7
DE
EF
FD
05
F9
0D
09
FE
0D
F9
05
FC
0A
FE
06
19
F9
FD
05
D8
EE
1A
ED
01
FA
0B
FD
0A
F1
04
13
13
F9
FC
03
FA
FA
0D
00
0C
FC
05
1D
07
FD
F6
EB
DD
F9
E4
13
1E
06
0B
FD
F7
D9
E5
F8
09
F8
FF
0D
F3
0B
F6
F4
F0
0E
F6
0D
15
F4
FC
EA
EF
D8
E3
02
1A
0B
00
01
F5
ED
E4
F1
13
18
10
00
0F
0A
0C
00
F2
00
E5
F7
0A
F1
E1
F0
DD
FC
12
08
F2
0F
F5
EF
01
05
FF
EE
ED
F0
0E
0A
01
FF
1C
FD
FF
ED
F1
FA
F2
F7
11
17
F0
F3
F6
EF
E6
00
F4
FB
12
F6
2A
11
08
25
1E
1C
19
05
09
16
F4
1E
00
12
21
1A
3C
12
0B
FB
0E
13
FB
12
0A
0F
F1
F5
EF
0F
1F
27
29
23
0E
26
25
10
1B
01
03
13
0D
FF
02
0D
16
F7
14
F1
0A
F0
EF
F7
01
07
06
05
FB
F9
EF
F9
08
F1
12
00
F8
01
10
09
0F
F3
F8
11
FA
F4
F8
11
0A
12
F7
F8
EF
EF
11
FC
11
1A
11
14
0F
20
18
1B
F9
F8
1F
18
1C
23
0E
09
2B
00
F6
FB
0C
F5
0B
14
04
14
12
03
FC
1F
1D
27
18
2C
FE
02
11
12
22
28
37
31
4A
52
2A
2D
09
EA
EE
EF
F5
11
F2
06
0C
19
24
01
05
F3
F8
13
18
10
04
11
02
F4
14
1E
2A
02
0D
F5
FE
0A
04
05
F4
FF
FC
10
07
06
02
0F
07
0C
12
0B
18
16
1B
F3
15
F4
0D
01
10
04
0A
07
E3
EC
04
EF
07
0A
18
F2
FB
17
F5
02
FE
01
EF
FD
0F
FE
FB
F7
09
00
FB
F1
F6
F5
0D
F5
0B
08
FD
06
FB
08
FB
E6
09
02
FB
02
F8
03
04
1A
20
0A
16
29
0C
0E
FE
05
01
12
04
EE
01
0F
0C
EF
F6
13
00
F7
EB
FC
FC
E9
0B
05
0B
11
03
0C
2C
13
07
07
F8
E2
EC
09
E1
D5
E6
ED
0A
F4
13
05
E0
F7
05
03
0F
EF
F0
F4
F3
10
05
16
FE
ED
F9
F5
F9
EF
FC
E8
D4
E7
CF
F3
FE
0C
09
FA
04
F2
01
FE
F2
EF
10
16
09
0E
01
FD
E4
F0
E0
FD
E3
FA
EF
E1
E7
E0
CC
FD
0B
FE
F6
01
ED
05
08
E6
F2
14
1B
09
FF
F7
FC
E8
F9
E0
D7
F7
E8
F9
EC
09
DD
01
03
2A
0C
FF
F6
ED
FF
0C
03
FC
13
FD
0E
02
0F
FA
FF
10
FF
FC
0C
17
11
13
08
07
16
0C
1E
F3
06
0C
F3
0E
EF
EC
EB
10
1D
14
0B
13
1C
FE
05
F6
09
02
15
00
09
F4
F4
11
23
15
1D
0A
E8
0F
EC
04
F7
F9
09
FE
12
0D
FC
F8
15
03
ED
0D
05
F2
02
0F
F6
15
04
0F
20
20
11
F8
E7
F6
0A
06
F8
DE
F0
FF
FA
F9
05
06
02
05
F0
F3
F9
04
F1
03
1B
F5
EC
1F
1D
15
1F
F3
D5
FF
14
10
14
E8
F4
E4
01
06
FC
F5
00
FD
EF
08
FA
FF
02
00
02
F7
11
0C
12
04
02
0D
DF
FF
EC
08
06
03
02
F8
03
04
07
F8
F7
FA
EF
0D
FB
EC
E7
E6
F8
10
13
08
09
1E
F7
E5
D3
F5
FC
05
11
02
F5
EF
04
12
1A
09
F6
F8
F1
EC
E2
DF
FA
FA
19
0B
10
2F
0C
0F
FD
ED
E4
DB
0D
0A
20
05
F2
EE
F3
F3
F6
F5
01
0E
F0
E5
DD
E7
FA
E9
1B
22
1B
05
05
10
DB
F2
E1
EA
EF
FA
11
1D
F7
0B
F2
01
10
F0
EB
FC
F3
E8
E9
E7
E6
F3
28
0F
14
0C
03
07
E1
F6
E3
DE
03
0B
1E
0C
13
01
FC
05
FC
03
04
FA
F7
E3
FC
EC
10
17
19
0F
07
F3
FE
0D
12
00
01
F0
0C
06
FC
03
20
16
10
EE
E1
F6
E9
FF
F6
10
F6
1C
0E
07
04
F5
FA
FE
13
10
F8
FB
FD
FA
EF
0B
15
17
20
F0
E7
06
00
F2
FD
E8
F0
00
09
27
20
05
ED
FA
F6
00
0D
10
FF
D7
F7
0F
02
11
02
0B
0D
02
F5
FF
FE
FD
F7
0A
FD
20
0B
25
07
06
F2
FC
EA
F4
F1
14
00
E3
FC
FD
02
F9
F9
0F
05
28
1E
23
09
1F
06
1D
11
19
12
F3
03
06
FE
F1
02
00
05
0D
E9
E7
F3
FC
EE
EC
14
FC
03
0A
21
16
23
1C
43
29
23
2C
01
FC
04
F5
F4
0C
06
10
2A
2D
20
09
FA
EF
FE
F9
0F
04
06
F6
09
DE
00
F8
E0
FE
00
11
11
E5
D7
E8
F2
FF
04
F9
EE
16
21
F3
FC
FB
01
F3
F5
08
FF
08
03
EE
EE
FA
DD
F0
F3
E2
E1
F3
EA
F2
F3
FF
E0
D9
F8
E0
12
08
08
ED
00
F7
0F
14
14
01
F6
EC
FF
02
F1
12
02
0D
F1
FB
FD
0D
FA
08
12
F9
FA
12
13
F5
F4
04
11
0F
11
14
F1
0D
12
FF
14
F4
F0
FD
05
F4
1F
1E
F1
03
0E
1B
10
05
FD
13
FF
14
F7
07
08
FD
FC
20
0B
0A
08
FD
E6
EB
DE
F5
D3
C2
F6
E2
06
ED
0B
20
01
00
17
12
F6
FD
F5
F3
F4
00
E4
17
21
F5
E7
FC
18
0E
E9
FF
F8
CC
D6
DD
DB
08
F9
E9
FD
1B
14
DE
DD
E0
F7
F0
00
14
E9
F2
FD
FC
F4
E9
0E
00
F4
F4
DF
EE
06
F4
02
F6
F9
D6
F3
F8
01
1D
07
1D
FC
E3
10
F2
FE
14
FA
F2
04
0F
CE
E3
D6
DE
FA
FE
00
DB
E7
E3
D9
E4
F7
F5
E4
FE
10
FC
0A
FF
14
05
F0
F6
0E
F6
FF
ED
E9
D7
C8
C2
D3
D7
E1
D4
E6
FC
00
04
0E
FC
F0
E0
F7
F0
E8
F5
F0
FE
F8
F5
EE
19
F5
DE
DA
CC
EF
CB
E1
F3
FB
0C
0B
1C
2E
36
0E
13
1A
FC
FD
F8
EC
15
04
F2
F6
04
15
01
DC
CB
D8
E7
C6
D0
E5
04
0E
27
36
1E
0F
23
19
23
0A
FF
0E
F2
E5
0E
07
F8
F4
07
03
E6
EA
C3
CE
EC
08
0A
05
0F
1B
1A
17
01
0B
18
0B
14
FF
F6
0C
0B
15
09
E5
13
ED
E7
04
EF
CF
D5
EB
F0
03
04
FA
18
02
01
FF
EC
05
15
FE
14
1B
1D
16
28
11
07
F7
F0
FC
F4
DE
E3
CC
EE
05
EB
00
FB
02
0D
20
14
0D
FA
EA
EF
03
F9
04
26
2B
45
0B
03
EE
EA
06
F3
04
F4
E9
12
02
E8
FF
DA
04
0A
0D
12
E8
F1
E2
F3
ED
EE
E6
D4
D5
26
03
06
0B
E5
11
0A
F8
F5
0B
0E
0D
03
03
02
0B
19
24
F6
FB
EB
D4
F4
DB
E9
E5
B4
C9
08
21
DD
14
0F
06
F1
E9
0F
0F
12
18
05
F6
EC
FA
1A
1F
E2
F4
D9
F2
FE
E2
E5
CC
D4
C7
F9
1B
E9
0F
0A
09
F8
F1
F8
01
12
FE
0D
FB
10
06
22
F8
E3
ED
F5
FC
02
D3
E9
E4
DB
EC
D3
00
EF
02
03
16
F2
1F
0F
FC
0E
0D
09
FC
F2
F7
15
F7
FC
E5
F4
EF
E7
CB
B8
E3
CD
F6
DB
F9
05
00
29
07
0E
0E
0D
11
00
08
02
02
FC
FC
1D
F6
03
1C
21
F9
01
D4
C6
B6
EC
E5
0B
04
ED
0C
16
ED
FC
0A
0E
18
0A
F8
E7
FE
FC
0F
18
15
12
13
1F
0F
FA
D1
D0
D7
F5
EC
12
FF
12
19
01
EC
04
FD
05
0B
13
09
06
FF
11
01
13
1F
09
0A
04
00
EF
D2
BC
E0
DB
E0
FD
23
13
14
E7
F6
EE
E5
F7
1F
1C
14
FD
0C
F7
FA
0E
01
F8
F4
F0
F6
FD
D0
D2
E8
CE
E8
EC
0D
0C
FC
F7
00
FC
FF
F8
FB
09
16
13
FF
F8
FD
FC
04
F3
0E
0A
E2
E6
D0
CC
D9
E4
E9
E2
08
02
21
0F
1C
DF
E3
04
FD
F3
1F
06
08
F7
04
F8
F8
FD
F1
FB
0B
E3
C0
DD
D8
07
FC
00
21
0A
FF
00
04
EE
ED
FA
F0
EF
DD
FF
F4
FB
F3
03
00
09
0E
E4
FC
DB
F6
F1
E9
F1
F3
E6
17
0C
06
FE
EE
F4
FE
04
E3
E0
E8
D8
EE
E9
FE
06
F4
05
EB
15
00
0E
10
0A
EF
EB
0F
EC
04
F6
0F
FD
0C
13
0C
0E
16
13
05
0D
21
07
16
18
0C
03
27
29
16
22
22
1D
01
F2
E2
07
04
11
F4
09
FF
05
0F
06
02
E9
EB
07
13
19
26
13
16
1C
1F
25
00
11
28
15
FF
E9
04
E6
EE
F2
F2
12
02
F3
EC
FB
F2
07
04
12
06
1A
FE
EE
28
25
14
19
F8
10
F9
F4
01
02
FA
F1
EF
F9
FB
0D
08
F6
F3
12
0A
13
F8
09
07
EF
EF
03
F1
04
05
F8
0D
12
EE
05
EC
FC
FB
F9
11
02
0D
FB
FD
09
F4
FF
E4
F1
0A
EF
04
F6
08
F1
0B
F1
E0
08
0F
15
EB
02
06
EF
11
0F
F2
08
02
F5
0D
FF
EB
EC
0A
05
F5
00
0D
02
FC
0F
17
09
F8
07
13
FC
F3
EE
07
01
E9
EF
FF
FB
04
02
FA
E9
ED
0B
0A
F8
F3
E9
E9
EE
F3
F0
0B
FF
F5
01
06
0C
0B
F6
13
24
01
12
1D
0B
FD
F3
FF
0D
F3
F6
01
F3
F9
01
0D
01
FD
06
02
0A
FF
0B
FD
EF
F8
10
FF
F3
11
13
0A
F2
F5
FD
01
FC
FD
1A
06
06
FA
F1
F7
0D
F3
0D
F9
EA
F8
F1
0E
F8
10
0B
EC
07
0C
11
09
18
13
F9
07
02
06
F6
FA
F6
00
F8
F1
0D
06
F4
01
0F
06
EE
06
03
FB
00
EF
0D
FE
0E
F8
F7
FA
EC
0D
11
FF
00
EA
ED
06
08
FB
0F
FC
EB
0E
0D
06
FC
F0
05
EB
F3
01
05
01
FD
07
EA
16
ED
FA
F2
0C
F6
F9
F9
FB
FB
F0
10
F2
FB
08
EB
FD
F6
07
F4
F3
F4
F1
E3
E8
03
E1
F1
09
0F
F3
F2
0D
02
05
05
F8
03
06
F4
F4
FF
F6
02
EE
F4
F6
00
F7
F2
F6
EC
FF
F0
F4
05
ED
0A
00
E8
F4
04
E9
FE
FA
0A
FA
0C
FE
0B
F1
E8
03
EF
12
10
13
0D
F4
F9
F4
DE
F1
10
F8
00
EE
0A
E5
E0
00
FE
FF
FC
0B
07
F4
06
0A
06
FF
03
ED
0D
EE
EF
FA
05
FB
D8
F0
02
0E
0F
0E
03
03
F2
00
E9
12
F3
0F
FE
F8
0C
0B
07
0F
0B
FA
EB
FF
FB
0C
F1
12
F5
E8
DD
F9
09
EF
EA
0D
FB
02
F5
FF
15
F1
F8
10
EF
F9
00
EF
F2
ED
F1
FD
EE
05
FB
E8
E6
DF
FB
F7
F3
E0
0F
0B
04
EE
01
FB
0A
F3
F3
09
EC
FB
03
F9
14
F2
0D
ED
08
F4
E5
F6
0B
D0
F5
0C
12
08
EE
00
EA
FF
0E
04
ED
07
F9
10
08
F6
10
EE
F9
F7
F1
10
0E
EA
F4
F0
04
F2
05
FF
F6
06
10
08
F6
05
01
EB
FC
F7
01
FE
F8
F6
07
0C
ED
03
FE
F5
F3
F8
F5
F9
EE
CA
EC
FC
12
25
02
0E
08
EF
0F
03
FF
10
F8
0E
03
03
0D
0D
F1
0B
09
07
ED
EC
F7
06
F2
09
DE
E7
07
17
05
F5
06
07
EE
EB
F1
EB
10
F0
0F
FE
ED
F1
10
07
03
0F
F7
FD
EE
ED
0A
E6
05
14
F0
F3
11
F0
F8
FF
F1
EA
03
FC
FB
EA
01
05
F2
FB
FF
0A
F5
FD
F8
E9
FC
F7
02
00
E9
F7
08
0B
FC
FF
0D
0B
00
EF
07
FF
FA
F7
EF
FE
F2
0E
0D
09
F6
FA
EA
FF
FD
FE
FB
EF
ED
FC
10
16
0B
0A
09
00
F9
FC
04
F6
F0
0C
10
FA
0C
F5
F2
EC
FC
09
0E
02
FC
EB
F3
FC
06
F8
00
18
02
0D
00
F1
E9
0D
E9
F0
F9
F7
04
F9
03
F7
F9
F7
EC
F4
EE
01
FA
02
08
0B
09
F3
02
0F
19
F3
EC
0D
01
F5
EA
10
FB
02
EA
FC
EF
F3
01
E9
05
0D
04
F7
FC
FD
D9
FA
EE
00
14
0A
23
13
FB
0B
14
03
15
02
0D
FA
F1
05
FA
02
FD
EF
08
01
FE
04
14
EA
F1
EA
FE
0F
0F
FE
F5
04
09
F1
0A
00
EC
F8
08
05
02
F7
00
F0
09
F1
00
EC
F3
F1
0B
ED
FF
F7
0A
F9
FC
F2
FF
FA
FB
EE
07
E4
03
F3
0E
ED
FC
E5
D7
03
0E
04
08
0B
09
DD
F1
F5
07
03
12
10
09
F1
F4
FD
0D
FF
06
F4
EB
EC
F1
FF
CA
D8
E1
0F
FB
08
EC
F0
E8
F9
F5
FD
F4
0A
EF
F8
10
13
02
0F
FC
0F
F6
FE
04
07
F8
03
16
07
F6
07
EF
03
F8
FC
EE
EC
09
0A
F4
EE
ED
F5
FC
13
FA
0B
EB
04
FA
F1
04
04
FA
F8
0E
FC
FA
16
08
E9
F8
E1
FF
F3
ED
0B
FD
0F
EF
EC
FD
0E
08
15
F7
E9
0F
E2
F4
FE
ED
F9
15
F8
FE
06
EF
E7
FE
FA
EF
EC
16
10
01
EF
09
0E
05
F2
08
F8
EE
F6
EA
F7
10
FB
27
0E
19
21
16
0A
00
ED
EF
0F
EE
EB
D6
F7
F6
E2
FD
FD
00
F8
06
06
11
12
0D
1E
10
03
08
05
23
0A
07
FC
EB
F0
F5
ED
EB
FD
E2
E3
F6
FF
01
0E
EE
06
03
0A
F0
12
06
1A
02
EC
05
FB
0C
18
28
29
1E
0F
FD
0D
07
F0
E7
F5
E3
FA
F3
EC
FB
FA
0C
FD
11
E8
E3
F2
FA
FC
06
F3
02
14
01
28
1A
10
FF
FA
FC
F9
FA
E1
DF
FC
0A
ED
00
EF
04
13
FF
E1
FC
E1
FD
F2
12
F5
03
13
FB
1D
1E
0A
09
0F
F7
F6
F7
F6
EB
03
FC
0B
FB
FB
09
EC
DE
ED
00
ED
F7
FC
F6
F1
ED
FD
19
1A
25
0F
0D
03
12
FD
00
DD
EB
E9
05
E7
ED
F3
E8
E8
01
F4
F2
F0
F1
04
D4
E8
F5
F0
03
29
2F
28
0F
0B
07
F9
03
EE
F0
E4
F6
EB
E1
FB
03
F0
13
03
ED
02
DF
EB
E6
DE
EA
DA
E4
1D
18
27
20
05
FA
05
10
04
D6
F4
0A
D4
01
E8
02
03
F0
FF
E8
F8
EE
F7
00
E4
EB
CE
E4
F5
06
03
14
06
06
0B
05
0D
F6
DF
ED
EA
EA
EC
10
F7
03
FB
F9
FB
F1
E9
F8
FE
F4
E4
DD
E9
FE
10
F6
0D
F8
11
07
07
EC
FB
F6
F6
FA
FF
F0
1F
0C
07
FB
08
01
FD
ED
F5
DE
D5
EE
DD
FC
FE
17
F5
07
0A
09
09
EC
F0
F9
F0
ED
E8
F6
26
1A
13
10
04
EF
F8
F4
FF
F8
E2
DF
E2
10
10
12
FD
F9
F6
F5
0C
04
00
FF
08
18
EF
F8
0A
28
1A
15
0D
F6
F6
FC
F7
DD
EF
EF
E9
13
FF
FD
0E
EF
04
FA
F7
DF
14
01
F8
16
03
F9
0F
0C
ED
FB
0A
0A
F5
F7
F3
FE
D8
E4
EC
0A
FC
FF
04
09
F0
EF
07
13
14
07
0E
F7
16
F6
FB
03
03
0F
01
FA
0A
02
03
ED
E4
E6
06
0F
12
FC
FE
F8
04
F9
D9
1E
0D
07
FA
F5
02
16
18
11
18
06
FD
07
10
FD
0A
11
05
FD
FC
10
0C
F4
F6
F4
F6
FC
FE
13
28
04
04
09
0D
21
05
19
F7
1A
FA
FF
17
16
0D
FB
F4
05
20
1B
17
0F
16
FA
01
FF
0C
0C
14
FE
FE
1B
14
02
0D
05
02
05
02
0C
19
15
01
14
08
01
0F
07
FA
F4
02
FA
FC
03
F9
19
09
06
FE
01
1C
19
10
08
1B
11
05
06
F5
F4
ED
FB
08
F0
11
04
14
20
0E
EF
0B
17
FE
0E
08
1C
FB
0C
21
18
0F
F9
1D
06
08
07
0C
00
11
02
F2
0B
10
05
FE
FC
FA
FA
10
07
18
08
0E
FB
05
F2
03
13
20
FC
00
05
11
15
0E
04
02
FD
F4
EA
0D
1B
16
11
15
20
1A
00
07
25
0B
F2
ED
FB
ED
0C
01
F9
07
F2
F4
03
00
1D
11
E6
01
06
FD
FF
29
FF
18
FD
14
16
15
11
16
F3
11
01
F8
E3
F4
CC
D3
B6
BB
CB
D0
C0
CD
E1
F5
F4
E7
ED
04
09
17
0F
06
F3
FD
0D
0E
FC
F2
F4
04
12
FA
F2
02
E6
F1
E1
F1
E0
F1
02
E7
01
FC
F0
10
0C
F8
01
00
F7
10
02
06
0A
FA
EE
F3
ED
FD
F3
00
FE
F4
FD
F3
E7
FC
E8
FE
DB
F1
FB
08
E6
01
EA
FF
F9
EE
FF
07
12
0B
0A
14
FB
05
EC
FD
F8
F5
0A
F6
0C
10
F8
04
0B
00
FE
00
FA
0C
FE
F2
0F
01
F9
F5
EC
09
0A
EE
0F
F8
0A
07
1C
10
1F
FE
FA
05
FD
F5
FF
18
19
FF
01
0E
0A
F9
FD
EE
F1
04
FC
02
10
EF
0B
08
E5
03
02
09
F9
04
0C
0E
F3
FF
E6
F3
DB
01
EB
06
E5
EE
07
09
14
05
0A
0E
EE
0D
08
07
0E
13
19
11
0D
04
18
2F
1F
22
0A
0A
11
08
04
06
E2
E1
E1
E4
0F
F4
12
F8
01
12
17
04
03
FF
16
0D
03
05
0F
22
08
0D
FC
FD
F2
F2
F5
DD
E5
DE
ED
E5
ED
F6
F1
02
F0
0F
2C
10
08
25
0B
22
F8
13
03
07
02
F0
03
F2
D4
F2
F6
DB
D9
D7
DE
EC
EC
FA
02
01
FE
01
34
0C
14
02
1D
0A
0D
FB
F9
0C
0D
1D
0A
03
02
1A
F9
E8
E9
EB
F0
E9
DC
09
19
14
17
16
2B
12
FB
12
FA
01
F5
08
05
1A
20
0D
0E
27
0F
FB
16
02
FB
E8
F6
D4
E3
F8
13
03
18
16
24
17
F6
1A
FF
11
FB
0B
1B
F3
0B
25
2A
24
1B
19
03
01
01
FD
01
E2
D9
FD
E9
26
06
0F
0F
26
09
FF
FD
0C
FA
F7
FF
05
F8
1B
23
0E
19
13
05
1F
EB
F8
FD
F9
00
E5
07
16
20
1B
35
08
F9
18
E9
F7
01
04
02
01
FE
14
1C
0E
1D
10
1D
0C
06
03
ED
E6
F2
E5
EB
09
07
20
0D
F0
F8
13
FC
07
02
00
F9
E7
FC
07
15
1E
15
04
0C
1E
1F
14
06
DC
E1
F8
0C
F4
21
17
1D
18
EF
F4
F7
F7
F9
F4
EC
F8
E4
04
04
05
0F
1E
02
14
F4
04
ED
05
01
F4
F9
0A
1A
0C
0F
1E
08
0C
04
FE
0C
EC
F8
DF
EA
F1
F0
04
11
FC
11
FC
F2
F9
EB
01
F8
EF
07
00
F9
0D
18
F6
03
18
07
F6
08
FC
F3
E4
DD
03
08
06
07
1B
1E
13
F6
06
F5
F5
F4
0A
ED
0E
0A
EC
09
1A
FC
0A
12
F5
F3
F1
DF
E8
F9
E1
F4
EE
FE
17
00
F8
FD
06
05
F1
E5
F7
0A
06
02
11
12
34
2A
08
F3
FF
01
F9
FC
05
EA
F1
01
F4
0D
01
0D
01
03
26
12
EB
F0
07
FE
EE
07
FD
0A
18
19
F5
F4
03
E6
F4
E8
ED
D1
F9
EF
16
17
1A
0B
F8
FF
28
F7
EB
0B
FD
0F
2A
14
2B
FA
0E
13
F4
07
E9
EE
F4
E6
DA
E1
F8
F2
07
16
00
F4
08
13
0B
EC
ED
FF
F1
0F
0F
0D
1B
1D
0D
06
0E
FC
07
EB
F2
EE
E8
E2
F2
FA
F5
EC
F6
16
F7
02
E8
EA
CB
10
23
FB
EE
1F
0E
28
19
F4
07
EC
F5
00
06
E7
FE
E9
F9
02
F2
04
EC
ED
F2
02
F5
CC
EE
23
01
14
F0
F0
1A
11
0F
F2
F0
02
06
EC
EB
16
F1
F1
09
FE
F7
03
EA
EB
02
D7
D1
DD
E5
00
F7
1E
EC
F3
17
13
E7
05
09
11
07
F8
03
06
17
FE
0B
F6
FD
F6
F5
E0
D8
DE
CC
0C
02
FA
FF
20
04
EF
0C
19
0F
18
03
10
01
04
1B
FD
0E
05
FF
03
10
EA
FC
EB
CA
EE
06
00
06
DF
FA
06
11
02
F6
1C
23
25
21
15
10
15
15
08
F9
EE
EE
04
0B
FE
E9
E5
F3
0D
07
0A
F1
03
09
F9
F5
0E
0C
0B
2D
2B
19
16
09
07
11
13
F5
F2
03
FE
09
FE
0A
10
24
2E
02
09
20
0B
14
F1
F5
0D
0A
02
13
12
26
17
10
19
01
F7
07
17
18
08
17
22
3B
11
14
36
2F
0D
0F
01
F7
EF
F0
F5
08
0D
06
F2
1C
27
26
FA
08
00
07
01
1C
FF
08
02
01
20
19
29
1C
FD
ED
11
F7
0E
EF
F3
0B
11
07
03
0A
ED
05
0E
EF
EF
F5
06
12
F2
F5
14
0C
05
F8
F3
FC
F8
F3
08
01
F4
13
F9
F0
FA
FB
ED
DE
ED
FB
FE
E7
D9
F6
EC
DF
EE
01
E9
F7
DB
FA
07
01
F2
03
06
EF
FA
03
13
F1
E7
ED
DA
DA
D6
EF
EA
CE
BA
D3
D2
BF
C5
E3
E1
EF
F9
03
ED
E3
EB
16
1B
F4
03
F9
ED
F6
EF
E7
FA
FA
F0
FA
DB
08
D3
C4
B6
D6
C8
E8
E1
EF
11
1A
15
38
31
13
00
E4
11
FE
FA
EE
F3
EE
12
0F
0A
0E
0A
FD
01
F8
FE
E6
F9
F6
F4
01
F9
17
0E
19
06
43
48
09
1C
FA
0E
01
03
EA
20
20
17
27
28
16
21
18
01
F2
EB
05
EF
E7
FA
F3
FE
08
FA
E7
24
1F
ED
F2
F1
F1
17
F9
14
04
09
04
26
13
22
18
12
19
1C
1A
0B
05
0A
01
F7
FC
F3
F9
29
FC
FA
F9
F6
06
03
FF
FC
11
02
29
23
24
25
1C
1B
09
FF
0F
04
19
15
F7
FC
0F
13
00
25
13
1A
F5
13
00
07
EA
0A
FF
00
21
1F
16
1D
06
0D
14
12
01
0B
FE
FA
0F
16
FF
2A
28
2C
13
13
05
29
0F
ED
EB
00
00
04
15
22
21
06
0A
0A
0E
FF
FF
F7
FE
20
0E
0D
10
1B
0B
34
15
0C
0A
01
F9
08
F7
24
25
21
1A
06
25
18
0B
0D
09
FB
F9
10
0E
0A
14
F1
10
02
24
21
14
0E
F7
15
15
0F
29
19
1A
FA
17
0B
1C
16
16
F3
F8
02
FA
0B
14
05
FD
FA
EE
08
F8
0B
15
17
F3
05
1A
21
0F
F6
F2
01
F0
FF
F9
03
02
F1
EF
EA
04
18
11
17
0C
08
F4
E6
DC
F3
10
15
EE
1D
13
FC
1E
F6
F5
F7
FA
DC
00
18
0B
F5
13
FE
FB
0E
08
12
06
09
E4
E7
E9
20
19
1D
12
F4
1B
F5
02
D6
E4
D8
E1
DF
08
00
10
E9
FA
08
FE
03
10
11
16
E4
DC
E9
D8
F3
23
28
12
E4
F9
F4
F1
E2
D3
F0
DA
F6
F1
F6
EF
00
F0
05
F6
1E
22
0F
F3
F9
0D
F5
E6
F0
23
15
F8
DB
E5
DC
E8
D1
EF
EA
06
E2
FB
03
06
03
FA
09
F4
03
F8
F8
F2
02
FF
F0
00
1C
33
24
F6
F7
FE
E4
09
E4
F4
F2
E3
EF
F5
01
06
FD
EF
F0
12
0F
13
10
11
15
03
02
03
23
FF
11
12
0F
E8
0A
0F
09
16
F4
F0
F2
0A
0A
F4
09
EC
FA
FE
0A
FF
03
F2
F3
09
04
16
15
06
E7
F9
F2
EB
DE
13
06
12
F9
11
EB
EE
EF
FE
E8
00
FA
F4
03
ED
16
FC
EF
FB
07
0E
08
F0
F2
09
EE
DE
E0
FD
0C
EF
F4
0E
EF
F8
00
EA
F7
F7
02
EF
EC
FB
E6
00
EB
01
2D
1A
12
EC
FD
ED
FA
F1
F7
01
07
0D
FB
F1
FE
FC
F0
02
00
FF
EA
F4
ED
E1
E8
ED
01
02
25
09
17
EE
E0
EA
E8
EA
F3
FD
DB
EF
05
06
F3
F6
18
12
00
07
05
E5
DA
F3
EA
EC
10
09
2F
FE
EC
FD
E4
ED
09
F3
F6
0D
FD
EA
12
0D
0D
0E
1E
04
03
09
F5
09
F1
D4
D9
FE
08
0D
1D
29
00
E8
F3
00
FE
0C
EF
0B
17
29
04
03
15
10
21
06
14
0D
F9
FB
0E
02
ED
FF
19
F7
09
F8
D5
F3
F9
0C
11
00
F7
1B
1E
12
0E
23
09
1E
32
29
1F
2C
0A
3A
26
16
19
F8
01
12
08
10
EF
01
0F
10
0F
0A
F5
F6
FB
F9
16
21
08
16
0D
1A
2C
09
20
19
0F
1D
29
1D
1C
02
12
07
F1
02
FD
0C
F2
10
0F
10
FB
05
FA
0D
0B
03
09
18
04
F7
17
06
1E
0D
11
04
08
0C
16
0E
F0
07
07
