06
EF
EE
F1
0C
FB
F8
04
0A
0D
0F
F3
00
F4
F7
F0
F5
13
09
0C
04
F3
13
F9
F6
14
FD
0C
FA
14
0E
F6
0F
1D
F3
14
03
1E
FF
1F
15
3E
F8
04
F3
03
1C
0B
13
05
05
21
F7
ED
13
F6
09
04
03
0E
24
10
16
0C
12
17
36
36
08
00
12
13
06
15
1D
04
05
18
1E
F2
17
02
11
09
12
F8
0B
05
FB
FB
FE
17
14
0F
29
0B
07
FA
0E
0F
01
FA
0C
06
00
36
27
24
12
17
F9
07
14
04
EF
EE
F8
E0
FC
F7
00
FB
F9
E9
F1
FD
FA
10
04
0B
11
0D
0E
F9
0E
25
08
ED
DB
08
F1
F6
ED
F7
14
EB
EA
00
F9
EB
EC
F6
FD
0C
07
F0
F5
FA
FD
12
FD
E8
FF
F3
F3
DC
DC
04
FE
10
09
F4
00
00
FE
F3
E3
F5
F9
F5
F5
F3
07
0B
EC
08
E7
02
FC
F1
E9
F5
EB
E8
DA
E5
1C
0D
04
F2
00
0B
E9
EB
E5
EE
F4
F4
F9
03
FB
FE
EB
0B
F5
FD
02
E7
09
00
DF
E4
EF
E9
24
F4
0C
11
20
FB
FB
E8
F2
F9
F8
F9
0D
FB
07
F5
FE
FE
0B
EE
04
00
04
02
F3
CD
06
EB
0B
0A
09
27
16
E9
FE
01
10
05
FB
09
08
FE
F3
02
08
09
F2
11
F0
08
F5
F4
F6
D4
ED
09
13
1D
1F
0F
00
F3
0B
F7
0E
17
11
1E
07
FA
F2
E7
F8
11
22
FF
09
0F
18
00
E7
F5
D6
ED
22
04
02
02
EB
FB
10
1A
0B
F8
F8
15
EC
F8
ED
D2
F4
02
F2
10
12
05
06
0E
04
CD
FC
14
15
F9
17
EE
FA
0B
0D
04
11
10
0A
FE
E6
EA
E6
F1
FB
0F
F3
FC
FD
08
1F
39
0C
EC
DE
E3
FC
F7
F3
EA
08
13
1E
09
FB
11
02
F4
EE
E4
D2
EA
EE
14
FF
F5
0B
F8
0A
2C
2C
01
E7
E8
F6
1B
F2
06
0F
1E
14
0B
16
06
11
05
E5
F3
E4
EE
F4
F9
FF
F1
09
1D
18
0E
20
07
E3
E8
F2
FC
ED
00
02
14
1E
26
10
13
08
FA
E7
E6
E6
E9
EA
00
06
13
14
11
14
19
F9
13
E3
F2
19
0A
E7
DF
F5
22
1B
0F
18
26
24
0A
F8
05
F0
E0
EF
06
15
1A
10
F7
04
EF
06
FD
D0
E4
02
14
0F
DC
FD
0D
FD
1F
2D
19
13
1F
F8
EE
F3
F1
0B
03
17
07
07
05
10
02
E1
20
F4
E4
FA
15
19
ED
E7
F6
F8
17
0D
18
21
02
FC
E9
DD
F5
13
12
22
09
FD
04
EC
EF
EC
12
F4
EE
12
F5
00
FD
E3
E1
0B
FB
FC
01
1C
11
02
F7
F8
03
01
1C
10
04
F4
0A
E1
07
0A
FA
08
E9
F7
02
FF
F4
FF
FC
E9
EB
F6
EF
FC
FC
EF
EA
11
0D
1C
FD
14
FE
F3
ED
F8
DB
F2
1F
11
00
F1
FD
05
13
04
F2
FE
E7
F4
E5
FB
FF
05
09
06
25
02
1C
EE
07
EA
FB
E7
02
1F
0C
F7
05
EC
09
F2
00
F1
0F
02
F6
01
F0
F6
E7
FA
FC
03
02
20
0C
05
0D
09
EE
03
F8
F2
17
12
FF
05
F3
F3
FC
E8
0B
10
FC
FD
E1
E6
EB
05
FA
11
13
FE
F6
03
EA
FF
0B
16
FB
FE
FE
FE
F5
F0
07
0E
F4
ED
0E
EE
DF
FC
FA
FF
F7
F7
0D
EE
00
F9
16
FA
03
12
14
1C
FD
0D
06
F1
F7
F5
0D
19
04
F6
05
06
E6
01
F3
EA
EF
F0
16
EC
0A
0B
F8
06
1C
0E
11
1F
04
04
03
ED
14
00
F7
F9
1A
08
FF
1C
33
28
0B
1C
24
2C
2A
38
17
2F
33
15
18
21
1A
0D
07
04
0A
05
06
FB
04
0B
ED
1A
04
1C
0B
16
26
09
26
1C
33
32
16
19
21
07
1E
21
09
02
FB
11
EF
0A
F8
F8
F8
F8
FF
F6
ED
FE
FD
11
FC
FE
0F
00
08
01
FC
0A
0C
12
12
0F
F2
06
F3
08
12
09
03
F6
10
10
ED
FD
0D
F5
29
06
0C
FC
06
15
09
01
01
FB
05
36
FF
03
14
03
0C
04
02
0C
F1
FF
FB
12
02
0A
FF
2C
F9
ED
11
17
0C
FB
F0
09
0F
1B
28
34
2E
3F
3C
38
2C
10
00
07
07
FD
07
E1
16
F4
1B
F6
08
EF
FF
F5
DF
B1
BA
D8
F2
F9
F4
26
07
18
07
1C
1D
07
22
1A
ED
F5
0A
DB
07
0D
07
F0
E0
EC
C9
D9
CF
EB
E5
E8
FF
DD
00
E8
F9
0D
11
0A
1F
05
15
FF
1C
F8
12
EF
EE
E8
1B
07
0A
F0
F4
E0
FD
FC
EE
F6
FF
11
09
0F
FF
F7
EF
F6
0A
FC
03
F9
F6
08
DE
17
EB
E6
18
F6
EB
D3
BD
D5
EB
DA
F1
0A
0F
01
1E
15
06
18
04
E7
DE
EC
FC
DF
FD
FA
FA
FA
FA
E7
EB
E2
D6
D6
C4
FE
F5
06
F4
11
24
0F
07
12
14
18
07
01
F3
1A
0C
DA
09
10
F4
09
E7
EB
EE
E7
EA
C5
EA
0C
FA
0A
01
16
1D
03
07
01
F0
F3
FD
01
07
15
05
FC
1D
FA
E8
D6
ED
FA
E4
DB
CD
ED
03
13
00
1B
FE
ED
EA
F5
D8
EB
00
FE
EA
03
21
06
F1
05
16
EF
FE
DF
E9
F1
F9
C3
CE
FB
05
0A
1C
18
04
03
E8
EB
EE
E6
FF
F1
02
0E
20
07
E4
07
16
E8
07
E1
DB
F0
E4
08
00
FC
0C
26
09
1E
1F
FD
E5
E1
EB
F4
FF
04
17
1B
1A
15
F4
F0
06
02
EF
CE
DE
F1
FB
07
0F
F8
10
04
0B
21
1B
11
03
11
10
0C
0C
0F
10
24
3B
0F
D5
D6
DF
F4
DE
D0
D4
F8
E5
FE
FD
10
0B
05
FF
08
22
0E
0F
F2
EF
0A
EE
0C
0F
29
11
F0
C6
D5
EA
E8
FE
E0
DE
EE
DF
F0
F3
F6
FC
13
03
06
0D
FF
F8
F3
08
F9
FC
FE
0C
FF
ED
D1
CA
E3
0A
F3
05
CB
E9
E6
E8
F3
F7
F1
F8
1B
17
00
0F
FB
07
01
FC
F4
FE
F2
0D
05
E0
EC
E4
DB
E4
FD
F8
05
E9
DD
E1
EC
EC
FE
F8
0A
02
F4
D8
F2
FC
04
F1
F6
F1
0B
F3
D8
F9
F5
DC
EB
F7
13
D1
F2
F9
D9
01
F7
F1
13
23
1D
19
FF
FE
F0
FB
0A
FE
EF
ED
04
0B
E9
E6
EC
EB
0C
DB
F2
F6
EA
D8
D3
EE
05
1D
11
15
12
FE
DA
FB
E0
04
FD
14
EA
0D
02
F7
E2
D3
DF
FD
11
E4
F7
05
01
C5
E2
12
E2
03
02
18
1F
ED
E4
DD
E9
08
05
07
EF
E8
0F
EA
DB
E2
E5
16
0D
04
F3
15
01
DB
E4
FB
F9
10
FC
02
08
01
EA
E2
04
F2
14
2A
F5
F0
F2
EE
D6
D2
E8
06
0A
04
F0
E1
DA
EB
EF
E0
ED
F9
04
0A
05
12
0B
03
07
FB
03
10
FA
05
F2
EB
B8
F1
FE
F2
FB
12
E9
F0
EC
D8
ED
FC
F6
FA
0C
03
12
12
19
00
02
FD
EC
FC
F0
DD
C9
CF
E0
F9
14
07
EE
0A
F1
F3
FE
E3
D5
E8
E9
04
12
08
F2
09
06
14
0A
00
00
FA
F8
DF
F0
D4
FB
E9
F9
F6
D1
02
EE
13
F2
F0
DA
F8
DB
F4
ED
10
05
16
15
04
FD
19
13
05
F8
E8
EE
E3
F0
0A
ED
FD
F6
FE
04
00
29
F1
EF
FE
FB
F1
E8
FA
16
FE
03
1A
06
15
2F
39
1F
0C
13
E7
0F
F9
EA
F0
F5
F9
F2
0B
01
06
24
0C
06
0E
12
15
26
12
20
29
2E
2D
26
20
15
E7
F4
F7
F9
15
F5
ED
EE
11
05
09
09
01
03
09
12
0C
EA
08
F6
02
FD
C3
05
0E
FA
E9
FD
F9
F8
DA
F6
FA
FA
F0
F0
F9
FF
00
F6
00
F1
FD
EE
F5
EE
F0
06
0D
0F
EE
00
13
FD
F4
02
EC
00
07
03
F7
0C
09
F4
FE
0E
FD
14
F9
ED
F7
FF
0C
FD
03
F0
F5
1B
08
0C
07
04
DE
E3
E1
F4
FF
FD
EE
F3
04
0D
F3
EF
14
F7
26
00
F3
FA
F6
F4
F5
03
FF
02
EA
03
01
05
FA
EC
F1
EE
12
08
FF
FD
04
0A
FF
FF
03
12
07
F4
E4
EE
ED
D0
E8
F9
D7
E0
E0
F1
C6
EC
D4
DD
DC
0F
07
E6
DD
01
FE
FE
13
F0
00
0C
0A
F2
E5
FD
F4
E0
CA
E1
F0
DF
F0
DF
F9
FC
F4
FB
FF
04
0E
1F
13
04
FA
07
EB
03
01
E7
EF
DC
EA
DF
F0
05
05
E6
E1
FE
07
EF
E1
E5
FB
11
FE
F4
0A
11
2F
F3
11
F1
EE
F8
F4
F9
11
F6
0F
1C
F0
F7
F9
03
02
F5
E9
EC
F5
E2
FA
EF
14
0D
1A
0F
16
24
F5
1B
FC
F9
15
11
FD
01
16
21
02
02
F6
ED
F6
F8
E9
E5
EE
D8
DF
FB
F4
F9
FA
02
1D
09
26
23
11
0D
18
FD
09
0D
FC
0F
0C
1E
FF
15
08
0D
04
00
E6
00
0C
F5
FC
08
17
19
0D
10
25
0A
15
0D
0F
E8
06
02
0C
1F
07
1A
14
0A
0F
22
14
0B
12
FF
05
1C
FE
21
0D
F9
0C
11
07
03
F1
01
F9
27
01
01
19
14
0B
03
15
1E
09
30
16
0A
FC
03
08
16
11
0D
02
0D
F0
19
2B
22
FF
F5
07
1D
0A
15
0D
22
1E
1A
0E
26
1C
2E
0F
F0
FB
F5
1C
20
0C
09
14
EE
08
02
3A
38
E6
01
04
29
05
F9
02
0B
12
09
2B
21
12
FA
F9
E2
D2
06
12
FA
01
F2
05
F5
F4
F9
13
1F
DF
F1
0A
0E
0C
00
1A
EE
FB
11
0E
13
14
DD
DA
D7
DE
FD
F2
08
E5
E7
F6
F5
E6
06
F6
32
FE
08
10
25
02
EB
05
05
F7
F0
06
0E
EF
C5
B5
DE
D1
E8
EE
F0
F9
F2
F1
FA
FD
FF
F3
1A
02
0D
FD
17
FF
E4
E6
F8
E7
E0
EB
EB
EA
CA
D2
DC
F4
E1
0B
FE
ED
00
15
F7
14
0E
FF
20
2F
F8
F5
F7
F1
E4
F4
F2
F2
F7
FF
EC
D7
D7
E7
04
06
EF
E6
FB
ED
0D
24
14
1B
0C
F2
13
22
F3
0F
E3
E8
F9
E9
E0
DC
E3
FA
EB
FD
ED
EB
FA
F8
1D
F1
0E
01
0B
15
F3
04
14
13
F9
2B
12
F0
04
FB
04
09
D5
F1
F8
E7
DF
08
F9
0A
07
07
14
09
08
09
10
0D
F9
0C
19
13
1C
0F
08
01
F9
0A
09
09
FC
0A
F2
EB
E3
F4
05
FF
25
11
14
10
F9
FF
EB
07
F4
09
F7
04
14
01
FE
F2
F5
EB
1C
0B
05
05
15
E8
F7
FA
18
08
FE
F9
06
09
06
04
09
01
00
E0
F2
E9
0D
01
F0
E2
FD
F0
1E
FA
26
02
11
11
FB
0E
16
0B
03
08
FA
00
0A
01
0C
07
F0
04
07
02
F9
1E
0C
EF
FA
FD
F9
18
1A
06
0F
1C
0B
04
02
03
07
0F
0C
12
01
F6
FA
06
FA
F4
0F
0E
FC
21
F3
09
DE
EE
F9
04
19
09
10
13
1B
15
FE
F7
FC
08
06
FA
07
FF
EE
F1
E7
E0
F6
F9
26
F9
FC
0B
FC
DC
02
01
08
FA
FA
FB
F6
01
0D
0C
0E
FF
05
0B
21
0E
0B
00
05
E8
02
F7
08
FB
01
FC
E8
16
16
11
F3
F6
01
02
FD
F5
07
0A
1C
FA
1A
08
FF
12
FD
FA
06
09
02
F5
14
EE
FA
11
13
06
F0
05
E1
FF
FB
DF
04
F9
EA
F2
E3
F9
F9
E5
F2
07
E1
11
1C
FC
F6
F9
11
10
03
F7
03
04
18
04
F7
03
EF
E3
01
F6
E0
07
EF
E5
1C
0A
F8
F9
E4
14
1F
FA
EC
05
02
0C
FA
12
ED
01
FD
14
FB
02
12
EF
0D
F7
00
F2
11
0D
FC
EE
FE
03
11
FD
12
F0
FA
0E
0D
08
F0
01
05
FB
ED
EE
07
08
08
17
F5
08
0F
05
09
1C
1E
1F
0F
01
03
0C
08
0B
06
0A
EC
14
ED
0B
F8
10
09
FC
FA
0A
FC
14
0B
13
24
12
1B
17
0B
09
09
F2
E7
FC
ED
11
FD
01
F9
11
F2
FE
11
FA
09
F5
0E
0D
11
05
FB
14
0D
01
0C
FC
1C
10
EF
F4
FA
04
19
1A
07
E5
E9
F9
F8
06
0A
26
F3
EB
08
0A
11
FF
0C
FC
01
FC
01
07
09
03
03
EC
E9
04
F0
F3
E4
06
21
14
FA
0D
16
F9
15
FF
E2
F7
EF
00
0C
02
13
27
FE
FD
FB
FD
05
0E
E4
FF
09
FB
F4
FD
27
0E
FE
EF
FD
10
E9
FE
F0
02
09
0A
18
13
11
26
14
2C
25
1C
2D
0C
0A
1D
01
F6
CE
EB
07
0D
FB
0F
09
05
F6
DE
09
FD
0E
0A
0B
1B
27
30
32
15
35
09
1F
25
1E
1B
09
ED
E8
F3
ED
03
07
14
09
0E
EF
F7
0C
15
12
0E
21
18
18
22
2E
36
2F
18
20
1E
09
0E
16
F1
F3
D4
07
F9
0E
FE
10
06
F4
F5
FB
03
14
19
FE
17
15
04
2B
14
07
11
08
FF
FD
06
00
0C
06
EA
0C
F8
12
06
05
0E
E2
05
F5
FD
F3
04
F1
F6
FD
03
14
0C
FE
0D
08
06
12
0F
03
14
FA
F9
F1
FF
09
13
FC
0E
F2
F6
0A
04
F0
F2
F1
00
F3
DC
EA
F2
F5
F5
12
F8
17
FF
11
28
0E
FD
15
08
FD
F7
10
00
FC
07
F0
F7
E1
EF
EA
E6
CF
F0
E9
F7
EA
04
FE
1B
FB
02
F5
11
1D
F6
FE
EE
15
01
05
F2
0D
F1
D9
FC
F1
DE
EC
D9
E7
F7
15
08
06
0B
F5
02
F5
12
E5
E5
09
F7
E9
09
E9
02
F1
F9
EA
E5
F5
DD
FD
EA
FF
E3
F7
09
0C
0C
FA
F4
FA
0A
FF
EA
FC
E6
F8
E3
1F
F3
F3
EC
FD
D5
0C
ED
FF
F8
EB
01
F2
F2
03
ED
EB
FA
F1
0A
F6
F7
FA
F4
DE
EC
FE
E5
15
09
05
09
F5
E7
16
F1
FC
02
F7
FA
12
0E
EF
FF
E7
F7
EE
F3
E2
E7
E2
E7
E3
F7
DA
F8
03
15
F7
FB
F8
F4
FA
02
00
F9
0B
02
01
0B
FC
EC
F6
F8
FD
EA
FC
F9
03
F5
05
F2
EF
29
0C
FA
0C
05
FF
D8
08
F8
FA
E6
08
FC
FE
EC
03
E4
EB
FD
F0
0F
F1
0C
FB
EC
F3
E8
07
18
1D
1E
06
15
F8
EE
00
0F
09
06
F5
F5
12
09
06
03
F0
F6
01
F0
08
03
0F
F1
F4
F8
22
0F
1D
FE
F4
F8
E4
F4
1C
0F
1F
FC
FC
F6
06
EE
F4
FB
09
EF
0C
01
1C
19
11
09
05
E8
13
0A
01
F1
09
0F
0F
0E
17
16
33
1D
16
FA
18
07
0D
FA
F8
FE
07
07
F6
08
00
15
F2
0D
19
02
13
F7
0C
13
0D
F7
10
18
14
16
18
FF
E9
10
00
F7
0F
08
05
F0
02
EF
08
FC
F8
1F
29
18
E6
11
FE
00
FE
F9
F6
12
0D
0B
1A
F5
07
F7
FE
16
F5
FC
04
F7
F3
02
EB
FE
28
28
0D
15
DE
FB
00
ED
07
E7
08
EB
FA
10
11
04
03
0C
1B
08
1D
FA
FD
14
0A
1C
09
1D
0D
24
FC
EE
01
01
F4
EE
F9
FE
2A
25
15
0D
2E
29
10
1A
24
1D
19
24
1D
20
21
2F
24
23
20
0E
0C
0F
03
0E
14
F6
F3
16
01
1F
1F
2F
30
42
45
2E
32
39
51
2C
40
4E
2C
31
27
2D
05
22
0F
14
FE
0A
F8
FF
02
F3
F8
00
F5
F4
FB
F3
0B
28
18
1C
3A
2D
10
01
18
05
17
14
ED
EE
12
10
FD
F9
F8
01
10
EF
F7
0C
0E
F6
08
F1
FC
FC
11
0F
F7
07
FD
02
14
FD
F1
03
0B
F5
06
FD
00
F8
ED
F4
F4
13
0A
FE
01
0A
0F
10
0D
EE
07
F9
05
F7
03
02
F8
03
09
0C
02
08
03
04
F5
F4
05
00
02
EC
F9
0A
F8
F9
0A
EA
ED
04
EA
ED
0A
0D
EB
0C
1F
FE
FE
09
F9
03
04
F2
0A
12
0C
11
FA
07
03
F6
04
0B
FD
F5
EA
0B
0B
E1
10
07
07
05
06
0C
FA
ED
FA
DF
F8
DE
F9
FB
0F
1F
14
1B
05
F6
F9
F2
EF
DB
F5
E7
F9
06
1B
14
06
FC
0A
F4
DC
11
F4
D8
16
0C
18
EC
11
F5
08
DD
01
F7
F3
E2
01
FE
D5
F4
20
0A
19
02
1B
15
0E
09
F7
F8
0D
E6
F8
07
20
FA
FF
0D
17
08
0B
F1
E7
E1
F2
E8
03
0F
09
0A
08
F3
ED
0D
FB
F8
0D
EF
E1
E7
E7
FF
F4
08
F1
1F
09
19
0F
E2
E6
E5
CE
F6
FD
FD
FE
FB
EF
01
06
E7
EE
F6
F2
09
F9
F1
FF
17
F3
1C
EF
09
0E
14
05
F9
EB
D9
BA
03
04
01
FE
07
00
EF
F9
02
EE
F9
07
21
01
1F
10
29
0E
2F
0D
26
18
36
0D
08
F3
CF
F5
E8
F5
EF
ED
ED
0B
F3
F5
13
FC
06
20
FA
1C
09
F8
27
39
DE
0F
EF
1B
1B
1F
03
F8
0A
EF
EA
05
0A
0F
FD
01
06
08
FF
0D
FF
0D
19
11
05
36
4A
2C
F3
05
F8
12
24
12
21
03
06
F6
F3
E5
F4
1A
1D
18
1C
0D
26
29
1F
14
0F
13
24
1E
47
2D
0F
17
0E
28
2A
29
04
04
0E
E8
07
ED
E8
E9
03
2C
1D
1D
20
0C
06
0A
EB
EB
0B
F5
2A
1B
FF
E8
FA
03
1A
31
0D
DD
E5
F6
03
E3
F9
F4
FD
10
23
F7
07
E8
0E
E7
FF
E3
E5
E6
17
ED
03
F5
27
1C
11
F3
0D
EF
DD
EB
FD
EC
F6
E7
F4
05
FA
06
FE
E1
EB
F7
F8
EC
EE
DB
08
D0
F0
FF
0C
F2
0B
06
14
0E
02
F8
CB
D6
EF
F8
04
E9
E7
F7
E9
08
EF
EC
06
E8
D6
F8
04
08
FC
F2
05
16
09
FE
10
04
F0
F6
CB
EC
E8
CE
E5
E8
EB
0A
00
0D
EB
08
DA
F5
F0
F3
E2
FE
F3
FF
0B
0C
18
04
FF
1F
05
0A
03
F1
EE
DB
ED
EA
F8
18
0C
06
E5
E5
EE
DA
F5
DF
FC
19
FD
2A
15
28
06
F0
15
29
03
11
F5
14
F7
0D
FE
01
16
0F
10
11
EB
F5
EF
C9
E4
DF
0A
1A
D1
03
0E
3A
0D
01
FA
10
02
19
00
00
0B
01
05
FF
0B
19
F5
09
F3
D9
BE
C8
F9
DD
05
04
D6
FF
10
15
03
13
09
FE
18
14
17
FC
16
F6
FE
04
1D
0E
0C
F0
C5
B4
D8
CC
FB
E1
07
FE
E1
DD
FE
05
13
03
FD
17
08
08
EF
FB
1A
14
13
17
13
F8
05
D2
90
B7
DE
F4
F7
E6
F2
F8
FE
E1
0A
FC
EE
ED
EC
F2
FD
03
10
0A
0E
02
14
10
F6
E3
E3
B9
AD
D4
DF
F7
E0
E8
D6
EA
EC
EF
0A
23
08
27
E1
F1
D7
02
F9
09
F9
F5
E9
E1
D6
CD
CF
D3
D4
E5
F6
F8
F9
05
DF
DD
10
12
FD
04
28
09
FF
00
F5
FF
ED
FD
ED
D2
FF
D2
E4
F6
E8
F3
F8
EB
FA
01
03
EC
F0
E9
EE
13
EE
03
1C
11
FB
2C
17
08
0A
F7
F5
FC
01
0A
0A
10
FA
10
0A
00
13
27
31
10
F6
03
F0
00
0C
06
F5
E9
05
04
12
0B
11
07
13
1E
19
0C
0B
0A
F9
05
18
16
34
34
19
1A
00
07
08
F0
0B
F1
02
06
39
05
0A
24
29
3B
17
27
25
14
0E
FC
21
22
2E
FF
29
09
18
0D
F1
10
F7
03
08
10
07
09
10
FD
FC
08
12
04
10
04
F1
F1
0E
0B
0B
F6
F1
0A
0F
0E
EC
09
FA
06
08
00
F9
FB
F9
EF
00
E8
F2
02
F3
EB
03
07
E4
02
F4
EB
EA
F4
D9
E4
08
FC
0C
EF
04
00
FD
04
F6
E5
0B
EB
E4
00
F8
D7
00
FD
FC
F5
05
F1
F8
EB
09
F2
FD
FA
F3
F5
D6
F7
ED
FF
07
04
FD
EA
FA
15
02
F3
D8
EE
07
10
F8
F3
07
0D
EC
02
F2
D1
E9
D0
D0
E1
D8
E9
08
01
0E
13
F1
01
FA
FB
0F
FC
FA
EB
F6
03
EB
DF
F6
D6
FC
FF
FF
E8
D8
E6
F3
DD
F4
09
01
EB
F3
EE
F0
FB
F3
12
2B
26
F9
18
15
F7
F3
ED
F9
E7
E0
FA
F0
EB
D6
E6
DA
09
14
12
F8
ED
02
12
00
10
0A
16
02
03
14
18
19
00
F4
EA
E5
E2
FE
F0
FF
E5
E8
E5
DD
F5
F1
0B
EE
06
17
0B
00
29
05
EE
15
FF
06
06
10
03
FC
FA
F4
F2
F5
03
EA
EC
FF
F5
F9
FF
F9
FE
03
05
0B
F5
FF
11
10
EF
0F
FF
F2
05
F2
FB
07
FA
E2
FF
FF
0C
FD
19
05
01
0B
0E
0F
F0
10
E2
EA
02
15
F0
10
FE
F5
F5
F0
F9
09
FC
07
FD
16
F7
01
11
08
2B
25
0B
11
08
15
01
27
0C
F1
14
2C
0E
05
FA
FD
FD
FA
FB
03
06
FE
09
12
13
25
34
1B
07
FE
0E
10
0D
F2
00
2F
1D
FF
06
FD
1B
0F
FC
E9
1E
09
1A
0C
F3
17
FC
FD
0E
2F
2C
28
1D
05
FB
12
E8
F7
FA
20
F5
F0
0A
FC
19
F4
03
F5
17
0F
0F
0F
20
0C
11
F8
1D
08
0A
0D
08
0E
07
03
E9
C6
BC
EA
01
29
11
05
00
05
08
11
00
FE
1A
07
19
04
04
FA
11
FC
2B
20
19
0A
03
F5
DA
E2
CB
10
16
08
16
05
18
11
1A
09
FB
13
FB
19
0D
FA
F5
10
ED
17
08
2B
11
19
08
FA
05
F7
01
04
07
16
15
18
09
15
FB
15
1B
1D
18
1C
0F
EE
F6
FA
03
1A
21
1B
24
01
FE
0F
FF
11
F8
E8
FB
0D
16
FA
15
F0
F6
FA
07
03
18
F5
F8
03
00
EF
13
10
21
02
08
1B
00
17
0B
F9
04
F2
FA
F9
14
E7
F9
01
0B
F0
25
0F
09
15
11
FA
09
02
1D
2C
25
18
13
01
18
0B
F9
1C
1F
1C
F6
07
12
F4
07
12
1E
01
FA
F6
00
01
16
FD
07
ED
02
04
FF
FE
F7
15
FA
09
FC
0C
1D
02
FF
1D
0D
ED
EC
F3
10
FF
11
F8
FE
F5
F3
F5
E9
F0
FC
F9
E2
DE
DA
FB
F6
F0
DC
FF
01
25
F3
FD
FC
E0
F9
03
F0
E6
D9
E7
DC
D5
DB
F7
EF
F2
06
ED
F1
F1
D5
E8
E7
D6
F4
E1
0F
0D
10
09
15
F4
F2
F0
E9
CE
E2
F0
DA
EE
EC
F1
DB
F7
E5
F2
F8
D7
DC
D8
D2
CD
E5
EB
E8
14
FB
EE
F1
0F
DB
F6
FF
EF
DF
DB
EC
F8
F7
FE
EB
F4
ED
DB
DC
E7
EB
D8
DA
E9
F1
EB
11
0E
FB
EB
FA
F6
F8
DE
E9
0D
01
01
ED
09
FB
F6
E4
DF
EF
E6
F2
F7
F0
F7
F9
E8
F8
F1
09
F4
06
0A
F0
FF
F9
ED
09
14
04
FF
EE
08
08
EB
E9
F6
FE
F8
E2
FB
0A
14
0E
19
17
10
F1
05
17
FA
03
08
EB
0E
0A
20
0A
E3
FA
F7
E4
06
FE
FE
06
12
0C
02
F7
FB
0F
02
27
27
1E
F6
F7
FD
06
F8
08
FE
0D
FE
18
19
05
F6
08
17
F7
1D
1E
26
FB
F4
F7
0B
F9
F3
1E
F8
E4
0C
FA
01
F5
12
02
FE
07
07
02
0B
28
F9
10
03
10
08
13
0F
21
09
12
FF
17
0E
05
04
01
05
FB
03
0E
F7
EF
F5
14
F1
F2
07
EE
FF
F5
F5
08
03
02
0F
F7
F1
F3
0E
F3
0E
F5
12
14
09
0D
06
11
F3
06
02
0E
04
1C
15
27
0B
34
26
23
1C
ED
17
18
17
13
21
18
20
14
14
F3
F6
ED
F8
00
FD
03
1C
1F
03
08
24
1F
38
47
44
33
22
17
1D
12
20
1A
04
1B
3B
1B
2D
1A
18
07
FF
00
11
F4
1B
10
10
29
27
40
28
28
48
36
0F
1C
18
2C
18
0B
23
12
03
F0
0B
1B
10
F9
EC
ED
08
FB
08
14
13
13
00
08
14
11
1F
FB
11
16
FA
17
FF
0C
FF
07
16
06
EC
E5
F1
E0
16
F5
F4
F6
1C
27
23
FF
1D
FA
1A
09
0E
16
05
08
0F
01
FC
08
07
E9
EB
09
F3
FD
D8
EB
F8
03
11
25
27
31
18
F9
18
0F
F6
FE
FF
00
0C
16
FA
11
0D
FA
0C
01
09
FB
EF
F3
E3
D5
D6
10
14
1A
1F
36
16
13
F3
F9
02
0F
F4
17
11
13
F9
FB
F6
06
F6
E9
04
F2
DF
E5
E7
E5
D5
0C
FF
1B
22
1C
F7
07
EA
E7
E5
E9
E6
FA
F8
0C
20
09
10
FD
F9
FB
F7
FB
EC
D2
EC
07
F6
12
0F
2F
03
21
DD
D4
F2
D8
F0
EF
ED
D8
E9
03
0A
0F
00
F9
07
FA
01
F5
EE
F2
D7
F0
13
F8
0A
1D
18
EA
FF
EC
D7
E0
E1
D9
DE
D0
F6
EF
03
09
08
0D
0D
F4
17
F7
F0
E8
C9
F6
0A
11
FB
F0
E5
E0
E7
DA
C2
EA
DB
EF
D5
FE
F9
FA
EF
05
F9
00
FB
06
08
0D
07
F7
E0
E0
14
F1
0A
01
F5
DC
F1
E7
D4
F0
EA
EB
04
03
FF
E3
E2
FF
0C
F0
F4
F3
FA
18
1B
1E
E7
DF
F2
F3
ED
FD
E4
F4
EA
E6
ED
02
0C
0F
04
01
F3
E4
E3
F8
FF
E9
E4
F8
E9
07
24
47
0C
FC
01
02
09
11
FC
07
F8
FC
12
17
06
02
14
F7
EC
ED
E0
F9
FB
FD
0C
ED
F6
06
1E
1A
05
1C
11
F9
F6
F5
EF
08
20
15
21
1F
FE
F9
02
FC
F7
DE
E0
FD
FC
ED
0B
07
20
03
14
36
13
1A
08
FE
1E
16
0A
06
1B
0D
1C
FF
0A
16
1B
F9
F9
F8
F3
FB
FB
0A
15
21
09
11
FE
24
0D
09
F4
13
0A
10
F6
0F
0F
0E
0F
FC
03
F9
13
FA
EB
DB
FD
F3
0B
13
15
12
05
0D
00
F5
2E
03
00
F7
EE
F7
FD
0E
F9
05
09
0B
17
0B
10
0F
06
E8
FB
14
1F
0A
08
0A
18
22
16
F3
1E
0D
1F
F2
1A
02
1F
FA
F3
00
FF
FC
0B
0A
17
0C
16
F6
13
FE
18
04
02
1A
1D
F7
F9
F8
1F
10
FD
12
06
13
2B
17
05
FA
FF
0E
16
18
28
23
0E
23
0D
12
FE
FF
18
10
07
06
DC
04
12
01
F2
FA
1D
0C
0B
0B
05
03
F7
0B
03
FF
03
27
15
14
02
1B
05
0F
F7
F3
00
F4
F5
EF
0E
09
F8
E1
06
36
2C
F8
15
12
0F
0F
0F
0B
FC
02
FE
05
19
02
05
09
F6
F4
FA
EE
E2
FC
10
1F
1A
0D
03
FD
10
17
06
00
15
FE
FA
03
ED
11
14
ED
0D
0D
0D
08
FD
E5
F8
ED
F2
27
24
11
EE
EF
EE
1F
18
19
03
E5
10
0E
14
0C
04
12
07
0F
EF
14
F7
0D
E4
DC
EF
DE
DF
F8
07
24
FD
F0
01
0C
FB
10
21
09
04
05
F3
0B
E7
F2
06
02
E2
D6
D6
DC
F9
EE
E4
E2
F2
F8
00
11
FF
01
F9
F4
FD
FA
FF
09
E9
0B
E6
0D
F3
03
05
F5
0B
18
0F
FE
06
ED
02
ED
0C
0F
05
01
00
F7
FB
13
05
06
0E
0A
F3
00
FB
F3
FD
00
06
FF
12
F3
19
FF
FA
F5
0D
16
F2
F6
F1
F5
F5
FB
F9
09
FA
05
05
0F
0E
FE
FC
08
F6
FC
FD
F8
02
FB
11
06
0F
F2
FA
FD
00
10
06
F3
ED
FE
04
0B
FC
11
04
16
14
23
0F
11
19
0F
06
F6
18
1D
0C
1C
32
17
10
1D
FE
0B
07
12
0B
EC
FA
1B
12
19
2E
1E
23
33
43
3E
28
3D
24
1B
33
28
2B
1F
30
32
36
38
2C
04
F6
0D
09
F1
14
16
1C
06
15
23
35
39
26
25
30
43
2A
26
12
26
1D
FD
1E
2D
1F
30
35
0D
2E
02
02
02
07
04
13
13
24
03
FA
F6
0F
15
1D
22
0E
15
1D
06
16
1B
26
15
14
FC
FD
1A
12
08
1E
14
0D
FB
E5
0A
0C
DF
FE
FA
04
1F
F7
15
04
03
04
18
EF
04
F9
00
16
0C
F3
12
09
01
0B
F6
F6
09
1A
FA
E3
ED
0C
27
01
07
F4
ED
F3
EE
10
15
F5
0C
06
FA
FF
07
13
06
08
F4
1C
20
09
0A
0E
05
07
1A
11
11
0E
0C
15
F1
02
F9
11
F3
F1
F0
0E
FB
F1
05
F4
FE
05
04
14
F2
1C
15
11
10
04
07
0A
0D
F9
0E
04
FB
08
00
EE
F7
F5
EF
01
07
FF
0B
F8
01
EB
F8
1B
0C
1E
12
30
16
05
16
08
14
FA
02
0E
07
00
04
F1
FC
E5
EB
DF
E7
EA
04
F1
FF
FB
0B
FF
05
05
0C
17
37
07
1A
11
14
0B
EF
10
0A
03
00
03
F6
E7
E9
FB
EF
F2
00
F5
09
10
1B
06
13
0F
29
31
42
1F
01
11
F1
FF
FD
E0
04
10
1B
09
07
EE
FC
ED
FC
04
06
12
13
0F
09
12
0E
0C
2A
10
04
FD
02
FC
F5
EB
F5
EF
E4
EA
01
18
15
FA
0A
07
EF
FB
02
04
09
0B
E5
F2
13
0A
09
16
01
DB
E8
EE
F9
F0
F0
E7
E0
EB
12
0A
14
09
04
F7
F0
FC
EA
14
0E
1D
E8
06
FA
00
1B
07
E2
D6
CD
D6
D8
F2
E5
EB
EA
FB
20
04
10
00
F3
10
0B
FB
F3
EF
F2
0B
D5
E7
0E
02
21
07
DD
C7
DD
D4
E1
E7
02
EE
0F
11
25
04
F9
E4
FC
0F
E9
0C
05
ED
F5
0E
E9
F3
10
01
03
11
DA
DE
04
E4
0D
02
F4
12
00
26
23
03
E3
DE
F1
00
00
EC
FC
02
02
F3
C6
E0
11
14
35
0D
DC
E2
F0
0D
08
0C
10
F7
16
08
17
FB
09
07
EA
F7
FF
F2
EF
F6
1A
01
F1
01
FB
06
2A
0C
EE
00
F8
02
FC
FA
0D
01
17
22
F6
ED
F2
F2
0D
FB
09
02
04
EE
05
E6
03
E7
FA
13
27
13
1B
FF
0A
07
1F
09
18
0C
08
14
1C
F6
0D
FD
FD
16
08
01
10
FC
02
E6
E2
FA
0B
13
15
1D
13
18
1C
0A
02
1E
05
00
11
FD
19
15
01
1A
04
15
1F
06
04
07
D1
D0
06
15
FF
15
F2
1A
FC
09
23
21
0B
0E
0E
0A
18
13
11
16
04
10
0C
01
0C
FD
E6
F4
DD
EA
F0
E3
04
00
E3
FE
1C
04
04
17
FF
11
05
17
F9
12
11
05
05
0D
19
FF
0F
FA
F1
D1
D4
00
EA
F4
0C
F1
EE
14
0B
05
12
E7
F2
00
E0
06
F2
01
18
13
06
F1
05
06
EE
EC
EE
FD
D9
D4
F8
0B
07
FC
F7
F5
E3
EF
12
00
0C
0E
02
10
03
15
1A
FE
02
FA
EA
18
E1
DF
ED
EE
CA
00
EC
0A
FF
FD
E2
03
10
FF
04
0B
11
14
01
1E
23
07
1D
1C
11
0C
0D
05
08
F7
F9
F6
E5
FF
F2
FF
10
EF
FE
F6
FC
FA
24
23
09
0F
1F
26
1B
0C
FC
0F
14
03
09
0A
29
03
04
13
F6
04
0F
0A
11
0E
FC
FB
00
1C
1B
10
35
10
2B
01
11
28
04
1B
29
15
1B
24
FF
1D
04
06
F7
07
F6
06
F2
F4
09
EC
0D
F4
12
0A
FA
05
FD
0F
F8
FD
00
03
F7
0A
F6
0D
F8
10
07
0D
00
FD
01
FC
0D
ED
F0
0F
03
FF
FC
0D
FC
FD
00
EC
07
EF
10
F8
F7
FD
F1
00
F1
FC
F6
FA
F5
FB
0C
EE
0D
F6
F3
F5
EC
19
00
0A
02
0B
11
0A
12
22
20
FB
FE
F3
FC
1B
1C
12
13
01
EC
05
F4
07
ED
EF
05
E1
F2
14
1E
1D
06
F5
15
10
FE
12
0F
F3
F1
09
09
16
22
FA
EF
D5
F2
F3
1F
FF
F9
01
E8
F8
F8
1C
F9
19
17
1F
12
2A
0B
13
03
FF
13
FF
FC
EC
EE
FA
0F
F7
0D
12
EE
06
08
0F
F2
00
0B
0F
1F
1E
0F
12
16
19
00
07
E6
01
00
E8
E7
0D
02
E8
F1
02
23
04
F5
F1
09
01
05
FA
14
16
2D
1D
11
25
08
0C
11
F7
F7
03
FF
04
04
04
0A
FE
EC
FC
03
16
FA
00
0A
00
E9
03
08
13
1F
20
2B
02
0A
0A
14
12
09
07
F0
00
FC
FD
0E
19
F6
01
13
11
FB
0F
E7
19
FC
0B
14
26
03
13
08
FB
11
EE
00
11
FD
FA
0F
01
F1
F2
06
F9
07
FD
12
0A
09
E4
13
0E
04
14
04
1B
0E
1B
12
0C
EE
07
F8
09
0D
00
F3
E5
FF
EF
07
EF
FE
0B
F0
0D
04
09
F8
1A
0A
16
10
03
09
16
F7
0B
FF
F7
F3
0C
04
05
14
FC
F9
FC
F3
E6
F1
D9
FD
06
02
FF
FF
0B
F0
0F
1E
0A
F5
F5
FC
09
FC
11
10
EF
F7
F0
FC
0A
13
F7
EC
D9
E1
E8
07
19
04
F9
04
00
0B
FC
07
F0
EB
0D
01
FE
15
07
1A
FA
FF
02
F1
F7
F9
EF
EA
FD
DB
D3
F3
19
2A
0B
08
00
EE
1C
F0
EA
E3
0F
FC
07
16
FB
EF
F7
F0
F3
17
11
16
1A
02
E5
05
E7
FF
EC
05
EF
F6
11
02
14
16
01
F0
F1
0F
12
12
F1
04
F6
05
06
17
08
01
07
05
FE
0E
0F
0A
01
E8
E5
0F
0A
F1
19
07
EB
EF
E0
EA
E2
EF
EA
F8
15
10
14
04
2D
24
07
0A
F6
F5
12
F5
F5
02
DE
04
FB
08
2E
17
FC
F3
EC
E3
F2
ED
FC
E8
0A
2B
0A
29
20
0F
08
01
ED
F4
FA
FB
E9
F2
FF
13
10
12
20
13
F4
06
FA
E5
F4
C9
D3
F1
0F
3B
18
17
08
1A
06
22
0C
07
01
07
FE
E4
E6
0E
0F
0F
19
07
05
F6
03
E3
EC
CA
DE
FE
46
3B
1D
2C
12
06
13
17
FF
0D
F7
0D
E8
F6
E9
08
07
19
2F
17
FF
12
0B
00
D6
CA
D9
20
4E
2D
09
22
21
16
0C
F9
FC
E9
F3
16
EC
DC
F5
07
03
14
13
F6
01
09
EB
EF
DC
E3
E0
28
1A
0E
0C
11
20
0E
FF
0E
F8
03
18
0F
0D
F4
09
04
12
0F
FA
0E
E4
FF
09
06
F0
F4
E8
05
0C
1E
0D
0B
02
03
18
19
0B
F4
FC
02
EB
04
FD
F0
13
19
FC
FF
F9
E5
EE
F0
E9
FD
EC
F4
F4
FD
1E
18
1A
14
11
0F
03
13
0C
0E
FD
04
FA
00
13
05
16
1C
0E
F4
ED
E3
F9
07
F8
E9
FE
F3
02
1C
F8
22
13
0F
14
0D
F5
07
F9
04
03
07
02
11
34
12
22
15
1A
10
F0
0B
F6
F8
FD
FB
F9
EA
03
00
29
28
1B
03
0B
03
F7
F9
08
14
10
03
02
26
0C
1A
12
0D
09
FE
FE
13
18
02
23
27
1A
05
19
0E
07
26
25
22
02
F4
F0
13
13
ED
00
0E
F8
FE
0C
F7
01
FC
FC
E2
10
FA
F6
00
F9
FE
10
FE
01
FE
FD
07
10
0D
F9
F3
F8
FA
FE
FF
15
F2
E3
F3
F5
1F
0B
F2
0F
13
06
10
00
F6
F9
D9
EF
0F
09
F7
FF
0F
0B
EC
05
F1
10
12
F3
10
04
0B
FB
FD
FA
1B
05
ED
06
0E
ED
F4
FD
EC
03
F9
FE
F2
10
14
04
FC
0C
FA
0B
26
0F
0E
2A
2D
0E
11
F6
11
19
F3
13
12
2F
19
11
27
11
0E
00
06
F6
0E
09
04
0E
06
FD
0F
14
24
2D
37
32
20
39
2A
25
2B
2B
1B
1C
17
07
2A
17
18
18
05
0A
F4
FF
F6
12
06
F6
1C
19
20
2A
21
1B
1F
33
19
36
24
18
15
28
31
19
25
03
1B
04
06
1F
F4
F1
EC
06
FD
FF
24
13
02
F7
25
25
26
0F
FE
FA
F5
F2
06
FA
19
FE
05
0C
03
D7
F9
12
02
FD
FE
02
F8
08
1A
07
06
0E
FB
ED
F0
F2
F2
EA
EB
F4
ED
0A
E3
ED
05
ED
F4
ED
15
08
17
02
FA
FB
EB
F5
F6
FD
20
08
00
0D
F0
06
0A
F6
15
05
08
0D
04
DF
03
F5
F7
04
02
24
ED
EC
12
FD
09
10
FF
10
11
FB
F0
07
0D
06
06
0E
22
2A
17
F0
EC
FB
07
09
F3
00
08
EF
F9
00
F8
19
F2
FC
19
01
F3
0D
F6
F6
12
F1
0E
0B
1E
06
FF
EC
F9
EE
EF
01
0F
03
16
0A
F2
F6
05
2C
0C
05
FC
04
F0
FA
07
F7
07
F5
08
FE
16
00
E9
F4
F2
FB
0F
06
0D
07
EA
F1
FC
FA
0A
0C
1B
23
15
EA
14
10
FB
0B
1A
FD
0B
0D
EA
DC
F0
FC
13
FA
1E
0A
08
04
F3
D5
E2
FE
1C
23
20
1D
01
FD
13
18
03
0F
0B
11
EF
EA
F3
E8
FE
FE
1B
12
1B
1B
1E
10
F1
DE
FC
F7
14
15
33
0E
25
04
17
0E
0F
FA
F1
07
06
EA
F2
0D
06
0C
1C
03
13
38
16
26
F0
E0
F8
E1
FC
06
27
12
32
10
00
EF
0A
FB
03
F5
DD
02
02
00
1C
12
0F
17
2D
0A
14
10
F7
E5
F0
FC
F2
FE
1D
0E
FA
FD
00
05
EA
F8
ED
F6
FB
F0
07
1A
07
F7
0A
01
02
0B
1C
14
EE
EF
E3
E3
EA
F5
FD
00
EF
03
FE
F0
EE
EC
F5
00
F1
0E
18
04
14
0A
08
ED
EF
01
FA
FD
EC
07
02
E8
24
06
08
EA
FA
DF
F7
F7
E0
EA
00
1A
02
06
0F
F9
1D
EC
EA
F7
F4
F0
05
08
DF
0E
04
ED
06
15
11
0B
F5
03
E2
E4
E5
0C
0F
0E
1A
F6
09
01
F9
03
0C
04
08
E1
09
F6
E9
F2
EA
FA
0B
F9
FF
E2
DD
ED
D3
F1
F6
0A
0E
16
1A
03
FA
10
EF
F6
01
EF
EE
D9
02
F7
DA
EB
08
E6
ED
FA
03
EB
EE
E6
EA
EF
01
17
0D
09
03
F5
F0
F7
0F
04
F7
01
EC
D3
ED
D8
DC
FD
EC
E2
F0
FB
07
E9
E9
E7
E6
F8
F9
EB
02
07
0D
FB
E3
EB
EE
00
FC
03
E4
DC
FC
FD
F3
FD
0B
DE
FF
F0
E9
F0
DC
F5
ED
0F
EC
F3
ED
05
0F
0E
FF
FE
FF
E7
01
01
E2
EB
DD
EB
00
0C
09
FE
ED
E9
FC
F0
DE
05
F2
03
FF
F3
07
F5
08
F5
F1
06
F7
FB
E5
E1
DC
F4
F0
EB
FA
F6
EF
F7
FF
F4
E8
E4
07
E2
E9
FF
06
08
FC
0A
FB
0B
08
EE
F9
F2
F1
F2
E3
EA
ED
07
08
06
DE
F2
FE
06
F2
FB
07
01
06
04
0A
05
14
FA
FC
13
12
19
10
20
08
05
15
13
0B
FE
EF
E4
E4
11
11
0E
DC
E5
03
27
0F
08
27
14
10
03
13
FE
26
27
1D
24
33
15
23
2B
27
F7
19
FF
E2
0A
FB
07
03
F5
03
05
20
35
44
39
29
41
4D
30
3E
58
4A
2D
35
2E
41
2D
17
11
12
FF
11
EC
F0
EE
11
13
10
FE
15
26
29
23
2A
22
23
2B
39
1B
18
36
33
17
03
04
1C
0B
F8
F6
0B
08
02
F8
00
03
F2
F8
03
F2
0B
06
F7
02
FA
FD
09
0B
0F
0F
FE
11
F5
0D
13
06
F6
EF
0B
EF
F1
0E
EE
09
EF
F4
04
F0
ED
11
F7
07
F1
F3
0D
F4
0C
15
0C
0D
04
F0
0C
0C
09
11
FB
13
FD
14
FC
1C
1B
EF
F7
F7
FF
E9
F9
F4
F7
EF
E8
F6
F3
EA
E6
D8
D8
D3
E6
F0
F7
FA
02
03
0A
13
20
FB
09
EE
F8
00
00
09
EE
02
F7
0C
10
EF
F9
F2
FE
D8
D1
CE
CA
E0
EF
DE
E5
F1
FD
E6
06
EA
03
E1
FB
ED
F5
32
28
10
1B
0F
19
19
05
0D
01
0B
F7
02
FF
00
F3
04
11
01
07
05
FE
00
E6
DD
07
F8
03
FC
0B
0D
12
01
F8
0D
F5
0A
14
FE
F5
09
01
08
F4
0D
FF
04
01
FA
06
01
0E
ED
17
09
FB
05
FB
04
0C
FD
F6
F9
F8
04
14
F7
F6
07
11
0B
01
10
07
00
F6
12
10
12
F1
F6
08
01
FA
F5
EE
FA
08
FF
FB
F3
F4
04
02
03
13
F6
14
F8
19
F8
F7
18
0F
14
0C
16
03
07
07
FB
05
0A
07
FA
0A
19
06
14
02
0A
04
1F
0F
FF
15
0E
26
F8
1F
1A
06
27
0F
0F
17
14
19
01
24
FE
1D
19
FD
06
1B
07
14
10
FB
04
1C
F2
10
09
09
08
10
0C
0D
02
19
29
1B
08
17
24
0F
0B
1A
0A
11
10
1E
16
0E
0E
04
FB
12
FB
FD
F8
27
05
2C
10
F7
07
05
FA
0B
21
23
0C
07
F7
FD
EE
EF
12
0C
04
F1
F1
08
06
07
01
FB
14
21
1D
25
F7
00
FF
24
F2
10
04
FB
F5
FB
F0
F4
E3
DC
F5
F5
FA
DC
E3
F3
0C
F8
0A
F1
06
0B
0C
24
05
07
0A
10
01
DE
03
03
E2
ED
E1
F3
EA
E8
EA
E4
DC
F1
F1
E9
05
EC
F5
E6
03
F5
F2
16
00
FD
0E
1E
FF
E2
F4
D9
EA
D8
ED
EF
FB
ED
07
FE
FF
E0
E2
06
05
03
F8
E2
FB
05
F1
03
0F
FB
FD
1A
E6
DF
E4
E2
EA
D6
EF
F2
E6
FE
00
17
F0
E2
E5
E7
03
EC
EE
01
01
17
F5
1D
19
0C
FC
F2
12
F7
03
E0
DB
E7
02
08
00
01
1F
04
06
F4
F7
E8
F9
F4
F4
ED
12
03
0A
0F
13
F6
F0
F9
13
1D
0E
FC
F8
D6
01
06
06
06
18
0E
F6
FE
01
E9
ED
F2
05
00
11
1E
07
01
09
09
04
ED
FC
21
19
10
E1
EF
01
04
F4
04
0E
FB
15
0A
F0
07
FF
00
ED
E9
04
08
FC
10
FD
09
04
E7
08
28
27
1C
18
0C
15
1B
14
0D
10
10
FB
06
12
05
0B
F2
10
F7
FA
0F
F0
F6
F8
F4
FA
F6
0A
28
1F
3F
35
28
1F
22
15
FF
1D
08
1E
FA
01
F6
02
09
FC
07
18
EB
08
EC
F6
15
F1
DE
05
16
23
2F
38
1C
10
07
1B
22
08
0A
03
05
02
0D
11
07
07
11
08
04
10
F5
F5
02
F1
C7
F4
08
12
16
04
13
21
1D
24
04
17
13
06
20
0F
22
03
FA
16
01
18
F7
11
FA
0F
ED
F6
E1
E8
FC
09
DF
E6
E1
F7
03
0E
06
03
1D
17
13
00
0E
13
0F
0A
02
15
E8
06
F8
F0
F2
02
FB
E8
F1
DC
E8
E7
E7
E1
F1
FF
F5
FD
0A
0E
00
F2
16
04
E0
EA
E0
FB
E3
EE
04
FD
EC
0A
06
F3
ED
EE
E5
EE
FC
E8
E1
FE
FD
EE
0F
F8
1D
13
24
1A
F1
EE
DD
F3
EB
09
01
00
FB
EE
EE
F2
F6
0B
F4
0F
F8
12
F8
0A
0E
11
F1
EF
14
11
10
1A
01
0E
05
08
0A
09
F9
06
F6
EE
14
0E
F0
07
10
19
2B
17
0B
EB
10
02
01
0E
0B
27
1B
0A
EA
F1
F8
FD
14
02
0D
06
10
F4
FD
01
03
14
FC
EE
0A
FA
EE
05
15
00
05
16
F5
0C
01
02
F2
EF
FE
04
0E
12
0E
13
05
06
EF
FD
00
0E
00
13
F0
FD
04
08
17
14
DD
0B
F0
17
EA
13
ED
FD
0F
0D
05
14
10
FC
06
FF
F6
0B
FE
F3
EF
0B
EF
00
EE
F9
F3
F1
F1
DF
E7
E6
DD
F8
FB
07
F9
EE
FE
11
00
0F
0B
F8
FA
0E
04
FA
1B
08
1E
ED
EA
0D
FE
FC
13
FB
1A
02
09
FF
F4
F1
FC
E6
07
FE
DD
0B
F4
15
0F
19
ED
1E
0B
0A
02
0C
03
0E
14
14
04
F6
F4
F6
0C
E7
D9
E7
F1
D8
F6
FB
0A
16
02
0D
0D
F7
F4
13
FF
EE
FA
F1
04
17
06
19
10
0A
08
FF
F1
FC
F2
EB
F1
DB
EA
F4
06
FF
0A
0D
F6
05
E7
E7
FD
F8
F0
FC
24
11
21
2C
0F
15
20
07
16
16
F9
05
F2
D8
EA
F9
0D
E8
F9
1A
14
0A
F7
FC
E9
EF
0D
07
10
10
17
22
17
37
16
1D
11
24
11
0B
FB
02
F9
E7
F2
ED
02
FE
13
19
FE
E0
F6
03
08
F8
0B
05
15
08
1A
10
26
0E
20
05
09
0A
00
E4
FA
F9
02
FF
FB
23
02
14
F5
E5
02
EE
F8
10
F8
F7
01
0A
1D
16
09
1F
28
25
06
0B
22
F2
EF
D7
00
04
0E
18
03
10
08
01
06
EC
E7
E7
08
00
F0
08
0E
00
03
00
11
08
15
30
22
06
EF
D7
DB
00
F2
F7
27
03
F4
0A
FE
13
0E
03
0D
08
04
18
1C
F6
EE
1A
01
11
14
15
23
13
FC
F4
06
FB
09
0E
1A
12
18
08
15
F4
12
07
FA
FA
F3
08
12
1A
09
1D
0D
02
16
16
1B
FF
1F
0D
1C
07
02
0D
0D
23
24
07
09
0B
FF
F4
01
EE
FD
04
F2
04
11
F6
0A
1A
0D
08
EA
07
ED
06
F6
EE
FE
F9
0C
F4
14
00
EF
07
00
F1
00
F1
F1
05
ED
0C
F3
0B
F7
EF
FA
06
F4
FD
ED
FE
00
E8
F2
0B
F0
E9
E7
FD
E6
F5
EE
FF
EC
FF
E0
E4
E9
F0
05
0A
F6
FA
01
07
FA
1A
EE
E7
E8
E9
0A
0E
FE
FB
12
08
F6
EB
02
FC
0E
0E
ED
F4
D4
E6
06
07
04
F3
F8
E8
0F
12
09
D4
E8
F9
05
F9
0F
05
EE
10
EB
0E
01
F6
F8
ED
ED
FE
FA
EA
F6
FD
EB
FA
EC
F0
13
EE
F1
CB
EC
FB
04
12
1C
F2
F9
E3
05
F6
F6
02
0D
FB
EA
E9
E0
EF
FC
0C
01
FC
09
FC
F5
00
DC
D6
E8
DC
E4
0A
16
11
F4
F2
FF
FD
FE
0C
0B
F6
F8
DF
FE
D4
EB
06
FE
05
04
F0
ED
E3
E4
FB
E4
07
F1
12
04
04
10
19
0F
FC
FA
F3
03
F3
EE
F3
E2
E1
F5
FA
F1
10
03
F6
07
F2
E9
0C
F7
FC
FF
0D
04
05
EE
01
FB
06
F6
F9
ED
F0
EC
03
FE
01
ED
F5
E3
F4
EE
F2
E1
F5
F5
E7
F4
10
F3
0C
03
EF
F2
E5
04
F9
F2
F8
01
F7
18
F1
FD
F8
05
E5
F2
F9
D8
EC
CC
E5
F1
FE
EF
F9
F5
F9
F6
1E
E7
00
07
F9
F7
00
FE
F8
0C
FE
FD
F4
FF
EF
08
E8
D9
E1
E4
06
0E
F5
F3
13
0E
12
14
0E
1B
02
0C
FD
20
03
10
0C
0A
05
01
03
09
0A
13
F5
FD
05
07
0B
ED
EF
FB
EC
0F
08
FD
1C
22
2B
2D
2F
3A
2A
1D
27
2F
22
22
1E
30
26
13
22
11
06
11
12
F6
05
EE
FD
07
F7
10
FF
0E
02
2C
18
08
17
0D
24
31
1F
31
30
14
23
42
2A
13
10
0E
F5
0F
02
F8
09
04
03
06
FE
F7
FA
13
03
14
FE
22
10
18
24
2C
15
11
20
2A
08
F8
16
25
EE
EE
F7
FD
02
FF
FE
FD
11
F6
07
F6
11
12
08
05
0C
05
02
FE
FE
F6
01
03
FB
F0
F1
F2
F2
07
03
EF
09
00
F2
F8
12
FC
0E
F7
0F
F7
15
F7
18
0F
01
1E
02
02
0C
18
04
FE
03
F7
23
0A
10
F9
13
F2
07
00
06
01
0E
0B
0D
FA
09
04
00
1B
04
17
03
1C
07
19
17
0D
1C
03
02
0B
E8
0C
0D
14
F8
0A
FC
14
12
F7
F4
16
FB
0C
2B
22
0C
33
15
2A
19
15
22
2E
FE
14
F2
E8
E5
F8
FA
F3
0E
F8
DE
07
06
F9
19
FA
EC
FB
2B
0B
0C
2B
19
2A
16
27
21
10
11
17
FD
17
E9
ED
FD
EF
FF
F2
0C
0B
0C
2D
00
20
1E
07
EF
FF
E4
EB
0E
0F
00
2C
0C
2D
00
03
0D
F4
F0
D6
FD
EF
18
E9
FA
0A
1D
0C
1C
0D
0C
FD
F5
FD
DD
F6
E1
ED
FA
11
1D
2C
18
2F
02
0D
F6
E0
EE
F1
18
F8
0C
F5
26
21
1B
04
0C
E8
07
E6
EE
CF
D9
DC
01
F9
F9
15
25
20
18
03
17
03
EA
10
09
F1
10
08
07
10
0E
F9
F8
F5
FC
F5
F1
DF
F1
F9
0D
04
FE
FB
0C
09
19
0D
07
EF
F1
03
12
FD
FF
0D
EA
FD
EF
FB
EF
FB
F9
ED
F4
F1
F3
13
F6
01
0A
0B
F4
08
25
29
1B
F7
FA
F7
10
26
0B
17
DE
E8
DB
EB
F5
0D
0F
1C
07
06
F3
15
0C
E9
FA
F6
01
13
1D
20
13
0F
FA
0C
FB
1E
F4
E0
DE
D6
F8
04
12
17
10
08
17
00
FD
16
00
EF
02
F4
F7
E5
06
20
18
12
F6
0B
09
20
FA
E5
E2
E0
F4
FC
FC
0F
2E
1B
14
F6
F7
00
EF
E5
F7
DA
DC
02
EB
05
F8
18
06
FC
11
1B
0A
E3
06
F6
07
07
1B
29
15
20
01
FB
FD
FB
F8
FE
0A
08
07
FA
11
11
01
FF
F3
0F
0D
1F
F0
EE
22
1B
1F
22
33
2E
15
0C
EB
EF
10
EF
F8
FE
0B
02
0E
FB
10
1F
E2
CA
EE
10
22
26
14
05
FC
0F
1B
18
0E
1D
25
F4
03
05
FC
06
1D
11
14
15
02
13
15
20
F2
F5
EE
E0
10
00
15
E7
1D
14
1A
1A
17
09
01
EF
F1
06
0C
EE
0D
0E
07
FD
09
F4
02
20
FB
EC
EA
04
0F
01
01
11
0E
31
20
17
19
EB
ED
F5
F5
FF
06
0A
04
0C
0C
08
0D
0E
0C
1C
ED
DF
01
E6
0F
17
14
FE
11
2D
2D
25
01
F1
F4
ED
E3
EB
0A
09
02
05
F6
08
F7
FE
21
FE
F4
EB
0E
08
13
0E
06
12
0B
2D
15
FB
F2
DD
03
FA
0E
FF
0E
F4
F1
F8
02
F0
FF
1B
07
04
E9
E2
ED
F2
21
05
06
F4
03
1E
18
F9
ED
F8
12
13
11
15
F6
00
07
12
FE
FB
0E
02
01
02
DC
09
F3
02
02
0A
09
16
F8
25
0D
FC
09
F2
12
FA
0C
03
0A
05
0E
17
F2
13
F5
F9
07
12
F0
0B
04
09
FF
1D
11
0B
1A
01
03
0D
12
0E
0A
FD
F6
ED
F9
07
FF
05
F7
14
F3
ED
F5
F4
F5
07
EE
02
0E
1B
14
1C
2B
27
08
1A
1A
F6
F4
00
EC
F7
FE
0E
FC
05
F5
F4
FB
E7
E9
F9
03
20
11
F9
13
01
34
15
27
40
1E
20
05
FF
EF
04
0B
16
FF
0C
08
05
0B
F3
F0
00
02
1D
10
0B
11
12
EC
12
FC
05
FD
FE
28
12
10
18
F0
0D
EA
F1
03
F7
06
0C
FC
E1
05
EC
0B
0C
00
20
F8
F2
0B
F9
F7
E9
FD
F3
02
04
FD
F7
01
F6
FB
D1
D9
E1
03
04
EE
FA
00
10
22
E7
06
F8
11
0C
F2
0A
08
13
F9
16
EF
F5
01
0A
E5
E9
12
F4
EF
FC
15
F8
F2
FE
0F
07
18
FA
00
03
0E
F5
F7
EE
ED
01
02
F5
F8
0D
F3
06
EE
08
02
0F
0A
ED
EF
EF
F1
11
0A
F2
0A
F5
0A
F5
03
04
F0
06
F7
F7
09
ED
02
03
04
00
14
F4
E7
ED
30
29
F5
BA
AB
CE
FA
F5
00
14
10
EF
F6
05
08
EC
FF
FD
09
EC
F0
21
F8
12
F7
01
DE
DC
E5
ED
ED
DF
B2
D9
BD
C8
CD
E2
FC
FC
07
03
F1
0C
F4
FE
0C
F4
08
08
FD
E8
F2
DD
CF
E5
E0
DB
EB
0B
DD
F9
C9
C2
C0
D7
D9
DC
F9
F5
FA
02
17
F7
FA
D6
07
E6
EA
06
E6
EE
D6
F1
FE
F8
FC
C8
DD
D5
CF
DB
FE
02
EC
F8
DC
F1
F4
09
F2
03
CC
E6
E7
E1
E5
E0
D0
DF
E6
D5
F1
EE
E2
DA
D3
DB
CD
E2
09
E5
F6
EE
F4
EF
03
F7
13
EC
FE
04
DF
D3
03
0B
E9
06
FE
F8
F7
FC
E3
E8
EA
F4
0A
F2
08
0B
03
E9
FB
ED
E9
F4
FC
DF
DE
03
F1
EF
0D
FF
FD
E2
FC
F8
04
00
FF
EE
FB
01
05
05
EC
F8
0F
DF
13
D5
03
ED
FC
EB
D8
EE
05
ED
10
FF
F4
07
02
F5
11
F3
18
11
23
1D
11
20
11
11
F8
FE
2A
DC
FA
14
FA
FC
F7
14
07
0C
09
08
F4
14
09
F3
0F
20
23
13
0C
1D
1A
0B
07
0B
0B
04
06
EA
E8
F2
F8
DC
18
FB
EA
02
02
EA
17
07
22
0F
10
04
0A
24
21
04
11
14
F2
2B
40
26
F7
EE
03
F7
09
F0
08
FE
F1
E4
04
F6
F2
F6
03
F6
E3
E3
E2
F1
03
07
FC
0F
11
24
48
21
E9
0D
F1
EE
05
0E
F8
EF
F7
FB
EE
0F
05
16
F8
F4
E1
D9
DA
D6
CB
D9
CF
E4
D7
E7
0D
43
06
FD
02
03
0F
E2
D2
F8
DE
E4
FF
05
08
17
09
07
FF
F3
E2
BF
E6
CD
ED
D0
F5
FB
0A
3E
17
0E
EF
F7
F6
E9
ED
FA
EB
05
04
16
FB
02
0B
1B
10
0C
F2
05
FC
D1
F2
DD
FD
0C
17
31
0E
01
EF
E0
08
13
F5
EB
F2
1A
12
2F
25
2A
23
0D
0F
0C
14
EE
F3
DC
F7
E6
09
04
1C
51
39
E8
FF
DD
39
02
10
1A
0E
1A
33
1E
20
27
1E
16
FD
F9
00
16
10
00
0E
FF
FE
FC
0D
50
2C
12
FB
E9
2A
05
07
15
12
03
0B
10
25
2E
1B
06
0A
FE
0F
0C
14
FC
F2
FA
17
12
2A
39
1F
F0
DF
D8
1E
10
15
1B
14
05
FD
17
FB
F2
F7
08
09
06
1A
01
07
18
0C
FC
FB
2B
40
0D
0A
11
DA
F8
11
1A
05
29
09
10
1A
F0
F0
DB
EA
E2
F2
0F
04
15
05
FA
18
07
15
22
45
FE
0B
FD
E2
DB
F1
15
0E
F9
14
04
E2
F5
E3
CE
D9
E5
F5
00
FF
00
0C
01
06
E3
0A
27
FC
FE
FD
F5
14
E7
F8
EB
01
FB
08
FE
DF
F4
E7
DD
E5
EB
FB
EE
0B
04
0C
F7
08
E7
FE
1C
15
FD
0A
07
12
F8
06
0E
04
EC
E9
E6
D9
EB
E2
F9
DA
D9
00
EF
EB
09
F0
ED
E2
E6
F3
06
ED
F8
0D
00
F8
F4
26
0D
01
F6
D8
D7
FE
FA
04
EE
01
DE
EE
03
ED
F8
F0
F7
D0
FB
E3
FA
1A
19
13
0C
13
07
05
DC
C2
D3
A8
DD
0C
F9
00
FE
F7
12
F4
EB
F8
03
00
FF
F5
F1
14
16
F9
FE
EF
06
03
FF
F4
F0
F0
05
0C
FF
0E
01
06
21
0D
16
18
02
09
FC
0B
F7
14
2A
01
0A
FF
03
08
FA
10
06
F7
0C
FF
10
06
EC
F4
E7
FF
E7
F5
FA
F7
F5
FE
0A
04
05
05
08
29
18
07
F6
ED
ED
0C
F8
0A
05
FD
EB
F5
F3
0E
15
E8
EA
00
FC
03
F5
F8
04
19
1D
F3
0F
1D
F8
10
EC
F6
F2
F2
F9
F3
FC
0F
F4
F2
03
08
12
FD
F1
0B
06
F8
0F
05
EC
0E
F4
F8
03
0B
F1
05
0D
10
ED
04
F2
07
F5
EE
FE
EC
E9
02
FD
12
11
13
0A
FF
0A
FB
04
F6
F1
E6
E5
03
F8
12
13
02
EE
11
09
F4
E8
F4
FF
FE
F4
0E
16
10
08
F7
FD
08
0D
0D
19
13
0A
1A
0B
0E
0B
01
02
0C
05
13
FE
EB
0C
F8
E5
FC
15
0F
1F
10
0F
FD
0A
FC
06
E6
EC
FB
16
02
FA
F2
EC
15
18
FA
F8
08
03
EC
F5
F9
E0
FE
16
06
10
05
1D
00
F5
0F
FD
13
08
FF
0E
15
EB
02
E4
F9
FF
F0
05
F7
DC
EC
F5
FA
E7
02
FD
07
0B
0D
05
FB
09
F3
14
1E
F8
F6
ED
FA
FD
03
10
22
02
03
F3
F7
0A
FE
09
0D
17
04
07
17
12
09
03
F8
0F
F5
EE
F2
0B
E3
F3
E3
EB
13
FF
04
FB
08
1B
12
00
FE
F3
00
1A
19
14
1A
15
17
03
12
0B
F7
EC
F2
FB
EC
F1
FF
E6
F1
0D
21
18
05
29
1F
1E
19
0B
0E
22
15
0A
18
07
FE
02
00
E3
F4
EF
14
EE
E7
06
01
F1
FD
15
0C
FB
E7
13
00
FC
F9
0C
13
16
0E
18
16
FB
05
F4
EC
F9
FB
09
01
08
11
13
02
F2
FF
17
1C
FB
FD
0B
F3
01
F4
16
27
2C
17
20
FE
19
02
F5
E7
DC
FA
14
0A
FA
0C
01
0C
EB
17
20
29
13
00
25
FB
0E
FA
0A
11
1B
F3
FC
F2
0F
01
03
D4
D0
DC
EE
0A
FF
F6
FF
FB
07
04
12
21
FF
F7
11
F8
FC
09
00
FB
F8
04
FC
17
0A
0A
F2
D5
D4
EA
F6
F1
F0
08
0B
FB
FF
FC
0A
11
19
0E
10
10
13
03
0A
25
11
15
14
19
0F
0F
EB
E3
E4
FD
DD
03
FA
02
2F
09
1F
10
1C
0A
20
13
12
E4
0B
F8
10
1E
04
06
16
01
14
1E
08
F0
DC
06
15
16
07
2C
0D
20
08
26
08
17
12
FE
11
00
EF
05
F4
0D
24
0D
1B
20
0C
FF
F1
F2
FC
13
1B
1F
09
09
1A
0C
F5
1D
0B
07
00
15
0F
F8
FD
F0
F2
03
FF
08
0D
03
20
01
1A
02
21
24
18
14
19
12
0A
18
03
25
1B
18
17
02
ED
05
01
01
E7
05
FE
18
05
1D
2A
25
30
2C
20
FB
0F
1B
F0
0B
09
14
20
08
1F
1B
08
1A
06
06
E9
09
F7
F7
F3
F6
1B
0B
26
23
20
1A
00
F6
09
ED
03
EA
0E
FE
1F
21
26
09
07
FF
F6
06
F3
FE
F0
FD
03
F0
FB
05
22
0F
15
25
00
F5
FD
E1
E6
F3
0A
22
38
1E
0D
0C
13
0A
F0
F2
FE
10
07
FF
DA
F7
E6
03
1C
05
17
15
00
01
ED
F4
F0
FD
FA
25
2C
1F
26
24
FA
EC
F4
EA
EB
14
FE
F9
E9
E0
E7
F9
F6
0D
FA
06
0C
F8
04
03
FC
14
1E
FE
20
18
18
02
0E
FA
F8
FB
17
1E
24
FF
E7
E5
FF
F0
E8
EF
FB
F9
0D
F2
05
04
0D
03
12
0C
22
07
0F
03
08
F4
0F
14
F6
F7
13
FB
EE
F9
F0
F1
ED
F4
FE
F6
00
0E
0C
0D
1A
33
0F
16
08
14
F6
09
F7
FD
FC
07
FD
D8
DB
E1
17
DD
FD
FD
02
06
FB
F9
06
06
24
15
1F
21
1D
1E
02
11
0A
F8
06
02
F2
F9
F1
0D
0F
0D
ED
FB
F6
E2
02
15
0A
1F
FC
08
F8
F7
F3
04
F7
14
05
FA
07
F2
FE
F8
13
FC
F1
EA
02
F7
F8
14
02
EF
08
01
12
0B
FE
05
09
E4
DF
F8
FF
F3
00
F5
E3
0C
00
F1
FB
09
01
F7
01
03
0C
00
10
0B
20
07
13
2D
0C
F4
1C
08
00
00
F6
11
0F
06
09
0E
F2
0C
F6
10
ED
F1
F6
04
07
F6
F3
02
02
FA
F8
04
EE
09
06
EF
05
F5
08
EF
07
11
12
F4
F5
F1
F6
F9
02
FA
E1
F6
E4
FA
08
F7
FE
FC
E1
FA
FF
D4
F3
FE
06
0E
E8
F9
E8
01
01
FA
F4
0D
07
0D
08
13
FC
EF
F7
0E
EE
D9
D5
D9
C8
EE
DA
D9
E8
E9
EC
FD
E5
F6
E2
D3
E1
EE
13
EE
01
09
01
07
FE
EE
D6
F4
DF
FE
16
FC
02
0B
03
04
06
F0
F1
1C
08
09
0F
FD
07
FB
EF
0E
03
FA
09
FB
F6
E0
FD
07
FE
FC
05
22
FC
07
ED
FF
FD
1C
17
FD
08
11
1A
04
F3
07
08
04
0C
F7
FD
E9
E4
FC
F9
F5
03
17
00
08
0A
E1
00
EB
FC
03
1D
02
09
0D
18
2A
14
08
0F
F3
05
08
29
08
FE
FB
F1
01
19
F6
FE
08
00
06
D6
F4
E1
11
FC
05
15
FF
17
0D
2D
11
1F
ED
26
18
28
FC
E8
01
1E
0C
07
06
09
05
10
EE
E5
E8
09
0C
18
0D
0F
07
21
20
2D
19
0F
00
29
17
21
FC
04
1D
F5
07
16
0C
1A
13
24
E2
EB
ED
F4
01
0B
F1
FD
04
FF
1F
30
30
06
14
23
03
11
13
FA
F5
12
01
F7
05
2B
2C
17
EB
E2
E5
FA
E9
06
FF
EE
EA
FE
F3
02
2E
09
18
20
04
14
18
08
F6
02
0C
09
1C
3B
29
0B
F9
C1
E4
FA
F8
E6
E4
E3
E5
EC
D2
E3
14
09
16
26
F6
17
EF
05
1A
FE
0C
F2
0A
34
32
FC
D3
DF
EA
EE
06
EE
DD
EF
F5
C9
E5
E8
04
F8
02
24
F7
FE
F2
EF
1A
07
0D
1E
0F
20
18
EF
D7
CE
F3
F5
0A
F2
DE
FD
E8
F2
07
E1
FD
F0
F1
FD
03
11
EA
00
22
10
0D
00
14
15
02
FB
FE
EB
FA
E0
FB
E6
FE
F8
11
11
F0
0C
EA
EB
E7
05
12
26
DF
FE
24
24
06
05
04
19
E7
FE
EB
E0
F2
DD
EE
FB
06
08
1A
22
30
2A
02
06
F8
14
FB
19
02
20
22
FE
20
0A
18
00
F9
F7
E6
EE
D8
F9
EF
15
FC
05
24
16
2D
19
02
02
FC
F3
ED
F0
0C
01
05
0C
08
16
F9
FA
FD
FD
EB
E0
F7
FE
FC
11
04
13
19
FF
FF
01
02
05
04
01
F6
FC
FF
13
0F
04
F5
E5
F6
01
03
EB
E0
EE
FD
F5
FA
14
1E
09
08
FF
10
F8
0F
FC
16
F0
EB
10
0D
06
08
00
ED
FB
00
EF
FD
E2
C3
F3
E8
15
09
FE
16
12
0F
FE
EF
09
0B
13
05
F9
0B
FA
02
03
F5
EB
E4
EC
FA
01
F1
EB
ED
FA
17
10
18
16
09
F7
F9
F2
E9
13
0B
0F
F5
FB
E7
E4
01
0D
FF
EA
F9
F7
05
F1
02
06
F1
03
FF
06
F8
0D
F7
EE
03
03
F1
03
0D
F4
0C
F8
04
DA
F5
09
FC
08
03
03
FB
FD
F4
FA
10
07
FE
1E
FB
02
05
F4
0C
0C
F9
1A
0F
12
F9
FC
FE
DB
F8
12
10
E4
EC
F8
FA
FC
FE
03
11
10
1F
0B
0A
08
13
19
09
0E
28
0C
F5
0D
02
FF
F3
07
F8
04
09
03
FC
F7
EE
FD
FF
07
09
16
1C
0C
08
FD
FA
00
01
FA
E2
04
FC
1F
F5
02
0F
F1
F0
FA
DA
07
F9
EF
EA
EB
F7
05
0E
01
05
0D
05
F8
E7
0B
F7
01
F1
06
F2
05
F7
FF
11
09
1B
0B
E5
FD
08
1C
13
F6
FF
1D
20
0C
19
05
F8
08
12
F6
0F
04
FF
1E
FC
05
0E
0B
00
EE
F4
00
E9
06
0F
F0
EB
0C
2E
27
15
0B
12
FD
17
09
32
03
04
18
EC
ED
12
FA
0A
0C
F0
0F
0A
F2
FF
05
F8
11
03
3A
20
1A
30
18
FA
1D
FE
F8
F9
FE
0A
1B
0E
EE
F8
13
EF
