FD
EC
13
0D
EE
04
01
F7
00
00
13
09
11
11
17
0B
ED
0A
ED
FE
F6
12
06
0F
FB
01
0E
10
14
EF
F1
F8
FE
14
0F
01
F1
F1
14
0E
ED
F3
03
E4
F1
09
EE
F2
F5
12
F1
10
11
FF
EC
EE
FA
FE
11
F4
03
0A
08
0A
F0
F4
10
08
14
06
10
15
1B
1F
0F
0F
10
07
F0
E9
F5
05
01
F2
F7
04
11
01
06
22
FB
FA
F3
F4
07
21
04
19
0C
12
0D
14
06
0D
08
FC
11
D6
EA
FA
15
F7
03
F3
10
0D
05
0F
14
FC
0D
02
1B
17
17
1D
01
25
18
0A
0E
FE
F0
EC
FC
00
03
19
E4
F4
ED
EB
E9
EF
0B
F9
17
F5
08
F5
07
FC
F6
18
04
27
1B
07
05
02
17
0C
0E
08
12
00
08
F1
09
12
F0
F2
EF
23
FB
0B
F1
10
F7
0C
0F
0C
0E
0F
13
FD
F7
04
1D
01
10
0C
02
00
00
F6
ED
12
EE
07
1A
0D
1C
1F
14
EB
F4
07
0F
17
14
02
EF
E5
FA
E4
F4
06
0E
13
18
1B
F8
05
FA
EA
F9
0E
FD
04
08
05
16
11
FC
1D
13
F7
E1
E9
F3
E9
F4
03
F3
F1
FB
25
19
0E
0B
FA
FF
EB
FD
F5
1C
F5
02
11
0D
29
2C
09
07
FF
10
E8
0A
FC
E8
06
E9
16
F2
15
18
10
0D
17
F2
0D
E6
F9
13
08
02
0F
1C
25
1B
FF
EB
EE
0E
00
06
E8
E4
FA
F7
11
FB
12
1F
1D
20
DA
0A
E7
F4
04
02
02
0F
08
13
10
0C
FB
00
18
FE
0B
F6
FD
FC
DD
02
F0
02
09
2D
17
14
07
0E
0C
EC
07
F9
0B
F4
01
1D
00
06
0D
2E
0F
03
F6
F5
11
F1
F3
EA
1A
10
02
11
FD
FA
DF
EE
01
F1
FA
F5
09
F2
0B
F9
0C
06
28
3A
14
F1
F6
FD
F6
F1
06
04
1E
16
1A
0B
00
F6
06
FF
FF
07
05
F5
1D
FA
0A
01
F9
1A
09
29
12
F0
00
06
F4
FC
0F
1A
01
0E
25
01
FD
F1
F3
F1
EF
23
17
1A
16
0E
08
10
0D
0E
03
05
0C
F2
09
E9
FD
ED
25
31
12
11
17
0F
F7
12
FE
0F
E4
F6
00
09
0A
2F
10
FC
DF
FA
0F
0B
FE
07
13
00
F4
21
06
10
20
1B
FA
03
F4
F1
FF
FA
EF
F0
F0
01
28
34
FF
F5
EF
0C
0E
F8
FC
FA
FA
07
07
03
0D
10
0B
11
FC
FD
F1
06
11
EF
F6
D5
02
0B
24
1E
13
17
FD
17
15
F9
F2
05
0E
FD
05
01
0B
07
13
04
17
F9
13
EB
EE
08
E6
F1
FE
1C
24
10
0C
13
05
10
05
ED
0E
EF
05
15
12
FE
FF
1A
16
FD
FF
05
0B
16
EF
13
00
05
26
F6
19
F5
06
02
1A
1C
F9
07
EC
12
14
1C
09
0E
FB
14
13
08
17
07
02
FC
F6
F4
0F
06
F5
17
05
0E
16
14
FD
1A
09
01
07
10
10
04
0C
21
11
1A
ED
F2
09
0E
0B
FA
F8
E6
FC
E9
DC
E5
EA
EA
FB
EC
09
00
09
03
09
15
0C
1C
16
1B
FB
FF
FB
F1
09
05
02
0D
08
F1
0E
FD
0F
09
F0
06
ED
F7
19
FA
0B
14
03
04
1A
0E
22
18
09
05
10
F9
F6
03
F7
EC
FB
FE
F2
F4
F2
F6
E0
EA
F2
F3
07
04
FB
FB
FC
34
15
21
2E
22
26
00
00
F2
05
EB
10
FF
FD
14
F1
0F
02
E3
DA
E7
EF
E6
05
E8
05
E1
0A
08
00
09
08
0D
22
05
09
0D
05
FB
FF
F7
EE
14
09
EE
0E
12
E8
E3
EF
EA
E5
EA
05
FF
FA
E5
08
EE
08
F5
EE
09
04
F2
10
01
EF
EE
04
F4
0B
FB
F1
16
F3
FF
FA
E8
FC
F6
DD
FB
FF
F2
F5
F6
13
F2
01
EB
ED
07
04
F5
0D
EF
13
F9
06
0C
0F
08
0C
EC
13
EC
EE
F0
11
08
FB
00
F4
04
F5
EB
03
07
02
01
11
09
F7
F6
04
F3
03
F7
F2
EC
10
F4
09
FF
0F
FB
11
15
F6
14
0E
FA
15
17
F4
18
F0
05
03
0F
FA
0C
F8
02
05
F8
0F
11
08
F1
21
EB
FD
0F
07
19
FF
17
0A
02
01
1A
18
2D
1F
FF
03
07
0B
FE
F0
FA
EE
1B
FC
00
FA
E7
D9
E9
F6
FD
14
1C
13
0B
0C
F7
22
11
11
28
2C
22
0E
09
ED
04
12
01
19
15
1C
F7
EA
0A
FD
04
0C
14
0B
04
FF
09
01
FD
FA
03
F7
FA
17
21
3F
27
38
0A
0E
F3
EB
F5
0C
0F
0A
10
03
EF
05
F2
F7
18
0D
04
F8
FE
F1
E4
02
0C
FC
09
07
12
28
F9
F3
F8
E1
19
FC
03
FB
00
F8
06
F6
0E
FE
03
03
12
F5
07
09
05
07
01
10
F3
FC
1B
16
0A
15
0C
09
EF
02
F5
16
00
F8
F8
FE
02
0E
FB
1B
17
F1
07
01
F1
FF
04
07
E0
EE
0C
20
26
10
ED
00
EB
05
FD
03
01
00
00
00
F1
0A
F8
15
01
0E
F7
EE
FB
FA
07
F0
F4
E8
FF
0D
25
18
02
F5
F3
04
0A
F8
0B
06
05
07
07
F9
11
14
01
FA
FA
08
EB
F9
FC
EF
10
0D
F4
07
F8
F9
03
F4
EB
1F
04
F6
EE
0A
FA
F4
04
06
FD
0C
F8
FA
E2
F0
F3
F9
08
F5
0C
14
FC
15
1F
13
FE
0D
FA
26
F7
F4
02
0C
01
FA
FC
F1
FB
09
F7
EB
F5
0A
07
02
FB
09
05
0C
33
1A
27
09
EA
FA
E8
05
EC
FF
EB
05
06
FF
0E
0F
F2
10
F9
03
02
F6
F9
EC
F0
04
EC
FA
01
1D
17
F8
02
EA
FE
FF
11
15
FA
EF
1A
0B
FF
FA
0E
1D
24
12
F8
E9
F3
F0
FA
FA
05
DA
F7
DB
0C
EC
0D
0D
F4
E3
0B
05
FE
0F
01
05
15
0F
01
F5
1E
06
0B
FB
F3
E5
FB
F2
0A
FB
E7
F1
F7
FE
EA
0A
14
08
E3
DE
FF
FC
10
1C
04
19
04
14
FE
F4
FD
F1
F1
EE
0D
ED
10
0A
04
FE
1E
12
EA
04
09
0A
D5
C5
C4
CA
D3
E4
03
11
09
08
0F
F2
E5
FC
06
02
12
0B
03
FA
00
DB
FC
F1
03
FA
1B
FC
E2
C6
DA
BA
AF
D8
DE
D7
F6
F8
FA
EE
F9
FC
02
F8
FF
01
06
08
FA
FF
F6
E8
FC
11
08
13
E9
C3
C8
D7
B1
A8
C2
BB
C5
DC
DD
0C
FA
05
ED
0C
00
14
05
F0
F9
E9
01
F7
0D
E7
02
22
E7
E3
E5
E3
E0
C5
BC
CF
BE
EA
F0
F8
13
02
03
14
11
07
0F
05
E8
0F
EF
20
FD
1F
13
EB
06
06
E6
07
02
05
00
F5
EA
F8
04
1C
FF
FB
05
FA
07
09
14
09
E7
EA
F4
12
0E
23
FC
19
14
0B
0D
10
09
08
FE
13
13
FC
10
FA
01
FE
04
F6
12
01
E0
09
DE
E7
EA
0D
FE
13
11
0B
0A
0F
14
FD
0B
1E
32
13
26
12
07
07
FC
0E
0A
FE
22
07
FB
06
DF
DF
0D
0B
FA
EF
14
1E
2B
05
13
20
1A
04
29
1D
0A
FE
11
09
FA
05
10
EB
FC
E0
F9
F9
F2
D9
08
F8
02
FF
F6
02
21
08
23
15
26
07
1A
04
1E
11
03
F5
03
07
FB
E4
FD
F7
ED
02
ED
FC
F7
13
09
06
0E
05
17
15
28
08
1B
12
16
17
09
16
F1
02
FE
08
E6
05
01
EB
04
F9
09
05
F4
04
F3
07
07
F7
32
25
31
09
F6
0C
FB
0A
1B
09
06
10
12
34
24
21
1B
28
0B
11
09
F2
FF
F6
09
0D
F1
0C
FF
F5
04
F0
04
07
0A
FF
EF
0B
24
28
00
0E
F4
0B
0A
EA
DD
11
EE
F8
F9
10
0A
02
0A
F4
0F
07
09
EC
11
02
09
EE
10
1D
06
EB
11
0B
0C
0C
FF
FF
EE
FE
EF
05
07
01
EE
06
FA
F7
10
F1
F1
EB
0F
F0
16
11
FC
F8
0C
13
08
FF
15
0B
F3
06
07
EE
F8
FA
0D
03
10
0E
08
0C
ED
05
01
F3
F5
05
02
11
EE
06
0A
15
FC
21
06
03
00
01
03
1C
FC
0D
12
EE
F8
F4
0D
EF
EF
11
01
FA
F9
F2
EC
DD
CB
F0
E2
DF
EC
F5
0D
04
14
2E
0B
FB
03
19
0B
10
0B
0B
EB
F7
FB
E7
EB
DF
DF
EF
FA
EE
E6
EA
01
01
16
18
09
0D
0A
0E
0A
04
0E
03
E0
FD
05
07
10
0B
EE
E6
D4
F1
FF
E7
06
D7
DF
F1
0B
EC
EE
0B
10
15
ED
F6
0C
13
1D
03
03
00
01
19
24
05
16
14
F0
02
13
F6
F3
F3
E5
01
E7
08
E8
0D
F6
00
13
F1
15
05
29
29
19
13
FF
F8
0C
0D
00
EC
ED
FE
01
04
FA
ED
EA
00
10
FE
00
FF
0E
FD
0D
08
0F
06
12
37
3A
FD
FF
FE
0D
10
EE
E8
F2
F2
03
13
FB
05
FA
09
00
FD
F1
F2
F6
0A
F8
04
1B
08
2A
0E
19
EE
F8
F7
F8
02
03
F1
09
EA
0B
F1
02
0F
FF
0E
F5
E3
EC
E0
DF
DC
F6
0B
ED
F1
1A
0B
1E
1C
14
1A
F8
F0
F5
ED
04
02
0D
1A
19
0C
19
03
FD
EF
EC
EA
01
F1
E3
DF
E1
E0
EF
04
0F
18
14
F8
1A
10
11
10
0C
F5
15
EF
03
11
00
16
D8
F0
03
F0
F4
EE
F0
CE
E3
D7
CE
F7
02
ED
1E
F9
FF
19
FC
F9
17
FD
15
04
19
28
21
0B
D7
FB
FA
06
0D
F2
FF
D6
CF
D7
E9
F3
E7
F1
F3
07
04
11
06
1D
08
09
06
06
0B
04
12
F7
E0
F8
FA
F4
19
06
1B
03
EB
D1
D3
DF
02
EE
FF
F8
0B
0B
0C
0B
24
0E
17
14
03
14
02
F3
EC
08
FC
14
10
01
22
08
1E
FD
DE
DE
F5
EE
05
08
18
08
FC
02
0C
05
FC
00
09
05
03
EB
EC
F8
04
FE
24
02
13
15
F4
03
FB
D6
E2
04
FC
0E
02
15
04
F9
0B
0F
FA
0E
F8
EF
F7
F6
DC
10
F0
11
01
01
08
0B
FA
F3
0E
D8
DD
D9
02
06
0C
15
1B
F2
FF
F9
0A
06
F0
F2
F6
D3
DC
FF
FB
15
FE
15
00
0F
FD
02
FB
E5
0B
EC
ED
11
11
19
FC
F2
EE
FA
09
F4
F2
ED
D0
F3
F5
13
0F
15
FA
FE
09
FF
03
E7
F2
E0
15
0B
ED
0F
FA
02
2A
04
03
01
F7
F7
05
F5
E3
F0
05
04
0A
1E
0D
06
FE
EF
F8
E5
0B
03
FF
0F
07
F7
06
FA
FD
FC
FC
EE
0D
FD
07
0A
FC
F1
F9
EE
F6
FB
F7
06
FF
FA
07
FB
E1
FF
03
1B
F5
EF
E6
0C
F4
FC
ED
EE
0D
FD
0A
14
1A
06
0D
04
F8
F7
11
EB
FE
11
04
F9
EE
E7
13
FB
F3
F6
FD
FB
F9
E6
D3
FC
04
FF
09
13
F4
F4
14
0A
1D
1E
04
FC
0B
09
E1
FC
DF
E3
1F
0B
F8
09
0E
14
01
F6
12
FD
E6
F7
F8
04
F5
05
F7
07
FE
11
0A
01
12
F0
F7
FF
CF
EF
1C
10
11
09
0C
13
01
04
0B
10
13
0A
0A
09
04
EC
FD
1D
F6
12
29
09
08
0C
F4
F0
01
FB
05
0E
05
15
F7
F1
04
F8
14
14
1F
0C
F3
FD
0E
FA
FE
0D
13
21
20
18
15
F9
F4
0C
F4
F1
0B
F9
0A
05
F0
EB
00
EF
EA
F4
FA
00
FA
F1
FB
0C
05
09
0C
01
F3
0D
FB
E0
01
FF
E8
F8
F4
07
FA
0A
F3
F0
0F
0B
F2
E2
FF
0E
09
09
1B
18
00
EC
19
1A
09
09
15
00
FB
13
FD
0D
FB
01
0A
0B
11
F8
06
12
F8
FE
F8
F0
F1
F3
0B
FA
13
10
F5
EC
EE
01
0A
0D
11
11
F7
06
FD
11
EF
00
F5
F4
FF
17
1F
23
FF
18
F7
02
0A
FF
01
FF
11
01
0B
FF
01
21
22
16
03
F7
08
0E
F6
10
13
16
1A
F1
13
0A
0E
1F
2D
10
0B
18
FE
1C
1C
1D
06
10
0F
FF
10
0F
14
0C
FB
05
F0
F2
06
FB
FF
0C
02
19
3B
2C
1D
18
0B
22
27
2E
0E
24
F2
08
0C
07
02
01
10
01
11
10
03
14
F4
02
01
11
FF
FD
11
11
21
05
09
F8
1A
0F
04
F4
FB
07
EB
F5
06
12
0B
07
EF
17
EC
03
10
FB
0F
01
FE
F5
FE
E8
01
F9
17
1B
02
0C
01
09
1A
FE
F8
09
ED
EA
04
18
0E
1F
0F
FA
11
EE
FA
ED
F0
EE
F4
F4
F3
F3
F7
F0
F4
F4
EC
EA
01
FA
F0
E3
0B
04
F1
01
FC
F2
FC
14
F1
09
0F
13
F6
FD
0D
F6
F6
11
F7
08
07
F3
F8
EE
F1
F6
06
03
FB
F2
16
FC
0A
F9
FD
14
FF
19
0F
F7
F4
F1
F8
EE
08
F3
F9
0A
F6
EF
F0
03
F5
F0
FE
FC
13
FF
0D
0B
0D
0C
ED
EF
14
17
16
E9
0C
F6
00
F6
F2
FA
F3
F9
0E
0F
17
07
03
F0
16
12
FA
EC
09
1E
02
1C
0B
EC
14
13
F1
EC
F2
ED
FA
08
FC
E5
FF
08
09
FD
09
08
EE
06
F2
ED
ED
F5
E9
04
0F
FD
FA
FC
F4
19
EF
07
F2
D9
01
EA
FF
F0
05
04
E0
01
E1
E6
EF
F0
0B
F0
00
FF
E2
04
DB
0D
0C
05
11
10
FB
FE
02
EA
09
EC
17
20
F5
EB
E5
F2
FD
F2
FB
09
FC
F3
F9
F3
05
DE
EE
F4
03
F2
F5
F9
F1
EA
EF
F6
EE
F8
02
18
ED
00
F0
D9
F7
EB
FA
FA
FE
F0
FE
17
15
0B
1F
FE
0B
F5
FB
FA
F9
E6
F2
E7
13
01
12
F2
FE
FC
F6
E1
E9
E1
EE
EB
F2
02
1C
00
08
14
0C
13
F5
E9
11
03
12
FD
FC
F3
FF
0E
F0
E3
EA
02
02
FB
09
10
F6
FB
FC
12
0B
0A
21
10
21
0E
F7
02
F4
1A
13
03
04
F4
F1
FD
FF
01
F6
EE
E3
FA
F0
0D
04
0C
15
0B
13
27
03
12
05
12
F5
09
0D
1E
27
FD
FE
06
0A
F0
01
FD
08
00
05
15
04
08
1A
16
07
12
04
09
00
1D
05
FF
F9
F8
02
24
34
19
07
F2
16
1E
0D
0A
FE
0F
0F
07
25
FD
0F
F7
06
07
00
0A
28
0C
0C
17
F4
CD
EB
02
26
F8
0D
14
FA
F9
1D
01
13
19
1E
14
16
09
09
FC
0B
1A
05
1F
07
0E
F5
E5
FD
E8
ED
11
27
FF
FE
28
2A
25
23
20
27
20
07
18
27
0F
1F
10
1B
0E
02
1D
27
03
FA
FF
F6
00
EA
FF
09
0A
FC
06
05
29
20
01
1A
17
0D
12
17
23
11
FF
06
EE
05
0F
1A
11
0F
FA
F3
13
09
FE
18
06
F5
FB
FB
FB
0B
09
FC
16
F9
09
FF
04
0B
04
EE
02
00
16
10
13
F6
0C
FD
11
00
F6
09
0D
FC
04
E9
FD
19
01
F4
E6
EC
E5
F9
F6
EA
E0
01
FD
F5
F6
0A
0F
1F
F6
14
13
F3
F8
01
08
F5
E9
11
0A
FE
06
FF
DD
E3
E8
F2
F9
E9
E0
DA
F3
ED
06
15
23
F4
EE
01
02
F8
0D
E4
EF
D1
DF
DB
DD
C6
E8
C4
F3
EA
DC
D0
F0
FD
F8
D9
F2
EA
E1
F3
11
02
F9
12
F7
FA
EF
0E
05
01
F8
03
FD
ED
D8
E3
F7
F1
EF
E1
05
03
FD
01
FF
06
FA
0D
0E
12
0B
EB
0F
FA
10
F2
FA
FE
F3
14
FC
E5
F0
05
0F
0A
F2
06
0C
F9
F8
0E
F2
F5
F0
0B
F9
00
F8
0B
F6
F6
FD
0E
F1
F5
F5
0A
F7
FD
00
13
07
F6
F9
10
FD
F8
13
10
00
01
09
12
0A
F2
EE
F5
11
13
07
0A
FC
0A
20
14
F5
F9
04
E2
F9
E7
FC
DC
E5
27
F9
10
F4
19
05
F1
00
FB
FD
05
13
FE
FF
14
00
08
EF
16
2C
28
1E
04
05
ED
F0
E2
E5
01
F9
F8
F7
1D
F5
06
1D
00
F5
03
12
F2
19
F5
22
DD
06
07
F5
DE
ED
E6
02
FC
E0
F9
08
FC
F4
1C
27
31
50
36
0C
00
F5
13
0E
09
0A
27
46
05
F2
FA
E5
00
EB
F3
E5
D9
F2
F5
FA
F3
04
FA
02
18
35
1F
01
1F
06
F3
FB
0A
09
26
29
00
05
EC
E1
F5
05
02
F6
E3
D3
DC
F0
F4
04
F7
16
20
27
10
28
18
23
F2
F4
DB
00
05
F9
0E
0A
01
F9
11
0A
FD
F7
00
EB
CE
E9
F4
F6
06
F2
12
19
1C
18
11
FB
0E
F0
D9
09
1D
2B
27
FE
1F
19
EF
FD
0F
07
FC
F3
D3
DA
DD
ED
FC
EE
FC
08
12
07
19
FF
FF
F0
D4
04
14
05
00
EF
F0
F6
00
FF
1D
07
21
E8
F9
FE
DA
EB
E4
FA
0A
00
18
1A
22
FF
0E
FC
09
15
16
FC
0A
09
F8
02
05
EE
01
18
F0
F9
0E
08
F2
CF
CD
EC
02
F0
08
11
0A
06
05
E7
D2
10
11
F8
05
00
F8
F5
F9
0F
10
0D
FF
12
00
15
F2
E7
ED
D6
F7
04
FC
07
F7
05
F8
07
F9
FC
0F
04
DA
F2
E5
F0
E8
00
01
06
1D
0B
03
F9
EA
EA
D1
D7
F8
F7
05
1B
16
F7
0D
10
14
0F
06
FE
E3
E5
FD
FF
FE
11
1A
14
23
09
05
FA
02
E4
E7
DC
F5
F6
12
2F
1B
1A
F0
EF
07
07
FD
03
F3
01
0D
0B
16
17
0C
18
F7
E7
F3
F3
E7
E5
E8
E6
04
0C
23
11
1D
12
05
F1
0A
09
ED
ED
03
14
FC
02
FF
18
0F
03
15
06
01
EB
00
FD
FA
F0
FA
FC
18
F2
1B
0C
06
F0
FD
EF
FF
F4
03
E8
00
0E
01
06
0D
18
05
13
FA
F5
0A
F4
FC
06
1B
08
05
0F
1C
10
0C
F1
0F
FD
EB
F9
F6
0B
03
0D
04
14
12
F6
0E
04
EC
FC
07
F8
0F
08
25
05
02
F8
26
22
0C
FA
14
13
ED
EE
0F
1D
1E
0D
F6
F3
FE
F5
07
FB
F2
E9
FD
18
04
1B
FF
10
EA
0D
05
03
FE
F7
FA
01
FF
E7
F1
04
F7
FB
07
00
03
FC
F7
E4
F8
EA
12
1D
03
17
18
24
05
FA
EA
09
04
08
FF
06
07
F7
E3
13
F0
FE
03
F8
FE
FE
F1
EB
1A
1B
07
12
10
2D
2E
12
04
ED
FD
00
06
DF
0E
E6
ED
EE
FB
06
F6
13
F3
E4
01
E8
04
02
FE
EB
0C
09
1E
FD
FC
FA
08
FB
09
E7
06
F5
17
ED
02
10
01
EE
EE
0E
FD
F7
F7
F1
F1
0B
F1
F6
FF
1D
03
F8
F8
EB
F2
18
F2
02
F4
FE
F2
04
FA
F2
0D
09
00
EA
FF
08
F3
0B
F5
FA
02
FF
EE
EC
EC
F8
E5
03
F2
F1
DC
00
03
0B
FD
01
EE
E9
19
0B
FF
F5
FC
1B
1C
0D
EC
02
01
FF
E9
D8
E6
F7
F8
FF
F2
FC
04
02
10
01
F5
07
0C
FB
F0
FE
0C
FB
0D
F0
19
01
12
F1
11
FD
0D
09
E4
E2
F0
E2
EA
11
14
FA
0D
03
EB
ED
1B
27
F3
DA
E7
EE
07
02
06
21
03
05
FC
1B
29
03
0F
EB
F6
E3
DA
F0
0B
F4
EF
0D
02
13
0A
03
F8
05
03
F4
05
08
07
05
23
00
15
13
04
1A
15
28
1B
FC
13
F5
10
05
FC
08
EC
0E
FA
FA
01
0E
F6
13
14
FE
F6
0F
FD
EC
F5
FC
03
F3
ED
1E
03
F3
0E
06
0C
FA
EF
FF
FA
FC
F9
14
F6
0C
FB
0C
EF
EF
0A
E4
F7
F6
0C
F9
ED
0A
0A
01
ED
F3
11
FC
FC
0E
02
F6
FC
02
0C
F5
F6
13
1B
09
F8
09
22
0C
F2
1C
19
1B
F6
EE
0E
24
20
13
EF
05
F3
EF
FE
09
F8
04
23
FC
F6
01
F4
03
DE
EE
FA
08
1D
01
F9
E5
0C
FC
E9
E7
07
F0
FC
05
EF
FC
10
F8
FD
0B
1C
E4
F8
E9
FD
FD
EB
00
F0
F3
F4
FB
E7
F3
E4
C9
E8
F8
D5
D3
EF
D7
F1
FB
F4
EB
F1
E5
DB
D6
D3
F5
D6
DE
E9
E3
E5
DC
FA
DA
E6
E1
E0
F0
EF
00
08
17
D1
E8
16
19
12
F7
16
DE
01
F5
E7
F0
02
05
E8
02
EA
EE
F0
E5
ED
DB
F0
E8
FB
FA
FB
00
E4
DF
06
0D
F8
EC
F8
E6
F9
0D
E2
FF
F4
F5
03
12
EC
F7
EC
02
EF
05
03
03
10
03
15
0F
EE
18
19
EC
08
EA
FD
EC
D7
EC
E8
E7
EC
00
0F
ED
11
13
1A
01
1B
24
1D
2C
24
15
1D
0F
F7
16
F4
0A
F4
05
E1
E8
EF
F1
E7
F8
EC
0D
E5
09
FC
1E
1E
29
23
18
19
0C
0A
0E
0A
F7
21
09
19
FA
FE
08
E5
E8
D3
EC
E9
F1
F1
FD
08
FD
03
FF
1C
08
15
10
13
15
01
F4
EF
01
10
09
06
EC
F0
FB
FA
EE
F5
ED
FC
10
13
28
08
09
0E
1E
02
03
FF
EC
FB
0B
06
10
FD
1C
32
2D
1D
EE
E1
03
E7
FE
1C
11
02
F8
0B
04
FB
12
1F
1E
F6
FF
F5
FE
EC
00
02
03
0E
2B
31
27
08
FD
ED
0C
06
0B
11
1F
FB
FB
13
14
0D
19
18
12
0A
EF
E0
ED
EC
F5
FD
28
17
28
1C
1D
13
01
0D
22
03
21
16
17
1B
FD
05
04
FA
08
11
F5
03
08
DB
E3
FE
EA
EC
FD
28
1B
EE
D9
03
06
F7
07
20
13
16
12
E9
E9
05
FF
FF
11
14
FA
EB
F7
DE
FE
FC
F2
03
F2
FF
F5
F8
FA
F7
0A
06
E7
E4
EB
02
FA
F9
03
EB
0C
0F
18
F3
01
F3
D2
F0
00
FF
F6
EF
FC
EC
EA
03
F4
F8
08
E5
EF
EB
E9
0B
FC
FA
EE
EC
14
16
19
0E
D0
D8
EF
0F
EC
EC
F4
02
F3
EB
08
FF
EA
00
0B
06
FC
E5
F4
08
FD
02
00
10
0B
28
02
F2
DB
FA
E7
F1
F1
EC
F2
0A
0F
F3
E2
FA
22
F7
07
02
EE
ED
F0
EF
03
01
FC
FE
06
0B
F6
F1
FE
EE
F9
F5
08
E2
FC
FE
0B
E9
F8
01
0D
EB
09
F9
0F
F2
F1
02
0F
14
FE
0C
F0
FA
EE
07
0C
F1
F1
FF
09
01
FE
F4
10
FF
F2
15
07
F8
F7
FB
08
E9
E5
F5
08
FF
05
F6
FA
F3
05
12
FA
FA
0A
FD
EA
F6
F9
01
08
0C
05
FC
F4
01
FC
09
DD
DD
F7
06
10
0B
F0
04
14
0E
F3
FD
F3
F4
10
EB
FD
F2
0F
04
EB
FA
EA
EE
1D
F4
0E
EC
E8
F9
19
03
06
18
07
F9
05
F6
0C
10
10
F3
0A
0B
FC
18
FE
FA
FC
00
0F
22
0F
E0
03
F2
0E
0F
10
F4
ED
0C
F7
FA
F8
03
07
F1
07
FD
05
10
FC
08
05
04
FF
E9
01
1B
0A
F1
F7
FA
09
05
F4
08
09
DD
E0
04
E7
F3
04
04
05
F4
05
15
0F
FA
03
F4
FD
F1
0F
1D
F1
E5
F2
F0
FA
19
1B
19
0E
F2
F0
DF
E7
E2
FD
EA
E1
05
0E
0F
07
17
20
17
13
02
0D
2F
11
E2
0A
08
FB
09
17
21
FE
16
FE
0E
23
0F
28
1C
10
1B
0F
13
0B
FE
FF
1D
03
F6
08
0F
F4
11
F5
12
FC
11
13
FB
F0
05
18
FB
21
13
0D
07
E7
09
24
E9
FC
14
FF
FA
FC
EB
EC
F9
0A
02
06
EF
03
0E
F8
02
ED
06
F2
FF
10
0A
01
0D
04
02
EC
10
F9
FE
FF
14
0E
FB
EF
03
ED
F3
05
14
12
03
FA
14
F2
02
FC
09
06
0E
08
01
11
0D
06
F8
05
F4
04
F9
F5
02
EC
04
F3
09
FF
ED
0A
08
06
EB
06
02
F8
03
07
F5
FD
FB
07
05
0E
07
0F
1B
14
18
16
00
F4
08
EA
07
12
EB
FE
FB
F3
11
11
19
F3
25
1B
24
1F
00
14
06
13
08
22
1A
0E
1E
13
0C
02
07
FF
EF
F0
F0
EF
18
10
1B
05
1E
21
0B
27
11
22
13
1D
1F
19
12
29
0A
24
0C
09
18
FA
1B
FB
FD
F3
F5
01
03
0C
07
0B
02
02
26
16
FC
11
F6
E9
EB
F0
08
10
01
19
1E
06
16
35
32
24
05
0E
05
1D
FE
F4
30
29
08
14
1D
ED
FB
E3
E5
E5
E4
EB
FB
EA
F1
FA
00
F3
18
1A
19
08
28
17
13
1E
16
14
3B
3A
17
FE
09
08
F5
FE
F3
00
D2
DD
E8
06
FC
F6
F5
06
05
14
2A
3A
12
13
1A
02
0A
F8
34
21
15
01
FB
05
E8
00
F8
EC
D6
F8
E7
F5
F6
F3
1C
EF
15
01
20
23
1F
00
E8
F5
16
F4
07
02
EB
03
05
FF
03
EC
EF
E9
BA
EB
00
F2
01
0B
19
FC
F7
20
1D
19
07
F2
F0
00
EE
03
0C
02
DD
F4
F3
04
F1
13
FA
E6
CE
CE
F8
19
F8
05
0D
12
F5
F6
0C
0E
14
05
FE
F4
F8
F6
F8
E6
E9
F0
F3
F0
13
03
13
D9
E1
F5
06
ED
04
F7
04
F1
E0
F0
F4
16
09
0D
04
F9
09
D7
DA
E5
FC
FF
07
FD
15
18
0B
0B
F8
FE
05
ED
E7
03
E9
FC
EE
F4
1B
00
0C
F1
FF
F0
FD
E0
E5
0A
08
FD
23
01
11
26
17
03
05
10
09
05
FA
E4
F9
04
EF
14
F1
EB
04
E8
10
FE
FE
00
15
F9
FF
01
02
13
12
15
14
1C
FF
05
1B
16
FC
05
F7
F6
1B
08
09
F7
F2
FE
F3
06
04
1C
05
0C
FC
07
04
0F
01
02
22
04
12
1D
04
16
EA
F6
F7
F5
FB
F7
EA
E8
EE
08
F6
F9
F7
12
12
0F
05
19
FF
FC
0B
F3
10
12
0D
1B
17
00
0D
15
02
F4
03
15
FA
EC
F5
00
F9
17
0C
F0
05
0B
0B
00
F1
FA
F7
FF
02
0D
FF
02
1D
07
05
02
F6
F4
00
0B
0C
F7
04
FA
F2
10
1D
04
FB
1F
16
F3
F7
F7
F9
F0
FD
08
FC
04
FB
0E
10
16
13
1E
0B
FC
09
EB
04
03
17
F8
F8
0D
17
19
03
06
ED
09
1A
0A
1B
0A
FC
0C
ED
05
03
F1
FF
1B
F7
0C
09
0B
11
F3
0D
FB
FF
2F
11
33
34
EE
01
00
11
07
13
10
FE
0F
0A
08
09
03
17
04
FC
12
FF
FA
14
0D
1A
0D
F5
08
0B
1C
1C
22
FA
F7
11
FF
19
07
F7
F2
07
0E
1A
12
00
09
10
0A
10
F2
26
09
06
FC
0D
2F
1F
17
02
07
07
FF
15
E8
F7
0B
02
F3
E8
FF
0E
23
1C
12
1E
1A
F1
F4
14
0D
0B
15
30
26
0C
FD
F0
0B
EE
F5
01
02
00
F8
F2
FE
0A
14
08
0A
FD
05
1A
02
F2
0D
15
12
FB
0C
15
05
09
EA
E5
DD
DF
EA
E6
0A
F6
F9
20
10
0E
F5
13
0B
09
E7
0A
ED
03
06
0C
F8
EC
EE
17
0A
02
EB
E3
E1
E2
DC
F0
F1
E6
FD
17
07
0A
F6
F5
CF
D7
FD
F9
10
04
08
FF
F4
10
07
09
F7
EF
FD
EF
D9
E2
E0
DA
DD
FB
E1
E9
E7
F1
E0
D8
E6
E5
E4
00
02
E3
0F
F6
10
02
0C
09
F6
14
FB
FA
FF
F8
F5
E6
F5
E2
F5
F0
F8
FE
00
E4
FC
F9
FA
EE
0D
FB
F2
11
0F
11
EE
0D
EF
EC
EC
F3
FF
0F
F6
F4
07
F2
FF
0D
0D
00
10
F0
0D
0A
00
10
F2
0F
02
F5
03
11
EF
04
F7
F3
14
F8
1E
1C
07
02
FB
1B
20
0C
FE
1E
2B
10
0F
1A
18
08
05
12
F0
F3
07
FA
F5
14
EA
1C
1F
21
18
08
0D
20
2E
33
2A
03
0D
F4
0D
12
08
F8
07
07
1D
1A
F7
06
00
F4
08
07
16
FA
14
1A
01
20
0A
0F
24
1D
11
19
FB
09
15
18
23
0B
0A
06
06
13
F4
E4
03
F3
14
F0
FC
1B
2E
37
23
1C
14
0B
1F
06
12
06
02
F6
FC
00
06
00
06
06
EC
FF
00
25
2B
05
F7
1F
FE
3F
0A
1F
12
FB
FA
15
1A
0B
16
F0
E7
01
FE
11
FA
13
FE
F6
0E
08
14
20
24
F3
E6
16
0A
1E
04
03
24
FC
04
06
FE
13
06
07
0D
EC
08
F1
E0
F0
FC
00
08
FB
2C
01
22
09
FA
05
0E
2C
1F
F4
FA
FD
15
0E
F8
0F
FC
21
10
06
0E
01
FE
0B
15
03
0A
0B
18
0E
0A
F7
06
08
F9
21
F5
F5
10
EE
09
16
EA
F8
FA
03
1C
06
13
10
FF
FE
16
0A
F7
0B
21
2B
07
05
10
FD
17
05
F2
1E
02
EF
10
00
F1
E7
0B
11
06
0F
0B
1A
27
14
F6
02
1E
05
1F
0D
06
0B
F9
09
FB
04
04
FE
00
F9
10
F7
EC
E5
EF
F7
DC
E1
FA
0F
12
08
0D
F9
11
F2
03
03
0D
00
10
F9
01
E7
FB
EE
FB
02
01
11
0F
0A
F5
D9
D2
E4
04
F3
07
EE
01
FD
FC
08
E8
F2
02
FF
F2
11
E7
04
FC
01
F7
04
1C
1C
FC
00
10
F3
E0
E4
00
FB
0F
E9
F9
F1
20
1B
E7
FD
0F
EF
F6
F9
E8
E5
DD
FF
02
00
15
FB
0F
03
1D
FC
ED
0B
03
0C
FF
F7
E9
FB
02
02
00
04
F2
F4
07
EA
E4
F5
F0
02
0C
17
05
08
08
11
01
FB
FA
03
15
10
FB
E6
ED
F6
FE
F3
00
05
E6
0E
F6
04
FB
14
27
1D
0B
0F
F9
0F
13
0A
06
01
0E
0F
06
F9
19
0C
FD
00
E3
0F
F7
FE
FE
0B
18
20
0F
0A
0C
FD
1C
EB
14
13
FF
09
F2
DD
E4
0F
22
04
1C
1F
F5
FF
05
EB
02
12
06
13
08
0A
F8
F3
00
08
19
0F
EE
FE
FE
E3
03
FE
09
EF
21
F9
15
FD
FA
21
F9
FD
06
FA
20
0B
F5
25
02
EA
FF
08
01
F5
01
03
02
FC
EA
FA
FF
0A
1A
F7
18
FD
14
0A
F0
03
03
0E
E4
0C
08
EC
F8
00
1F
0F
15
05
FD
F8
0A
05
EC
E6
F7
08
11
FA
F6
00
14
F9
01
F7
07
FE
F4
0F
10
00
10
F4
11
06
05
00
F0
07
F5
FD
F4
03
14
FD
ED
0E
F5
F9
FC
FD
0C
01
FB
F5
E1
02
FE
25
17
0A
04
F9
15
04
F5
05
04
03
0F
0E
FF
1A
0E
FB
F1
11
FD
FC
FD
F8
F0
16
08
FF
0E
06
10
FB
E7
F1
05
0D
0C
00
FE
FE
06
FE
0B
09
F7
00
E6
F2
03
11
E8
01
09
FC
0C
0C
F6
21
2B
DF
D3
F5
E7
01
0B
F5
03
18
06
F2
EA
FF
FB
FD
07
03
EA
F6
16
F4
EA
09
13
01
ED
FB
FB
FE
ED
D6
FB
EF
00
0E
1B
0E
FC
14
14
27
1F
F6
09
10
00
2B
18
F3
03
07
F2
14
EE
15
EF
06
1B
02
EB
FC
1A
14
06
03
09
16
0A
21
FD
07
09
1F
07
F9
18
06
F8
E8
05
FA
00
F6
05
FE
05
34
1E
1E
27
0F
04
F9
F7
1F
08
0E
20
FF
18
1F
06
1F
07
0D
07
FF
00
04
0C
FD
FD
F5
0B
0A
00
0A
04
23
0A
FF
04
FE
20
EA
1C
21
01
07
FA
0B
F2
FA
07
EC
0D
0E
FF
01
0E
08
03
F7
0A
FF
0D
FD
11
0A
F0
18
05
04
F5
FC
FF
EF
04
F6
FE
0C
0F
F9
FA
FA
14
FD
F0
0E
18
FF
0A
1E
FC
1A
09
0A
06
0C
04
0F
1B
0F
FD
14
16
2E
08
0B
02
00
04
F3
07
FE
F1
05
05
04
06
2F
1C
1E
36
1A
0B
1D
22
05
FF
10
0E
F7
05
0B
FC
06
0A
FB
13
FA
F2
ED
1B
20
04
08
21
27
29
23
27
21
11
05
12
06
FC
F4
FA
F7
DD
F0
E5
F5
05
FC
14
05
0A
F7
07
1A
0E
1D
0B
18
1C
0B
09
FF
10
FC
01
FE
F2
08
F0
E8
F2
DC
DF
00
FF
19
05
F8
F1
01
F1
28
07
14
19
FF
F4
11
EF
FD
09
FB
09
11
FA
09
05
EE
FD
F0
E1
03
18
19
09
FE
FD
0E
0C
10
F5
0B
F6
03
0B
EC
FE
15
04
0C
FD
13
04
FC
03
F7
F3
E9
EF
F1
FD
0A
FE
0D
13
F5
FA
FE
F5
FA
F7
F9
E8
FC
01
13
07
0F
03
F4
02
FA
F2
02
03
00
D0
C9
ED
0B
07
F3
09
01
05
02
07
04
FE
F3
09
01
0F
F5
FF
12
F9
FE
F7
02
FB
F0
FC
0B
EE
CA
D9
FC
17
F6
EF
F7
0A
16
FD
03
EF
FB
0E
07
15
F8
E8
F9
04
02
FB
EB
06
05
0B
11
EC
D2
00
F2
F4
11
00
FB
FC
F4
FE
03
02
06
FB
EE
EF
E2
E3
D6
E3
EB
06
16
FB
FB
13
F8
F5
FF
F9
E4
FB
E4
11
0E
E2
00
07
E9
E9
E5
F6
E5
EC
CF
C9
DE
0E
FD
F6
1B
1D
23
06
10
03
FA
FB
D4
E8
08
FA
02
EF
09
DB
F4
D8
D8
E1
E5
F5
CF
E5
0B
0D
FE
0B
17
11
0B
08
05
FF
0C
11
FD
E2
12
FA
05
0F
F3
E8
D9
04
06
E5
FC
EF
0D
F6
1E
0F
17
1C
F2
00
FD
F6
00
1F
15
12
F8
EF
17
07
EC
04
ED
EF
02
FB
0E
FC
FB
FA
F1
00
0E
05
14
04
1B
10
FA
E8
F2
13
0D
FB
F4
F4
09
F5
FD
10
08
13
17
04
07
E8
E4
F8
07
11
02
19
08
F3
0E
0C
F4
F3
FD
0B
12
07
12
0A
0B
04
0B
10
26
0E
02
01
EF
04
FA
FA
15
19
21
0E
FD
02
00
FC
E7
08
F8
FD
FE
17
F8
00
FA
F8
EA
08
0E
F3
00
08
02
E7
FF
13
0F
15
10
02
11
F5
11
EB
10
F4
F4
F7
08
1A
00
05
11
0E
F6
15
08
F7
F2
F9
01
FE
F1
04
F6
0E
05
21
07
1F
01
0E
FD
F2
0E
0E
11
0F
FF
15
FA
FA
0D
F9
11
E2
F6
FB
EF
13
04
05
09
F6
0B
05
1F
03
12
0B
10
0F
00
ED
1C
10
F7
05
01
EB
1F
21
06
03
05
0A
FF
0A
10
06
00
07
13
F6
FF
F4
EE
07
05
11
EB
F3
F6
0A
11
02
F2
08
23
0A
0A
06
0C
01
FD
02
14
F8
04
08
FA
F6
04
F2
F6
0B
FF
FB
E8
0D
0E
08
F9
0E
FC
07
1F
1E
23
0B
01
09
0A
0F
F9
FE
FA
02
E2
F2
0B
FB
0F
1A
0B
F0
F0
09
06
EC
EA
F9
FF
00
1E
05
27
19
0B
15
12
09
F5
E3
E2
F3
F5
0A
04
0C
1B
09
16
F5
02
08
15
FD
14
04
F1
0F
02
F5
0A
05
05
18
0E
12
EC
EE
0D
FD
FD
E2
FD
09
01
FE
16
2C
26
09
03
1C
FF
F8
13
0A
20
01
05
15
17
12
31
01
F8
07
FC
EE
F8
EA
0A
0B
FE
07
29
27
0C
22
F5
17
FB
06
FB
02
FF
F7
00
1D
3D
1D
16
12
FE
EB
ED
F9
FA
06
14
19
03
0E
15
27
09
14
F6
11
FE
05
F1
14
01
02
19
1E
27
26
11
FE
F4
D4
F3
E5
ED
FE
F3
23
0C
F7
27
FC
ED
F9
07
F7
F1
14
F0
FF
03
0D
04
03
F6
0B
EE
F5
0B
FC
FF
05
ED
08
09
F6
F6
09
FE
10
FB
03
FE
08
EC
14
EF
F6
01
EE
EE
F3
1F
02
2B
1C
0C
03
05
09
FF
16
07
17
06
14
1A
FD
0A
F2
FD
0A
0C
EF
FA
04
19
0D
02
15
FD
23
26
13
32
20
27
21
1D
29
07
08
31
0A
16
01
FF
19
F7
E9
01
0F
10
FF
F5
0D
1A
04
15
1C
12
09
F7
F0
F4
0C
03
F5
1B
2C
17
0F
00
F4
05
27
FA
02
11
0F
09
08
F9
1C
FF
04
F0
F3
04
12
09
EE
F7
EC
F6
EC
ED
1A
04
0B
FD
FD
07
0B
02
19
18
0D
14
F9
0B
04
FE
06
12
FE
1B
05
F6
0F
13
F5
09
09
FE
00
F6
EC
F3
F6
00
E9
03
0D
23
14
ED
01
0E
06
FF
06
FC
28
09
F3
F0
0A
00
04
24
0D
00
1A
F9
F1
F9
EF
F7
05
09
16
F6
1D
0F
F7
0A
FC
F6
17
19
0D
06
17
FE
F9
11
0F
06
14
F7
F0
00
05
FD
0D
10
17
11
12
02
20
FC
00
0D
05
11
16
0F
18
05
03
0C
0F
11
F8
F6
16
FE
F1
F6
05
FF
20
0F
FC
05
F7
27
F1
FF
19
0C
0A
0E
00
08
0A
FB
FD
FA
F4
0B
0F
ED
F6
F6
F2
0E
10
F8
04
0F
02
06
03
20
0D
F8
FF
F4
01
17
19
F3
11
F5
05
1A
FC
05
12
F7
DC
F7
EF
FE
09
12
03
02
01
EC
E7
03
07
20
FA
0A
17
1B
0F
F3
FF
06
11
04
1A
07
10
08
EF
F1
16
1B
04
1F
0B
20
F4
E4
F0
11
F0
0B
15
1A
02
04
0F
01
07
01
0F
09
FE
08
03
FB
F0
01
02
0E
0A
0F
29
11
21
0D
E5
F6
F0
FB
FF
FB
F1
15
01
10
0D
F7
FF
F7
FF
F5
F9
16
13
20
FB
04
27
1A
18
24
09
F0
E9
F5
F9
06
09
0D
0C
07
FE
00
FB
F8
E7
02
EE
05
01
09
05
0C
09
05
0A
19
26
01
08
F1
FA
EC
0E
E5
09
F4
EC
FD
EE
E3
EA
EA
E6
03
F8
EC
FE
FF
1C
05
01
16
EE
06
EE
F2
F3
EB
FF
F7
19
F9
F8
FA
E3
FF
E2
EF
F6
E2
F3
02
13
0B
F9
15
1F
0B
F0
F6
F8
F7
F5
EE
F6
F2
E7
FB
0A
02
F3
F0
FD
F4
DA
DC
D5
F1
FE
18
16
0B
EE
F6
01
0E
07
E8
F2
06
EB
E8
D3
E9
EC
06
03
00
FA
F3
DF
DD
CF
F5
F1
F0
13
22
09
FF
F1
08
0A
FF
FE
FA
0A
F3
F0
ED
EE
DB
E8
ED
ED
11
02
0D
D5
CD
FD
EA
05
EC
03
03
19
08
ED
E7
F6
E5
04
09
EB
DF
E8
E9
E6
F0
F8
0E
E8
0A
F0
E5
D9
C6
F4
FE
FE
E9
08
13
FE
05
FE
FA
EC
E8
EC
0A
08
F5
F4
F9
E3
E7
F6
02
F5
03
03
F5
DC
E8
D8
F2
E9
F7
F6
03
FB
FB
FF
F7
EF
FF
F8
FF
ED
C9
F3
FA
D3
F0
06
F5
0F
EA
FA
F2
F4
EF
D5
07
FE
F3
E6
F2
F7
07
0B
07
FF
09
F9
F7
D5
CB
DD
E3
FC
F0
E9
FA
F8
0B
11
E2
0D
DB
D8
E2
F4
14
07
0B
FD
02
FC
07
F6
E9
FC
FB
F9
DB
F0
EA
F5
FB
03
F5
05
15
03
1C
14
1E
F7
E9
E9
EC
0C
01
17
02
05
FD
28
0B
07
03
E8
09
FB
07
F2
0F
F6
F5
0F
EC
12
04
1C
21
3B
10
1F
19
0F
18
0F
13
1F
0C
22
2E
1F
25
11
07
0E
F5
F7
FA
F2
03
12
F7
F9
FB
F2
18
19
2A
29
2A
28
3C
19
36
3D
43
48
20
19
03
01
FE
0A
21
03
12
F4
FA
01
15
F6
0B
FE
F0
FC
1B
0C
17
11
0A
FD
17
20
30
10
1B
0A
26
02
0C
19
0A
13
05
08
F4
F5
FB
F8
01
FB
F3
F6
F9
F2
08
FB
01
FC
12
08
FF
0E
00
EF
FC
14
0C
14
EF
F0
ED
F5
03
00
F7
12
0E
EB
FF
09
0D
FE
EB
FC
00
07
F1
F9
ED
F5
FA
F1
EE
F7
ED
EA
00
F8
0A
F3
EC
00
F5
F7
FE
0A
06
FA
17
0B
FB
11
19
17
0D
12
1B
26
0E
03
EB
E8
06
FF
19
1B
0F
EB
F1
09
10
04
01
0B
14
0A
FC
13
0B
1F
1E
20
1C
00
18
0D
E9
F6
E4
FA
00
25
12
0B
17
0C
05
FB
08
0F
08
FF
09
0F
0D
F3
13
FB
FC
F0
E4
F5
D5
E3
DB
EF
DA
E4
01
00
14
FD
0B
F0
12
14
05
F5
E8
E5
F3
00
02
EE
08
0F
FB
0D
F7
0B
07
E4
DD
E7
F6
ED
FD
F4
E9
14
FB
F2
0C
12
0D
F9
18
06
EC
FB
E7
0B
F9
F6
01
0F
0B
EB
F8
00
FB
FC
FA
EB
10
F2
DD
EF
F1
F5
F9
04
F1
FA
14
13
DB
EF
F9
F6
15
0C
FF
FE
FB
0B
F6
FC
08
1B
F8
0A
08
F2
F8
15
F4
0B
F2
05
09
03
FB
F9
F0
07
06
07
06
07
0A
F4
FA
F6
08
ED
F4
F5
12
00
00
FE
F8
E1
FC
07
ED
F4
15
0E
EB
05
F7
09
06
14
F9
0F
F6
F7
FC
F9
0A
FC
09
04
EF
FE
F0
ED
00
00
DB
DE
09
F3
05
12
EE
EA
06
1B
04
12
02
F6
18
10
03
F6
01
12
17
11
17
F6
F3
FC
EE
EC
D3
E9
D8
ED
14
18
04
08
01
13
16
16
17
09
23
26
FC
EB
EA
04
05
F7
0C
00
21
11
FA
FE
E8
E6
01
F5
1E
0D
0B
04
2E
22
26
17
0C
16
24
14
F2
E2
E3
0F
1E
F4
18
03
22
17
38
0D
14
FC
E6
E8
E3
0C
1A
0C
19
23
17
05
1E
1F
10
06
01
E1
0A
1C
18
18
00
1D
23
1A
21
1D
11
00
D8
E1
EF
01
05
09
12
08
0E
02
F4
16
01
17
F0
ED
0C
FB
1A
12
22
07
FF
0B
23
17
17
07
F2
FA
F8
18
F7
F5
03
01
16
FD
1D
F5
12
F1
EF
FA
1D
22
25
12
06
04
0E
0C
06
F6
F5
F1
E8
06
FB
11
0A
DD
06
0D
0D
FA
F6
EE
FF
F4
0C
0B
18
1E
03
17
17
FC
11
1D
F3
EB
EB
E8
C4
E4
04
F5
1A
DC
E5
F3
03
09
12
E1
FB
EA
0D
1D
0E
0E
07
0B
0B
FC
F8
02
EF
E5
DE
FC
E6
E6
E9
F3
FC
F2
F8
EE
FE
F3
EB
E9
E8
1F
2D
15
0C
09
0D
EE
0E
01
05
00
EF
E9
E1
09
0D
05
11
05
F9
F0
D5
F8
F7
E4
E2
F3
F1
00
18
FE
1B
FE
01
F4
04
03
F7
F0
0D
F9
00
E2
01
02
04
F6
03
E8
E6
E5
DB
E7
FA
EE
09
F1
1E
12
0D
04
E1
EB
ED
07
EF
F1
F3
DB
1A
F5
0F
FA
F7
EF
E4
F0
E8
D9
E8
EF
E6
E2
EA
FE
EC
00
F6
E9
06
E1
FE
E2
F9
F2
EA
00
FB
01
FE
FA
F7
E8
F0
ED
F8
EB
FC
E2
F9
F4
E4
ED
F1
D5
04
E8
FD
E6
D5
DD
DD
FD
06
0A
F1
00
E1
05
F9
07
E6
E8
E7
F3
F8
F2
F6
E9
F9
DF
E4
FB
DF
EC
EA
EF
16
F9
F1
0B
F8
05
E5
E3
06
FD
06
FE
0C
F6
F6
15
05
F6
06
F0
F2
EF
EA
0B
E9
01
03
FC
08
F0
10
F7
02
E1
F8
E9
F1
06
FB
F6
EB
01
1D
27
FE
13
EF
00
14
F3
F8
04
F6
0E
0A
FF
F6
0B
03
F2
F8
FF
F5
F9
00
0D
FD
F5
F1
F3
EB
18
FD
0E
0A
18
15
01
0A
01
21
0D
F3
0B
02
EF
11
FC
09
0D
0F
F1
11
EC
F5
0C
F9
F3
F3
12
0E
F5
F1
0D
EF
FD
F7
01
0F
05
F9
0E
0B
06
DE
0A
18
F6
F4
06
03
03
ED
0E
0D
F0
05
EB
F4
EB
0F
01
08
FA
FE
02
F9
F9
EE
F9
0F
FE
FE
F0
F9
FE
F4
04
FF
06
F2
06
EF
F9
01
0B
02
EE
FE
ED
F9
FE
06
16
F0
F2
FB
E9
02
FD
DA
F2
E4
E4
F7
FD
FB
F0
04
11
F3
18
00
06
E1
0B
DC
CB
F3
F0
FD
E6
DD
0A
0B
DC
D8
DA
E8
E8
0C
FA
F7
09
15
06
11
FF
09
FC
EE
01
FB
E3
E2
CB
E6
CE
F9
E4
10
0E
FE
05
F6
EF
FF
04
F5
E4
14
FE
F6
F4
F9
07
F4
2B
09
F4
E5
FF
F4
01
ED
F1
07
F5
01
14
0F
0E
F7
FB
03
E5
0A
04
10
10
13
12
0C
06
F8
01
F5
EC
F6
F5
0A
03
FF
EF
F3
F7
0F
00
F4
F0
FF
13
FC
0C
06
F4
F0
E7
EE
E7
F2
FA
04
18
F8
02
F4
05
E9
EE
F2
FB
F1
02
0A
DB
F9
02
0C
05
10
FB
12
1D
D5
CF
D3
FD
ED
12
03
15
FD
0E
07
0A
FB
F7
EF
02
F9
FC
12
FF
FC
0F
09
0C
21
F4
EE
1B
02
F5
E6
0E
15
01
F5
09
08
11
18
09
FD
03
F4
FC
06
F9
05
10
0B
06
10
0D
02
01
07
16
09
02
D2
F2
EC
10
08
F3
05
0E
08
0F
F1
03
17
0E
F2
FE
FE
ED
1A
04
06
23
14
0A
FE
0E
FA
EE
DC
EF
FE
FC
FC
0C
F9
12
03
00
F1
EE
F9
F4
F5
F6
00
EF
02
FF
19
0E
05
04
0A
00
05
00
D1
20
08
F8
EC
1D
01
EE
18
F5
F9
0E
00
EF
F1
01
EE
D7
FE
E7
0E
0B
26
FF
04
22
03
01
F8
18
FE
0A
00
01
F8
1A
03
FD
FC
1E
11
F4
01
EC
D4
E9
C5
F5
0B
11
03
04
FC
00
FC
11
EA
F8
F8
15
E5
F7
0B
26
11
19
13
19
F3
ED
EC
EA
D0
EC
D5
EF
05
0D
0B
03
03
02
0B
0D
DC
F5
F4
06
07
EC
00
F7
08
21
14
0F
0E
08
EB
E6
D1
E3
CB
EA
FD
FC
12
FD
09
10
15
04
FF
FE
F2
0F
29
F9
0C
07
0D
1B
05
16
02
EB
D9
EF
DA
D2
DD
E3
F7
13
07
01
09
0B
02
0F
FA
FA
09
01
12
0F
06
0B
0B
23
19
16
16
F7
E8
DC
EB
DF
CF
F7
F6
FF
06
16
01
24
FA
F0
C7
FC
06
00
17
0B
FA
0F
10
15
15
09
1A
FE
F4
DB
EC
D8
F1
DF
FB
0D
10
16
04
09
05
F9
09
08
FF
07
23
EF
0A
01
FF
04
1B
10
09
FD
F5
E7
F7
F7
02
EA
07
0F
12
0C
02
F9
08
05
F5
F2
06
11
02
E6
09
1B
03
04
0E
15
03
EE
05
DE
EA
FC
F1
F0
E6
07
10
F3
13
F8
F0
EF
11
0A
03
19
F3
02
F7
1D
20
FF
09
F7
09
19
F2
F5
F3
EA
FE
E8
F8
12
F1
11
F9
EC
F9
D9
04
04
07
F5
FB
EF
FA
F5
FA
0E
F1
F7
01
FC
F9
E0
FF
F5
F8
F0
01
06
F7
15
0C
07
10
09
F9
06
EE
02
08
FE
F5
13
FD
01
08
12
F8
00
ED
FE
E3
E9
F2
E7
FF
FC
1C
0A
1A
10
25
13
19
04
F2
F6
04
E1
E1
EE
0E
10
01
0F
00
F2
07
E7
F7
E5
0B
F4
05
F8
05
1C
0E
08
0E
F9
F4
00
00
F3
12
01
FF
FF
EB
F3
EC
06
0B
FE
FF
F6
E0
F3
FD
F2
03
FF
27
15
13
EF
E7
FC
EF
EE
00
EE
F7
1A
10
FE
07
ED
F6
CF
E4
C5
D0
CA
DE
D6
B7
DA
E5
EA
E9
F8
08
17
14
0A
0B
F6
00
F4
FD
14
F1
DF
DD
ED
DB
E7
F7
F0
F5
E6
E5
F3
C9
E9
DE
DD
04
F4
06
F0
FF
F6
F0
14
0E
07
08
F0
EF
05
03
03
E7
0B
F2
09
FB
F7
04
E6
00
0F
FE
03
F6
08
FD
F9
07
F4
0B
EE
09
10
0F
01
09
06
14
0F
09
FA
EB
FD
02
0C
0B
EF
04
F7
08
F0
0F
0C
F9
F7
08
ED
0B
00
F0
F2
0F
05
F3
13
0A
0F
F6
0B
F2
00
11
07
15
24
08
0C
0D
F8
18
F8
0A
03
11
F8
11
13
EC
08
14
05
EA
03
00
0B
07
04
02
0E
0E
EF
0D
08
23
08
10
14
22
0B
0F
FE
EC
FC
10
FA
FC
ED
F1
13
FD
09
F5
04
04
02
0A
F1
EE
EB
09
0C
18
F7
26
25
07
03
00
05
1D
06
15
00
EF
F6
FF
FA
ED
FF
F2
FC
17
0A
F1
01
F5
14
12
FF
16
1F
18
08
1D
12
15
14
1D
0F
F8
FC
EC
FB
02
F6
DA
06
1F
FA
FB
0E
0B
11
0F
18
F9
16
0F
02
F9
15
17
FC
10
00
2C
09
E6
EE
12
EA
F0
F6
E1
EF
10
24
1B
0D
E9
EE
01
F3
11
03
00
EC
09
07
0A
F2
12
19
1E
1E
14
1C
0C
DD
07
E6
ED
FB
EC
04
0B
F8
0C
F5
FC
F5
03
F7
0D
FC
ED
11
03
06
16
19
16
09
1E
FA
15
FC
E5
E2
E3
03
E9
E9
05
FE
FE
FE
FF
02
06
02
FC
F8
0E
0A
F4
0B
11
14
17
18
01
F2
00
FA
FB
F3
E0
D6
FC
E9
F9
01
0E
F8
E8
F1
F4
EC
F2
02
F0
0A
03
02
F6
EF
FA
17
05
FC
08
18
E3
D1
02
F5
03
F1
F6
F6
0B
0E
0B
0A
11
19
F2
0E
12
F9
FE
FD
FF
E0
E4
14
14
EA
E3
EF
00
D8
F0
F6
17
0A
FB
FA
F8
FA
FC
05
24
16
04
F7
0A
04
EB
DE
CD
C7
D7
FE
E7
FE
0B
F3
EB
DE
06
07
00
15
05
14
12
1B
1B
15
2B
0A
1B
1A
F6
09
FD
ED
CB
D5
CA
EA
0C
ED
13
FA
01
01
F1
F0
10
17
13
06
EF
08
05
08
2A
16
17
F5
F5
F8
F1
F4
E6
DF
DE
03
05
0B
FD
07
06
DF
E0
D9
E9
03
FB
F0
0C
05
16
29
26
FC
F4
0C
F2
E3
E5
DB
F7
E8
FC
F9
E3
10
F4
14
0C
D7
D9
C8
E4
FA
F6
F4
FC
03
01
24
0F
FF
F6
EC
F2
E5
F3
08
12
05
08
16
F5
05
EF
0B
01
EE
E8
C1
EB
E1
DA
E2
D5
ED
E8
06
EE
E6
0A
E8
F0
05
EF
F6
F8
09
14
0C
09
01
FE
FA
F4
F9
EA
F3
F2
E8
04
F6
E0
D2
DB
E5
F6
0A
F6
EE
F5
02
F7
01
FE
12
F2
ED
03
F6
E2
0F
0A
16
E7
04
F2
FB
F0
F3
EF
F8
E6
F7
F3
F1
F6
E5
F4
06
09
06
0B
FD
F5
F9
05
0F
0B
E0
E3
16
09
0E
09
F4
F4
0A
EA
ED
EC
F5
F5
F6
FF
14
11
18
0D
1A
FF
0B
13
E5
FB
FF
0D
08
FA
FF
03
0C
0B
06
FB
F9
08
FE
F3
F3
10
0D
FF
F4
04
02
F4
13
F0
FB
EF
E9
04
1D
FC
0F
0B
00
00
04
FD
0C
0E
FC
F8
00
13
13
06
1A
0D
1E
0D
06
06
F6
0F
0E
F8
EB
EF
FB
F8
F9
0F
0A
1D
11
08
F7
10
0A
07
FA
13
03
04
FB
18
0C
15
13
07
FF
E9
EB
F9
F4
17
F1
F5
08
12
06
FB
FB
FA
FC
02
1A
0A
07
1B
19
03
F6
16
03
10
1C
0A
09
FD
E8
CC
E6
E6
0C
0C
F7
0C
01
FE
FE
04
F5
11
0C
17
FF
09
F5
01
0B
FC
1E
12
0D
FB
EE
FC
05
01
F5
EF
F2
0D
09
17
0B
F4
EA
F8
05
04
10
0A
08
0B
F4
FC
FC
F3
15
F4
19
00
0A
0B
14
E8
EB
F5
F0
F4
0E
00
04
03
FF
05
1E
27
24
FF
0B
07
F9
10
1F
0A
27
17
FB
0A
17
09
FD
F8
F2
01
11
09
F1
15
0C
F8
ED
E5
DC
F5
F7
F8
09
EA
F4
1A
13
EC
0B
07
FA
EE
ED
D9
F1
09
0A
13
EF
0F
EB
F6
06
12
FA
0D
EF
F7
12
FE
11
F4
F9
FA
10
FF
FE
13
08
0D
02
FE
10
02
FC
05
FD
EC
09
F8
02
E9
08
E7
FF
00
EF
EE
EB
DB
FE
03
00
E5
F6
EA
F7
C9
DD
F4
F9
0A
0D
F8
FE
0C
F1
01
DE
DD
F0
EC
FA
E7
F9
FA
DA
EF
D0
DD
E1
06
0D
06
08
12
DE
07
F3
0D
0A
01
0A
FD
0F
00
E8
E6
E6
F6
EF
F6
00
F1
F9
EB
E3
F1
FC
FE
FD
1A
14
20
25
10
F7
0A
F9
02
00
FD
0A
08
0C
F0
12
14
F4
ED
07
FF
FE
FA
08
0A
07
E9
03
F6
1E
0E
0B
21
21
12
2E
0F
00
F0
01
0E
26
E7
1A
1C
E3
10
FD
08
16
00
FA
EC
F0
00
01
F8
F4
01
0A
14
21
29
09
00
F0
F6
01
FE
09
02
1D
FC
FE
18
F8
11
0D
EF
F4
F9
0E
FA
09
07
03
F2
FB
F5
0F
FA
0B
20
04
13
EE
ED
0A
09
04
07
11
FE
0B
F6
09
05
FD
EC
FA
FE
FE
0C
0F
03
0B
10
08
FD
21
26
1F
F2
F0
08
F1
0A
10
F8
E4
FD
F8
03
0A
E7
0E
19
FF
07
09
0B
0C
13
02
01
12
F1
24
1F
00
16
E2
16
03
15
0E
00
F2
00
11
E4
FE
0E
04
FF
14
F3
05
F4
04
18
07
0F
12
0D
1A
FE
F6
11
F8
06
ED
F5
F0
14
FA
08
F7
F7
0B
0F
06
FE
DF
E1
D5
EA
EF
F2
FC
05
E5
EB
03
15
07
08
F1
10
13
14
F8
F1
F7
E6
F4
F8
05
E7
E9
F3
E7
F6
F6
E8
E6
EB
FA
F0
E6
D2
11
F7
0A
07
05
00
05
06
FF
F2
E8
0F
02
FE
07
EE
FD
FE
E6
EA
DC
E5
F3
05
E0
02
CA
CE
EA
18
11
F0
F1
FD
06
F8
FF
F3
E3
ED
F9
E5
F6
14
FB
F9
0A
F6
08
07
F5
0E
FC
E5
D9
F0
05
16
F7
F2
F5
ED
F9
15
FE
EC
EF
EA
EF
FF
EC
ED
01
F9
0D
F8
08
09
08
00
00
DE
F9
0B
F3
19
FE
05
09
FC
0B
28
FD
FE
02
F0
F9
EE
03
09
04
06
15
FE
09
06
14
06
FD
F9
FD
17
FB
32
E9
0D
01
EE
17
0C
14
FB
0C
13
F5
0C
FD
1D
FC
F8
15
FE
04
1C
25
1A
12
12
FA
14
10
0F
05
14
FD
E7
11
0B
1C
28
20
1A
15
07
21
00
F1
14
0B
0F
1B
27
18
21
00
07
0C
E7
F9
FE
FF
02
07
09
3D
0E
0C
0E
13
21
0F
FC
F4
EB
E0
02
13
3A
25
08
25
14
18
11
01
05
06
1C
0D
12
DC
F6
18
1F
00
20
04
26
0D
FE
0B
EA
CD
FE
21
1A
21
0F
F4
18
13
FB
FA
17
22
0A
05
05
EE
0C
13
16
F5
FB
1A
0B
F5
DA
CE
D1
DB
FC
11
1F
F5
04
FE
F3
E5
F0
F2
1D
FE
16
11
10
EB
FE
22
04
FF
06
FA
EA
E5
F6
DC
F0
EC
0F
1B
16
05
04
FC
0F
E7
E6
FE
0D
26
FD
F3
09
0F
1B
0C
07
E3
F3
CB
E1
E1
DA
05
F8
FE
F5
0E
FC
F0
FD
16
16
DF
FC
03
FE
12
FB
F6
F1
F0
E1
01
E4
F0
DB
E3
D2
E8
E2
F9
10
10
06
05
0F
F0
E8
09
01
08
F1
1B
05
1A
0F
0D
F2
05
F9
ED
0A
DF
E5
D4
DE
F9
FC
FC
0C
07
10
14
0A
1D
0B
02
F8
10
0E
1C
17
01
F3
F8
FA
F0
E4
F8
EE
C5
E6
D6
E5
E8
07
0A
19
20
FC
0D
02
0B
F3
14
FF
F8
0A
F4
10
00
08
11
FD
03
FD
FB
E1
EA
02
03
09
28
14
F1
07
F2
FA
FA
0B
FF
01
E6
E2
0F
F8
DA
03
F7
F7
FF
0C
FA
FA
F7
FA
ED
E8
FD
E5
E5
F3
E5
E5
FA
D3
EE
09
E7
05
FF
E7
F3
03
F5
F1
FB
0A
F5
F9
04
07
05
0B
06
FF
04
F5
F4
0D
0E
00
24
0F
19
FC
FC
0F
F3
04
FE
F4
FC
0D
ED
F9
05
03
ED
EB
0E
0C
03
04
13
16
04
FA
F4
FD
0B
E7
F1
1D
09
FB
00
EE
E9
0E
F8
FD
F2
02
02
F4
05
12
06
17
12
0F
10
08
F9
13
18
33
17
0D
FD
1E
19
23
12
06
06
EB
01
19
F3
FF
FB
13
06
08
02
01
02
0C
09
0E
04
1C
14
20
2D
15
16
0E
09
04
FE
08
0A
E7
EA
F2
01
FF
0A
0A
06
09
02
0F
FE
24
1C
23
07
1C
2A
25
21
21
14
FF
F6
00
F1
FC
E1
F6
D9
04
08
41
24
09
EE
1A
FB
FF
13
17
FE
12
0D
08
FE
09
1C
24
03
12
04
F1
07
F6
05
F8
00
02
13
17
03
0D
F1
06
F8
F0
10
00
ED
0E
F8
0A
09
19
08
18
2B
2E
25
0E
F4
F3
19
16
02
06
0C
19
12
FF
12
0B
0C
10
F4
F0
00
F3
FE
00
FD
06
11
1D
1E
16
2A
1E
FF
1B
18
10
04
F7
02
19
1C
EB
28
0A
24
04
09
FF
F3
E0
F7
05
E8
FD
F1
02
22
26
10
2A
20
18
FE
0C
0B
03
F1
17
06
F5
F4
09
FE
F2
EB
E8
01
F6
DF
01
EC
EE
E1
0D
06
27
17
0B
1A
0C
F6
21
19
F2
19
F2
05
19
05
06
FA
F4
EA
F3
E9
03
DD
E0
FE
E9
D7
F4
EA
0B
00
08
18
0F
1B
1B
1D
F4
02
00
09
0B
FA
15
E5
E3
FD
08
FA
E6
E7
02
F0
E1
D8
FD
DF
08
02
FE
24
06
0A
11
0A
18
05
F2
1C
FB
00
07
FD
F0
DA
F7
F3
FD
07
F6
00
F7
EE
F8
E6
04
F0
FB
1F
16
FB
FA
13
11
F5
EE
0E
EB
F8
02
FF
EE
DB
DD
F8
0F
04
05
E0
EA
09
E7
FB
0D
01
11
FE
FE
F4
04
EB
EF
03
FD
0D
FF
07
19
F7
13
F6
FF
18
F3
EA
F5
EF
F4
0B
0C
FA
11
F8
16
06
04
E3
F6
F6
FF
EC
F7
0C
F4
0B
F0
00
06
07
08
FA
10
EC
EE
14
EA
FB
00
06
EA
F4
0C
EE
0E
03
F7
EC
FA
02
01
09
11
EB
14
0E
08
0F
F2
02
08
F2
F6
09
EE
F3
FD
F2
0E
01
00
E9
ED
E9
FB
F2
FC
09
00
F9
07
F9
07
F8
FB
FC
FD
FC
05
0E
F2
F9
03
E6
ED
09
02
F8
F3
DE
EE
F0
FA
08
FD
15
07
F7
33
E1
FD
03
15
F3
07
F3
19
FB
06
F9
ED
EF
0D
FF
F1
FB
0D
03
FF
03
0F
F8
13
0F
14
16
03
0C
21
00
09
09
FE
11
F8
FB
FC
E9
F8
F9
09
F0
FE
12
0B
EF
FA
ED
14
05
07
08
0F
0A
F2
08
29
26
07
FD
12
01
0B
01
0C
EC
E9
FF
0D
0D
FC
F0
FC
03
11
FD
08
13
0B
0F
EE
F5
F3
F6
30
04
1A
11
0D
10
FE
FF
03
07
FC
FA
F1
F4
FB
F9
05
FA
FE
E9
03
02
FF
0E
07
07
F8
F4
FE
25
F4
F0
03
07
21
07
FC
13
0D
16
F2
F9
09
F0
01
0C
F6
03
F1
EF
F7
00
F1
0E
0D
F2
F2
15
03
F7
11
11
F2
15
17
12
05
FF
03
16
F0
EF
11
FE
F7
02
FA
F7
FC
0F
04
06
0E
FD
F0
14
13
04
04
0D
06
05
FE
1F
FC
0D
FB
F8
0A
0F
EF
01
EE
F4
E1
F5
11
08
F1
0B
F2
F2
FA
0C
10
11
26
1A
27
FE
01
03
11
0A
F8
EF
0F
09
FF
F1
23
09
0A
FE
FD
06
F7
0B
ED
11
EC
F4
F0
02
09
17
13
22
29
1E
0D
FE
05
0B
FA
08
F5
12
0D
04
FC
EF
E4
16
04
F7
08
F2
FC
00
0F
FF
FD
19
2F
0F
FF
0C
FB
12
0C
18
17
17
0B
FF
03
08
0C
12
0F
ED
06
12
0D
FE
0A
0E
0F
F4
EC
10
0A
F7
EC
F6
FA
FA
15
08
F5
F7
00
FA
F6
0C
14
F7
ED
F8
00
11
FC
0E
F4
08
0D
16
07
FD
0E
F0
FF
12
FB
F8
20
08
08
0D
0A
13
0D
F7
F7
08
08
EC
FA
FE
FE
08
F3
FA
0B
05
18
07
05
13
F7
0C
20
0C
FF
08
07
15
0D
F0
0D
E6
E5
FB
F4
F5
EF
06
10
15
10
1A
0E
10
FA
0C
F9
FB
F6
0C
0E
03
07
00
F8
0E
ED
0E
FF
04
01
09
FB
E8
0A
09
EF
0A
FD
FB
FC
E8
13
E8
11
FD
15
1D
FF
0C
05
0C
14
18
06
F0
F9
DE
E1
F4
0E
10
16
00
EF
FC
22
FF
E8
FE
E8
0B
0C
23
02
1E
FA
FC
0C
F9
FE
1A
15
04
01
0E
FB
E8
18
18
12
FF
04
FC
06
11
E8
F6
FC
FE
09
FF
15
07
09
0F
26
17
00
1C
02
0F
09
FB
12
07
FC
03
14
09
07
FF
10
FA
FB
09
E6
F9
F8
12
0F
17
05
18
16
1B
1B
00
FC
F9
FB
0C
06
10
05
F5
FA
14
04
ED
ED
F4
0D
F9
0A
0C
F6
FB
F9
F1
07
16
F7
09
17
13
1E
FD
05
03
12
FA
15
21
38
1E
F5
06
FE
1C
FC
00
00
FC
F1
0A
F7
13
F7
09
E8
08
08
0C
0E
13
0F
EC
11
16
F2
18
2D
12
08
1A
F5
15
F9
10
FB
F1
11
05
FF
F8
FA
FE
F1
F5
FD
F4
01
FD
15
1B
06
16
01
FD
F2
F5
DA
11
06
10
EE
06
F0
E8
02
02
12
FC
04
F2
0E
F7
E7
02
EE
0B
22
02
0E
1F
03
FA
F6
E7
F3
05
FA
F0
0A
E4
D5
FF
EB
E9
FA
02
0F
0F
21
FA
F2
0D
F5
12
20
FF
FB
12
1C
F2
11
09
1E
0B
08
F9
F3
FC
D6
DE
E6
EE
0A
F0
FA
0A
0B
08
02
04
FA
0B
06
00
F1
EC
EA
F4
04
FB
12
EF
0E
0C
00
EE
D9
DC
D1
F8
0C
FC
EB
FC
1B
F8
FC
0B
FE
0F
FB
E2
EC
DD
00
06
20
F0
17
F8
05
F2
00
F8
F5
DF
EA
CF
D9
01
E8
10
0A
FD
F9
0F
EF
10
04
F3
E3
DF
F4
F5
02
18
F9
FD
17
02
FF
EC
EA
F3
D0
ED
E7
F1
F6
F1
0E
02
FE
F4
DD
ED
F2
FE
E1
02
EC
FF
04
04
F2
0C
FA
15
24
0A
F7
E4
EA
E9
E0
E0
F5
E4
EE
09
EF
02
E4
F1
F1
EB
0E
E4
00
0A
10
12
33
0B
FF
00
28
08
05
E4
EA
FC
E4
ED
F1
F0
F5
F6
FC
0C
EB
09
0A
11
09
F7
15
27
1D
F6
F6
F5
F4
0A
22
0C
23
1E
05
F8
05
FF
F7
19
FE
07
04
F6
14
F1
E9
F6
10
21
15
06
14
0A
F9
F4
FE
15
1A
39
1E
2C
23
FD
F9
19
09
10
ED
0F
16
0F
18
16
0A
07
FA
08
2F
0B
FB
03
23
FE
14
19
31
37
2D
1A
1E
1F
FC
FA
FA
F3
F6
0B
08
FB
F8
FC
F2
18
08
18
1C
0A
1C
0B
06
10
0E
F8
07
04
12
26
20
1E
1B
09
F8
EF
00
FA
0E
1B
08
F7
FB
FE
F8
10
34
06
F6
12
0C
0F
1B
EF
F6
F4
09
FE
06
FC
F3
00
02
07
15
0B
03
05
0C
F4
F6
11
1D
1C
01
03
F0
10
EE
11
EF
E7
05
E9
DF
F9
F6
03
F4
F9
10
FA
05
F7
04
F0
11
0A
07
07
FE
04
19
0B
F3
F8
14
0D
01
0D
04
19
03
E7
EB
E2
DB
06
ED
FB
0A
0A
F7
0C
11
F5
FD
FA
F3
E0
10
F4
F4
00
F9
07
01
12
1B
F5
FC
11
07
FD
F4
06
1F
0F
1A
FD
17
19
15
04
0C
F5
F0
02
0F
DD
14
EC
FE
0E
0C
F1
17
EE
14
02
0D
19
ED
03
0E
15
17
14
12
13
1E
08
24
E7
F7
0D
09
EB
12
F1
