0A
12
F6
10
10
F1
01
ED
FA
0D
F3
10
FE
F8
0D
00
14
F1
0E
0D
F9
0D
EC
07
FC
09
FB
01
06
FC
0A
10
06
05
00
F5
EB
FF
DD
FA
00
F1
01
F1
F9
FD
DC
FC
EB
E2
F9
E9
F8
FD
12
00
08
10
0D
1C
E8
DE
E3
E2
F7
DD
D8
D1
D6
E9
ED
F6
ED
E2
E1
E7
E5
DE
D6
E8
E5
FB
F4
11
05
FD
F3
EE
13
F3
F6
E0
DD
E9
DF
DC
E8
D3
F1
D6
F2
01
E4
EB
EE
03
F3
E9
13
F6
E7
03
10
EA
FD
ED
FF
E4
F0
F8
F6
EF
F7
EE
F6
F9
F4
E1
EC
E2
E9
EF
FE
FE
03
F8
10
F4
22
1D
08
F7
FE
13
E4
FC
EA
E3
EE
06
ED
08
03
ED
05
F8
FF
F8
05
E2
D9
F0
F2
F2
E6
FB
03
F7
F0
01
F6
0F
03
ED
02
E9
F9
1C
09
FE
FA
0E
18
1B
19
09
F8
04
F3
11
EF
1A
E2
FA
EC
0A
14
EA
EF
1B
10
EC
01
11
F7
0F
02
1B
08
18
FD
12
19
2D
2E
15
15
F8
01
0F
16
03
EE
09
24
01
08
0C
E6
F9
17
1F
FC
0E
FC
0F
01
04
0C
0A
2E
2A
2B
29
13
FF
1A
24
05
0B
EC
FD
FF
06
F7
F9
EC
06
04
14
02
1E
01
18
20
1D
0C
17
0B
1F
23
14
26
0F
1E
07
08
F9
FE
F3
F4
F0
E2
EC
F4
EB
FD
0E
12
FC
14
16
FB
18
EA
FB
0D
1B
20
0F
16
08
12
FC
F2
F2
D0
04
FC
06
ED
D5
F5
F7
F2
05
0C
0F
F8
FC
1A
FC
06
ED
15
02
18
09
02
FD
0E
F8
F5
E3
13
09
07
DB
F3
01
05
F1
12
00
05
08
1B
17
12
F0
F2
0B
03
F0
13
22
0C
08
13
03
F4
F5
2C
08
04
EC
C8
01
00
FF
00
20
12
0A
1B
04
F9
01
F8
E7
02
0C
09
0C
0F
0D
F5
10
F4
0F
2D
0A
F1
07
E9
F1
25
FE
1E
01
1D
0F
21
03
10
F6
ED
EB
F5
14
11
F3
F8
05
F5
09
09
05
1A
F1
F0
04
0F
F7
1A
0B
01
2B
06
0B
16
13
EA
E5
F4
01
F9
06
08
F3
EE
FC
0D
F4
FF
04
00
F4
0D
08
EE
DD
0F
FF
FC
1F
24
14
13
F0
08
EC
0A
1B
0B
1B
F8
EE
0A
12
02
05
0B
F0
F8
1F
FA
E9
FC
EF
09
03
13
10
FB
F5
F6
10
02
FF
EA
F6
05
F8
F2
02
F8
04
09
1E
F2
DE
10
28
FA
E7
0C
D4
09
F8
FD
FB
F9
F5
E5
F6
DE
F3
E5
FB
0E
0A
FC
00
E3
EE
18
04
F0
DA
FA
FC
ED
03
12
DE
FC
F8
EB
EA
E4
E6
F4
E3
EE
EC
E3
E8
09
E9
00
EA
04
F7
0C
F8
F4
F1
0E
EB
F5
05
15
F2
E6
07
E7
E3
DB
C6
DB
F0
DE
F7
FC
04
F9
FD
ED
F6
F9
F1
F6
FD
0E
EF
E6
12
03
0A
F9
EC
FB
F0
FE
E0
E2
DF
E3
D5
F0
FB
04
EC
F7
EE
EF
FE
F6
07
FB
11
F9
0B
03
1C
EC
F2
08
11
EB
E1
0C
EA
F9
FD
E3
FE
09
08
03
F0
FC
E2
EA
F4
08
07
02
FD
06
0B
F7
0A
0A
13
F7
F5
04
F3
1C
2A
0E
1B
16
07
18
05
03
07
0B
07
F7
10
04
FF
12
10
14
F4
E8
ED
12
F0
0E
EE
F5
FB
11
0C
0D
27
29
2C
23
1B
15
1A
16
2F
1D
11
35
23
2A
31
F6
EA
03
F4
F9
04
02
F8
1B
2E
FD
18
17
23
15
02
ED
0B
04
1C
11
25
03
14
18
07
19
00
0C
E9
05
02
10
F6
FA
04
01
F2
05
E4
F1
EE
F8
E5
E4
FE
EB
E1
E6
10
0D
E1
02
F3
F2
0B
FB
05
FA
FF
13
09
06
04
00
03
EC
F8
F5
E2
E7
D0
DE
E0
F9
F7
E2
E5
FE
F0
0B
E5
E7
FE
00
03
0B
F5
F1
04
F3
FB
F8
F7
F2
07
02
10
0F
08
FC
20
13
1A
F4
14
F2
FA
04
07
04
03
0B
F3
F8
EC
F3
F1
04
F6
0C
0B
23
01
1E
20
16
2B
17
25
05
05
22
22
15
0F
0D
F9
1A
F8
EF
0F
F5
03
11
EF
FC
EA
F0
12
1C
13
08
3C
21
24
18
2F
31
3D
22
16
0D
12
00
08
1B
04
F8
12
04
01
00
F4
13
F9
F9
17
23
07
DF
F4
13
F1
0C
2B
0A
03
2A
0E
27
0E
13
D1
02
E1
FF
18
F3
F8
F6
F3
FB
E3
10
F6
E5
ED
FC
11
02
0A
00
FA
F7
FE
00
09
2B
0C
06
0C
EB
EB
DE
F0
0D
16
EC
13
20
ED
FE
D4
F4
D3
EE
F7
0D
0A
0B
00
FF
0D
1A
18
1C
07
FD
F7
F6
F2
F7
F2
F8
FB
EF
E6
F7
F9
D3
D0
F2
E4
EB
11
04
FC
23
25
3F
0B
01
EE
F3
EB
E3
EB
00
D5
DA
FE
F2
06
F6
F2
FC
08
F1
EF
ED
E5
06
F9
02
15
2D
2D
21
11
00
E5
DE
FD
00
FA
EE
DB
DF
E8
05
19
E7
01
1F
E0
EC
EE
EB
F1
F6
0D
FC
26
13
25
F9
F5
02
F9
08
ED
F9
F4
D6
F8
EB
E7
FB
19
E9
01
E7
F3
EA
0F
0D
F5
F7
06
1A
1A
F5
FB
E8
FB
F8
08
0F
F2
F9
DC
EB
E8
FA
09
FD
0E
DF
00
EF
01
F5
12
06
1B
FD
FB
05
FA
DE
F4
0C
0C
FE
FA
FE
F5
FE
01
DC
DF
F7
ED
F3
0F
D1
FE
0D
EC
1C
0D
19
1C
01
12
12
E8
CF
04
02
05
F7
0D
18
F0
FB
FF
06
07
2A
F5
F8
07
E8
03
1B
0F
23
1A
12
0E
03
FB
DE
F2
DF
F3
0F
10
FA
02
F8
FE
10
05
FC
1E
0E
02
FA
0B
00
E5
0F
07
05
FF
0A
12
FE
0F
EB
F7
EB
07
06
0F
FA
F2
EF
0B
0A
E6
FC
E8
E5
E7
0A
F8
E8
DA
F5
F9
FE
F9
01
01
F0
E9
EA
F9
FB
03
01
FE
02
02
01
00
F6
0F
F8
E5
B2
F0
FA
2A
05
EB
DF
EF
DD
E6
FD
F5
FF
FD
EF
E8
ED
16
0C
FE
01
F5
FD
E2
05
07
E7
C0
CA
F1
14
F5
FD
F3
ED
EA
F5
FE
12
E6
E9
E5
E6
ED
0F
05
0A
F3
F1
FC
FF
FD
E7
EC
E9
EB
DC
0A
F9
11
0C
FB
F3
F4
07
21
09
F8
E2
D8
F0
12
1B
27
05
06
FE
0A
E5
04
F4
DE
D8
CC
0A
11
21
04
11
FB
CD
00
01
09
18
E2
C3
ED
F7
1B
32
11
0B
EE
06
F8
00
0A
05
05
F0
FE
21
07
12
F6
0C
E3
E6
0C
05
F6
F3
FA
D4
FF
19
20
2E
FD
F6
EB
FA
FE
10
11
15
07
F1
13
27
FA
0D
0D
FB
E8
E7
18
13
FC
E5
EE
F2
12
24
20
0D
09
0F
04
0D
08
12
0F
1D
01
0F
2E
1F
3B
09
0C
16
F4
F6
02
17
1D
09
EB
F7
F5
F4
F6
F0
EE
01
04
FD
EC
09
00
FC
0E
0D
22
3F
28
FC
04
20
01
EE
25
2C
0C
EB
E8
FA
07
DC
E2
E5
FE
03
00
01
0E
F5
FF
EF
FF
2B
2F
1D
0D
E0
F5
FB
04
05
07
F5
FB
D2
D1
F8
EB
FC
EF
08
F1
15
14
07
07
0D
04
0D
19
2A
1B
2E
11
DE
0C
08
F9
E7
D4
DA
D9
BD
D1
C6
DA
DD
CE
EE
10
04
13
07
FE
09
0B
11
1C
1E
06
25
FC
E6
FE
F3
05
0A
E7
E5
E1
BC
DD
C2
C7
C1
BC
EB
0E
28
0B
0B
29
14
07
20
14
04
FA
0E
F4
E5
FC
12
F8
13
0E
F7
07
F1
F8
E5
F6
E0
EC
0F
24
23
3B
19
1F
31
2F
2F
1E
10
1C
10
EF
04
01
F9
09
F8
EF
0F
F9
0E
F1
17
FF
E2
D7
EF
C2
F7
FA
FA
02
25
05
24
02
FC
FF
09
F1
12
FB
01
03
F9
00
F4
10
05
FC
EF
F2
F7
12
FC
15
08
0A
EF
07
14
0D
FD
F7
EF
08
0C
F7
06
12
EF
F1
07
F1
F2
08
04
F8
F7
F0
FD
14
F4
FA
D9
0D
0D
F5
08
ED
09
FA
F0
0E
12
FE
0E
0E
F8
0D
07
FF
1D
F2
FF
0C
01
03
F2
F7
EF
03
FC
F1
DB
02
FD
FA
E5
02
E1
FC
01
01
0D
F7
FB
FF
00
17
04
F8
F7
05
F8
FA
0C
03
E3
06
FF
00
EB
E9
F5
F1
02
E1
02
EA
E7
FC
FA
10
ED
01
EF
E5
F3
E1
EF
00
F1
02
09
18
05
FB
04
10
18
10
F9
F1
D2
E7
D7
E7
FA
01
1A
FB
FF
05
04
F9
D3
01
07
FE
00
0D
FF
0C
01
15
16
0E
21
1B
22
0C
FD
F9
E3
00
01
FB
24
E1
ED
F4
FE
E0
DA
E9
F9
DE
17
F3
01
14
0E
1B
29
34
26
29
17
10
19
15
F8
13
1B
24
09
F5
FA
DC
17
17
D4
0C
E4
E9
13
FB
00
0B
0E
0A
29
00
FF
05
FA
01
0C
15
08
15
17
26
FF
1F
10
F9
02
FE
DA
EE
05
02
15
11
0F
05
12
09
FC
05
03
18
11
18
21
1C
1A
15
22
13
FB
1D
02
E9
E7
E7
D8
FD
FE
FA
06
F5
13
F4
EB
E7
D5
EB
F7
03
18
1A
10
11
27
22
33
28
33
0D
0D
FC
F0
DE
DC
F8
21
FA
0E
F4
02
FD
F5
F7
EE
F0
F9
16
0C
09
0D
04
03
2C
3D
32
16
03
00
F1
04
E2
FB
17
0A
03
01
F4
F4
00
F8
01
FD
FF
FE
03
F0
F8
EE
07
FD
0C
2E
22
21
01
09
03
E6
DB
F9
12
FA
FB
EB
00
F3
ED
FD
06
FC
E4
EF
EF
F0
0A
06
FB
E7
0B
05
1C
01
E1
EB
FA
E9
EA
0F
F8
E1
07
EF
0D
FE
0F
0E
16
F1
EF
EA
E4
EB
F7
09
05
F6
E3
F6
05
FE
F5
F3
F0
E7
D5
FE
0A
09
E1
FD
ED
FC
11
00
10
F7
F4
E3
EF
F0
F5
F8
E6
FB
05
F7
ED
10
2B
15
F2
D5
FF
06
0F
F3
F3
F8
FC
11
F7
FB
FF
FC
EB
F8
03
FF
E8
E3
EF
FA
E8
FA
FD
17
1C
FA
F1
D9
06
1C
FF
0D
E7
E9
F4
F0
EB
FD
F2
E6
EF
09
0F
03
F9
F4
E8
FA
0F
14
FB
11
23
04
EE
EC
0B
1C
10
1B
F6
0B
04
07
EC
F2
F6
F5
E7
0B
0C
01
F7
F6
FD
FA
F4
07
00
1F
FD
12
F5
E0
EC
FF
1A
28
24
11
FD
12
F8
EE
E4
E6
FF
03
11
F7
02
FE
00
F5
17
25
02
05
05
01
F9
D8
E4
06
28
0F
14
0D
03
05
09
FE
06
F2
F8
0D
0D
0D
FD
0D
FC
05
18
27
FE
EB
DE
09
14
E4
09
1B
34
15
28
0D
00
0D
04
FD
02
08
06
ED
11
0D
0D
08
04
2A
23
22
0F
EA
0B
08
FD
E4
FB
13
26
22
1F
03
0F
02
F4
04
07
E8
FB
0E
E7
05
09
FE
21
2E
28
0E
0C
0B
04
E7
F6
F3
DE
07
05
05
15
0F
FF
01
09
1C
FF
09
04
12
05
05
F7
09
06
FF
17
30
00
FB
17
FF
06
F4
EF
F8
E6
F2
F0
0F
18
19
07
18
10
2C
0F
23
14
FC
0B
17
02
0D
1A
2A
F3
F4
F0
03
03
0A
F8
E3
DD
D5
F6
EE
05
FD
07
1E
01
13
10
25
0F
0E
16
0D
E8
03
12
13
02
F0
F6
12
FA
17
0D
DA
E2
CB
D9
C9
D9
03
F3
DD
F5
04
0F
15
20
0C
F7
12
F6
E5
11
FE
F6
01
EF
06
09
05
F7
11
E3
EF
D3
D3
F4
E2
F2
E2
F2
EF
E6
F5
EF
EE
0C
FC
EC
E7
11
1B
05
0B
ED
04
05
FD
FF
0D
ED
FC
F4
00
F5
E0
FC
DD
D2
F2
E0
EF
FE
FC
0B
F9
E3
EB
06
F6
FF
F0
F9
FB
F0
F1
ED
F2
EF
09
12
0A
11
0B
EF
E3
05
FF
01
07
F1
09
EC
ED
0F
FC
0E
06
F1
F5
EF
F3
10
10
FA
02
00
D6
CC
E9
F4
D7
DF
EC
EE
E3
FE
FC
F3
CD
EA
DE
E9
F0
EE
FA
13
F3
06
0A
06
E7
E8
F6
E6
E6
FC
CF
C7
CF
F4
E6
FD
F0
F5
0C
FA
F1
DF
E3
C1
D3
D9
03
FD
F7
11
EE
0D
FE
EF
0C
02
DF
E8
E4
E5
FE
FC
FD
EE
FE
FE
EE
FD
03
EF
F7
07
09
07
EC
FB
E8
F1
05
14
0B
10
F2
FE
1A
13
F8
E8
E9
03
04
FE
E5
0A
F2
0E
11
0F
FE
F3
F5
E9
FE
14
0F
0F
09
F5
0E
05
0B
1C
02
01
17
EF
0E
11
FA
0B
0A
03
FE
00
FC
FF
07
10
0E
0E
F9
FE
12
F7
09
FD
08
0D
08
F4
0E
FD
0D
08
F7
08
F1
FC
11
F4
F7
12
F8
0B
E8
EB
04
FB
FA
19
16
F9
06
F4
03
F0
F0
04
19
1B
14
16
F1
0B
F6
00
17
10
08
10
0E
0C
14
10
0B
E0
E0
0C
11
1B
E6
E1
F2
F6
E7
04
01
1C
FC
00
EF
FB
FB
0B
ED
F5
F1
06
F8
16
06
F2
FA
EF
06
1A
02
F4
02
FE
F4
E8
00
FF
0C
06
04
04
EE
FD
05
E4
F1
EF
F9
FC
15
10
0D
0C
01
EC
00
18
FF
00
F6
E1
F9
F7
05
F5
1A
EA
E4
E6
DD
D8
F4
F0
EC
EB
0C
0C
F2
07
02
FF
F0
F7
F2
07
08
FF
F5
F6
DE
FA
FD
F5
0D
D6
FC
FD
D6
F9
ED
E0
DC
EC
12
FE
10
03
F7
F4
E2
F9
EA
F3
F4
FA
EE
FF
F9
0C
EB
EF
F9
F7
FA
E5
0A
E9
E0
E3
F8
F9
F5
FA
FC
03
EF
E7
FF
ED
E9
16
18
FC
FD
F5
E1
07
08
07
0C
02
06
0D
09
0F
04
EF
10
FA
03
11
F9
FD
02
F3
F3
FA
EB
1D
2C
03
F4
FB
DB
F8
1D
15
1B
FA
02
FF
FA
07
15
19
1E
1C
08
02
10
FF
FB
0C
FD
00
13
1A
0E
00
01
F6
F6
10
0C
17
00
17
FB
03
0B
1F
20
0F
1F
24
23
11
FB
20
18
12
01
F6
0F
FF
2A
0F
F1
0D
F1
0F
22
14
1B
0E
0E
0E
12
07
1C
03
11
08
15
2B
29
0A
0A
FE
09
00
09
21
18
22
ED
F6
1A
28
14
21
05
10
14
EF
F2
ED
E7
02
FC
19
0E
21
14
1A
12
0C
F5
F9
F5
0A
04
10
F8
04
17
1A
27
11
15
F3
EA
FA
F7
EE
DF
F5
16
16
0A
0B
10
15
0F
FA
FE
F4
F3
08
F7
19
FB
F9
FF
21
1D
19
0F
0A
EF
ED
EE
01
ED
E5
03
15
0E
0A
FB
F7
FE
08
FF
EB
F5
20
0D
FB
12
EA
12
19
1E
0E
0A
03
F6
F6
E0
E2
D9
E3
E5
F7
FD
03
13
F6
FE
FB
0E
FD
0A
25
FE
12
EF
09
24
33
1A
14
F5
05
EC
E4
DD
FC
F9
FF
F2
00
00
F1
06
EC
F8
0B
FC
17
0D
09
09
0E
FE
30
28
24
FD
F9
EB
E1
F6
F3
E1
02
09
10
EC
F8
EB
03
02
11
FE
EE
1C
26
28
2E
EC
06
11
F7
14
24
1D
FE
F4
DF
EC
E9
FF
0A
F6
F7
0A
03
F1
E6
FF
08
FE
29
23
19
30
11
09
F4
10
F3
EF
0B
20
F2
0A
F3
06
0F
0D
17
12
1B
1B
0F
F7
1C
0D
16
15
1B
1E
15
2A
23
02
12
EF
0A
FF
06
19
01
21
08
07
0C
0A
F3
09
0C
09
F0
FC
E7
F6
04
0E
05
FD
F9
EC
0E
10
09
F9
02
06
0C
10
F9
26
13
FD
F8
F7
0B
EA
E9
03
10
0A
03
08
E7
00
12
E2
06
0B
F2
F4
FD
13
F6
00
08
FD
FC
11
0C
FD
1C
FF
01
16
FA
0F
F7
FC
EE
ED
15
16
12
FC
0A
0C
07
0F
FB
05
EF
ED
03
00
F4
ED
F9
EE
07
F7
F8
07
07
0F
FA
F8
0C
FB
0F
F7
01
0C
00
08
05
0C
EC
F7
FB
02
EF
EE
FA
F0
FE
FA
F4
FC
01
01
EF
02
16
04
FE
F8
E6
FD
EE
06
F4
F5
F2
03
11
EF
14
FF
0C
10
00
02
02
07
F3
F4
F9
F8
F8
EF
0B
00
04
EE
F8
DC
FA
0E
EA
F3
0D
0D
10
F9
FD
FE
1E
08
F9
F2
F9
FD
F1
13
05
FD
F8
11
08
16
0F
FB
FF
FE
02
F1
00
FF
01
ED
08
08
FC
E5
F7
E6
D0
FA
01
FC
01
E8
F7
01
16
12
08
12
FD
03
08
00
04
F5
EA
08
EB
1D
0C
03
0C
E6
F6
DE
E9
F7
F3
FA
F3
05
F4
F0
12
0E
16
27
1B
07
01
F3
F2
F9
E2
DF
FC
20
0E
ED
F8
F5
ED
FA
F3
E3
04
F5
F3
FF
F5
FC
EC
F4
1B
17
26
18
03
00
10
FD
FD
F3
06
00
06
FF
F8
1A
0B
F0
FF
F9
FF
F0
F0
FD
E4
FE
F5
FF
13
1E
0C
14
05
07
FF
19
09
F1
E7
07
00
16
F1
11
F3
02
E1
F6
0D
F9
E8
F1
ED
FB
F2
05
FA
FE
1C
1A
11
F8
06
20
FB
02
ED
F3
09
04
08
08
00
FD
F1
E8
05
0A
0F
FF
FD
FC
FD
E9
F0
DE
0B
12
2F
25
09
1D
F9
10
F2
EE
14
F8
E6
01
EA
EB
09
04
FF
FE
01
07
10
FE
E9
E9
DB
EE
06
21
17
12
1A
0F
19
FF
BB
DA
24
DA
EF
F1
0D
E5
06
06
FF
1A
0A
10
F6
FF
FD
ED
DA
F2
FB
06
0E
16
16
26
1F
1B
DB
E8
09
06
F6
FD
EE
ED
10
F7
03
F2
02
F8
F4
FB
03
ED
D9
EA
01
0F
1B
0F
19
1D
27
31
F8
EF
0C
0B
01
ED
08
06
F7
F8
FB
FF
F3
F7
F6
F4
00
03
F1
FE
0E
19
08
03
14
FB
1B
25
1A
1D
1C
04
E1
EC
F1
03
05
F6
FF
EC
FE
FA
F4
0D
FE
EE
E6
00
18
02
10
07
11
0B
0D
00
FD
13
13
08
FE
E3
E6
08
1A
03
01
F7
FF
0D
F2
07
F0
F4
01
F5
13
16
FC
03
F9
10
F0
F9
DF
EE
05
F7
FB
07
E8
0A
00
F2
F2
0F
FD
03
20
06
01
F1
F9
00
0F
01
F5
F1
00
E7
EE
D9
F6
13
05
F4
E8
EB
F7
0B
07
FE
13
07
22
0C
04
01
05
F8
09
FB
FA
E9
F2
ED
F8
F3
EC
00
DA
03
0A
FF
F6
DF
F1
F4
03
00
07
06
02
17
F5
F7
E4
E4
FD
EA
F3
00
E7
F2
F0
F1
F7
08
F7
03
06
F3
04
E2
E5
01
F3
00
04
09
18
0A
FF
DB
F2
FD
03
FF
F3
E3
E9
EE
10
18
1F
0F
21
10
F8
F0
09
F6
00
10
11
14
02
0E
05
07
04
EE
10
08
10
08
F7
08
F4
08
04
FD
17
0C
0C
FF
E3
F4
EC
FF
0A
FA
FE
0F
15
09
16
FD
F2
E5
00
EE
FE
05
06
F9
FF
F3
11
F6
08
F7
12
F5
0F
07
F2
FA
15
EB
0E
00
FE
16
13
0B
06
09
F6
FB
F7
E4
ED
E9
02
F3
09
0B
F5
0F
0E
00
24
10
0F
FA
DB
F0
F2
FD
FF
01
04
0F
0D
0B
0F
01
00
E8
FF
0C
F5
F3
0A
F0
EB
02
0D
F9
12
05
0B
FE
E7
C7
E1
DF
EC
09
F5
FC
07
18
0A
F7
FC
07
F9
03
EF
D5
F0
FC
F9
FD
11
F5
00
07
03
05
EC
C4
B8
E3
E9
EA
FC
F8
F8
07
18
F9
0A
F2
F6
E0
EF
E6
EB
EA
ED
EF
ED
F0
01
12
13
FB
F6
F0
04
07
E4
F8
13
03
0A
06
11
F7
06
0B
F3
F6
0A
04
E4
F7
0B
F5
E1
05
FB
FC
EF
FB
FE
F8
DF
04
F6
F3
01
FA
F9
06
DB
FC
EF
EB
F2
0A
F0
0B
03
04
F3
03
0A
EE
0C
00
F6
F4
ED
F5
07
F3
F0
13
04
10
13
F4
FF
05
0B
09
02
EF
05
0F
F7
05
12
FC
F5
09
F3
EF
FF
0B
FE
00
07
03
FD
09
EB
F8
F4
0F
06
03
12
FA
04
FE
0A
04
E6
ED
02
FB
FB
F7
11
00
0B
FB
F2
FD
FA
F4
10
10
0C
F1
F7
02
08
F0
FD
FE
07
0E
E9
EB
D9
00
EE
EE
02
F3
F8
FC
05
24
10
0D
FE
01
02
07
07
E5
F0
FA
06
F4
EE
E4
01
02
DF
F6
EA
E5
F5
E8
D1
EC
F9
ED
0F
05
0B
03
FB
0B
1E
1C
F0
EC
F6
09
FF
05
F3
F6
F4
E4
F1
00
DE
FC
10
04
E3
E4
E3
FD
FF
1E
0B
12
04
FF
05
00
0B
0A
03
04
0A
0A
FF
FF
F4
FC
F5
00
E8
ED
04
1D
00
E0
F4
12
14
11
FA
0D
12
F4
F8
E7
EF
FF
F1
EA
03
00
F6
12
0A
FE
ED
F2
F3
F3
F6
08
F2
F1
FA
F4
FB
04
11
01
F2
0C
F9
00
F5
F6
F9
EA
F1
17
FD
05
08
11
F3
0B
FA
FB
0D
13
1F
E8
FB
1B
F0
F1
14
FD
12
FD
E4
E9
F1
05
E7
E9
F1
F2
0B
FA
0B
0E
EE
F6
F0
F6
04
09
04
0A
0F
E8
E5
F4
FF
FA
0A
03
02
F1
FF
F3
EA
04
F5
10
FB
FD
F6
F8
FA
02
FB
0D
0A
F5
0A
01
01
DA
F1
D4
EB
01
F0
DB
00
01
03
FC
FF
EE
FE
13
14
01
F3
0F
F7
0E
F6
01
0C
12
26
05
E8
EF
FD
E8
D5
F7
E4
F7
F8
09
13
0C
F2
0B
10
23
26
1D
1A
03
F5
FC
F2
EC
E5
08
0C
17
12
07
ED
E0
F7
04
E8
ED
F8
FE
0F
17
1B
1E
34
2F
15
0C
09
FB
FA
E5
E3
E3
E4
E1
FC
1C
07
11
0F
D5
F5
ED
E8
D7
CF
ED
09
00
12
31
17
24
04
F0
09
02
EF
E3
E0
F1
D2
F5
EE
02
E6
F4
17
E8
13
06
DA
DE
DB
D0
04
F0
17
29
22
FF
FF
05
06
0B
F0
E1
EF
FD
F5
E5
FE
0B
F9
01
0D
00
02
02
FA
DB
B9
CD
DC
EF
F2
16
F4
01
08
FB
FD
08
E4
F3
E5
F0
05
F4
02
20
E7
E5
19
1D
0C
10
1A
F2
E8
BC
B6
CE
DD
EE
FE
D9
05
04
0D
F9
F0
F8
F8
FE
07
FB
F8
1D
FE
0B
13
1A
25
24
2C
16
E9
E5
CB
D1
BE
DD
DB
07
F5
0A
05
0C
FC
F0
E7
EF
EB
D1
D9
04
0C
EC
10
19
28
36
1D
21
02
FE
F3
F9
EF
F3
06
FA
07
0B
03
F8
FC
DD
F4
FB
DF
E0
E6
0B
0A
06
0A
16
20
0C
1E
16
17
0C
F5
13
F5
F7
1E
1B
FD
F3
EF
F6
FB
01
DB
E7
EB
FF
FF
03
0F
09
FE
10
18
0B
01
15
12
06
01
FA
0C
01
0F
FE
09
F9
E9
EC
05
ED
E1
D3
E8
09
01
01
2C
12
0C
FF
19
09
20
0D
16
19
1D
1F
06
EE
F7
02
F5
EB
04
FA
F7
E4
E4
F0
F6
F7
F6
0C
04
21
04
1E
06
FC
12
07
F1
1A
1D
0D
0A
F1
00
03
0A
F2
11
FC
16
F3
D4
F4
06
F5
F7
1B
F2
0B
F3
19
01
07
25
FF
FB
14
00
FD
08
09
E9
00
08
04
FE
FE
EE
F9
EE
E4
0A
2C
14
0B
03
03
F0
21
1D
1D
19
F1
1C
F5
FD
EF
F0
F3
F3
07
F6
F9
13
F8
F2
FF
04
0F
09
1B
24
0D
F9
02
FE
13
EE
03
0B
FA
F6
10
F6
FE
E6
FF
FF
04
06
ED
F6
0E
0A
FF
10
0E
0C
10
08
F7
FB
11
07
FA
F7
0E
1E
0A
FE
E3
FE
01
02
E8
0B
16
31
13
0C
07
16
05
1A
FF
F0
06
E3
F2
02
F9
F6
ED
0E
E7
03
FD
E0
E2
03
EF
F4
00
F7
09
18
06
F8
00
F8
FB
FC
FC
FF
04
F6
F7
01
F7
EC
06
14
FD
FD
F0
0E
12
F1
FC
F2
FC
FF
F3
0D
09
F5
F4
F0
FB
0C
0E
EE
03
06
0B
0A
FF
0D
FF
05
0E
F8
EA
10
F7
0D
14
FC
13
1F
2A
F7
E5
05
0F
08
FD
0E
04
F1
FB
09
13
F3
FC
00
0D
09
FB
0E
0D
1A
0E
06
03
28
11
14
29
0B
0F
22
FC
1A
24
06
13
F5
07
F0
0F
FA
04
13
DF
F9
05
FD
F3
05
F3
03
09
0F
00
F7
ED
EC
F6
04
05
0A
10
00
03
0F
14
11
22
03
F5
FE
F8
E8
F9
DF
F5
EE
F8
05
F9
F7
F9
F4
E1
EC
0A
09
18
21
00
20
2F
1E
0D
FD
E8
E3
04
EC
F1
EC
ED
F5
E0
DE
F5
00
08
05
F7
F0
EF
03
F0
F5
1E
23
28
16
1D
1C
27
01
ED
00
07
F6
F4
E6
DE
E6
DD
EA
E0
E4
03
EE
01
E6
F8
FF
00
0F
FE
0D
F7
17
0B
13
14
0B
F9
F2
03
E4
00
DB
DE
E8
E6
D9
F7
0B
05
08
FC
06
FC
ED
0B
08
FD
02
F5
05
E5
F7
FE
FC
F6
03
04
F2
03
DE
DB
E1
F4
DC
06
11
F1
08
FF
DF
FA
F8
F5
FB
E7
E3
E6
D6
DA
F2
F7
F0
FC
DB
EA
DD
F9
F4
D4
DA
DA
F6
F8
0F
04
0A
E6
E0
E7
F0
DA
E3
D5
CD
DC
D1
DF
F7
E1
FF
FE
0C
E9
03
ED
D2
E6
D9
E0
F9
08
2D
20
12
10
F9
F3
DB
E5
E4
F4
F7
F1
E7
E4
DC
EB
1A
F4
1F
FA
EB
DE
CB
EE
F4
ED
01
01
18
21
11
03
F5
FD
07
0C
06
05
03
FE
E6
DE
F6
FC
EF
06
01
04
FC
EA
E7
D9
E1
09
08
1D
0E
19
29
23
18
05
06
0A
03
1B
01
19
0D
ED
F9
F5
FB
E1
05
FE
E2
EC
E9
E3
F6
FA
17
1A
1E
0B
08
09
15
04
FC
0A
08
26
11
13
03
11
F7
DC
D8
E5
E9
11
F1
EB
F4
F3
0C
F0
14
01
09
24
14
06
03
FC
0D
14
11
F9
F7
0A
17
EF
F2
E8
02
EE
EF
F1
FC
FB
E4
E8
E9
FE
20
FB
1F
0A
FD
0A
FF
00
04
08
20
10
0B
13
06
FE
E5
E3
EC
E3
F0
F2
F5
F4
E1
E5
E8
D8
0D
04
10
06
1C
11
08
05
FC
15
03
FB
07
06
02
F2
DC
FB
E8
E7
F4
06
1C
EF
DC
F6
FF
E6
00
06
0E
1D
12
F8
14
FE
F2
FC
F7
F3
FC
FA
09
ED
E7
E4
EC
F7
01
EB
F9
07
F0
01
DC
EA
E6
01
F1
07
16
20
02
F7
0B
0B
00
0C
F4
00
00
EF
F9
FF
EF
EE
12
16
F1
02
F1
F6
E0
ED
EC
FD
FB
EF
FF
0F
00
02
F6
11
FA
EB
F5
E7
E8
F2
EF
00
01
E7
0B
FB
20
08
04
FF
EA
F7
E9
F2
F3
F5
FF
03
0B
EA
02
F7
FF
05
06
E9
DC
F7
0D
02
F9
08
18
01
F6
E2
15
F9
F2
E8
EA
FE
05
03
F5
14
0D
08
FD
FA
F9
02
EE
FB
D9
0B
F9
1A
FA
0F
02
0D
10
E6
00
0E
07
EA
EB
04
E9
02
10
F8
ED
FE
FA
F8
15
0A
F4
E2
F7
FD
F5
19
08
0A
1D
FF
FA
F9
ED
F5
04
FD
FB
17
14
0C
EF
EE
09
F1
0E
07
08
0D
03
F3
E7
F1
02
F9
FC
FE
F4
F2
09
E9
DD
EA
07
EE
0B
F2
03
F0
10
00
03
F9
F9
FB
0C
F9
1B
18
05
0B
0C
FC
0C
F2
08
FC
0F
12
11
F4
04
F5
0A
02
0C
0D
EC
FC
F1
03
F0
F3
16
14
1A
2F
06
1D
03
FC
0C
0C
03
F3
0F
0C
09
0A
15
0F
14
14
0E
0A
13
21
05
04
12
F8
08
0F
0B
21
0B
F7
11
E8
EE
05
F1
01
08
0A
12
F7
FB
12
12
F4
02
E5
F5
02
D8
FA
07
F6
02
0C
01
14
EB
EB
FF
13
FD
EE
00
FB
05
F3
F4
F4
07
03
EF
03
0B
0B
F0
FE
E8
0B
12
F4
F6
ED
EF
EF
08
08
00
F6
03
FB
04
F6
F5
F0
01
0C
08
F6
F5
E3
FF
EA
FD
FE
02
F2
D0
CD
E6
E5
D9
EC
E8
DF
F0
0F
F1
FD
EE
FA
06
F0
E2
F0
04
F0
E8
DF
CE
CD
D3
DF
CA
D4
D1
C9
DD
E8
F6
FA
D6
DC
D2
FF
F9
0E
F0
F9
FB
0E
E1
EF
DE
F0
C9
D3
BA
D3
D3
D1
BB
CC
E2
DF
DA
00
FA
01
10
15
04
08
EE
E6
F5
04
00
05
08
FD
CF
F5
0A
FF
F9
E7
E7
F3
E4
F1
E6
F1
F8
0D
0D
15
27
F9
0B
2A
24
11
13
11
11
EE
05
E8
08
0D
ED
10
00
01
14
04
E1
F2
01
FA
F1
FF
E3
EC
12
F6
FD
0C
2E
2D
00
13
F9
E9
E3
DA
E2
0C
EB
0F
F9
FE
05
FC
F7
F8
19
FB
07
FC
FF
03
F8
07
00
03
19
1F
FB
03
F1
E9
EA
CB
E2
EC
06
19
11
13
1B
08
05
FA
FF
FE
14
07
F1
09
04
F5
16
0F
39
05
12
FD
F5
02
DF
F2
0E
0A
00
0C
17
11
1E
15
03
EB
F3
0B
EE
FE
FC
03
02
F9
10
33
22
23
09
0D
10
04
F8
E3
FE
16
1B
1E
1F
0B
2B
06
00
03
FC
E8
08
F4
02
FF
18
15
1D
25
1E
22
E9
ED
F5
F2
00
FE
1D
01
22
1E
26
2A
1F
16
03
03
F3
F4
FC
03
00
07
03
04
FF
1F
27
24
EE
EF
F7
11
0C
12
26
20
19
19
09
11
22
2F
1B
F7
15
0E
10
16
F9
FC
FD
F3
05
11
10
19
11
FC
FB
1C
FF
0A
0E
16
1C
FF
FE
17
24
1F
22
0F
00
10
0C
0D
FF
16
FE
DF
F3
D3
10
1D
0D
01
03
01
0F
0B
12
13
09
FE
02
FC
02
04
00
0E
13
21
0D
FC
14
06
06
FA
F3
CC
F4
1F
01
03
FF
14
04
FE
03
07
FB
FC
F4
06
0C
F1
19
1A
18
FF
21
17
15
06
0C
EF
DF
F0
FC
11
10
00
EF
0F
16
06
F4
FF
EB
0D
E8
F5
0E
03
14
24
2A
22
03
06
F9
0A
06
EC
F5
F6
D5
F4
F8
01
01
E7
28
E5
F5
F6
F6
F9
F2
F0
EE
08
18
18
20
17
18
03
E3
E7
F9
EF
E8
E1
F6
16
02
FB
F0
D1
09
01
FA
F6
E7
EF
06
E4
EB
0E
0E
22
14
1C
F5
00
FB
EB
02
ED
FF
FC
D4
F3
15
28
DF
EE
ED
E8
F5
05
F2
DF
E0
FE
FC
F3
EC
FC
FD
EE
E8
E3
F1
02
09
E5
F4
F9
FF
00
F0
FB
F1
E6
E8
DD
FA
F7
DC
F3
DF
D5
DD
EF
EE
DE
F4
02
FF
F5
F1
EA
EA
F5
E7
F5
ED
F3
EF
12
DD
F9
E1
D8
FE
E5
03
F2
F5
D7
F0
E2
EC
F5
EF
E9
0D
FE
EE
EC
F4
02
00
03
D7
E7
07
F9
FD
D8
F5
E7
FD
FD
EF
09
F3
05
F8
F0
E5
06
F1
02
F3
EE
02
F1
04
15
08
FE
E1
FC
F4
ED
F5
DB
E3
FD
FA
0E
1F
01
09
F7
F8
00
03
F5
F4
11
07
07
FF
05
FC
03
FE
10
FD
ED
06
02
FE
CB
ED
16
F0
08
02
04
FA
0B
F7
FF
FC
F8
EC
22
00
06
17
13
FD
00
09
08
02
DA
F7
F0
0D
0C
E2
09
0F
26
25
1B
FA
10
11
FF
FE
05
14
13
FC
05
0F
20
2A
FE
FC
F4
D1
FA
0A
ED
0B
02
FD
12
FC
11
12
2A
22
24
25
26
26
2A
14
2E
0E
1F
0E
0D
1D
16
05
02
FD
F2
FD
FD
01
0D
F8
EE
FD
02
FA
1F
0B
1D
18
09
11
07
23
22
24
03
0E
0B
00
0A
11
F0
F5
F6
F4
F0
05
F6
F9
06
FB
FB
05
07
0A
F7
08
11
F9
F5
18
00
1C
F5
05
F7
09
17
09
FD
F2
06
F0
F8
01
F1
05
10
0F
00
FA
FE
01
FD
F2
0B
E9
03
08
11
00
0E
FB
FD
F6
0C
FC
10
0D
F6
F7
FA
F7
11
00
0C
F2
EF
F3
09
F3
E6
04
F5
EB
0A
EF
00
DA
F6
E7
02
E4
EA
FE
10
F7
EF
07
F2
EF
F9
F0
F8
08
01
F0
E1
01
E4
EF
F8
F7
0A
F3
FF
CF
EA
EC
E9
F5
F8
05
E7
0D
02
10
12
08
05
F2
F7
DB
FC
06
DC
FB
E7
CE
CD
F8
E8
E5
F0
D7
DC
ED
FC
E7
EC
DE
E1
F5
0A
06
08
12
22
10
FC
CF
E2
03
CC
E6
E5
F9
F9
05
F3
DF
E7
00
E6
F3
13
F1
08
04
F2
F4
08
E9
05
10
05
0C
08
F3
ED
02
E4
EC
DC
03
E3
F7
F9
E7
DB
D9
E3
F1
E5
FE
F6
26
39
06
F9
08
F4
03
F6
FD
0F
E5
00
F2
D5
EB
00
0D
F3
01
08
E6
F3
DA
F1
FA
05
F3
10
28
1C
17
0E
23
FD
FF
E6
ED
0D
17
D9
D5
E6
E7
FA
ED
00
0C
EC
FB
FB
F7
01
0B
EA
05
1C
03
0E
FA
15
14
FE
E4
EA
FF
03
FD
DE
EB
FF
EC
FC
EC
FB
0F
08
17
02
F6
17
11
06
E2
11
FD
0C
FD
FD
F6
07
0F
E0
03
F9
EF
C5
E3
E9
E7
FB
0A
F8
0D
1F
08
07
F5
F8
04
F0
07
1E
0C
0D
F5
D9
F6
01
10
EA
02
FC
F7
F0
DD
FC
E6
0C
08
FF
10
15
1C
1C
05
05
FE
EA
F6
F8
FD
FF
17
F0
F4
1B
F0
03
D6
0B
F7
DF
F8
03
00
0C
14
19
10
21
25
1D
FC
FA
EA
E8
ED
F7
02
10
07
00
FA
15
FC
F3
F5
F4
D3
E9
F4
07
F2
23
19
16
11
19
2B
15
F8
F0
D4
DF
06
EE
DE
E2
0B
E0
00
0F
ED
D8
EE
E4
F2
E6
FC
F4
00
26
11
12
15
0B
26
02
05
00
ED
EF
E7
F0
EE
E3
D9
D9
EC
F8
05
FA
0E
F2
EF
EB
E2
D9
F6
03
0C
21
09
1E
26
1C
03
12
E1
E6
02
EE
01
FE
E1
03
EA
FA
F1
17
FA
FE
F2
E6
EE
EE
FE
F1
16
03
1D
13
0C
11
24
F7
C7
E1
EE
E1
EC
E1
EF
08
FF
0F
02
EA
14
F8
09
EC
EB
F1
DB
F7
0A
F6
15
1E
FC
0C
E3
DA
D2
F0
F7
FF
F0
DA
E7
F3
F3
0A
10
FF
EF
13
05
F8
DB
F8
EE
EF
EB
F4
24
1E
08
EB
CC
01
E4
05
13
06
FE
ED
F7
F3
02
F1
F6
00
FF
F9
ED
F6
FF
F6
F9
DF
0D
16
0D
0C
07
DC
CC
E6
F5
EC
F9
F1
EB
E2
EE
15
27
13
0B
F8
05
F3
F5
0A
F8
EB
F3
FD
FA
1A
19
01
F0
DD
E4
DE
F8
F9
06
ED
E5
EF
F8
04
1F
13
07
EC
EB
FF
F6
FF
01
FF
F5
04
0E
11
00
F9
E2
E6
F6
E7
ED
EE
09
0D
EE
03
EB
0C
10
02
FF
01
05
08
EF
EF
E5
F5
04
F4
FC
E5
EB
F6
04
F7
E2
F0
EE
E9
03
F5
F9
01
00
03
01
14
0E
FB
F5
0D
17
F9
0F
08
FE
01
EC
E2
E3
01
EE
F8
FF
EE
FA
F6
04
02
FE
F7
12
F3
07
EE
0E
DF
DA
F4
0D
FA
11
EA
08
04
F8
EE
E5
F5
FA
10
14
04
F0
F0
F9
EE
03
0D
16
FF
01
F9
F0
E3
E6
EF
00
06
07
EC
EE
F1
D4
E6
DF
D3
FD
EF
05
FC
E6
F2
0E
1B
20
00
07
1B
FA
F1
F6
0C
25
1F
09
1A
14
0A
12
05
F4
F9
08
F2
00
13
0A
0D
13
0F
17
05
20
F0
0D
F0
FA
FB
10
F5
05
10
07
2A
07
E9
FC
FF
08
03
FA
15
1F
0E
F6
F3
02
EA
00
FE
F6
0E
0C
FC
EE
01
03
EE
10
0F
0C
FB
EE
EB
07
F7
06
FE
F0
FC
1F
0E
05
FE
08
19
15
05
14
0B
14
05
F6
12
11
00
FF
0A
06
F8
0D
14
F9
FB
FF
0A
09
F2
16
FD
09
01
EC
F9
F8
00
0E
12
12
FF
04
FE
12
FF
03
08
F6
F8
0E
0B
06
0E
E9
07
DE
FF
F2
E6
C3
D4
FD
05
03
F4
00
EF
FE
FA
FC
0F
05
EE
FF
07
EB
F8
F7
FB
DA
F5
03
09
10
FB
0D
10
E9
EA
EF
D9
F5
0A
E6
FD
F5
ED
0E
06
F1
16
FC
01
E3
00
EE
FA
F3
FE
E1
EC
FA
FF
06
FD
FA
0A
FC
05
1F
23
12
0D
13
FF
09
F7
07
02
04
EC
EC
EF
F2
B8
EE
02
FB
DF
04
00
0E
1A
0C
06
02
FC
1A
2B
32
4C
24
17
0B
F9
01
F6
DB
F0
EF
D2
CD
D7
E0
D8
00
F5
01
00
1A
F7
05
0B
02
02
FD
1F
22
1E
20
26
0C
13
08
05
00
00
EA
DC
F3
FA
06
0D
F9
07
FA
07
10
12
04
0B
F7
EF
11
0C
0E
56
4E
4E
0E
FC
0C
11
F7
00
0F
10
14
F1
15
0D
F7
F9
F4
05
F4
05
02
08
0A
11
09
16
09
20
4C
29
17
F0
F7
08
FE
01
03
13
13
09
01
F4
12
03
ED
00
F1
F8
E4
DD
FB
FB
E6
ED
FC
0A
FF
06
F7
12
1A
E8
11
ED
0E
12
12
05
0E
15
1A
18
FA
0E
EF
E9
E7
DA
E2
E1
F7
E8
E7
E7
EE
11
09
19
1D
11
F6
01
F5
08
FB
15
F8
02
1E
22
14
12
F7
F6
E1
E9
F4
00
E8
06
FF
F7
FF
0B
ED
12
07
12
FD
08
F4
FE
FA
08
FB
19
1A
15
24
2E
1D
04
F7
27
05
0C
EF
19
F6
EF
06
06
0E
0F
0B
25
22
1C
1F
05
F8
0E
F0
16
10
0E
17
2A
28
02
FF
0C
0A
18
12
03
EC
E4
14
0D
18
05
08
0B
2A
04
15
08
09
E6
F6
F3
00
06
09
03
06
F8
00
00
16
1F
F0
EE
EA
EB
23
1C
14
15
F5
1B
14
0F
09
01
E7
EF
F6
F3
F6
CF
F2
EB
04
EA
04
16
16
03
07
0C
FC
0F
22
05
FC
08
F4
07
1D
F7
E6
06
EF
02
FA
CF
E6
BD
EE
01
F1
E6
FC
01
07
0E
1D
0D
0C
F9
F8
E0
EC
10
EB
07
F5
05
EC
07
E2
F8
E1
D7
C7
DC
F2
00
FA
0A
04
04
F3
F1
0E
00
12
13
DE
FB
1B
EE
0D
F3
12
07
F3
01
EF
07
E6
E2
E0
CD
E8
12
25
02
07
F1
FB
0E
0C
FE
FB
F0
E2
F4
14
1B
F7
08
20
FB
FD
D8
F0
0F
04
E3
DE
CD
0B
2D
26
0C
E7
02
FD
0E
F0
DD
E4
F3
FA
11
16
F5
FB
F4
21
FC
F4
FF
07
FE
FF
ED
CC
ED
1B
29
29
06
E8
05
F0
FF
04
D6
00
EC
13
07
04
03
FA
E8
0C
FC
F7
02
EE
EC
F3
DD
E2
01
18
20
1E
13
06
04
0D
06
F3
03
E2
DA
03
07
1D
16
CA
F2
0D
11
E7
E5
02
02
03
DB
F1
07
02
17
0A
03
11
F2
12
01
19
05
CF
D6
F4
10
04
F9
F3
DF
12
0C
02
F5
FC
F4
FB
D9
EF
F8
FB
1A
11
10
08
02
F3
E5
FA
F7
D6
F2
F0
FB
EC
ED
EE
D2
01
0B
FC
F6
E5
E0
ED
DA
F1
02
14
FE
1C
F9
18
03
EF
EE
05
01
D1
E0
DB
F2
0F
13
EE
DE
E4
F2
E3
FD
DF
F3
F5
F6
01
F7
FC
12
07
FD
FA
04
EB
1B
1B
FC
DF
EE
F3
E1
01
09
0C
F0
06
F2
D9
E5
0E
09
24
28
06
17
05
0A
0B
38
29
09
03
1E
14
FB
15
14
EE
0C
EF
F1
0F
09
F4
F1
EF
04
29
52
3A
3E
1F
18
02
FB
2C
32
16
16
FC
07
09
29
FD
08
F0
01
08
F6
EF
EF
0C
22
46
53
5C
3E
27
1D
17
01
18
1F
24
2B
2A
FF
F3
07
24
22
01
07
FC
F3
10
0D
F4
04
0F
EE
06
07
11
01
F7
0E
F9
04
E6
EF
07
EF
FA
F2
01
0E
0C
08
06
0C
F4
FC
FF
ED
ED
F6
EC
1A
0B
F5
0A
03
F4
F5
01
06
06
1B
EB
EC
0D
16
16
FA
01
EE
FF
12
0B
F7
FE
0B
09
0A
E1
E7
EF
04
F7
08
FE
12
18
FD
02
1E
16
12
19
2E
1E
23
1E
0E
04
01
00
08
FF
EC
01
DD
FC
08
1D
24
FF
0F
1D
0F
00
00
FB
DC
03
0D
0D
13
22
18
26
08
11
F2
06
00
11
FE
E2
F3
FC
16
11
02
0E
0C
00
F6
03
F6
FD
F6
1A
0D
16
FB
25
13
17
1F
05
12
0E
16
05
F6
00
09
FF
00
27
16
25
08
10
0D
0E
F0
FD
ED
10
1D
14
01
0D
1E
1D
1A
FF
01
06
2E
2C
05
0B
09
F0
00
0B
0F
1D
FA
FF
06
EE
E9
E1
EA
FA
F7
EF
01
07
05
F6
21
30
36
25
0A
05
F2
07
1A
F6
1C
2E
04
12
0F
F3
FB
FC
F8
DA
E9
ED
E6
09
F0
EF
07
0E
16
3A
23
36
24
11
01
F0
0D
F6
11
16
FE
10
04
F8
F3
00
F3
F8
D6
F2
F9
DF
F2
FF
09
FC
FC
15
22
22
07
FF
F2
F5
0C
F9
09
E9
FE
F8
F1
0B
F8
FA
EF
EA
CB
DC
DB
F5
D5
E9
E9
F8
E1
0B
1B
04
00
FB
F9
03
E0
F7
F5
F4
ED
F5
FF
06
FF
0A
0B
E8
DB
CB
F2
F0
EA
DD
E2
EE
FC
09
06
E2
E5
27
F8
02
EC
F0
FA
FA
08
FB
08
05
14
09
12
F6
D3
F8
F1
E2
DB
F4
E0
F7
F6
14
16
D9
F6
FE
12
F8
ED
F0
FE
01
03
08
14
11
27
25
36
0E
E9
F2
FA
F7
E3
F3
DF
F3
FE
1D
15
F6
EC
0A
F7
ED
FC
FF
E7
08
15
F5
06
17
08
23
1F
0A
EF
14
0C
0A
09
04
05
0C
FF
27
1B
F0
FF
FC
FE
11
DF
17
10
FD
07
09
19
FE
1C
25
2E
24
FE
12
18
1D
EF
F4
EF
EE
E9
20
16
08
EA
E6
F4
07
0D
04
05
FC
FC
11
F5
0B
FD
03
12
08
1A
0F
1C
13
0E
07
05
05
F0
FC
EA
12
DA
02
FC
11
0A
FC
F6
1A
19
09
13
18
00
04
0F
20
0C
0B
06
03
FC
19
0D
00
F3
04
F5
EE
D3
E3
F6
F2
25
0B
EE
F3
02
05
04
F7
0C
07
24
0E
09
0D
12
13
0C
12
F8
F8
F8
F0
FF
DA
E3
EE
FA
FD
FD
04
EE
16
07
F4
F8
ED
01
09
0A
1C
06
F2
09
F0
0F
FC
10
07
06
F8
FF
EF
09
FE
FB
F8
0F
FB
09
00
FD
FF
08
00
07
07
FD
06
0E
08
F9
F3
F9
00
F7
05
FB
05
F7
F4
F1
DF
F8
07
14
0C
FE
19
09
09
E7
FA
07
F8
07
0B
FC
09
FF
12
FF
14
00
17
1A
F4
EC
DC
F7
F7
06
02
17
03
FE
F9
F5
08
E7
0A
F7
FD
0C
14
F5
0E
0F
1A
13
15
F9
F4
0C
DD
04
E7
E6
05
04
E9
1C
FA
02
05
DE
E6
F3
03
08
04
F7
F5
05
06
04
0A
06
05
0C
15
07
D1
03
F9
1A
F9
04
FC
14
04
00
F9
F3
FA
00
ED
F1
0C
19
17
11
13
0F
10
0E
16
03
0A
F1
10
EE
F8
01
0C
14
EF
18
F5
F5
EE
E2
DF
F3
FE
F9
10
0E
11
07
0A
0C
F7
00
0B
0A
05
01
05
EC
0D
F6
FC
F1
FE
08
0B
FD
E5
05
FE
F1
E6
EB
DF
EA
E4
FE
09
FA
E1
FF
FF
ED
E6
13
F4
03
EA
0B
F5
FE
ED
EC
E9
E7
FA
E6
E2
EE
DB
E9
E8
D3
E6
E2
CA
EA
DE
C4
C8
E1
CD
E0
F9
E3
F4
F3
FA
02
F6
F6
01
F8
03
01
F6
FA
F9
FB
05
F4
F5
E3
D5
02
DE
E3
DC
03
FA
FF
09
FE
F8
FB
00
FE
0C
FD
03
12
F7
FA
11
08
F1
11
FD
F5
FE
00
0D
04
03
EE
F4
01
F7
F8
FF
ED
0A
EC
F0
F0
F4
11
FA
F1
18
FD
05
0F
F9
0B
0C
0F
0B
FB
EF
EF
EB
0C
F3
F0
EF
08
F9
EC
01
03
07
0D
F1
EF
EF
FD
19
01
0F
00
12
FE
F9
1B
FF
05
0D
09
00
01
16
0A
05
13
FC
FF
F7
0A
0F
F5
08
FF
E1
FD
0E
F8
0F
17
10
0E
18
F8
F1
06
1A
1C
1A
0B
01
01
15
06
F9
ED
EB
21
09
F5
07
E4
EF
18
0C
F2
19
07
17
2A
1D
1C
17
25
1F
10
1E
0D
FF
27
EB
F8
FD
05
1B
17
06
13
FB
F7
01
F9
F0
19
FD
0F
14
0B
13
10
0F
11
18
3A
44
38
43
2B
0C
17
12
0A
10
F2
00
0E
00
F7
01
13
0B
1B
F0
11
EB
EE
EC
E7
FE
ED
E7
ED
E9
F0
FA
F4
E9
FB
1B
2F
F8
F0
F3
F0
EC
EE
06
15
12
FF
00
EC
EC
06
F0
DF
0A
F8
FA
E4
F1
EA
F6
F4
F8
F3
EF
0A
0B
09
05
F8
D7
F5
FA
03
0A
E8
EF
F2
10
FC
02
E9
02
E5
02
FA
E9
FE
0D
F9
EA
E1
F7
0D
28
1F
05
F1
F2
06
06
F8
DD
01
05
F1
F8
0A
F1
EE
F2
F5
EF
07
FD
0A
FA
FE
0F
DE
E1
F0
EF
1A
F9
F3
FC
EF
EB
FA
F3
08
02
06
0C
01
EC
05
E2
DE
D6
01
EF
0F
0A
F9
F6
01
FB
F7
08
2B
15
E6
F0
F2
E1
09
03
0C
F6
FB
F9
F1
11
F0
F0
C1
EA
E7
F1
E9
13
F6
09
FA
F7
10
04
05
1B
03
FA
E0
F4
06
FF
18
03
0E
16
1B
11
0E
EA
FA
E9
F5
FA
0F
F7
0D
E5
EA
F1
F9
FB
05
DA
0A
E3
D6
DB
12
15
1B
03
02
10
0E
09
18
14
FA
07
16
FE
06
07
F9
02
F7
0B
F5
DB
FE
F1
1A
E9
ED
04
F6
FF
07
FC
11
F2
FE
1C
1E
19
02
F8
0F
02
07
F6
FB
DE
00
0D
03
F5
D7
D9
FD
03
01
F0
0F
FF
FB
16
FF
08
F0
05
0B
FF
07
1C
FE
08
F7
FC
08
F1
F1
EB
ED
0A
E9
06
02
FE
02
FA
F9
0F
02
0A
E5
0A
03
20
11
07
1C
19
0A
0C
EF
FC
F9
DE
EC
FD
E9
F4
DB
EA
F1
FC
0E
F1
0B
02
10
FE
F1
06
07
16
14
09
17
1C
12
0C
EF
F9
F7
F5
00
EF
E1
F2
E8
F6
DA
04
09
13
FE
FD
FB
FF
FB
F7
01
18
26
06
F3
1C
02
FB
0D
0D
F7
FA
EC
1F
0E
F7
FC
03
05
F8
00
0B
FD
10
26
26
15
1D
1C
0D
FE
11
FF
06
17
0F
1B
19
0C
10
19
1B
1D
E8
F5
04
10
E3
19
36
19
0F
2E
25
0A
20
2C
1F
1D
08
0B
FE
0F
08
2D
19
19
11
2D
27
10
DC
E8
F2
EA
2A
02
2C
21
17
21
22
0B
21
1E
16
1B
0F
03
1E
0B
1C
1D
0E
1D
0F
21
23
E1
07
0C
01
03
1D
18
11
F0
F6
F1
F3
FF
04
0D
05
13
01
FC
10
F8
0B
17
01
03
19
14
13
E7
F8
0B
FD
EF
F5
0E
20
F2
FC
E5
E5
FB
E6
E2
02
12
FF
FC
11
FE
06
15
14
21
1F
08
F3
E8
F7
F6
FE
07
01
12
0C
EE
E6
DB
E8
DE
E7
E6
E9
1A
10
07
04
08
0F
10
04
03
15
1C
07
16
07
E2
0E
F7
0D
1D
E5
F4
F1
F0
FB
EA
F3
D6
E8
F4
EC
0F
00
F1
EE
F5
0D
0D
F4
FC
22
F4
FA
FA
0D
FF
13
0E
03
0B
25
0E
19
14
0F
FC
FF
13
F5
F9
0D
EA
0E
FD
FC
08
03
F9
06
00
E6
02
FA
01
01
F5
05
EC
0D
EF
DF
E1
F7
FD
00
EE
FF
02
F3
00
05
11
09
F9
ED
F9
01
07
04
F6
EE
F7
F8
ED
0F
EF
FD
14
F1
ED
0A
FE
FA
F3
F5
EC
02
13
ED
F4
F8
F6
0D
0A
F8
FA
F3
F6
FA
F6
01
07
11
05
0B
E7
F2
02
ED
F8
EC
00
F7
00
F3
EC
EB
06
FD
FE
F6
E8
04
F4
EC
FA
0C
0C
F4
F7
E7
FC
FB
0A
FA
F7
FF
FA
F8
05
E7
F0
E7
D7
F8
EB
F7
E0
EB
E7
F7
F0
E8
02
F0
F8
05
16
17
F1
ED
11
15
FB
03
F1
C8
DC
C3
B5
DA
D7
D9
F0
EA
EE
EF
23
FD
D3
DB
E5
0D
11
F8
14
14
23
F0
07
FA
E4
EB
BC
DA
E8
0D
01
18
01
EC
F5
E0
F3
10
09
FB
FB
C3
EA
F5
0C
13
1F
2F
14
F8
F4
FB
FF
C2
A6
BD
DD
F0
20
0A
04
F5
FD
F7
F4
07
01
E8
EB
DE
C7
DC
04
09
0E
0A
35
10
E9
F6
EA
D1
B1
C7
D2
F4
0F
E5
F0
DF
F9
14
1F
03
09
FA
D8
E9
1B
0F
EF
E9
F7
EE
09
FB
F8
DE
F1
C9
AA
C2
D4
08
F3
F5
EC
DF
05
04
0C
F5
F2
F0
ED
F6
0D
FB
F4
E9
F5
07
08
F2
0B
F8
DD
E1
C1
CE
C2
FD
ED
05
13
FC
FA
FC
E6
F2
E5
F1
D0
DB
FB
0D
EF
F1
D9
F3
E7
23
19
09
EB
E7
E2
BA
C1
DE
FC
1E
1A
03
FD
F7
ED
DF
E4
DC
D1
E5
04
19
F9
D6
D3
E2
0F
03
01
E3
11
FE
0E
DC
D7
F7
17
3B
20
0F
05
0C
EA
E4
10
E2
00
1B
F8
14
F6
F0
FF
F4
20
14
F9
F5
DD
04
F1
D7
E6
F9
1C
2E
13
F1
02
FB
E0
07
FB
EC
0E
13
F8
21
0B
07
0A
EF
FA
05
18
EF
F6
00
D3
DC
01
04
16
33
00
FB
FB
F7
F2
01
11
FA
13
FE
1C
0A
F9
E6
0D
16
FE
06
16
1A
EC
EB
D4
F1
0A
20
1D
07
16
0E
FC
F6
EB
FB
EF
E9
03
FA
EF
15
15
04
F9
10
FC
E2
F1
F6
F1
EF
FC
F7
F5
15
1D
1F
06
FB
0A
D5
F2
F7
FA
02
DD
16
04
03
F2
E9
24
00
17
E6
E5
00
08
10
06
F7
ED
11
25
FC
04
0A
C8
B4
D5
17
F1
F2
F8
FB
1B
1D
F8
0F
07
17
0B
DD
ED
E1
ED
FE
12
06
07
09
23
FB
0F
E4
EF
C2
EE
05
00
07
07
16
0B
0F
EC
0C
FC
09
FD
E0
E5
DD
06
E9
FF
F9
23
25
0E
FA
D8
B8
E7
EE
E4
0A
F3
00
0D
EF
F5
00
F5
F2
0E
10
F0
C6
DC
CE
EA
12
F7
07
1E
09
F6
E6
DE
C7
E6
F2
F8
EA
0A
09
F6
01
0D
17
F1
05
FC
F5
E9
D4
E3
F3
F4
EC
15
00
12
12
06
DD
D5
D9
EE
E8
EB
F2
FD
FA
0E
09
16
0B
F7
F5
01
F2
FD
EF
E6
F8
FC
F7
FA
0B
0F
F9
01
FD
E5
D5
D8
E1
DA
E6
06
0B
0A
FD
14
0F
17
F0
07
19
1F
00
F8
F6
FB
04
F1
F0
07
DD
FE
15
E8
D0
F8
E0
E1
DE
02
F9
FB
0A
05
0A
0F
FA
EB
ED
1A
12
08
FA
F6
07
FB
E3
D9
E8
06
16
0E
F2
F0
0C
FF
E0
05
0A
0B
0D
1F
EE
0C
0E
1A
EE
0F
27
18
0E
E9
F6
F1
06
E8
25
28
2E
11
FD
EF
0A
13
F8
F1
FD
FA
01
0D
02
0F
11
0F
F6
EC
F4
EF
F3
01
04
F0
DD
E3
F7
FB
00
0D
04
F7
0E
0E
19
06
FD
03
29
10
09
F9
0C
08
EF
F1
BF
D5
EA
01
F2
DC
C4
01
F3
FB
D9
F2
F8
E6
E1
0F
00
0E
0F
11
0E
F7
F2
02
00
FB
EE
F2
0A
DD
D6
F1
DD
EC
DA
EB
ED
EA
EE
DA
F3
F1
EE
E9
F0
DD
0E
F3
EB
F6
0E
13
F1
07
F8
FF
E1
D6
D1
CA
00
D9
FF
02
DA
EA
F2
DC
F1
FC
F3
EF
E1
FF
FF
00
12
00
F3
0A
ED
10
0D
FF
0C
F9
13
FC
10
10
F1
01
19
F8
08
0B
F2
F1
10
03
04
14
03
FB
ED
F3
EC
12
F8
10
F4
FD
0A
22
11
0C
0A
06
FB
08
EE
EC
2C
11
17
0F
1A
10
FD
16
12
F0
F3
07
05
01
0B
05
F7
04
0C
F2
F9
0A
13
F4
05
EB
08
13
02
0D
09
F1
19
FD
F8
02
07
0A
FE
0B
F6
04
01
10
FA
EF
F8
EC
E5
02
06
E9
04
01
E4
F4
08
06
E0
EF
D7
E3
0B
FC
EA
FC
F1
ED
02
ED
FA
1F
02
E9
F5
E2
FB
D4
E5
F1
F3
F8
EA
03
03
0E
F3
ED
D6
01
10
14
00
EB
ED
D1
FD
0E
01
FD
0D
F2
D8
C3
D9
E3
EE
D6
F3
F1
E5
01
E8
DB
E0
D7
D7
D6
E2
E5
06
0D
E3
F1
F8
0D
06
08
11
08
01
EE
F5
E4
F0
F7
FD
E0
EA
FF
E4
D4
EA
E1
EA
F5
DF
FB
03
EA
07
FE
06
19
08
16
24
17
F0
F0
F4
E7
E7
F9
EB
E7
FD
F5
E2
E7
E8
F8
F4
F0
FD
13
23
07
F2
FA
15
E0
F3
15
24
08
14
F2
14
14
F4
F2
F8
F7
F1
F2
0C
10
23
0A
0E
27
13
18
37
2B
F9
FE
03
04
1D
01
25
16
23
0A
09
16
F8
16
1E
16
14
16
0A
32
20
33
25
40
13
16
28
27
1A
F9
E2
0E
01
FD
08
08
13
17
13
F3
01
11
07
12
1A
17
10
16
27
29
2B
2C
21
11
1C
26
2C
28
F1
08
18
02
06
00
E9
1B
04
F6
10
FC
23
0F
2D
07
05
06
0D
0D
FF
0D
FD
10
18
1A
34
24
0E
F3
20
0F
0F
03
F3
F1
FB
F2
18
20
32
26
0F
F9
F7
F7
03
FA
E8
DB
E7
D5
D8
DA
15
08
12
FF
26
07
1C
14
10
0A
FB
E5
08
14
2B
F1
CF
DD
E2
F4
ED
E0
E6
E2
D8
E7
CE
F4
F9
07
F7
FE
05
17
FB
0F
F8
E2
E9
FF
14
00
08
F4
D6
D3
DC
D7
04
08
E8
E0
EF
F3
04
FE
E2
EC
F2
F6
F0
0C
16
09
E7
15
E5
12
05
0E
EF
F8
DC
F6
D4
E3
FC
09
14
FF
14
15
03
F0
F0
F6
FF
02
F6
0C
EE
EA
F1
1B
EF
04
E6
E2
DC
C7
DB
F1
E6
0B
F9
05
F8
F3
02
E7
09
F8
0B
E6
0E
F2
0A
06
E0
07
F6
FC
0C
01
05
D6
E3
CD
F4
FC
FB
0F
00
1C
F2
0B
F5
F2
EC
F0
01
0C
14
1E
F8
EE
EA
ED
F6
0D
FC
FD
F7
E6
F1
FA
05
0A
0D
18
FB
07
05
17
09
FB
F4
E8
00
FB
FD
F2
05
09
E7
F1
FF
08
02
FF
02
ED
E5
04
FC
F6
F9
F9
17
00
0E
09
F7
EE
C7
D6
F6
FE
00
0E
FD
E8
C9
F1
0C
0A
04
E9
F5
DB
F4
F1
FC
02
E8
FD
F5
F5
04
0B
EC
D8
D8
E4
E6
F1
13
09
F6
05
C9
E7
F1
EB
F5
ED
E7
FC
F0
E2
F2
03
E6
FC
0E
00
09
F3
DC
D7
EA
17
FF
0C
F8
EC
EF
EE
D6
07
F9
04
FD
FF
08
09
EC
FD
08
FF
0B
00
19
0E
0A
F3
F2
F7
E6
02
E7
FF
0B
06
F9
E5
DF
FB
1F
F8
F0
12
13
14
0B
FE
0B
17
F3
03
F6
0A
F8
F5
0B
E1
D3
FB
02
14
FE
0D
05
05
DF
19
0F
F5
0C
0C
1B
F8
EF
EF
02
FC
FC
F9
03
01
02
EB
24
18
ED
09
E7
04
FF
11
12
F3
0F
26
2E
03
ED
F1
EC
0A
0C
10
EF
FC
15
1F
14
11
09
06
12
20
FC
19
05
F7
FF
13
FD
F4
F2
DE
04
18
08
11
EE
07
16
F7
0C
12
13
1E
FD
FD
02
08
1F
0B
F4
0B
0A
FA
F1
0F
F1
10
00
07
22
E4
E1
F4
FC
13
0C
FD
0B
0D
F2
01
F6
FA
EA
E0
1D
06
0C
03
0A
EE
F1
EE
EF
F7
05
ED
0C
F5
0F
EF
11
11
FE
F2
06
13
04
12
07
11
FC
09
EE
14
F8
03
EF
F9
F8
0E
FE
FF
09
14
0D
FA
F4
EC
FE
11
FE
FB
F5
FA
08
FF
03
08
01
0D
02
12
16
0D
F7
F0
F2
0F
EF
10
09
0C
16
0F
FB
04
19
10
FF
08
10
1E
25
21
09
0D
F9
11
22
F7
15
FF
0B
05
F9
13
10
EB
F3
09
EC
02
EB
02
FC
03
FD
02
11
1C
13
0E
00
12
05
09
09
15
24
1A
25
03
FC
F3
F6
E4
E8
0C
EF
EF
FE
0B
F2
F7
F6
0F
FA
13
FC
0B
FE
00
0F
0A
FA
10
02
FC
13
04
06
12
03
0C
0C
F7
EE
E0
F8
07
FE
EC
14
FF
0A
00
03
03
10
F6
10
0A
FE
04
18
0F
FD
FB
FA
EF
F0
F4
0B
F3
D9
DA
E1
E9
08
EF
F7
EF
01
F4
09
0E
02
03
0A
FC
00
FA
16
F7
F8
0C
11
0F
F0
FE
F6
E1
E8
F2
00
FE
F2
FD
12
05
0D
F0
F8
F8
F4
F0
EA
EE
0B
F8
02
03
F7
1F
07
EC
F2
0D
EE
E0
E8
E2
EF
DD
F8
FD
0D
07
13
06
F9
E8
E9
EE
EE
01
F7
ED
E7
05
F9
12
F2
F9
E8
11
E9
F0
E4
EF
EA
EF
E7
1A
FF
F8
12
FB
E8
E7
F8
F3
E6
F1
F0
0B
10
F0
E4
06
15
02
04
0F
08
DA
FE
EC
E1
07
00
14
09
1C
FC
0C
00
00
ED
E7
EC
EE
12
EB
FC
E2
F6
EE
11
0F
03
F5
EB
F9
07
F3
FB
F1
0E
FD
FC
0F
F9
0F
FA
F8
E8
F4
FF
F2
11
FF
FE
00
F5
04
EA
0D
09
0C
F2
01
F2
DD
06
F2
E4
FF
E7
04
0F
14
FE
03
DE
F3
ED
0B
13
FE
00
1D
FD
FD
F0
10
0B
0B
07
F5
E7
ED
FC
02
EB
F3
EA
FD
F1
12
21
06
FD
F2
FA
04
08
F0
11
10
FD
11
0E
06
F9
E9
F4
FB
F1
EF
FE
E6
EA
FB
05
E5
12
1E
1E
0F
E9
F8
03
E8
00
02
F5
01
11
13
1D
10
E0
02
11
09
1C
F8
EB
F8
08
ED
1B
FA
14
31
10
19
E6
F6
EB
FA
ED
03
F8
F2
1C
0D
12
ED
02
E3
01
10
FA
09
0C
EE
07
2D
16
0A
2E
2A
05
0C
F3
E9
FE
F6
0A
16
08
F4
13
2E
03
F5
E6
02
10
0A
F1
FF
FA
06
1C
16
27
17
2E
17
08
F3
F4
07
E8
0B
00
FD
18
09
1F
1B
FC
F4
0E
ED
F8
0D
05
EF
1B
1F
26
1E
24
09
22
FE
06
F0
FA
FC
03
1A
07
FD
0C
12
0D
FB
05
FB
EC
E5
FF
F7
F6
04
0B
10
15
F7
02
01
06
1A
F8
EF
FC
FC
FE
07
11
21
14
FE
25
02
04
F6
E6
F7
F6
05
EB
04
F9
01
05
13
05
FD
01
F4
05
F0
09
08
16
04
00
FE
0D
16
14
07
11
1C
FD
00
FF
14
FA
05
F7
00
0B
10
0C
03
F3
0E
FA
FB
FA
08
24
14
0A
1E
16
F9
15
02
02
09
07
E4
05
0F
0D
EF
0B
0C
F7
0C
05
FD
02
F0
FF
03
14
FF
06
1C
04
01
0E
08
14
FD
EE
10
02
F9
E5
F1
EF
02
FC
06
EF
08
06
F5
F0
F5
ED
06
FC
F5
12
FE
F2
0C
F6
02
FB
17
08
F1
EE
F3
DD
E3
E8
F9
04
F8
FF
01
0C
FB
FD
F6
08
F1
F0
EC
EF
FC
F9
EE
F9
E5
16
23
F8
F0
FD
ED
DD
F1
C7
E8
E5
F7
EC
F5
EA
D4
D5
D0
D2
C2
B8
B7
CD
ED
E4
DD
FB
F3
0E
FF
01
EC
F3
F2
FA
04
DB
E9
F7
F9
F4
F5
FD
D6
DB
CF
D2
ED
DB
FB
E6
E6
FB
DC
03
05
FF
12
ED
0C
ED
F6
08
04
E8
01
F6
F4
0D
F8
FB
EF
E3
0B
FA
0E
FC
EA
FD
05
F2
0E
05
00
0E
0B
03
10
F4
13
14
F2
02
FD
F1
F1
F1
FA
FB
F1
E9
08
06
0A
0D
EF
06
F8
02
F2
12
0B
FA
05
F6
F6
F4
02
F0
13
09
F9
F0
1B
0E
29
F7
15
13
1C
1C
E8
FE
12
15
0E
19
06
F1
12
EE
07
F1
EF
EF
FA
F0
03
F9
0D
1C
0E
21
15
36
30
4B
26
1A
17
D1
DC
FD
0B
FB
FB
0D
21
03
0F
0C
05
01
FC
D6
F7
24
24
2E
1A
0A
24
2F
0E
1B
05
DD
E9
DF
F4
F2
F6
10
19
23
02
14
21
08
01
F5
12
0F
1F
1C
15
F9
21
10
F6
09
FA
1D
11
09
F6
09
F4
07
04
E5
0A
F6
15
03
EB
15
12
11
F5
0D
2B
12
0B
04
0F
05
EB
05
F7
F4
06
E8
05
F1
0D
0E
F2
08
11
07
0B
26
17
2B
01
1F
D6
2E
21
0B
15
23
20
12
18
13
02
F5
DD
DB
E1
0B
ED
0B
FD
06
F7
10
E8
04
E8
1D
02
25
F8
26
3E
17
15
0F
11
06
06
0B
F1
0C
F7
E7
E6
FA
00
08
10
0C
EC
E9
E0
F5
07
09
DE
17
F6
24
33
18
0F
01
02
0A
F7
00
FB
08
EE
05
EA
11
07
11
14
F1
FB
E7
DA
EC
03
F7
F7
10
10
27
18
09
F4
0F
FD
F5
04
F0
F9
E5
FE
06
FF
08
14
04
14
E9
EC
DC
C4
E7
ED
FD
16
04
16
22
21
E4
F8
F5
00
ED
F8
E2
E8
F6
02
1C
25
24
0F
13
FD
09
00
E9
C1
DE
EF
15
F9
0B
F4
2B
F7
F3
F8
F7
F2
FA
F9
01
04
EC
0D
26
1C
14
09
0C
F8
09
01
F5
C4
E7
0D
F8
06
0B
18
2A
03
FD
F0
F6
FB
F2
11
F3
EE
06
04
10
08
09
12
02
F6
EA
02
00
03
EB
E0
15
FF
03
09
16
02
14
FF
FA
12
05
F2
FC
EC
05
18
13
21
14
12
F3
E4
EE
F8
14
13
1A
F3
00
E7
05
05
28
16
F6
FB
FF
08
03
F0
F0
E6
11
0D
06
15
0F
FE
04
F5
F4
F8
FA
11
05
E3
FB
F4
03
1D
FE
00
1C
28
12
FE
E1
EE
FE
F8
FE
20
24
FF
00
07
FA
FE
1B
1E
0F
11
08
01
09
0B
05
18
05
0C
FA
FD
F8
F7
EB
F0
DD
ED
13
1A
1E
F3
19
17
0F
24
18
F3
FA
FA
F2
0B
FB
0A
19
15
FD
FC
F9
FA
DF
F6
F0
EE
E9
0E
29
25
ED
FF
00
0B
FE
F9
EB
E8
E0
D2
ED
01
05
0E
14
21
22
1A
FC
F8
FB
EA
E8
CF
EE
0E
20
03
03
04
FB
19
10
EC
02
FA
D1
C3
F0
0D
06
07
FE
28
17
F5
05
09
F0
E3
F3
D3
F5
10
0E
FC
01
0C
04
16
03
F6
F9
D0
F0
D6
F0
F7
1B
09
F5
21
03
0F
F2
16
F6
00
F9
FE
FF
13
F8
12
13
F9
16
0F
FF
FA
DA
DE
C6
BB
D5
FE
00
0A
FB
0C
F3
EF
FC
F4
01
FC
FA
F8
E5
F8
FE
15
11
22
10
16
EE
0D
EA
E7
C8
E1
F2
F0
10
F5
FB
28
0E
EC
FD
0E
0A
02
00
EE
F5
DE
EB
0D
FC
1A
16
09
0C
0B
EB
D2
E5
F2
07
02
01
0B
F2
0D
14
15
0B
15
23
FB
F8
EE
06
F9
F0
03
FE
00
F5
1E
FD
FA
05
EF
CA
F9
05
25
00
F7
FB
08
12
19
14
14
14
F4
F7
06
F0
FF
0D
02
01
FC
12
F7
EE
08
E5
E2
D2
E3
02
0F
FC
01
EE
EB
FE
05
13
16
22
12
1F
FA
10
00
14
08
08
0A
FF
F1
FD
E8
EF
E2
F4
F0
0A
F8
13
FB
04
F5
05
EF
F5
0F
19
FA
EE
09
05
05
F9
E0
FC
14
19
15
FE
F8
E9
04
FB
0E
0C
F7
FD
0F
03
F1
ED
1A
1E
FE
08
0C
13
1B
06
F6
2C
1B
1C
0D
01
FA
1B
01
F6
E9
09
0D
04
07
09
