F9
06
00
01
F3
11
06
F8
0C
F0
F1
F7
06
F9
04
0C
12
13
FB
FB
0E
EC
0C
F5
F0
0B
FC
FF
F9
FF
0E
0F
05
FB
03
01
07
0D
04
05
00
16
0F
12
FE
F5
FA
05
0D
13
0A
0E
FB
F2
09
0B
01
01
04
FF
09
EB
EE
F7
07
FC
E8
FE
EF
0C
FD
FF
F8
03
FF
04
05
04
E8
E4
F8
14
F4
F5
0B
FF
1C
0D
EA
03
E8
E8
0D
E3
EC
E7
E8
0D
1A
1C
1C
00
1B
F8
0C
0C
07
03
1C
0D
FF
0B
FE
06
19
1E
F1
EB
FA
01
EA
EF
D8
08
12
10
1E
1C
13
11
26
14
F6
25
1E
FD
0B
14
17
0F
11
02
1A
18
FB
00
05
F7
F1
E4
11
15
21
13
14
0B
0D
14
FF
09
02
FE
17
0D
07
FF
1F
0D
0E
0A
09
29
02
0D
F9
0F
12
15
29
18
11
25
14
F8
F9
0D
08
0C
FE
1F
0C
04
FF
F5
0A
FB
F4
0F
14
26
17
0D
0C
0B
03
10
02
01
16
10
05
1A
04
08
1C
F8
09
13
F8
11
FF
E5
04
F9
1E
16
17
34
24
02
17
11
15
19
1E
21
02
13
1A
02
11
01
FB
F4
F7
F1
15
17
04
F9
0D
0B
0B
1F
13
3E
0F
17
07
05
FC
0E
FF
09
F0
15
14
09
01
FE
11
05
00
0D
01
F7
13
EA
1C
19
04
0D
20
45
1C
0E
F5
F8
F6
01
00
0B
FB
FE
28
26
06
18
00
21
13
19
F9
06
09
ED
FB
16
15
31
49
35
FB
F2
F5
1A
F5
FB
EC
E8
F9
04
0B
09
07
1B
F8
0E
0C
FE
20
1A
06
04
12
04
F5
2E
4E
39
1D
0C
12
FB
0C
0C
EE
D6
F0
07
03
18
F7
19
0C
F9
FF
11
06
10
FE
F2
F9
0B
20
1F
3A
2C
04
11
E7
FB
F5
FC
DE
EC
E7
EE
F1
0B
16
F7
F2
F7
EB
F7
F7
F2
FF
EE
F2
FE
12
10
32
2C
08
FF
ED
EE
00
DE
D7
CF
DC
F9
05
FE
06
E7
FE
14
F5
17
F4
EF
10
EC
EE
0D
12
F4
0A
0F
18
EF
F9
07
F1
E3
EC
EB
FE
F7
0E
F6
DC
DE
FD
F1
0A
00
1A
09
08
F8
04
DB
23
04
29
09
13
01
02
FA
00
E0
EE
F4
08
0E
00
E3
ED
EC
E4
01
FB
13
14
F8
02
DF
DE
FF
03
0C
12
04
07
10
ED
ED
F4
EC
07
01
F6
FC
EC
E0
E8
DB
FC
FC
EB
E9
0F
EE
FB
E2
FE
08
F8
03
1B
06
FD
02
F2
EE
F8
ED
F4
F1
03
0D
EB
F6
DB
E4
00
06
0C
06
FF
E9
DD
D9
F4
08
0C
F8
21
F3
08
F6
FE
04
FB
0C
0F
FB
F1
08
EB
DC
DF
06
04
01
F6
03
F3
EA
ED
F4
F7
0D
0B
12
F0
EE
F0
0C
13
0B
0E
F9
09
06
08
EB
FD
0C
F0
FB
FD
F5
F7
01
FF
EF
E8
C8
EB
14
F6
F1
F4
F1
EF
05
1B
FE
1B
16
0F
0F
0E
0C
06
21
03
11
1E
07
04
05
E8
F5
DB
F8
0C
07
F3
FE
FE
07
FC
00
18
1E
02
F7
F3
FB
0A
14
14
22
30
1A
1A
11
08
12
F7
E5
DF
F2
FC
03
ED
0C
FC
14
14
08
06
0C
18
18
18
13
10
28
10
2A
22
28
2F
18
08
FD
0A
EA
00
DE
F4
09
08
F8
FA
19
05
0D
FD
16
1C
14
F9
1B
10
1A
22
19
2A
22
1E
1D
F2
06
08
ED
09
EF
F8
0E
EC
EF
FE
02
0C
05
0C
05
10
04
08
10
0A
0E
12
FE
21
1C
00
F5
EE
E5
E2
E2
F4
F4
0F
14
F6
0A
10
F8
05
18
F9
20
30
14
2B
18
20
17
1C
13
13
10
1C
03
0B
0A
2A
30
FE
1D
EE
12
F3
F6
FE
12
16
34
24
37
27
22
2B
3E
49
40
1D
10
15
2D
20
11
02
18
24
1A
0F
F8
0B
0A
F1
07
0A
09
03
F2
F4
F7
EE
FE
06
02
0B
F3
00
12
FC
F9
07
03
09
F8
F3
F2
F3
00
F7
F2
F7
F4
F5
04
06
EE
F6
E6
F5
D8
F7
DE
F4
E9
01
01
0C
20
E8
F7
D1
E5
E0
F1
0D
09
12
F7
08
08
0E
F0
EB
D8
E1
C7
CF
D6
CB
E2
ED
06
18
F9
1A
15
0B
EE
EA
E3
00
FD
06
F5
F3
F5
F3
FC
12
E4
ED
14
EC
E2
01
D0
E2
EC
DC
D4
00
0B
19
05
18
11
F4
14
02
E9
10
EE
F6
04
F5
0F
FC
11
16
27
F8
FC
0E
F2
F7
E3
19
1B
F8
10
0C
0E
0A
21
08
F2
EE
F9
08
0C
1A
27
09
0A
12
22
25
2A
27
0A
03
F9
E9
F6
02
EE
F7
FB
08
FF
06
18
00
0C
19
F6
FE
20
31
19
F9
F8
F6
30
36
26
18
1F
09
0F
16
0B
FB
EA
E5
FD
11
04
07
FE
09
06
00
FC
F9
14
2D
0A
F6
20
F0
33
41
27
1D
2C
0F
FD
F3
FF
F6
FB
ED
EF
0A
18
0F
11
FA
05
FF
09
0D
FD
16
FA
DF
F5
EA
0B
3F
2B
26
11
08
F5
F1
F3
0E
00
01
F9
F8
FE
07
1D
0C
0B
0A
F2
F7
FF
08
0A
14
18
21
29
2E
21
F0
05
EF
0C
EC
02
09
FB
DF
F3
FB
1D
1E
FE
1E
17
1A
E9
F5
F3
02
19
11
10
12
10
2E
00
EB
EA
F0
EF
0A
E8
F9
E8
EF
E6
06
17
0C
17
21
1A
1A
F0
CC
E8
E5
FB
19
1E
FE
27
06
F5
E2
02
F8
F5
06
0F
F1
EA
04
FC
1B
26
31
19
10
08
23
EB
C4
D6
08
FA
1D
FF
0D
01
06
12
EE
E7
F3
0D
FC
0E
0B
0A
EB
09
2F
12
10
0E
0E
06
0B
E3
E1
0F
06
20
FD
05
08
12
07
19
F0
03
0E
FA
EE
02
F2
E7
0A
10
15
1A
0C
15
FC
EC
F5
EF
00
06
20
05
F3
1D
11
11
FD
15
FC
E8
EB
F0
E6
03
06
FC
F7
1D
1F
1C
24
04
F3
ED
F9
E6
01
F9
F7
02
F4
03
1C
0C
14
FC
E5
FC
FA
FC
EE
06
FE
FE
0A
1F
FB
03
08
EF
0C
00
07
0B
E4
F6
11
0B
1B
06
F9
1E
01
01
03
02
08
07
F3
03
0D
10
00
03
09
1B
10
0A
15
11
F2
F5
F9
F0
FE
1C
00
FE
0C
0B
12
F0
EE
0A
0A
0A
F7
EE
F8
05
18
04
0B
FF
F3
F3
F1
0C
02
05
F2
DA
EE
0A
15
12
27
08
04
FD
F0
ED
FB
EF
EF
EE
1A
14
F7
FF
EE
E6
05
FE
EE
0C
FB
EF
E8
F1
0E
09
07
08
22
0D
04
0C
F5
F7
01
EF
EF
EA
E7
FC
0A
02
F0
FD
E6
FD
F0
F2
E8
F0
03
06
15
E9
F5
FC
0B
26
13
07
F5
0B
F1
E5
FD
F6
F7
F2
05
00
03
01
F3
E7
07
F1
F6
F5
05
FB
0D
D8
02
16
2B
1C
F7
F8
0D
E8
F0
F1
01
06
EB
EF
0E
FB
00
03
F9
F7
07
E8
FB
E2
06
EF
DC
EB
00
0C
1E
23
E3
F5
05
03
04
03
FA
06
F9
F6
FF
FC
08
EF
EB
11
06
F4
F6
01
E2
0E
FD
F2
13
F0
0F
16
02
FB
FA
F6
F7
F5
EF
04
11
10
FB
03
0F
0C
07
10
0F
20
FB
DF
E8
02
0A
FB
F6
12
02
27
0D
FE
0B
11
F3
10
06
FC
0A
12
05
03
1C
0B
11
F0
16
10
14
EE
F8
16
19
FA
06
FF
06
0B
1C
15
FF
20
22
07
0E
22
F2
0E
08
07
F8
E7
D0
F5
DF
0D
EB
06
09
0D
0B
F7
12
F3
0E
E9
FB
F5
0F
11
0B
09
FF
00
FC
1E
00
17
06
F6
00
00
F9
1C
10
0D
E7
0B
0D
09
F7
06
F7
05
0A
2F
FB
06
06
0E
10
0B
18
2B
0A
07
1B
1E
FB
0C
07
1E
0B
12
EC
FE
FD
11
13
02
EE
FA
00
FB
F9
04
0E
0B
F1
0B
07
F9
00
16
FE
F0
0C
EC
F8
00
F8
11
06
F7
0A
0B
FE
01
06
06
FE
ED
D7
ED
F8
E3
03
E1
D8
D1
0F
F9
0E
0F
F4
01
F0
E5
E9
E9
F9
0D
FF
F6
FA
00
EA
F6
F3
0B
DD
E6
F4
F1
01
0D
05
FC
07
FD
FB
E6
F8
E9
F8
E3
F2
F8
02
06
0F
13
F8
08
23
0C
E8
08
FF
24
16
10
EF
0B
0B
14
11
0D
09
EF
ED
E8
DC
DC
F1
E1
F3
06
03
0F
01
FF
21
32
0F
29
1E
0C
18
08
FA
13
12
16
0C
F5
F9
04
FA
F3
CF
DC
EB
E3
F7
08
EE
FD
FA
FC
1E
0E
1F
1F
04
09
03
15
0F
05
FE
02
E8
03
F7
EC
E7
0D
E4
BA
CB
BD
EA
FF
F2
01
0F
12
01
1B
13
13
25
1B
0F
FC
05
09
FD
0D
EB
F2
05
0C
1A
FA
FD
DE
B5
D3
DD
FC
01
01
F8
1F
09
2E
20
FB
F9
0F
04
FF
13
0F
01
FF
06
03
0F
FF
19
02
07
E2
C6
CC
C1
D4
F9
F5
DC
13
05
19
20
22
14
0D
FE
05
FC
EF
07
0F
0B
11
15
0D
08
0D
FD
E5
EA
CB
D6
DA
01
F0
F6
00
20
16
1B
29
0C
13
0C
05
E7
00
F8
02
22
29
33
0E
06
F2
05
E9
E1
C4
BD
D3
F6
F9
19
16
2C
3A
05
0F
F6
E8
DD
E9
F1
F4
F4
01
0D
13
0A
14
0C
0A
F0
FD
04
EE
CC
EC
FA
18
12
08
08
20
04
FE
F0
FB
E2
FA
F0
F8
07
06
FA
24
12
18
13
16
00
DC
E3
E9
C3
F6
EB
FB
02
1D
0A
14
FA
03
DA
EA
11
0D
07
04
01
FD
09
06
17
0B
0F
0B
DD
EA
EB
DA
FE
EB
09
FA
F8
17
09
10
0A
00
D2
00
E4
FA
EC
F6
09
09
08
1F
05
02
FE
FE
F7
F1
DD
ED
07
18
FF
05
EC
10
1E
19
ED
D8
E8
D7
02
FC
FF
E8
EA
15
1A
14
0A
12
16
02
FF
07
FA
00
16
08
16
FB
FD
20
00
16
0B
0E
FD
F3
ED
DB
DC
F7
E7
EA
1A
2D
0C
1D
09
04
07
F3
FE
0D
18
18
1E
0B
01
12
04
1A
05
EB
E8
ED
EF
ED
D8
D1
D4
F4
0F
0A
00
FE
FD
14
09
13
00
0B
2F
FA
1A
14
10
0F
10
1D
02
FF
F1
EE
F4
F0
D2
C8
EC
09
26
22
03
13
FD
03
F3
FC
1A
03
11
20
04
06
F4
1E
30
2A
FA
FC
07
F9
E7
F2
D2
D7
EF
22
21
12
02
15
07
06
02
EE
15
0C
FF
FB
FF
FA
0E
18
0C
0C
F5
F7
F5
07
0F
04
F5
DE
F8
0F
07
07
0A
FA
F0
F9
02
01
FD
13
0D
20
12
02
F1
FE
04
0E
FB
F1
0C
F2
F9
FA
F3
EE
F0
19
FC
09
FB
08
14
0C
0D
F7
F7
FC
19
0D
1D
F7
0F
F7
0A
01
EE
02
0C
FD
00
00
09
03
0E
FA
F5
FD
12
EE
F1
08
0B
F5
E7
10
1A
15
F1
11
19
F9
1F
0B
12
FF
FF
0C
EC
EC
F1
F5
EA
EE
00
FA
06
14
0B
FB
EF
E9
FE
09
1F
10
F4
FD
12
F3
F6
13
09
14
15
13
EF
09
0B
0C
F0
EB
0B
EE
02
EE
15
F9
F8
FB
08
14
1E
0F
01
F9
ED
0B
01
2D
19
26
15
07
F8
E9
0A
FA
F5
05
FE
0C
12
19
09
E9
F8
F9
17
14
25
28
10
F7
ED
01
02
07
1C
29
06
07
1C
28
10
07
12
1D
17
08
F9
1E
FC
03
06
E5
F8
EE
15
F7
18
0F
FC
14
07
0D
F6
01
08
2F
0F
16
11
08
0A
0D
ED
14
1E
1E
12
05
0B
02
F7
F1
06
09
05
F8
03
0A
0C
FC
21
0D
20
14
09
FC
1F
FE
EC
15
02
F5
27
22
1E
21
04
FC
F2
15
10
11
EF
0E
FF
F3
EE
0C
10
FC
13
FE
F4
F9
F6
FA
F2
F8
E7
F9
F1
02
F3
14
0F
F5
FD
10
EC
0C
F1
EE
EF
14
F8
FC
F8
01
EC
E4
01
E7
DE
FD
F4
E2
04
DD
E0
D3
F3
FC
EA
FB
E5
01
F2
F7
07
F6
05
F6
F5
0C
FE
F6
0C
01
E3
CE
C5
DF
E3
D9
F1
D9
E3
FE
FA
07
F6
C9
DD
DC
DB
E7
F9
F3
08
FD
11
EE
EF
0B
02
F4
D8
DD
F3
E1
DA
CD
C2
D7
DB
DF
0C
07
FA
E7
EE
05
E4
ED
02
F1
0C
11
FF
F5
FB
10
FF
E2
02
FC
E5
ED
0A
01
F4
01
0A
05
0D
04
FD
E0
09
0D
1D
1A
1A
E7
12
F8
FC
04
03
06
0B
18
08
FE
EB
04
02
E5
FC
FA
E2
04
F6
E3
04
05
F0
03
1F
08
14
08
0F
F6
11
05
0B
0E
FB
14
07
0A
FB
1B
02
F0
0A
F8
F7
15
EC
0A
09
1A
0E
1F
2C
39
2F
19
19
06
0D
FE
FA
17
F9
11
0D
0E
04
F6
F3
09
0A
F8
F4
1E
16
FC
19
15
07
16
23
40
1D
F8
02
F4
F6
F0
1C
FF
F7
1A
0A
01
FE
15
F5
F6
F9
02
F7
03
0C
1A
04
08
28
18
50
25
FA
06
23
29
16
19
1F
0D
17
FA
FC
FE
04
F2
FD
FA
EF
FD
10
15
0A
FF
12
1D
06
19
1F
3A
18
EC
21
0C
1B
06
16
FC
F4
F7
02
00
FA
F7
FB
EE
F0
FF
0C
F8
FF
18
15
0C
09
04
37
2B
27
FE
3B
F8
04
F3
EC
E3
F6
FE
14
1D
04
F8
FE
FF
0B
0D
1F
1D
16
EA
FE
03
ED
02
FD
13
FC
0B
FE
F7
FD
0A
F1
FD
07
19
00
23
10
11
0C
1F
FE
04
00
07
F3
F4
E3
D4
F6
D9
D3
F4
E8
00
E2
04
DD
F4
F9
07
09
00
27
12
03
1E
03
0B
11
05
1D
11
08
E5
E7
FF
E9
ED
D9
ED
D9
FF
12
05
ED
FC
0B
08
F8
10
0A
0E
06
0B
0F
05
0D
10
17
0B
00
FA
EF
F5
FD
E9
F2
E5
E1
E4
11
20
1A
05
03
D5
00
EF
F8
1C
19
02
08
FA
11
0B
0F
08
FA
06
E9
FD
F2
FC
06
EF
F2
F3
FF
F6
16
F6
E9
DF
FF
E3
13
F4
11
0E
22
FE
1C
03
0D
1E
21
FB
FB
EF
D1
E0
DC
D3
DB
E4
F3
EF
14
EF
03
E7
E1
F1
F0
FC
F4
FC
10
07
0C
15
1F
13
1C
0A
FA
DD
EB
D3
DA
F2
DB
F1
F5
02
15
FB
F2
F0
07
F4
F3
F7
F0
FE
F2
F1
14
F7
17
19
12
F3
EC
EA
C1
E2
C0
E1
F7
E8
FB
FE
19
12
EF
04
FD
F3
ED
D6
E9
DD
F6
E8
03
01
F5
0F
0A
0D
F0
E3
D7
CE
CC
FD
E7
F4
F7
0E
22
F1
F0
08
04
F1
FD
DB
CF
ED
EA
F2
F0
FD
00
F2
EE
E7
F3
F4
E9
EC
DF
DE
F2
F5
F5
EA
06
04
F7
FD
04
F9
04
F9
E7
EC
FD
EB
0C
F9
F4
02
E2
EA
E9
F8
F6
DF
E0
07
F1
EF
FE
0A
09
FE
1B
1D
F1
F9
FF
F8
0D
EE
EC
EE
FB
02
0F
E7
E2
01
D3
F6
F0
00
F4
F9
E6
FC
08
F6
F9
E8
1D
EF
0B
13
10
FB
13
17
F8
0A
02
13
EA
F6
E2
EA
E7
EF
03
13
04
F2
01
F9
EC
0E
0F
1F
2A
16
0F
0A
1B
FC
0A
17
0F
1F
05
02
12
E8
F9
ED
06
EF
09
F8
E3
FD
EA
09
01
F7
00
0C
23
2C
43
3A
5C
43
3E
3A
3E
1F
18
2E
22
2C
3A
02
F5
F0
F1
13
F0
F2
F3
EC
09
13
FC
F3
E9
0C
15
24
24
18
13
2F
1A
19
1D
33
2D
12
2C
15
F5
F9
03
04
E4
19
F9
13
0B
0D
04
FB
0B
1A
23
11
0F
1E
1C
FB
06
24
0D
27
2E
1F
00
F2
09
FA
FB
14
08
FB
F1
08
09
04
08
14
11
F3
EE
06
09
07
FC
FD
0E
15
06
F2
F0
0F
00
F4
F4
03
FF
F8
02
FF
05
0B
F7
14
12
0A
12
19
2D
0D
1B
07
00
FA
06
2A
0D
24
11
03
10
15
0D
2A
19
03
00
F5
F6
ED
00
09
17
F6
00
1D
13
1C
42
2C
17
1A
2A
19
25
1B
1F
17
2A
1B
26
07
F9
16
FC
06
FA
FA
ED
F0
FA
06
12
FA
0B
3D
23
15
33
2D
1B
20
23
0B
28
13
FE
06
07
F4
0B
F9
0F
02
01
00
FA
F2
05
EA
E9
01
0C
00
0C
1B
1C
09
FD
15
22
13
EC
FA
F5
FA
E9
13
F6
13
F9
09
ED
ED
0E
05
26
FD
F9
F4
1C
05
09
22
06
F3
FD
04
05
13
09
DB
F8
03
F0
0A
EF
07
21
FD
F0
F6
F7
0E
F8
E9
EA
04
E9
F5
EE
01
F2
F8
F8
0A
F6
F3
E2
04
D8
02
06
FB
FB
0E
08
FC
0D
F7
F5
FA
03
F3
E0
F8
FA
E8
E6
E2
03
F7
F9
E1
FC
F5
FF
02
E7
E7
F3
F3
F9
FF
1A
02
FC
04
FD
FB
04
FA
FD
EA
DC
E1
03
FB
EF
F5
DE
02
FA
FB
F0
EC
01
F2
F1
0B
EA
01
15
0D
00
0C
0F
EE
02
06
E2
D6
E7
DB
E2
F1
00
EF
FD
0F
09
FD
0B
F4
EA
E5
03
F1
FE
16
0D
24
0E
17
08
04
F6
03
D7
08
06
08
F7
FE
FA
F2
EB
EC
FF
05
F9
F2
F0
02
EE
F6
FF
EB
0F
2E
36
06
0E
FE
FF
1A
F7
EC
FD
FC
F9
EE
F4
E5
F8
EC
FD
00
DE
F7
FB
EF
EB
0C
0A
F8
1F
29
ED
06
F7
04
FD
04
06
F5
F4
E1
EA
DC
E1
E2
EC
07
F3
F2
E5
E5
DB
F2
E6
00
05
DB
E9
03
02
0A
1F
0D
11
0F
01
19
F5
E5
E9
E3
0D
F4
0F
21
0D
08
EE
F8
DC
DB
EA
F9
FC
F8
EF
05
FF
0C
F0
EB
24
1F
F0
EB
07
F6
09
F1
F0
FD
20
0C
15
04
F8
F3
E1
EF
F9
EA
05
0A
1D
19
08
0B
13
F6
FA
09
1A
F8
0C
F0
05
02
01
17
1A
36
26
1B
F8
F0
FF
F7
FF
18
0B
0E
08
19
18
17
02
EB
05
0D
11
14
05
F9
FB
17
05
1E
1C
30
22
09
FB
0E
FB
03
FD
11
F0
04
11
3D
10
19
10
04
F9
EC
F0
18
11
03
08
08
13
0D
16
20
10
00
EC
F0
FE
03
FC
00
E9
EB
21
30
25
0B
12
05
DB
0A
E1
FC
1B
25
22
22
1D
1B
1C
17
1F
03
04
19
00
FB
15
FC
05
FB
18
34
FF
23
1C
FF
E0
FF
05
FE
15
10
1A
0F
14
10
19
2C
28
13
13
FD
14
FD
09
1F
08
0E
23
1F
0F
17
FD
08
0C
0F
11
FF
F2
02
1E
25
2A
24
20
1E
05
1D
F8
07
1B
02
1A
06
00
19
0C
FF
0E
0E
0B
11
00
29
FB
FC
02
FD
04
17
27
08
12
F4
07
04
FE
F3
0E
09
0F
0E
09
16
2B
0B
13
12
23
FF
06
0C
36
FA
EB
F8
08
F4
EE
E7
E7
E8
EB
F8
09
F7
FB
F1
FD
FB
EA
01
11
01
16
05
F8
14
EF
04
FF
21
EC
E9
E2
DF
E9
DF
F4
DA
E2
EA
FD
DE
E4
02
F1
EB
FB
0B
F7
00
11
F8
00
F6
06
DE
E8
F8
E5
E9
D5
DB
D6
E4
F4
E6
EA
F5
FB
04
12
0D
09
E6
EE
DA
1F
01
09
F6
04
0C
EA
EA
E6
CE
DB
F0
E4
D1
E3
ED
ED
F8
F5
F4
E7
FE
FD
04
07
02
F9
07
1B
12
0A
10
0A
09
13
EE
F0
F5
E4
F0
E8
FF
E5
EF
02
11
EC
DC
FE
02
F1
0D
12
0B
FD
15
FB
0A
F8
F6
05
FF
FE
0A
11
F2
FA
F8
E9
FC
06
14
EB
F0
0E
F6
F9
FE
0F
09
E3
F5
00
07
09
0B
06
0C
EC
FC
FD
EF
F8
03
F9
FF
FE
10
00
07
05
00
F7
EF
F3
14
F3
F8
F8
03
0B
ED
F4
0F
F5
F5
F7
EC
04
11
0F
F2
F7
00
F6
08
E7
DE
00
FB
08
E7
FE
E4
01
E0
F7
13
F9
04
13
02
EE
EF
ED
0C
F5
F5
F3
EF
0A
EE
E9
E8
D6
E2
0B
00
06
0E
FF
09
FA
F8
04
00
F5
E3
F2
F8
FD
11
06
F6
15
F0
0C
0F
FC
F3
FE
06
07
F4
F3
FB
FA
EE
0D
F3
10
EE
00
F8
03
0B
0D
0F
F2
F7
13
0E
0F
0F
F6
07
EA
04
0C
02
FB
F4
00
EF
FF
09
0C
F6
04
F7
FB
F9
12
F6
04
F4
06
19
F9
14
09
02
0E
0C
FA
FA
06
F9
FF
FF
09
10
02
ED
10
EF
00
EC
F0
FA
FD
FF
08
08
13
1A
F5
EE
FA
14
F4
F7
F5
10
F8
ED
FF
F3
0B
F2
0B
FA
F0
FD
02
08
00
11
FC
F6
F0
FE
12
FC
0E
FA
0C
F6
05
EB
0A
11
EF
EB
F3
0D
F1
FB
03
EF
11
F9
0E
0B
ED
F2
EE
FB
00
1F
FD
16
01
14
11
09
F9
F8
F1
0C
F8
F4
FB
F4
EB
F3
0A
EF
0F
09
08
F0
FA
F3
FA
F1
0B
15
0F
EC
FB
0B
F8
05
0E
0A
02
EB
02
10
02
0B
07
0A
07
ED
ED
F6
EB
F5
F6
05
ED
05
F5
E9
F6
ED
08
12
14
16
01
05
FC
06
04
EE
0F
EB
06
FB
08
F9
F1
FE
EC
F7
F6
0A
FC
02
FC
E8
EB
0C
12
F7
20
FE
F1
FE
FD
02
0C
FF
F3
02
00
F0
F9
F6
08
08
FE
F1
FC
F7
F3
E9
08
D0
0A
F3
07
F7
F8
1A
FB
01
EB
F6
03
06
FA
F0
04
EE
FB
F6
11
F9
FD
02
0F
0F
06
EB
08
F8
F5
07
12
15
04
11
13
FC
09
0F
EA
ED
06
F7
0A
0A
06
F7
EF
F0
EE
F4
0C
FD
09
0C
E8
E9
F7
E1
F1
14
FC
14
01
F8
0B
04
FC
07
EB
F2
F2
F3
FE
03
10
FC
02
01
F6
F9
EA
EF
F1
0C
E0
08
F0
1A
1C
00
FA
0B
00
0C
02
EB
09
EC
04
F6
03
0A
04
11
F2
FF
08
0E
FA
ED
F6
F4
FB
EC
00
12
F4
E4
F2
FA
F7
06
0F
F4
EE
EB
02
0F
06
EF
10
F3
06
FC
EF
F3
06
03
E8
E3
FB
09
0E
05
FC
0D
EE
07
EC
E9
ED
F8
E9
EE
03
F5
EC
00
F0
F4
09
0B
F5
0D
F4
EF
04
03
FA
EF
F8
F4
2B
FB
0A
0D
0A
0E
FF
01
0E
02
F6
FD
02
00
06
FB
EF
0B
F3
08
0C
EA
FD
FE
F3
FE
FD
19
0F
09
F9
10
F8
F3
07
FD
F5
00
F8
07
FD
F2
02
0D
FF
00
07
F4
E7
0A
F8
EF
05
17
EE
05
FA
F0
0D
EF
F3
05
FA
02
0A
F8
FE
10
FB
0B
04
F3
F3
FE
0E
07
04
F2
09
EA
ED
EE
0B
03
E9
F1
0B
EE
11
10
09
F4
07
FE
ED
0F
F8
09
F1
EB
E8
06
F4
F6
EC
00
00
EB
06
01
0B
FF
E8
F8
0A
F6
F2
F4
0B
09
F3
08
00
F2
01
F0
02
08
09
F4
F4
EE
F1
E9
FF
0C
0E
FA
13
F6
E4
06
02
11
12
08
FA
0E
06
08
01
EB
0E
FE
06
0A
F4
0E
FF
05
F9
E8
FA
F9
F4
11
F7
F3
02
F4
F7
EF
F6
0F
F9
04
F0
00
03
0C
13
FE
12
08
EC
05
04
07
F5
F4
E2
00
02
02
04
F0
E8
13
04
24
02
10
01
FB
00
F8
14
07
FF
06
FB
15
EF
F3
F2
FB
FC
FF
FF
02
04
F8
0E
0F
03
E9
F0
08
11
1C
01
05
15
FF
F4
FA
16
10
02
FA
F6
02
E5
11
01
D6
08
01
06
0A
F4
0E
F2
F8
11
0D
0B
27
0B
FE
FF
FF
01
00
16
20
FA
02
F3
FE
06
22
22
F8
FF
EF
0E
FF
F4
EE
03
0D
0B
FF
06
FE
00
F7
FD
ED
FC
07
07
F0
08
FB
12
FC
01
FF
ED
0C
EC
F3
EC
01
06
01
13
10
F7
FD
ED
FE
F1
10
05
F2
0C
07
09
13
FD
F1
F3
01
09
0A
F9
00
EE
EE
00
F7
0C
EE
0E
F1
05
07
FA
FD
F9
FD
E8
0E
F7
20
10
21
00
F4
12
09
14
04
0B
FE
07
F4
F0
EC
01
FD
F2
08
08
03
F8
EF
F8
F9
F8
0E
FA
F8
ED
0C
E9
05
0D
0B
01
15
09
12
07
20
0E
0E
0D
01
DE
20
19
F9
FE
DC
EB
DE
F9
F8
14
0E
0B
E3
F5
F7
0E
F1
F8
11
0F
ED
E9
0E
FF
FE
EF
13
F0
12
10
16
ED
ED
06
F6
14
0A
0F
F1
EA
F7
F5
FF
FA
0A
EB
F9
E7
E3
0B
F0
0F
FE
FE
0A
0B
1C
FB
00
DE
E4
F6
0C
0B
19
0A
F8
F6
F4
02
02
F6
0E
F5
12
DF
E6
11
F3
12
00
09
10
18
04
12
F3
FE
0F
08
F8
08
12
FF
10
F5
02
0B
FE
F0
FC
0B
07
FB
DD
D8
EC
F7
10
15
0B
FC
00
04
09
FF
08
FB
F3
16
12
F5
0B
FA
03
06
00
13
FD
F4
F6
F8
F2
CA
EE
F6
E5
06
04
1C
15
18
F3
F3
FA
0C
06
F3
06
0C
EE
E3
F7
05
03
01
17
13
FF
EC
F1
E3
ED
ED
F6
F8
05
11
09
12
04
0C
16
F9
FC
FF
F2
DA
DE
E0
0F
F2
F8
0A
13
F9
FD
E0
E5
DA
E6
05
FB
F8
05
F7
FC
05
0F
0C
E9
DC
E2
D4
DA
D9
F7
04
0C
0F
FC
04
F1
0C
EC
ED
FC
E1
14
0C
E6
17
1E
0C
08
0A
D7
F8
D4
C2
C4
D5
E7
F9
0C
03
02
11
EB
0B
ED
0C
EF
FF
FC
07
0C
E5
F7
F7
06
10
F8
D5
E3
D4
E2
BF
E4
00
1A
0D
0A
01
06
FF
FC
F4
F9
DE
07
EA
EF
F2
00
E0
06
F9
0B
25
FD
01
EB
EC
EE
F9
FA
FF
1B
1A
FC
0F
F6
F5
09
F5
09
FB
F9
06
F7
F5
E5
DC
09
14
1D
0F
FB
06
D9
F7
FF
10
12
27
2A
26
00
10
0D
FB
E3
EC
FC
03
F6
E4
F1
F2
E0
ED
DE
0E
01
EF
01
E8
E9
EF
EE
16
19
08
27
19
14
0D
FC
F5
EF
FF
10
04
0F
EC
EC
EF
E1
03
EB
F6
11
FF
E8
E9
E2
F0
E3
FA
0D
11
1C
18
17
13
02
F6
08
04
1F
03
02
00
FB
CE
DF
ED
E9
E3
0B
74
EF
FD
EB
E3
DC
DF
E9
02
06
11
F6
FC
FC
14
07
FC
F9
0F
FE
F9
F7
E2
E9
EA
06
01
1A
7E
09
FA
EB
C2
B1
CF
C0
BD
DE
EC
FE
E5
FC
19
02
0C
F8
FB
FB
06
E8
D9
FC
F3
FD
FA
10
61
10
08
F8
F0
BD
CB
CE
B9
D4
D3
EC
FE
05
08
02
0B
03
15
18
E5
E5
DF
EE
F6
FE
0E
2B
0A
22
19
06
01
08
F0
E9
F3
E4
FC
08
0E
F3
FE
F9
14
0B
0C
F7
F9
EE
F3
F3
FD
FF
F1
0F
18
30
10
FB
0E
30
FD
F9
09
F9
10
00
EF
10
FB
E8
F7
08
F8
F0
F1
F1
FB
06
0B
08
0B
11
2A
33
17
0F
25
1D
0E
16
1A
FF
02
01
08
09
01
F9
F5
09
E3
E6
E3
D6
E2
03
1E
13
06
F0
0C
2A
1B
1B
16
34
FB
04
20
12
FC
16
11
13
F1
0C
F5
FC
F9
F2
04
E5
DC
11
13
00
EE
FB
02
F8
22
11
33
29
15
21
20
09
00
07
F9
FC
14
FD
FA
F8
F0
E1
FD
F7
F1
F0
F1
F5
F9
06
F9
F4
00
E8
FD
17
01
F8
F7
E4
02
F4
CF
F7
F4
FD
F1
DF
DD
FA
04
FC
F8
F5
F9
F2
00
F7
11
EF
EF
FB
F9
E7
E7
11
10
FD
FC
FF
F9
07
EB
F9
F6
F7
E4
FE
0C
0F
0E
04
FA
FF
00
0F
08
F7
F0
FB
F6
08
03
F7
04
03
02
E7
13
FF
EE
FE
0B
FF
F9
FF
00
F0
FB
F0
F0
09
0F
F3
0B
14
F9
E1
E4
E4
EF
ED
DC
F8
DA
F9
16
DF
DB
C9
F3
CA
CA
D2
D8
04
06
FB
02
F5
07
07
F2
E9
FE
E0
F1
E4
E0
D4
C2
A7
BD
C8
DE
CA
DC
D6
CE
C3
C5
C6
CC
C7
D6
FF
F1
02
EF
0A
E2
EF
08
E7
E6
D8
CF
B5
CA
B1
C9
B9
D3
D9
D4
D2
DE
EF
FB
E1
D1
D4
FE
E3
E5
EC
F0
05
FC
E6
F8
F4
F1
FB
F5
F1
01
F3
00
FD
05
DF
E1
E6
F8
E6
04
F1
E5
EA
FF
1C
FA
02
14
F8
00
F6
01
F1
F3
E9
08
F6
F5
0D
FD
FB
FC
F9
05
0F
F2
E2
F0
03
FA
EE
E7
05
0A
FA
F4
EA
08
F7
EB
E4
F0
F0
FC
05
03
E8
0F
FC
09
FD
FE
1B
F6
F3
FC
DB
F1
F8
0F
31
08
27
F2
F4
FF
FF
EF
D8
F0
E8
FD
FE
F4
FF
F3
F2
0B
09
1E
F9
09
FD
F6
06
1D
2C
17
46
FB
08
E4
E7
0A
F1
00
F9
EF
06
FF
FE
0E
DF
E1
EE
04
0B
F7
FC
1A
15
0E
22
0E
14
34
2A
1A
1C
EA
DD
F1
E6
D4
F1
07
06
1C
06
F9
F9
E0
ED
01
EB
0A
15
F7
14
07
0B
06
23
2D
17
1A
00
02
E1
EC
E4
EA
F4
07
0C
0C
1D
0F
0C
F9
D1
DF
E7
03
E3
FA
06
F8
F0
01
1D
11
25
31
F0
0B
E3
F2
EB
06
17
13
0B
0F
2D
1C
12
EA
E9
E6
F9
F5
EB
EE
08
FB
FC
13
FD
FD
1D
2D
F2
0B
E4
E4
F1
02
06
16
1D
21
23
27
33
0D
F4
F6
0C
F1
FD
F2
F9
07
05
F8
05
DA
09
22
09
EF
ED
E5
F2
0B
0F
FD
05
16
12
31
39
2E
1E
17
09
0D
05
15
F0
0D
0B
0A
E2
F3
05
2C
25
ED
02
E5
F1
0A
04
FE
0D
FF
0E
20
0A
2F
0B
10
08
0B
25
0E
FE
ED
09
F0
07
DB
01
17
24
07
F2
F7
F0
FC
08
FB
12
09
0E
05
27
15
FD
01
07
08
0A
FF
FC
FD
FD
F8
D7
FF
06
11
FF
E9
F2
EB
ED
E6
0D
00
FE
00
02
FA
0E
0B
07
06
26
09
07
18
FC
FD
F5
F2
FD
EE
01
15
0B
F3
D5
0B
E7
00
EE
05
1A
18
1D
0D
04
20
13
02
00
1A
0C
0A
FB
FC
FF
00
FA
05
E8
13
2D
F0
E0
FB
F2
02
1A
1A
06
04
0A
FC
FD
0C
19
1C
09
F6
E7
FB
FA
01
05
06
F6
F9
F4
11
14
0D
F7
EB
EF
01
20
1E
28
FC
E1
EE
01
FF
F9
07
FC
F3
EB
FA
FD
F3
E4
08
FA
1C
27
24
EF
11
F3
07
FD
F3
05
FF
03
F9
F1
D7
ED
EF
EB
DD
E8
F2
FF
F4
F2
E9
01
07
FE
19
02
16
18
05
F9
F2
FD
FA
FE
F5
F7
E7
F2
FB
F0
FE
E1
EC
F9
08
FF
F7
FE
F4
F8
0A
FF
F5
1A
F5
0C
FB
FE
FA
F7
01
EE
EA
FC
01
E6
F0
F3
01
E6
05
F8
ED
F7
EF
F7
F9
15
15
15
05
0B
EF
FB
04
05
09
F3
FC
DF
D3
EB
06
00
ED
E8
FD
01
F8
ED
FA
02
05
F4
1D
0C
1F
0D
24
FD
F3
05
08
06
E8
EC
E2
EC
E0
F3
E4
F0
E7
FC
EA
FD
F2
FF
F2
08
FD
1D
22
25
0A
0E
05
19
FE
F6
F1
F3
FC
09
FB
F7
F2
DC
F4
F7
E2
FB
E6
ED
F0
F4
08
F9
F9
0F
0D
FC
03
24
00
FC
EC
F8
F4
F6
12
17
13
F3
E7
F3
F8
F8
0F
EF
07
F6
E9
F3
F6
FE
DE
ED
EB
F1
F2
EC
15
09
04
00
0C
08
11
02
EB
FC
06
EB
F6
EC
E3
03
FD
CF
00
0C
11
DD
FA
D7
10
F1
00
FE
03
EC
10
FF
FC
FD
F9
0D
F5
0E
06
11
11
09
04
0F
15
FC
08
14
0E
F0
00
06
F7
12
FA
F1
12
03
ED
FB
FC
F8
14
10
0B
EA
08
0D
FA
FF
09
02
07
FF
FD
10
00
0E
F6
04
FB
03
FA
EF
04
01
FA
03
F8
F6
FC
FD
17
01
07
F7
04
EF
F5
FD
EB
ED
FA
E1
E5
F9
FE
F3
01
F6
0D
F7
FA
0E
06
0F
00
0B
F9
EF
FA
FA
0E
F7
F3
F9
ED
01
F7
F1
E1
DE
D9
E5
06
1A
13
09
08
01
08
10
F8
F2
FF
07
07
08
16
0E
1F
21
06
16
14
F7
EA
F0
F0
01
03
E4
05
FE
F7
DF
F7
EF
12
09
FF
EC
FE
00
22
FA
00
1D
03
1B
10
F9
0B
FB
02
0C
00
F6
F7
F8
EF
F5
0E
EE
E3
E8
16
0F
05
FD
F2
FC
FD
15
FC
FF
07
ED
F5
FA
FF
02
17
15
13
11
1B
15
14
07
FB
E6
E2
F0
D9
E9
FA
0B
01
E9
14
E8
F2
DF
05
01
04
00
02
0E
10
24
0D
1A
29
07
0B
FB
EF
01
D1
D4
CA
E1
F9
00
F8
0C
EF
F4
F6
F9
05
0F
0E
0C
FF
00
0E
0D
14
0C
09
06
10
FE
F3
08
E4
D8
D0
F0
EB
FA
04
F5
F8
15
F8
E9
11
12
FE
F0
0C
EE
F4
0D
12
08
F7
EE
EF
F2
FF
FD
EC
F7
F1
01
ED
EA
FA
EF
03
0E
F8
06
05
06
16
08
FE
FC
FF
F6
00
E7
F8
04
0C
15
11
12
0A
FA
F2
18
16
E9
EF
03
D9
06
07
FE
F7
01
0E
F3
ED
F1
FD
07
08
F9
F2
1F
15
0D
1B
1A
05
FD
00
28
06
04
E9
FE
D7
E7
FB
01
03
FF
F2
08
18
08
06
08
27
1A
F9
02
F8
F5
F1
03
F1
FB
FF
0F
08
F1
04
F6
E6
F1
EF
0E
FB
02
F3
EE
06
12
21
18
13
00
1C
13
FB
FD
F9
E9
02
E5
F9
D6
EE
E3
03
05
D3
D7
E0
E1
F6
FB
F8
0C
05
FD
16
03
14
18
01
07
04
F7
ED
F8
01
EE
DB
E4
E6
FE
03
0A
FA
F8
F1
DD
FE
FA
0E
11
26
2B
16
12
0E
10
FB
FF
E6
E0
FB
03
FA
E8
E4
D9
FF
0D
09
F7
05
EE
FC
C5
CE
D4
E6
05
09
15
30
07
F2
F1
02
F4
00
0A
F3
14
15
F4
D1
EF
E0
E9
00
F7
18
08
E0
E7
BD
D8
CE
D9
F7
0F
F8
01
ED
F5
F6
F5
FF
09
F7
22
F2
E8
E1
ED
F3
09
08
14
0C
09
FA
D6
D8
BF
B6
B8
C8
D9
C9
DA
E9
E6
EA
0D
F5
10
14
FD
18
E9
DE
D8
02
EB
F8
E2
27
09
FD
EC
E6
BD
BC
B7
B1
B2
D5
C9
E3
E5
07
01
F9
11
15
1B
1F
03
D4
DC
0D
05
14
17
2F
1D
16
18
0C
EB
D1
F1
DF
CF
D7
E7
F8
FF
ED
05
06
06
12
08
FD
08
F4
00
F5
F3
F4
03
08
1B
37
13
09
1D
08
FB
12
F8
ED
FA
F0
F2
EE
EE
F5
F6
03
0D
E6
FE
F1
09
07
F7
F7
F8
15
32
2A
09
0F
0A
1D
FB
0A
1D
11
0C
ED
F1
FB
E5
F2
F7
09
E9
0D
F7
F8
FF
E2
EE
0B
13
F7
10
14
1D
0F
12
15
21
0A
FF
04
F8
F7
E9
EA
FB
FF
07
05
0D
00
00
19
FA
F8
F9
EF
05
05
09
1B
1B
06
15
25
14
26
0B
F9
00
00
F1
EE
F7
EB
EB
F3
00
F3
07
FC
00
E6
EF
FB
0F
F4
00
F9
04
1D
18
20
08
10
00
19
11
01
17
05
0E
1D
00
23
0A
0F
05
1C
FB
DB
F9
13
F0
F3
19
0E
14
1A
0F
F8
1A
03
17
18
08
29
10
FF
18
F8
E4
EF
0C
EC
10
0E
EF
F2
05
13
EE
0E
EC
EB
0C
08
F6
F6
11
10
FD
13
F9
06
10
ED
F5
09
ED
F2
DC
F1
06
06
11
F9
0E
EC
F3
07
13
ED
EE
ED
05
FF
F9
09
12
0A
14
FC
06
02
FA
0A
FA
FB
00
00
0A
04
02
F8
02
F8
10
F5
13
EE
F9
04
1E
04
1B
03
FF
09
09
09
11
1F
13
12
EC
E6
FE
0D
FD
07
EF
05
05
EF
14
0F
11
FD
EF
11
09
EC
EB
0D
F2
FF
03
04
18
F9
12
E2
0C
E2
EF
F3
D5
E5
05
04
EC
F6
00
15
07
06
FC
FD
05
13
10
14
0A
06
F3
01
0C
02
03
F1
DF
FA
ED
EB
E0
05
05
06
F3
0E
F3
1C
0D
02
EA
09
00
FB
0F
1A
19
23
0F
16
2E
13
21
0F
01
EF
F6
04
F4
1C
0F
2C
F2
F3
0D
03
F9
EA
F3
DF
F9
E6
F3
05
FE
07
1E
0E
10
0D
0A
12
06
24
0F
0B
0D
FF
14
12
F6
F1
0E
E3
F3
F9
03
07
FF
EE
FE
FB
04
08
16
0B
FA
FF
14
0A
12
06
02
16
03
22
0B
0D
0B
06
ED
D9
EE
F0
17
07
F4
0A
08
FF
FC
01
00
0F
12
14
09
0C
03
F2
07
07
19
31
0E
0E
1B
03
EF
DE
03
01
07
08
13
05
19
11
F7
03
03
FB
FB
1A
FB
F9
07
08
1C
13
15
17
0C
0E
2B
E6
E6
CE
1B
0D
0B
01
FA
F9
11
FA
EF
F3
01
18
FB
0D
03
11
14
0C
03
05
20
22
35
2C
1D
E7
E0
FC
1B
1D
02
09
F9
F8
00
02
FD
F4
F7
00
11
0C
F3
F4
0E
0C
0C
13
26
47
2A
28
10
E9
E3
FC
FB
19
E8
F3
E7
E9
F0
E8
EE
09
03
05
00
E5
FD
E0
F2
EF
00
F1
0E
36
44
1E
EF
FC
08
05
F8
DC
0C
03
FE
02
0B
F3
08
F0
1A
FC
04
E7
DF
EF
EC
F4
F0
CC
E9
09
0E
24
0E
0D
02
F7
F8
F4
07
F4
FB
02
E8
06
0B
13
1C
FF
EF
E5
E1
E6
F3
F5
CD
D1
F6
ED
E2
03
08
11
E9
E8
FF
EB
07
F5
E9
E6
04
0E
FD
0C
13
04
02
DE
F6
F7
D3
D4
E2
FB
FF
F6
DD
27
19
17
EF
E2
EE
E8
0D
FB
01
FC
02
FA
01
13
09
F8
D5
DA
E3
E6
DE
EA
D7
E5
E7
11
F9
0D
2F
FA
F7
D9
03
F9
1B
05
F2
EF
12
05
FB
03
F9
E4
F2
E7
08
F4
EB
E9
E7
FC
05
FF
06
3E
1E
09
F5
F2
07
FF
08
02
F4
E4
FE
04
03
ED
F0
F4
E3
FD
F3
0E
EE
F9
EB
05
0C
0F
0C
14
29
FC
09
D5
11
19
21
0E
F7
F8
04
17
09
E4
F0
E8
F0
06
05
0F
0C
04
19
0C
0C
29
00
25
F1
01
05
F1
F9
FA
20
0B
04
13
FD
04
08
0C
F0
0C
13
F8
1C
08
0C
20
01
0C
22
15
11
0C
FF
F7
08
F7
21
1F
16
24
29
25
17
05
10
FF
F4
EE
00
11
1C
14
03
16
35
33
1A
1E
FD
E7
FF
FD
0A
09
24
12
08
0C
28
00
1F
23
22
17
0A
09
FC
0B
F9
03
0D
19
34
3C
20
0E
06
13
15
FC
F0
0A
19
15
04
F9
1E
14
08
16
2F
2E
1D
06
0D
13
05
26
1E
1E
16
1B
39
1E
03
04
F6
F4
F2
FC
35
03
FA
FA
F2
18
28
13
28
14
2E
32
2D
2C
1D
0C
09
FB
13
19
21
00
10
FB
EF
01
FA
0C
FB
E3
EB
E3
FE
ED
FD
F8
FE
14
10
1C
16
16
0A
02
02
FA
FF
FE
F9
29
FA
18
0D
0E
06
19
07
E1
D6
FF
07
FF
07
F8
ED
04
02
FD
06
F2
03
07
00
DE
E9
F5
01
02
14
27
00
10
08
F4
ED
F3
04
E0
E2
F3
ED
EB
F8
E5
F6
D9
DA
0A
F1
F2
0D
05
05
00
F3
1E
F1
F0
0F
F1
01
FA
EE
E3
0D
F2
0D
00
E5
FC
08
F9
FD
F9
EA
F8
02
02
FB
08
F6
00
FC
F8
FA
0D
0F
12
FE
00
F7
01
EE
FF
0C
08
0A
06
0F
14
11
12
0A
0F
03
F2
01
F9
F6
06
FA
00
05
F9
F2
F5
F5
F5
F1
03
F4
03
FF
10
0D
FB
23
06
07
03
0D
0F
09
04
F2
0D
F9
F2
F6
0D
ED
F1
FE
F7
EE
0D
02
12
05
F4
FE
EF
F2
FC
FE
EB
EF
F9
EA
04
EE
12
0F
0F
F6
0E
EC
F9
EE
14
0D
F4
F5
01
14
E4
FD
0B
02
E6
F4
FB
FA
10
01
ED
F9
FA
FF
FD
F8
F1
EE
F8
F2
04
FE
02
F1
F8
17
F7
00
03
FF
01
03
FA
07
FE
13
21
FA
17
F8
0F
07
F4
EA
EE
F5
0A
DD
15
10
16
0E
01
F2
09
EE
11
07
F6
0F
0B
EE
F3
F0
F9
0D
EE
00
F3
11
F9
F1
FE
F6
FF
F7
11
08
F3
FB
07
06
E2
FB
1F
ED
FA
04
0A
F2
11
15
F5
0F
11
EC
10
F6
EF
06
06
01
FE
04
0E
28
04
01
F6
07
FE
1A
0C
E7
10
EF
05
00
0A
0E
0E
ED
F0
02
17
22
13
FF
16
FA
03
17
16
27
03
0C
14
F6
0C
26
FF
13
05
0D
05
12
01
FF
08
F7
10
F2
07
09
1F
1F
F8
0C
1B
21
26
3E
0F
13
F9
16
F9
1F
18
08
21
01
15
04
F9
FA
04
F9
F3
FE
1D
25
18
F8
19
09
0B
1A
20
27
16
09
02
FB
04
FB
21
06
05
01
0B
0D
14
0E
0C
FB
FD
FD
0A
FB
F6
01
FE
12
19
36
44
33
22
FD
FD
FA
F4
05
04
04
18
FC
04
24
18
1A
18
33
26
07
0B
FE
F6
F7
01
FA
0B
30
24
38
33
F7
04
13
15
1B
1B
F8
07
08
EE
0A
16
1E
27
20
08
FE
00
06
FB
02
02
E8
F9
EF
FC
04
16
EB
FD
FF
14
FD
06
FA
04
00
FA
F7
09
1B
0D
19
03
FE
F5
FA
0E
0B
FA
05
FB
FC
FF
00
E4
FB
10
25
0C
EE
FA
EE
F7
F6
EE
03
15
0C
12
FB
F2
EB
00
06
07
16
FB
01
0E
04
F5
CE
EE
F7
FD
17
0C
F3
FD
F2
EA
F5
F4
EB
FB
03
FC
DC
F8
F6
EC
06
15
FF
09
FC
1B
F0
07
D4
F7
FA
08
1A
0E
15
00
0B
E8
E8
E2
F2
EA
EB
E9
ED
DC
FD
E6
F0
FB
12
F6
07
EA
14
FF
D7
D2
02
F6
14
FA
16
F9
13
06
02
F7
E5
D7
ED
E0
E5
E5
E0
08
F6
FB
01
13
FF
03
FA
F2
CF
EE
1A
02
06
0F
08
FB
07
13
02
F8
E6
ED
E4
FA
FC
EE
0D
0E
03
10
F2
F9
F6
0D
09
D9
CD
E7
F1
F5
11
19
09
10
2D
06
07
FE
00
ED
F5
FD
F3
EE
F1
07
03
FF
01
03
04
FB
F0
DB
F1
F0
FE
F3
0F
1B
10
FC
22
0D
1A
12
0A
12
0A
F0
F3
EE
01
E7
07
0D
F2
FD
FD
F5
19
DE
F0
E4
EB
04
E1
FE
FF
F9
19
18
07
04
06
F3
04
09
F7
07
FC
0C
FB
F0
F0
05
06
F8
E5
D4
DB
00
02
07
09
20
0D
05
E9
11
02
08
EE
FF
13
FE
14
15
00
19
F4
F8
FB
E0
03
D7
DD
D9
F2
02
03
EE
F8
01
0E
1B
0E
0E
FE
04
F4
0F
0E
09
0E
12
1A
1F
12
FE
F9
F5
F0
C7
E8
E9
F1
F3
F9
EE
FF
01
16
21
09
FD
FB
00
18
0E
21
0D
1B
10
12
1E
02
F6
ED
EE
D6
F6
E7
E0
F0
DE
F2
F1
05
06
18
F2
EB
FC
15
03
08
01
1C
07
FF
09
17
FC
02
FA
1E
06
05
0E
EB
F3
FB
05
F2
FB
05
0E
E5
FB
08
F2
02
EA
FB
ED
EA
ED
06
EE
FE
0E
11
0A
06
11
0C
1B
10
16
FC
06
F2
FC
F5
EF
11
FD
F1
FD
EC
E8
F1
1A
E5
EC
FE
0A
0F
15
1A
0B
EB
FE
FF
14
16
FA
F7
F9
F2
06
09
0A
01
06
14
FB
F5
04
0A
FF
08
F8
0E
02
14
0A
06
06
F9
F1
08
EE
01
F8
EC
F5
EC
07
F8
10
FF
F9
0F
E6
F3
10
F4
03
F6
F0
14
10
0A
17
1C
F9
09
03
F2
F9
07
ED
F2
ED
0D
11
F7
19
0B
F0
FD
0D
02
13
14
16
F8
07
F8
F4
05
F8
14
F7
EF
01
0D
0B
F4
12
FA
03
FA
03
00
07
0A
FC
FD
FD
10
0C
05
21
1E
05
03
0E
F2
F0
F5
F1
E6
F1
1D
20
20
21
2C
1C
12
FC
FE
06
15
FD
EF
E9
0A
03
07
FB
ED
0A
13
01
FC
04
06
FD
FA
0B
05
0F
16
EF
F9
F5
F1
0D
ED
FC
04
19
F1
FC
04
0D
FC
F5
03
F8
EF
08
F3
F8
0B
FE
F6
FE
F1
01
0D
FA
04
E3
02
F3
18
0B
EF
1B
09
0B
05
EA
ED
FE
03
F7
EF
EC
E1
E4
ED
01
FC
F3
08
F9
F0
EF
E4
FA
F3
14
0F
26
05
1D
1E
17
00
EC
FF
00
0F
12
F8
02
F0
DE
E8
F4
EB
06
00
02
ED
F6
DD
16
11
2F
06
27
02
19
00
06
F9
F3
F3
00
10
FC
05
EF
FB
04
08
FF
F8
05
F1
03
03
EA
D4
04
E7
1A
00
EE
FF
0F
01
E2
F1
00
F1
00
F4
FF
03
EE
DB
07
0A
08
05
F5
EF
E6
03
DF
D0
D1
FA
F3
F9
F7
F5
FB
F4
DE
EA
EC
06
F4
14
0B
F5
EF
CD
F4
31
0C
01
F7
16
F8
05
C8
BF
D8
07
17
00
F2
FD
E0
E3
FA
E9
09
EC
0A
FA
FD
FD
B4
D2
10
14
04
0F
F5
06
09
18
F2
BC
D4
04
17
FA
15
FB
E9
08
09
02
ED
06
19
0B
0B
E4
B6
E7
F1
1E
F7
F4
0F
21
12
37
2B
EC
F5
F7
FA
14
E2
F1
E9
14
0C
07
10
09
11
03
0E
DA
CB
E6
F3
0F
FF
07
09
00
14
33
46
33
27
11
F7
FD
F9
16
ED
17
08
04
0E
04
0D
14
05
E2
E3
E0
0C
06
20
0E
02
0E
2A
23
40
0A
0B
25
F9
F8
0D
05
F6
26
0A
18
12
1A
28
12
E8
D5
E2
10
19
2C
00
09
1C
11
0A
14
1E
01
1A
F6
03
04
0C
E0
F5
0A
0E
12
06
14
11
0F
F1
F2
F1
1B
23
22
1D
0D
1B
07
13
FC
04
0B
22
1B
F7
EE
1A
F5
F5
EF
FE
15
04
11
0F
F5
DB
F9
F9
16
20
06
02
0A
FD
FE
21
FB
EF
32
1E
1E
04
F0
FF
E6
0A
F1
FF
FE
09
13
06
F9
02
FA
03
0F
11
0A
04
03
02
FD
09
F3
0B
21
19
26
08
05
F3
E6
E7
00
FB
0D
F3
03
08
0C
0D
00
14
00
08
0A
03
0A
07
09
F9
F0
FC
25
1D
0D
14
FF
11
FC
08
02
FC
F4
F1
F7
0E
27
0F
F8
F7
FD
F2
FA
04
00
FB
0E
0D
FC
04
FC
1C
06
FA
FF
08
13
03
EE
09
FE
EA
07
16
0B
12
02
00
F4
F0
FA
F1
FE
F3
04
F1
07
06
00
15
18
01
10
EE
FC
13
FF
03
06
11
06
0D
00
16
0F
F3
EC
09
F5
FB
EB
FF
FE
03
11
F8
17
20
F8
F3
FF
E8
03
02
F7
20
1A
09
17
02
FF
13
F2
04
F7
F7
F8
05
E6
ED
00
06
F1
02
25
FC
00
01
0A
FA
E9
FB
DB
F5
FE
FD
1B
F3
FD
F8
0E
E5
F4
DC
F3
09
E8
F4
F6
EF
EF
0B
20
20
0A
FA
04
F4
1C
00
1C
2C
10
0F
03
0A
04
EF
E6
F2
F5
F8
D5
C5
DC
CC
E1
E9
D3
F7
FF
09
0A
0B
04
F2
FA
E5
F6
14
10
1A
F5
0A
22
0E
F7
FC
F9
FC
FC
D1
D2
CC
ED
05
E1
DB
F9
F6
F5
06
0E
F1
F3
19
0C
05
04
10
EE
09
FF
08
14
E4
E8
07
F3
E6
F7
00
F8
0A
FE
0D
EF
12
12
F2
EF
EC
F3
FA
0C
0A
F4
F9
04
05
F5
F9
0D
FB
FA
FE
F1
FB
02
F9
EC
00
0A
ED
FF
03
FC
FF
0D
FB
F6
FA
F9
16
14
06
0A
14
15
13
0E
F6
F0
11
07
02
09
02
FB
FB
FE
02
EF
12
FB
F8
F6
05
12
06
ED
F1
F9
FF
FE
FC
16
03
EB
F0
FC
F7
F3
ED
0A
0C
00
F1
FA
EA
0A
04
00
FB
05
FB
F8
01
E9
ED
17
0A
0C
F3
01
03
EA
F4
F1
FD
F9
FC
08
0F
F8
F6
F6
05
F6
FC
F5
F5
F7
1C
0D
FB
EB
04
FA
1C
11
06
05
0E
FC
0D
EE
14
F5
F8
16
0D
F4
0A
0D
F7
1F
12
12
14
02
F9
0F
F7
F0
00
05
12
0F
04
FA
0D
0D
F3
11
06
07
05
FC
01
14
FD
1B
00
29
31
15
06
19
E8
F0
17
16
FB
01
03
16
EB
F2
F1
01
FC
11
F6
1A
04
10
05
0E
17
02
0F
12
F9
08
F8
11
F4
1D
13
18
E3
FB
16
F3
FB
FC
05
EA
EC
09
14
12
23
0F
08
04
F8
16
01
FC
0F
01
15
F4
ED
01
04
13
0E
F8
FC
FD
FA
03
EC
0B
07
04
18
21
0B
0F
F8
F9
FF
03
0D
25
16
17
06
0D
00
04
03
03
02
F2
0D
02
04
01
F0
0A
F1
E1
0E
0D
0C
FE
0F
17
13
12
0F
FB
09
0F
FA
F0
EF
F9
08
03
13
03
F4
0B
EC
0F
F9
0C
D4
F7
05
FF
F3
02
04
14
F9
0F
23
06
0E
19
F8
E7
04
0A
EA
FD
16
FA
04
07
16
14
02
04
04
E1
02
E6
00
ED
E3
07
0B
07
08
F5
00
FE
E9
FA
F3
F4
EB
09
FF
1F
0C
05
01
0D
10
0C
EB
0D
EB
00
E5
00
01
F7
FE
F6
0D
06
0A
ED
F8
FD
F7
F2
F4
19
03
22
10
19
FD
11
06
20
EC
F7
E3
F8
08
EE
16
0F
28
15
00
F8
E7
E8
EE
0A
0F
00
00
1D
04
16
FB
13
FB
11
19
02
F4
FE
DD
EE
12
1F
1A
1C
11
09
F9
E7
E3
E9
0F
0F
FA
00
19
06
07
F9
F0
EA
13
FC
08
F9
02
FB
EE
ED
03
29
29
16
0D
FF
F9
07
E6
F0
06
16
F9
0A
0E
ED
F7
F2
01
FF
F0
F1
0B
06
E0
00
FD
FC
25
1A
1E
11
05
00
FE
E2
EE
FE
02
15
15
FD
F8
04
FB
0A
F9
E9
05
04
E9
FA
F2
F7
FD
13
22
22
06
F6
F7
10
FD
F9
EA
01
EF
17
19
F7
0D
12
F4
00
EC
FB
05
F6
FF
DC
EE
F2
12
1C
19
0C
06
E6
12
00
F0
E2
EF
E0
0B
F7
16
0E
F9
1A
FC
F5
08
F6
FB
E6
E9
F6
F8
FA
18
11
10
FF
01
03
0B
F4
04
EA
EB
F4
FE
16
23
0C
F9
18
07
FC
F9
02
FA
ED
F2
F2
10
0B
00
F3
ED
FC
06
0C
FA
01
00
EB
FD
09
FB
EC
04
05
F0
F1
14
21
0C
F5
FA
FE
0C
FC
01
17
0F
0F
FA
E9
F3
FF
F0
0A
FB
E9
FC
00
09
FE
00
E6
E4
F8
F7
07
FB
F9
06
FF
05
16
21
20
16
F3
01
F9
E4
07
FA
FC
EB
F2
06
0D
00
FA
05
13
06
F8
14
00
0B
08
0D
1C
05
1C
21
1C
FC
02
05
07
EC
FB
DF
F6
EF
F8
E5
EF
FD
EE
EE
0F
15
01
F0
0D
0D
1C
0C
22
16
2B
03
21
06
02
FF
FB
EB
CB
03
D9
F7
01
F2
EE
09
03
16
EF
EF
04
F4
00
12
0B
F4
F9
17
24
15
18
11
EE
00
FA
F3
06
FB
17
0E
0C
F2
0E
FE
ED
11
F6
01
01
E5
F9
F3
09
FB
10
1F
30
FA
06
05
FE
0C
FD
FE
FE
FE
19
13
08
0E
0A
04
F8
0A
EE
EF
F3
00
EB
FF
00
0F
F0
F3
13
0C
04
EC
EC
F2
11
07
F9
08
04
0C
09
EE
0B
0D
0B
05
F2
06
00
0E
EC
06
F9
F7
03
F4
0D
0D
EE
0A
EE
F0
0C
07
11
03
F0
0A
F9
04
00
F2
01
FC
F9
05
FB
F3
0E
E5
ED
00
DD
E6
EE
0E
01
06
EC
FC
EA
EE
04
FA
00
F9
F0
FF
ED
08
F7
0B
05
FB
0B
FF
14
FE
0C
F9
0E
12
09
2B
1B
1E
15
EF
FE
06
02
FD
08
05
FE
06
EF
F8
EE
08
0A
FB
02
03
E7
F3
FA
E8
08
04
00
25
FD
10
0E
FD
01
25
11
F7
F9
04
18
F3
F0
09
00
11
04
F8
10
EE
E9
EA
DB
E7
E6
E9
E4
FD
1E
0E
20
11
07
FE
F3
03
E6
03
F8
F2
1C
FF
03
0B
11
0B
E9
FA
F8
E5
F9
01
EB
EB
E7
E5
0A
FD
12
16
FF
01
EC
0F
07
F4
F0
18
11
0F
04
F4
21
11
02
16
00
15
0F
FA
EE
E4
F0
E2
F8
FD
0D
08
10
E7
EC
E7
E7
F8
E3
02
19
FA
29
F3
1F
18
0E
16
05
16
1D
FB
0D
F7
F3
F1
02
0F
26
13
01
FF
0A
05
F0
D6
C7
FC
13
04
1E
10
14
0F
0B
FF
12
0C
24
10
11
FA
E0
F6
0C
0E
18
1E
0A
03
FE
F5
FC
D8
DB
FA
05
1C
26
07
F9
19
0B
FD
0C
24
04
24
01
03
C3
E6
13
20
15
F5
05
01
FA
08
EC
E4
F0
ED
FC
14
1C
07
08
0C
1C
14
F8
04
01
F6
DB
CC
AD
CF
0A
24
14
FF
0B
F5
FF
F5
F8
D5
ED
F5
F2
0F
17
08
FF
0A
E7
03
E7
DB
C8
BC
A9
C5
C6
FF
01
1A
13
FF
F4
FA
F6
00
08
F9
16
FB
FB
0A
0B
15
E9
DD
DD
D1
BF
C3
BC
B8
E1
DC
FE
EF
07
20
0D
07
01
F8
E2
EF
04
FF
20
1A
FA
24
ED
00
F8
D1
BE
B6
CF
B7
E3
E4
07
F1
0D
0B
F9
0D
0E
1E
03
05
FE
E2
F3
04
16
27
F6
01
FC
1B
F3
ED
E2
E7
D1
EB
F1
FD
15
0D
FF
15
05
02
0F
00
19
12
FF
F4
F3
34
34
08
F5
F7
16
FD
0C
F6
FE
F1
FE
16
14
F9
14
01
09
16
18
05
F5
01
14
0D
17
F9
17
18
1D
1D
0A
00
FE
11
01
03
06
0B
00
F6
0B
10
F7
0A
02
0C
03
01
04
F5
18
FE
11
12
0C
0D
FD
21
22
F2
FC
05
20
17
11
FC
EC
ED
EA
F7
FF
0F
16
F8
F6
FF
02
0F
10
F0
F3
0B
EE
08
24
FB
0F
FA
11
0A
34
1F
00
FA
E7
DD
F2
03
0B
F7
09
08
01
07
10
F2
EF
FE
01
00
0A
0D
24
15
1E
F3
FB
1A
19
1B
14
1F
17
FF
02
08
F7
FE
FC
0D
15
04
09
F9
FE
17
F9
01
F5
1F
2D
17
07
09
05
17
30
21
0A
21
FD
0B
12
F0
03
09
FD
FB
0F
FE
0C
14
07
01
F7
FB
07
1C
17
18
03
07
0A
21
21
02
14
18
F8
FD
01
F7
FF
F6
06
10
F5
FE
0F
FB
03
12
05
F3
09
12
12
FE
00
00
0D
05
29
13
0E
03
0D
FC
12
EC
02
F7
F9
11
FC
FF
06
20
09
0D
00
14
13
04
0C
0E
05
0A
FB
17
1D
1E
28
12
19
F3
E9
05
E7
04
03
10
F1
F6
ED
1F
0F
04
F0
F7
18
09
1D
09
FD
F4
03
FC
24
32
10
06
02
0E
FD
05
01
FD
05
F1
0E
07
F9
F7
F7
ED
E3
ED
0B
0F
0B
06
00
FD
F2
FF
FE
0C
09
02
1D
1B
0B
0E
13
09
01
0C
F3
00
F0
EF
D0
E3
DF
DC
FE
F1
FD
03
FC
03
EF
0D
FB
F2
19
00
30
11
04
0F
FB
F6
01
12
13
FB
FA
E2
E6
E5
DC
01
09
02
11
06
EE
F1
F0
00
FE
09
22
17
05
1D
24
20
36
55
5A
3E
52
51
40
1B
00
FB
FD
05
2D
11
11
EE
F4
04
01
01
F9
0A
F5
F6
00
01
11
06
F7
F8
13
FD
F8
0A
EC
07
F4
03
12
F4
0B
0B
0E
F5
02
F9
04
FE
0B
13
FD
06
FC
02
F8
F8
01
06
E8
F0
19
24
1E
FD
F7
F7
F8
F2
FA
0D
F5
F0
FA
0B
06
11
E2
0A
F1
FC
FA
0B
FB
03
F2
25
11
02
08
20
15
ED
E4
FB
EE
EF
13
1A
0C
FD
FA
0A
13
10
10
F2
0A
24
14
2C
1F
1C
0B
FC
F2
F6
F1
F7
E9
F3
EC
E6
F2
FA
E1
FA
13
01
0E
10
12
0C
16
0B
2B
FE
0C
10
0C
FB
FE
0F
12
01
F5
F8
04
03
F5
F2
02
E7
E9
EA
02
01
0B
F5
07
02
0E
34
0E
13
F8
F2
06
F9
FD
18
FC
04
15
0E
0C
F4
F8
07
EF
EC
F3
ED
FD
FD
0E
F6
0A
1F
2F
21
00
0D
EB
07
05
09
F8
F1
13
12
05
EA
EA
07
E6
F9
EF
DF
D6
DE
0A
1B
06
F8
F3
26
17
35
FD
FB
1C
EC
F7
0F
F4
05
05
0A
FC
EC
07
02
DF
E2
E7
CB
EB
D6
F5
14
1E
F4
E7
FE
12
3B
09
22
1E
FA
04
F7
ED
F3
F2
07
04
1D
FE
19
FF
F9
E8
D7
E4
D1
E6
0D
10
EF
D4
FF
17
1D
1D
11
FB
FF
F0
E6
E6
FE
F5
01
22
26
09
19
1A
EB
CA
D9
CE
DD
F0
1F
FE
F4
FE
10
0C
0F
0E
01
FE
EC
E9
EE
EE
E9
12
1E
28
22
1E
FF
EF
F1
BD
E6
E3
E3
23
1E
08
EC
02
1A
0B
04
0B
04
DB
E2
E2
13
0D
01
09
07
19
04
F8
FC
E9
CE
C6
D5
EE
FF
0A
16
FE
FD
F6
FC
06
14
F0
D9
E3
E3
04
04
06
22
11
25
0E
FE
F5
FF
EA
CE
C7
E0
F5
15
FE
FD
F8
10
0E
F3
1D
ED
FD
F0
EE
00
E5
F8
F3
04
14
27
21
10
F0
F4
DF
D1
D3
D6
F8
00
11
FC
1E
FA
06
0F
01
ED
D2
F0
EB
02
05
01
ED
EF
13
10
04
F4
E3
DD
FD
EB
DD
EF
E1
05
20
06
03
F1
EB
1F
12
DF
D8
EF
E7
F1
E9
E8
F1
FF
0C
10
0D
E5
F1
C3
F1
EE
01
01
F0
1E
2B
29
00
03
06
10
E8
E7
F3
F7
E9
ED
F1
FC
EC
04
13
03
FA
F3
DC
F0
FC
02
FF
F8
FA
34
37
28
15
10
1F
0F
EE
02
01
EC
E2
F7
FA
02
EA
F6
0D
F8
FA
E5
EC
02
F1
1D
11
17
12
07
3B
36
0D
FF
FF
F5
E6
0A
03
F2
06
E8
08
FC
09
06
FD
0B
F6
08
09
07
08
2D
24
1E
14
11
37
12
0C
FF
09
08
03
09
ED
EC
0B
F5
13
FF
FE
10
00
F9
F4
12
1D
2C
14
21
12
17
01
03
23
1F
1A
F9
FD
01
18
07
FA
F6
11
F4
18
1F
F1
EC
EE
EC
09
09
2F
13
0C
23
05
F7
FC
2B
25
1D
03
0A
03
1D
23
0E
DF
FB
F8
0A
F7
0F
0A
02
FF
F0
F8
0A
0C
10
0F
01
1F
F1
06
0E
1C
F0
09
00
FE
1D
12
13
FA
08
05
0E
FA
05
F8
E5
EB
FF
09
FF
0B
19
04
08
03
22
FE
1A
22
00
F7
06
0D
00
01
28
12
0B
07
05
0C
F4
0A
F0
00
F9
F7
04
01
10
0A
0A
06
14
19
17
21
08
FE
F9
F9
F8
F6
15
0E
E1
FE
03
05
02
F9
0F
F7
08
FB
07
F1
18
1F
0D
13
FC
F1
1F
20
0C
F0
FD
0F
0D
01
F2
E7
CF
E0
F8
FC
E7
EF
DD
F2
D7
E2
CB
C8
EF
EA
0D
07
02
1B
FB
19
1D
FE
FC
05
08
16
F5
0F
DD
FC
EB
E6
D5
E9
E2
EF
E1
ED
F1
07
16
ED
1B
1E
1B
16
02
FA
FF
FA
F1
06
FA
FD
FA
F7
02
12
08
F5
E8
E8
06
09
E9
FD
03
FE
F6
D8
04
FF
0C
12
F6
02
F8
F8
08
EF
0C
F7
FA
11
0F
01
0E
08
F4
EF
01
04
0C
F5
0F
F8
F6
07
01
04
09
14
03
08
11
FD
FB
FE
10
FA
06
F5
0C
F6
F9
F3
0B
02
E2
ED
D3
F5
1C
F5
D4
E5
11
FB
01
21
03
FD
09
0C
EE
EC
FB
07
EE
09
09
F9
17
23
11
FF
EA
E1
EB
E7
E3
DF
FD
ED
EB
E1
EF
03
05
FB
F2
10
02
F2
08
1E
0D
EE
F9
00
0C
09
27
FA
24
19
06
0C
EF
FE
F4
F0
DA
DE
E6
E6
FB
D3
EE
F5
00
EF
0C
FC
F4
DE
05
0D
0B
15
28
29
24
20
2C
07
FF
FA
F9
F1
DF
00
EC
D2
E5
11
01
03
08
FA
F2
0D
EC
F8
E7
10
0E
0E
0C
06
24
15
04
1E
0E
15
F9
F5
DE
04
EF
F0
F4
1B
17
02
0D
0A
08
09
E7
F4
08
00
06
F3
F5
E4
E6
F3
FD
F6
09
1C
04
FA
F5
07
F2
0C
19
03
1E
10
F1
09
1C
FE
DF
0A
14
00
E4
FF
F8
04
EE
F8
F3
F9
0C
0C
E7
0D
03
EF
F1
EE
1E
1B
05
18
F1
12
07
F1
E8
E7
ED
F7
02
0C
FF
08
F3
FE
05
13
ED
FF
08
03
07
FF
EA
EA
1F
1A
15
34
0C
F6
00
FB
E5
D8
E6
E9
F2
F2
FA
FA
F7
EB
11
06
F7
04
12
07
FB
FA
03
03
13
21
1F
08
F7
F4
E5
06
DC
E4
C1
E9
E0
F8
EB
F4
F0
DD
02
04
0B
F4
F0
F5
FF
00
0C
06
08
2E
35
E3
FB
F5
04
E7
F9
C6
B6
C7
CD
CB
D0
D9
DD
E0
EF
F0
EC
F1
0B
09
0C
F7
0D
0C
23
2D
08
F1
0F
E7
06
E4
F6
E2
C4
C9
F5
DE
E3
F4
02
FD
01
06
E8
E2
DB
ED
0C
0C
EF
EA
F3
35
39
17
04
05
08
07
EA
E1
EE
F7
EF
02
1C
18
26
26
F2
F0
F3
DC
00
E3
0C
FE
EA
09
05
24
53
0E
FA
DF
FB
FD
F8
F6
FB
F8
FE
05
24
16
25
10
1C
F9
EC
F1
F5
FD
E9
F5
FE
0D
0B
FF
3B
2D
F5
DF
E1
06
23
22
14
F1
FB
0B
1F
10
21
1B
00
10
13
0B
01
00
EB
F9
F9
03
03
EC
37
41
F3
DD
E1
03
1E
22
22
11
1C
12
0D
0C
FA
0E
08
16
14
06
00
F7
F5
03
FB
EF
FE
29
55
1E
F9
E8
CE
FF
17
14
20
1B
16
1A
11
07
E3
FC
02
18
12
03
FE
F5
F9
F9
04
FF
0D
11
3B
2D
13
DD
B3
DF
13
1F
26
0C
1E
FD
12
EF
E4
FA
19
05
29
1D
F1
0D
09
F7
1A
08
0C
0B
3F
25
F1
F6
D9
E2
FB
05
0B
1B
0B
15
FE
06
F3
04
0B
02
01
F6
02
FC
18
21
28
25
14
43
40
FD
FA
F0
FC
FC
ED
0B
FC
15
FA
FB
F7
0A
03
FA
E0
E6
E9
EC
F9
FB
10
19
1F
1F
1F
5C
42
F0
0F
FC
F7
FF
1D
0E
04
02
05
11
00
02
0A
FC
F6
DC
DD
02
F9
F5
0C
FC
1A
25
36
43
2C
EE
03
0A
F6
FA
16
DA
04
0C
12
F4
F4
E9
EB
DC
D9
F2
FC
E8
F5
E9
F6
F8
15
0E
1F
34
0B
F2
F9
12
F5
F4
0B
E4
D1
DA
FF
F0
F1
E5
EF
01
F1
D9
F8
F2
DC
E6
F2
FC
16
F5
30
18
F0
0B
F5
12
06
EB
D7
E4
D7
CF
FA
F3
F9
DD
CE
B8
BE
CC
E6
E7
F4
DA
D2
F1
D9
04
27
10
0D
EF
0F
EF
04
ED
FF
EF
F3
D2
E9
F1
F8
E1
E9
01
08
08
0E
06
01
E8
E1
FE
F2
04
1A
0B
13
FC
FE
05
FA
FC
FC
14
17
1A
EA
0B
EF
EC
0B
0E
02
11
13
07
FF
08
07
EF
14
26
00
0F
10
07
F2
01
0D
FE
01
EA
EC
12
1B
12
1E
0B
11
FF
0D
19
0E
FB
07
02
FD
1D
F9
17
07
EF
04
FA
