F5
F8
07
F0
03
08
13
05
0A
09
F5
F2
EF
13
F3
02
EF
F9
EF
08
F5
EC
0C
F9
12
00
0A
F8
13
0C
12
0B
F3
00
FE
1A
05
17
F7
01
12
00
E7
03
19
0C
F6
F4
03
15
1A
16
EE
F9
FA
F8
06
F8
FC
FC
13
FC
07
15
14
10
27
18
0B
F0
F1
F8
FB
13
02
F4
F4
0B
F2
E9
FF
00
12
F0
F3
14
F9
FC
F6
03
EE
FC
FE
F1
F7
08
F4
03
F1
F1
18
00
12
12
01
FA
17
EE
15
F5
FB
FF
F3
E2
10
01
FE
CE
C8
DE
EC
FE
FB
EF
07
02
0B
F9
11
15
10
F2
FD
01
01
06
10
11
00
12
13
02
14
E4
E2
E4
F6
03
F0
DC
0E
04
03
19
13
16
10
22
0C
21
0F
10
09
F1
03
19
18
F4
FC
DE
E7
EE
DD
01
DB
EA
00
E6
0E
FC
1D
1B
04
1B
0B
1A
17
1B
0B
14
04
FE
F3
07
F6
03
F3
D4
F9
F2
F0
E5
EE
FE
13
FA
0B
0A
F7
F7
21
25
20
19
10
10
04
12
0F
04
01
1D
12
0A
EE
09
FA
FF
E2
EC
E3
F1
0C
FA
13
0D
0A
1D
09
FC
0A
0D
03
F3
F6
F9
EE
08
F9
0E
04
0F
FB
08
F8
E3
DD
EB
0C
15
0B
FF
1E
10
02
17
11
EE
DA
ED
0E
06
F9
F9
F1
00
0F
07
14
F3
E9
EB
F0
DF
09
10
25
24
24
1E
FE
18
1E
06
EE
F4
D7
EA
0D
05
0B
11
10
02
16
16
2E
07
E4
07
EB
F9
16
14
1D
05
07
0D
1D
FB
FA
FE
DF
E9
EC
0C
F1
F9
13
F7
03
0F
1E
14
0D
FC
FA
FF
06
EB
2D
12
05
02
0A
11
FA
F3
DF
FF
07
0D
F2
04
F1
03
F7
FD
FA
05
10
05
10
FB
07
01
F6
07
22
01
FD
10
FC
E8
E9
FB
E8
11
F5
F7
E7
F0
03
07
EF
F1
ED
F6
03
0F
11
16
F4
E5
05
F7
F3
00
F6
EA
DF
01
14
FE
E7
04
F0
0F
E9
01
FD
E5
FA
F2
EE
ED
F9
EC
E1
F8
F2
EB
ED
E7
EF
EA
F6
F7
E9
02
07
05
0E
11
03
02
F3
F5
F4
DC
01
FA
EF
E1
F4
E7
03
ED
FB
FF
EC
E2
05
F4
02
01
12
F2
EC
F4
F0
08
F8
F0
06
E4
F0
E9
EC
E1
EF
F2
EC
10
17
00
FD
F6
E8
FE
F8
F8
0D
04
EE
FD
03
FA
09
FA
F9
FF
F1
02
E4
EA
02
E4
FB
F6
02
03
09
06
03
FE
D7
EE
00
0A
08
0E
EC
07
08
F7
E6
F4
FE
F4
F7
E9
00
E2
EE
FE
01
03
0E
E5
0B
EA
01
F1
F3
E7
EB
0E
FE
03
02
19
16
06
FE
F4
F1
E3
F7
0C
0A
F8
0A
01
17
33
2C
14
FE
E8
ED
F7
0C
F9
FF
1D
FF
20
0C
F7
F7
FA
01
08
F2
F5
06
FC
F3
24
07
1B
1D
37
33
22
E8
0B
E7
0B
EC
FA
FF
16
1E
1B
0F
06
07
FA
0C
FD
01
03
00
03
FF
07
1C
1B
1B
36
08
13
F6
EE
F3
F7
F6
E7
F7
01
07
04
19
05
12
0E
1B
15
11
0A
F9
06
1F
09
01
20
1C
3B
20
F4
04
F9
F7
F0
F9
DD
F0
EF
EB
E6
F7
04
FF
06
F8
0F
16
1B
0A
09
16
06
FD
0A
23
2A
FE
FC
ED
05
EE
08
13
DD
DE
DF
D9
FE
F9
EA
FD
05
01
F7
04
F7
27
17
0A
1A
1D
FF
07
23
07
FF
F1
0E
FC
FB
0D
10
F2
E4
F6
F0
DF
FF
07
01
01
00
F7
EF
15
17
13
21
11
0E
02
13
19
0C
FF
12
0F
0F
EE
10
0E
F0
EA
F9
07
F9
F6
22
FA
F6
F7
F0
F7
33
20
19
03
08
E8
F0
06
F2
0A
0B
F9
0D
EE
14
FD
F1
DC
EF
F4
EE
02
FC
06
FB
EF
D8
FF
F2
22
07
08
F3
F5
DC
F2
01
FF
EF
02
02
F4
10
EE
F7
0C
01
F8
0B
ED
F1
11
1C
F7
F8
EF
ED
13
0E
FE
03
0B
F1
F5
0A
F3
F2
02
14
0C
F7
F9
1D
18
0F
F5
08
F2
F3
07
FE
15
F3
FE
14
FC
F7
E4
F7
07
E7
FC
EF
F5
09
0D
00
FD
ED
F5
0B
00
FB
E1
FF
EB
02
04
F7
01
FA
FB
1A
1C
10
0B
1C
05
19
EA
FF
F4
EE
0E
EF
FB
E1
EB
F8
05
F1
E3
CB
D3
E8
DF
07
E6
FB
E9
EF
06
FE
FC
09
16
FC
0B
15
FE
0B
09
F1
0C
FC
E7
01
CD
E1
C1
D3
D8
F1
EB
F8
FF
EC
04
FD
E8
0B
FC
0F
04
29
23
1E
E7
F2
FE
0E
FD
07
ED
ED
E3
DC
E2
C7
ED
0B
F5
03
06
02
F8
03
0D
E9
FB
0A
FE
18
20
04
F8
FB
F6
0A
0D
0A
F3
F1
F7
FA
D7
CD
F5
F2
0D
0E
08
0C
F4
F3
EC
EA
F5
07
FB
10
02
E4
EA
14
F0
F8
E1
E1
F6
DF
F9
E1
C8
E2
EF
0A
F4
10
F3
0C
E8
F6
01
F9
0A
E7
FE
FD
0C
FA
F7
E9
22
DD
07
EC
F6
DC
DF
D5
F3
07
F8
0A
14
1B
04
F6
E5
ED
F9
F9
E8
E5
E9
F5
12
0B
13
FC
0B
E4
E9
D8
F1
01
E6
EE
F6
E9
ED
15
ED
1E
06
EE
FD
F1
EB
F5
E8
0C
E1
01
ED
E4
FD
FA
F5
E2
E2
F0
F3
DE
E4
DD
DB
03
FA
02
0B
22
19
04
F2
EC
E9
F7
E5
FD
EC
0A
F4
F6
E4
13
00
F9
F8
DA
E6
FE
09
FF
F3
07
03
05
15
1D
0F
F3
F2
FC
F9
04
DF
FE
00
0C
1A
0D
FA
F1
05
EC
E0
E7
F7
E0
0A
FD
02
F4
F0
EC
12
0E
0C
FB
FB
14
FA
06
14
FD
F0
12
00
EF
F5
0C
02
F4
E7
EA
F9
F1
F2
0B
F5
0A
07
0B
09
24
11
03
F2
FC
17
10
0A
05
0B
03
FF
D9
FF
F0
0F
02
0C
19
00
EF
0F
F3
0C
FB
0D
F7
00
0C
14
0A
13
08
F8
F7
ED
F3
E7
F7
FB
FE
DD
FD
0E
01
17
04
ED
FE
F5
07
0D
16
12
06
ED
01
07
EC
EE
FF
08
0C
04
F9
E8
D8
E9
F2
FE
EF
FB
FB
05
F8
EE
07
10
FC
1F
FB
EC
0A
FC
07
16
EB
EA
F6
F9
0A
0C
E9
F4
E5
EF
DD
E5
09
FA
03
0B
05
E9
07
F9
15
0B
FD
16
FF
03
0C
01
F5
06
FE
0D
07
0B
13
06
FD
F9
DD
F9
FD
EB
05
12
21
F9
1D
F0
03
FE
10
F7
13
07
05
FB
0E
F5
F8
03
16
0B
FE
ED
D1
E7
E7
14
E9
FE
E4
EF
1A
FD
0A
0B
04
03
ED
00
09
0A
0C
FE
0B
ED
FE
0D
06
FC
06
E6
D6
D9
F4
13
EB
10
0A
06
F8
11
14
13
FC
F3
09
F0
11
05
18
0C
FC
FE
FA
F3
14
F5
F9
F7
FA
F6
EE
01
01
FF
09
E7
04
03
EB
03
FA
F2
03
F6
1D
14
0D
04
07
F5
1B
14
0C
0D
E4
E6
D0
F6
F9
01
F0
FE
FD
F4
08
EE
04
01
E3
F8
00
F5
10
04
11
13
12
08
06
F2
E8
FC
07
DD
E3
01
0D
00
00
07
F2
0D
1B
10
15
1A
FB
F1
FD
FD
12
F9
FF
0D
0A
14
F9
0A
09
EF
EB
F6
F8
03
02
E6
FB
F0
12
1A
F0
FA
01
0B
06
F7
0A
F2
F7
08
E3
FA
F1
10
E8
E3
DD
DF
F3
F1
FB
F2
FF
0E
FD
05
09
12
EC
DF
01
F0
FE
E2
01
E9
E2
CF
DF
C5
CA
CF
BF
C9
E0
F3
EC
F5
FB
EE
F3
04
03
F0
06
F8
0B
F3
05
06
E0
FA
F7
F1
F7
D0
E6
D4
E5
D8
E2
EC
F8
E2
FD
E8
F1
E0
F6
09
EF
10
04
F0
EF
0A
04
F9
03
FE
03
F7
02
DD
F8
E8
F3
0A
F1
0A
FD
04
D4
EE
0F
FA
FC
F6
F0
10
09
ED
09
FF
10
0F
10
F5
FB
FE
F3
EB
F8
14
13
EC
F3
FC
0F
FB
ED
0E
0A
ED
EE
01
04
FD
EC
F5
FC
03
EC
08
05
FD
15
02
13
10
00
F0
F9
04
F0
EB
F0
EA
0D
18
F1
F0
FF
0E
0B
06
FC
FB
F7
16
0C
E7
03
E5
08
EF
EE
13
ED
00
FA
EA
E1
DC
09
FA
03
F4
0D
06
F9
F3
09
0F
04
14
0E
0B
06
07
03
F9
05
F5
F6
16
03
13
10
EC
12
F6
F6
0D
09
FE
F4
14
1B
F9
FB
0B
0F
05
F3
EB
F4
FE
07
FF
E7
FA
FD
06
F8
0A
F6
F4
07
00
10
EF
0B
E8
12
13
05
08
03
10
0C
FD
00
D1
FE
F7
F2
08
EF
01
DD
E7
EA
E5
EB
E7
E7
09
F8
03
F6
E2
F6
02
10
06
F3
10
F4
F5
F9
CA
F7
F6
EC
ED
01
EC
EF
F3
02
F6
0B
11
0D
FD
15
10
F6
EC
F0
0A
EE
E8
F6
FC
04
FD
E4
C5
EF
EC
F7
F7
EB
0A
F9
09
0B
13
15
01
0F
0C
FA
FA
F5
07
DC
E9
08
E3
12
EF
27
F5
01
FB
0D
07
03
23
0E
17
1A
30
1B
24
1E
1A
04
FE
FD
EF
F0
FB
DA
D5
06
FA
FF
F1
02
05
10
18
21
0E
0C
27
1D
16
18
31
17
2A
13
27
FF
0D
01
10
FC
F9
DA
E9
10
DA
0E
FB
F8
FF
2C
14
2D
1F
2B
18
FD
21
12
0E
0C
13
FF
15
1B
18
FA
F8
F3
E7
F2
E9
0B
17
1D
0B
08
12
13
1B
03
0C
18
0A
09
FC
F9
F3
0D
F5
08
FE
FF
17
23
09
16
F3
F8
F0
FD
0E
EE
01
0F
15
02
13
04
F7
FC
E8
F4
F7
F8
ED
F9
F0
E7
ED
EE
05
13
F9
17
07
EF
E9
E9
0E
0A
F2
FC
F8
1B
EE
F4
E6
E5
E4
F3
07
E4
F2
FF
EC
EB
EE
FE
F3
06
F5
15
EF
FA
FE
E6
F8
F8
EC
EF
01
0B
ED
F4
E4
F0
F5
EE
01
EF
F8
E5
E5
E8
F0
0A
F0
EF
FA
0D
0B
06
1B
0A
1B
06
F4
F4
E8
F1
DC
FE
F2
01
FD
E8
05
FF
ED
01
FA
F4
F0
FD
02
07
F4
13
F5
0A
01
F0
05
1A
F4
11
F9
FB
0D
01
FD
05
00
02
FF
07
00
0C
E0
EA
FD
FA
FD
F7
0E
F4
02
0F
17
EE
FA
12
0D
F3
07
F5
EA
11
F3
13
F0
FF
F7
F2
0A
EA
F1
E6
E7
13
FF
05
F8
06
14
EB
00
15
02
F6
0D
F6
EE
FD
F0
FB
0B
E9
0B
FA
FE
FB
E0
EC
F8
02
05
08
0D
1B
F9
F5
16
EE
01
F5
EC
08
ED
1D
03
EF
F5
F1
DF
07
0A
EC
E9
ED
01
E8
04
FA
1A
F5
07
15
03
0C
F2
01
08
E3
FD
EB
FC
08
EB
F1
F2
F5
FA
E7
EF
FF
E0
00
00
19
1B
01
F9
0E
11
FF
11
F9
F3
FD
17
09
EC
FD
F3
07
0B
06
14
F1
EB
E7
FA
0F
12
03
07
01
13
07
F2
E6
F1
0A
F8
00
F8
03
04
FB
FE
0F
05
02
FD
05
0E
05
EC
FB
06
F8
09
13
F8
11
04
FF
09
E9
F8
00
04
FA
EE
14
10
09
F4
1C
F1
EE
01
EC
1C
22
16
07
04
0A
02
0E
F0
F7
08
03
FF
ED
F0
E4
08
01
11
04
2E
10
00
0E
FC
F4
13
0D
00
22
28
02
F4
FB
FE
E9
FB
0D
FA
09
F5
15
0A
FA
FB
00
FE
04
15
F5
0F
FF
04
00
F0
00
00
1A
11
03
FA
02
FD
F7
22
16
1A
01
0C
23
0E
33
09
13
20
05
26
02
05
0A
02
14
EF
FB
07
0A
FA
F9
E6
EF
F0
17
03
1B
3A
28
1C
17
0D
21
3F
39
1C
1A
1C
EF
08
10
0D
05
F1
0B
F3
FA
07
07
21
0C
17
FE
09
22
2C
18
FA
20
FF
15
0F
04
1B
0A
0E
13
F9
04
F4
ED
F5
0F
F9
11
FF
F1
0C
FD
0E
FA
1B
FB
04
0D
F5
F1
04
EE
FB
FE
14
FE
03
06
08
0A
F0
06
EB
02
FD
01
07
F9
09
FA
18
EF
0E
F6
05
16
07
03
F4
FD
DB
D8
FB
00
14
FF
FA
F6
05
0F
F7
F7
ED
18
09
05
16
1E
14
21
06
07
23
11
02
0E
0F
34
43
19
0B
04
EF
F2
FC
F3
F9
ED
F9
06
E8
10
15
11
01
10
1D
0D
02
0D
FA
05
FA
F3
04
13
08
11
1A
15
FB
0C
26
0A
EB
00
0E
15
0C
07
03
1C
02
0A
E9
FC
07
F5
F9
F9
F4
E8
EB
FD
0A
0F
11
16
10
14
1A
F0
10
0B
F0
E5
FC
08
02
0B
EE
13
E9
03
EE
EA
E8
EA
FD
E7
FB
F1
08
FC
02
14
FF
1A
04
09
05
F0
E9
F0
EE
10
00
EE
09
03
FB
05
0C
ED
FB
04
F8
E3
FA
FC
F2
ED
F9
08
06
F7
F2
F7
09
05
EE
FD
F7
0B
F9
0B
22
FE
0A
E2
EC
F5
ED
09
0F
01
E5
FA
ED
EF
F1
FF
F3
FC
DE
08
F7
E1
05
F9
FB
F7
09
02
07
F3
0A
08
E9
EE
E6
01
0D
10
FF
FB
ED
F4
E2
F8
00
FA
E6
F6
08
E3
E6
D9
E6
0B
14
FC
03
07
08
12
F8
E5
EA
E7
FF
04
ED
02
EC
EE
F5
FA
12
EF
00
F4
F7
F4
E1
D8
F2
F7
FB
18
15
17
0F
00
DD
BA
C9
ED
FA
EA
E0
FF
FA
FD
F8
FF
24
14
01
E1
0C
E4
EF
FE
F9
30
0A
0E
FE
23
22
1C
F0
DE
F8
FB
F8
DF
F3
0C
08
09
1F
FD
1C
00
24
03
FC
EF
F3
0F
08
0F
11
09
1A
0C
39
1F
10
DF
E4
F6
0D
F6
FC
16
18
27
0D
2D
06
F4
FD
F2
F3
FE
EC
F6
1D
17
0D
03
21
19
2F
0C
F9
04
01
07
FE
FE
0B
F8
0B
11
23
03
E4
0A
F3
E5
F1
01
F7
09
F0
0B
06
06
1C
0E
16
21
13
F3
10
EA
03
F8
04
08
03
FF
F2
08
E9
F3
E1
F0
05
FA
F6
F6
EE
02
1D
0A
04
14
07
1F
29
16
11
FF
F7
12
E9
04
F3
EA
0F
F0
F1
20
E0
E6
0B
15
F2
F8
DB
F8
FD
09
00
07
01
03
12
04
08
FE
F3
13
F3
F8
F2
05
09
0E
F8
0F
E4
04
0D
19
F4
F3
C7
F7
F0
EA
EE
00
18
05
0B
FE
0B
10
F5
FC
0B
F3
F4
F1
FF
0A
04
03
FF
EF
E9
F5
06
D1
E3
05
ED
01
F8
F7
02
0F
05
13
0A
F0
04
EA
E9
09
FB
F7
F8
ED
FF
FD
EA
F7
07
F5
F9
F8
D6
01
06
F8
FC
08
0C
FC
F9
10
15
08
F2
E7
F5
04
F7
FC
F2
F6
E9
FA
FB
EF
FF
F3
EC
E6
FD
0D
F1
FA
01
F3
EB
0C
0D
09
10
F4
FF
FB
FF
17
04
13
0A
08
19
F0
F1
08
ED
F5
01
F7
F7
17
03
0E
05
01
09
01
11
F7
10
05
F7
0C
08
FE
09
19
FF
F3
0B
0D
0D
EE
0D
FD
02
2B
F6
00
11
FB
FD
E6
00
F9
F9
F7
01
12
02
EF
F8
FB
07
01
F6
0D
0A
F2
02
F7
EF
0F
0D
10
FF
F1
14
FA
05
0A
05
F2
F3
11
10
0F
FD
10
0B
FF
0D
11
F6
29
09
05
04
FB
F3
13
07
09
FC
1C
14
10
17
07
11
FC
0F
F4
F4
FF
F8
03
00
04
05
16
22
03
FE
E2
0B
13
FB
F4
17
05
09
28
03
0E
EE
F9
04
F4
03
14
07
FF
F0
EF
05
29
01
07
16
3E
1A
00
F4
12
0D
05
F0
11
23
1B
22
0D
18
1E
13
0D
18
24
26
14
F3
00
F9
F8
20
0A
EF
03
04
F5
11
12
14
04
0A
02
FD
12
08
FE
F8
F1
FD
16
21
03
0C
03
06
E1
E6
04
07
0E
09
E3
01
FA
03
07
0B
0E
F8
F5
07
07
08
0D
ED
F4
F5
14
05
FD
EB
10
EE
10
10
08
F5
0C
14
EE
00
06
FB
FB
FB
F8
07
0E
0F
03
01
FD
F2
F6
0D
14
15
07
09
F1
16
F2
F6
06
F7
12
F0
FE
F9
11
F5
EE
FE
02
F7
F2
FA
14
10
25
02
08
03
0E
02
EC
F2
FF
06
FB
0D
FD
F6
16
14
08
0B
0A
F5
FD
FB
F5
F4
0D
10
1C
18
08
EC
0D
E3
EF
04
02
FC
FE
03
F1
FE
00
F7
FD
FB
0C
EC
03
FC
14
09
03
F9
01
04
F1
F8
FE
F8
EA
06
F7
1C
06
1A
0E
FD
09
06
0F
02
02
17
F9
0A
07
EB
0B
F8
F3
05
F3
15
F5
F3
0A
F8
02
F6
04
11
0E
F9
0A
0E
01
08
F5
0A
02
FE
07
10
12
F7
EF
01
F4
0A
04
F2
E9
F1
EA
ED
F1
F9
1F
0C
08
F9
01
1D
10
0A
01
00
0D
F5
F6
18
FF
0D
ED
0F
07
F4
F2
EF
E4
EF
F3
F9
F7
13
F6
FA
17
16
13
FF
0B
08
1B
07
05
F5
F4
00
EB
0D
08
18
F5
18
F8
07
0C
FA
F6
04
F8
F4
12
11
16
13
11
10
1C
12
FE
10
FC
F7
F6
F7
E4
11
08
14
07
10
13
0A
13
F5
EE
11
08
F5
14
02
13
1D
0F
03
00
F6
1C
F8
00
FF
FC
DF
EE
F9
0C
FC
F0
F9
F2
0D
0C
F6
10
F5
F0
F7
02
17
FC
23
1C
07
F9
11
11
0D
FD
F5
EB
DF
02
14
0F
F4
00
02
08
1B
07
08
F5
11
05
13
0F
FB
14
07
1C
FD
0C
15
F7
11
0B
1C
FE
00
F4
16
FE
0A
FA
F3
F2
26
0F
F8
00
1D
0C
F1
0F
15
0C
1F
FC
18
F9
13
02
11
10
FF
F6
FB
E0
ED
09
EE
09
0F
01
23
FD
F9
0E
1B
1C
F9
E9
FE
F9
04
1B
05
F9
04
03
0D
FE
18
EA
D9
08
ED
0D
17
FB
F0
FD
15
FC
01
1E
20
1A
EC
00
19
0B
FD
07
14
F0
F3
F7
F2
01
02
F9
E0
E7
FA
0E
04
0A
11
F9
1F
0C
FF
1E
21
04
0C
05
0D
0C
22
06
06
00
15
05
05
E9
00
02
E1
FB
FD
0F
0F
FC
FF
09
13
F6
0D
F6
01
F2
FA
F7
0E
01
06
FC
F8
0E
0E
F8
F3
F6
F6
04
08
06
18
0F
F4
02
FD
F5
01
0C
EF
05
00
FB
F8
13
F9
08
15
16
F6
FD
FF
FE
08
F7
E5
0B
0B
09
FA
FB
1A
0B
0F
15
08
EF
03
E7
E9
F2
19
FE
1B
FC
1B
08
00
F3
F4
0C
FF
F6
F0
04
EE
10
0C
F1
01
14
11
FA
FE
10
01
07
09
0D
13
FD
0A
00
0B
06
00
04
F5
F7
0A
0F
0D
0C
1B
0D
0F
05
FD
05
EE
16
1A
08
17
FF
13
EE
F3
17
02
01
03
F7
FA
10
12
0A
0B
FB
FA
18
13
FE
00
F8
04
11
EC
FA
1B
1A
0F
0A
F7
F2
F5
09
FE
10
F6
F6
06
16
0E
0C
FA
09
FA
09
0A
F2
ED
04
FD
0D
03
19
FF
09
F9
08
0D
0D
13
FB
17
F1
0A
09
F8
16
05
10
16
09
F6
14
15
14
0F
F5
05
0E
14
FA
00
00
1B
10
1B
08
F4
17
13
13
17
10
F5
11
06
1E
0E
F8
03
16
29
F8
11
F4
ED
0E
0C
FB
FC
1E
0B
12
01
05
FC
FE
00
13
06
16
11
01
02
0A
06
FB
19
FB
F7
0F
0D
F4
F3
00
E7
02
13
04
FC
FE
12
FE
15
1A
FE
F6
0C
F7
0F
0A
15
06
0F
F1
13
08
11
09
F7
F3
EE
02
11
FF
FC
08
18
14
0A
16
02
11
FB
FF
FE
11
0B
05
13
10
04
15
02
11
F7
F3
ED
07
FD
0B
F0
FD
F8
FE
0F
EE
07
03
02
F9
07
0A
03
F2
0F
FE
14
17
13
0E
F8
19
0F
EE
0E
EF
03
09
FF
11
02
08
ED
EB
10
F1
FA
10
FC
F3
0C
03
F1
FF
F5
FC
12
F1
F1
07
04
F0
13
06
11
FE
03
13
FA
F7
07
F4
F4
EE
E8
E8
D9
EF
FE
13
0D
03
E1
EC
EC
D6
F3
F6
FD
08
F4
07
0A
F5
05
03
04
F9
FD
DD
EC
EE
E1
FF
05
07
F6
02
16
F0
FF
EA
E6
ED
F2
ED
06
10
F8
FF
0C
F4
F6
F2
14
03
F9
F7
EF
E5
E3
F1
E6
E2
E7
FC
06
FB
F4
E9
E6
F0
EE
E6
FF
00
18
03
F9
05
01
E9
EF
EE
FD
02
FB
EF
F5
06
14
FC
11
0B
0C
0A
0C
14
1F
09
12
20
1F
07
07
FF
10
01
01
EF
03
06
F6
F1
F4
0E
F5
17
24
07
FE
09
0E
00
00
ED
F3
0A
11
0B
20
02
F3
E5
FC
12
F9
09
F7
08
05
10
0B
0E
12
15
11
E7
F2
F2
1E
03
1F
0A
EB
05
16
FE
02
0F
11
0F
00
EB
F6
13
1A
20
05
05
0F
0E
04
F8
01
FF
E6
F5
0F
15
12
19
07
FA
FC
F3
F7
3B
07
F9
F8
F0
FF
0C
03
1D
0C
13
FE
0E
F9
EB
F8
EB
11
F4
EB
EB
FF
0C
0B
FF
EF
0C
18
0C
2E
09
F7
F2
EA
F2
03
2D
16
F9
0C
EB
FE
FC
04
09
08
02
FE
04
ED
02
0E
01
F6
EE
1C
1C
34
FD
0E
00
EF
EB
08
10
13
0A
F8
F9
0B
F4
06
0C
00
14
13
FB
F5
0B
00
ED
F7
0B
08
10
10
EE
EE
0C
F3
05
08
15
F6
E1
EA
09
EC
FF
15
1E
29
0C
FE
08
16
FC
F1
E3
FC
F6
09
1B
12
18
F3
FA
EA
FE
FB
18
F5
E9
F8
04
17
09
07
09
0B
06
17
06
FA
0A
04
FF
EB
DB
DA
F2
28
11
FD
E9
03
15
F8
FE
E5
FD
01
E3
04
1A
1F
02
FF
1B
0C
0B
0A
1B
EE
E7
01
F3
E9
03
32
03
E9
EB
05
1E
16
EB
05
FE
EA
0E
12
02
1F
0C
1B
1E
22
18
02
F0
FA
F9
EC
0C
0D
12
17
01
E4
0C
0E
26
F3
F2
DC
E6
E0
04
EA
F5
17
0E
09
17
08
08
FD
EE
04
E3
F2
F4
0C
FF
10
F9
0C
08
00
16
F2
FA
E1
DC
F1
F2
E5
F5
05
16
18
06
19
0C
0C
E4
00
14
03
F8
06
F6
FD
F0
F0
08
09
29
EC
E7
FA
DE
DC
01
E1
E3
E1
19
21
06
07
10
EA
F6
F6
00
FE
EB
FD
F5
EC
0A
E3
FA
F5
12
0C
04
06
EE
E7
FB
F8
E9
EC
06
11
0A
FB
EE
EA
04
07
1B
F7
14
0E
F8
21
FF
10
E8
F3
09
23
1B
07
19
F6
0A
EE
EA
06
11
20
FE
F5
ED
11
05
0C
F8
0B
06
0B
0C
1F
FD
09
ED
FB
14
0F
19
05
0F
13
08
FB
00
FB
02
0E
F7
F5
05
F6
05
F9
1B
17
0C
1D
F3
09
01
16
03
05
0A
2D
23
14
FA
20
1D
1A
10
EE
FA
07
EC
E2
F1
10
19
0D
0C
23
14
0B
0E
F8
F0
12
05
FE
01
14
0E
F7
16
05
0A
17
0B
F3
FC
08
F6
E7
06
F5
12
21
0B
2B
24
20
07
FB
02
11
FF
02
F7
0B
19
F3
07
23
05
21
03
04
FB
E3
E1
F7
10
0C
21
19
32
0E
33
07
11
1B
0D
08
13
F8
F1
FC
04
0F
FB
15
0E
02
19
FF
EB
E8
E4
EB
F3
E2
0B
08
05
1B
1F
FE
F4
01
0B
13
0B
ED
F9
EB
FE
F4
0C
12
01
FB
17
FF
06
0B
F8
F1
FE
D6
E8
04
F6
05
F9
05
00
F0
FE
08
03
12
04
FA
05
EF
F8
FB
0A
FC
D8
DF
FB
D1
F6
C9
E5
D4
D0
CE
F2
FF
F0
FC
12
12
EC
FA
09
0C
FD
F4
16
FE
F0
F9
E4
F4
04
FA
09
F2
E0
EE
E8
F2
E0
DA
03
0E
0C
12
F0
FB
F0
12
FA
F8
10
ED
11
04
F2
F0
FD
F4
14
08
FA
FF
F7
13
08
EB
F1
08
14
F2
06
09
ED
0C
FC
04
0F
F1
07
F2
E5
F0
04
F8
F2
F5
F3
08
F9
FC
F2
ED
E9
F5
F5
E6
E8
E6
09
FC
11
F9
06
08
EE
F5
FD
FC
00
09
E4
E5
0E
F0
F3
0D
F1
04
DF
EC
E0
D8
E8
D9
DD
FD
FB
06
0C
03
F5
06
0F
F6
04
FB
0B
E9
E1
11
0F
0C
0E
05
11
E9
E9
F4
ED
F0
F4
EF
F8
E3
ED
F7
0B
EE
0B
09
EF
17
FB
06
E9
06
0D
11
19
10
26
0D
14
FB
00
F2
05
FC
FE
19
06
15
09
01
F3
03
F2
FC
08
0F
0C
06
0B
0D
18
F0
12
13
00
04
EE
0A
00
14
01
2A
0B
19
20
2F
00
08
FD
E6
F0
FE
20
E9
18
06
FF
1D
0A
06
F4
FF
01
EF
FF
03
F7
19
09
0F
00
FF
FF
FF
FD
06
F2
0A
01
06
FB
0A
FF
11
31
01
FA
09
F8
FA
F3
08
FE
06
ED
ED
03
FE
17
FA
F4
0E
FB
FF
FB
FB
EC
19
DB
ED
1A
0B
08
1C
17
09
04
04
F0
FB
F2
17
F9
EE
0A
05
12
FA
E9
EE
FF
D3
F4
F3
02
E9
ED
0A
ED
10
0A
F7
09
16
01
0A
F5
F9
14
06
07
1D
FB
FB
F3
EF
EB
DF
06
F7
EB
F7
F3
DD
EE
02
F7
06
02
0D
10
1D
22
FB
E2
01
09
F4
0E
FD
0E
0E
F2
04
EC
EF
F2
F5
FC
03
11
E7
E8
FC
09
FE
F3
F3
F4
1B
0E
EF
F1
F1
E8
09
0A
FB
F3
02
F4
09
06
F7
FB
E8
FD
DC
F9
10
08
F1
EF
F0
F2
E9
FE
0F
0F
FA
ED
EA
FF
04
F9
08
F0
03
05
F1
02
FF
FD
F6
01
12
17
1C
F5
E5
F5
DF
F1
FE
EA
17
FF
F6
FB
0C
12
F7
00
F0
01
03
F5
DF
10
FE
02
19
08
21
18
F3
F2
E5
FE
E0
F5
16
1E
16
19
F2
EF
F3
12
0A
00
F1
F7
FE
EA
17
08
EA
09
0E
18
06
14
14
FF
FD
16
F4
0D
00
18
14
03
0F
F6
02
1C
07
15
14
EE
11
15
F7
0D
0E
02
15
10
26
13
ED
02
0E
08
07
F2
17
F8
11
1D
05
04
F3
15
FA
11
07
02
08
F1
0D
F1
FB
1B
21
1D
22
F9
EF
0E
EF
1F
FD
FF
F9
FD
F5
15
16
FD
16
01
01
1D
FF
0C
FF
04
14
07
0C
01
16
0E
FC
08
FB
FB
E1
FC
1A
08
15
FE
06
08
07
02
F6
F6
07
0B
11
0F
01
10
18
15
01
21
18
1B
0D
F2
0F
EA
F7
11
15
15
10
03
F4
0A
EF
04
F3
0B
1C
21
1A
F7
04
0E
00
0C
01
08
14
0E
FE
EF
FB
03
0A
F5
03
1C
0E
FF
FF
FD
04
0A
E9
EF
11
00
08
15
06
0E
07
18
09
02
01
08
FC
01
11
0B
17
16
2C
0E
F3
0D
13
01
F5
01
EE
FC
11
0D
1B
0A
08
FD
FE
15
FD
14
1C
FD
F4
01
13
0F
FF
0A
1A
F8
F7
0D
07
F6
FB
F5
05
0C
15
20
0E
08
1C
18
12
F6
06
F2
03
1C
F1
15
F2
F2
12
27
FF
1C
06
F3
08
02
03
E9
11
15
0C
1E
1F
1C
25
03
07
02
03
09
0F
FA
06
FC
05
F0
06
F4
02
FC
FB
DA
01
F3
E9
FB
EA
03
25
1F
12
07
0F
00
11
F2
09
F7
09
14
07
05
F7
F6
16
0B
01
FF
E1
DD
EF
F0
CD
F3
D5
E0
0E
07
0E
F7
0C
FC
E0
EB
FF
02
04
13
12
11
F8
EC
0B
F7
FE
FC
E8
E0
E9
FF
D5
DF
E3
F5
DB
DE
DB
06
05
FA
F1
E5
E0
19
FE
0C
FA
F6
F6
FB
F9
F3
EE
F9
EA
02
E8
FE
D7
ED
D9
DF
FB
EE
EA
F7
FE
19
21
09
EE
FD
0C
EC
06
11
10
F7
15
0C
F2
03
F4
0A
EE
EE
F5
11
16
14
E8
00
F6
13
14
0D
EE
07
0D
11
00
FB
0C
F1
F8
F9
EE
11
07
FB
0F
EC
F0
FE
01
FF
09
09
DC
EF
E0
E5
E9
16
0F
FD
FA
13
00
11
F6
F3
FA
03
EF
01
FE
DE
ED
01
08
DD
EC
BE
C1
E6
F7
D3
D5
E5
04
08
00
FB
01
FF
F4
F1
F0
00
F2
03
FC
02
F1
F1
05
F1
FE
DE
F0
F7
F2
F0
E9
00
0F
FA
F9
E3
F8
F3
0B
F9
01
F3
09
00
F1
15
FC
F8
03
03
EB
01
F8
E7
03
F8
F8
FB
F4
FD
FF
08
FD
01
07
07
0B
FD
FD
F4
10
09
04
0F
00
03
E0
E0
F0
FE
FC
F6
E9
ED
FB
FC
FF
0C
FB
EC
FC
EE
F7
EF
0A
E5
E4
F1
D2
F4
06
F9
00
01
FF
0A
F7
05
FA
0A
E6
03
FD
FD
F3
1B
1A
15
EE
FA
FD
12
EF
15
E4
D2
E8
E6
0F
01
E0
E6
E6
E1
0C
FB
E9
01
02
04
E8
F8
09
05
11
16
00
15
FB
FA
FE
11
FB
EA
ED
D7
FF
F7
FC
EF
08
FE
14
FD
01
08
F8
E7
E9
01
06
0F
F7
00
12
19
0F
1F
F5
E8
DA
D4
F9
0A
FD
17
F6
F6
FD
10
20
1C
F3
F4
F8
E3
E5
06
1B
1A
07
14
FF
0E
09
16
05
FB
C7
EC
F8
14
08
04
15
18
F5
F4
1D
EA
FB
FA
DA
D6
03
0A
25
28
02
0C
FB
10
01
0B
EB
F4
C2
E6
DA
FD
24
09
05
23
01
11
E6
EC
EE
00
E8
E0
F1
1C
1A
20
1D
0F
FC
0A
09
FF
F2
E4
B8
D6
07
FB
FB
0F
15
0A
1D
0C
E7
F2
00
F8
FA
12
0B
0F
19
1B
20
0E
01
05
FC
FC
EB
DA
C8
E0
EB
FB
EA
0B
F0
25
01
0E
F0
D6
ED
04
01
14
F9
F0
F0
12
06
16
01
04
00
FC
F5
D6
D3
D5
C7
F1
F2
F9
FC
01
F6
04
EA
EC
FE
F4
0D
19
FC
0E
F4
16
11
F7
0E
FC
07
14
12
EE
C6
CD
E0
EA
10
FF
F9
FC
E0
E3
EF
F1
03
F7
19
13
03
F3
07
06
12
11
F7
04
02
F9
16
0D
D2
E0
14
FA
1F
14
0E
FE
00
09
EC
E9
04
F5
02
13
00
06
F7
F4
1A
08
FB
0A
0F
EF
F6
EC
F9
C6
DE
FF
EB
FB
F9
0C
0B
F4
EE
EB
FD
01
0C
FA
EE
11
F7
EF
07
18
16
F1
03
FC
01
E7
F6
D3
F6
E0
ED
12
FF
E9
FB
0F
0B
EA
FA
FF
F3
0C
04
14
EF
F7
0F
16
04
00
06
F0
ED
DC
D7
DD
FC
14
02
1A
14
08
1C
14
0D
F8
EC
EB
04
09
01
FC
01
F0
06
01
F1
F9
EF
EB
EC
DC
C0
DB
02
01
0F
F2
D9
F7
07
FD
F4
ED
E8
07
FB
EB
04
02
06
F5
F8
F0
07
0F
07
06
DD
C6
EF
E6
18
F1
F5
06
FE
F2
05
FF
0C
09
F9
E9
F9
05
F2
04
FF
04
11
0F
FF
EF
FC
F6
C6
C7
F1
02
F6
11
06
F1
F0
00
F5
FF
F8
F4
08
FE
F6
15
EC
03
F9
04
1A
08
ED
FF
D4
D0
D3
E2
F2
06
0B
21
F6
FB
EA
17
1C
E4
1A
03
E2
02
FA
F3
03
05
F6
17
F1
02
FE
EF
D0
D4
D6
E0
0D
F1
EC
02
0D
F5
0E
18
10
2B
26
1C
FE
00
DE
01
F9
F6
ED
0C
FC
06
F2
FE
F0
D5
D7
D8
06
FB
09
F8
11
EC
F2
0B
04
0B
FD
0B
F0
0F
02
ED
FB
F6
EB
F6
08
06
1F
06
E4
D5
EB
F9
1E
10
F5
06
EE
11
F5
ED
EC
09
E7
F0
F5
C6
F3
EB
D6
FA
DA
E5
FB
01
07
F2
F3
17
16
E8
15
22
FA
0B
12
F2
00
15
06
F0
17
F0
FB
F1
04
05
00
DD
FE
15
F1
F1
05
FC
CE
F3
F1
F9
FA
F1
FB
ED
03
FE
03
FB
09
F5
F6
10
14
0F
0D
06
11
1F
FE
F8
14
FD
12
01
07
0B
FA
0B
12
F3
FE
0C
0F
11
F5
EB
FC
00
FB
04
07
FE
18
E9
FE
EE
06
05
17
F7
03
F7
1A
24
2B
00
FD
0C
FE
F5
0D
F8
12
EF
16
F5
23
0F
2A
1D
21
27
36
29
23
0F
16
ED
FB
09
F3
ED
F5
F1
12
FB
FD
FD
13
11
EB
0C
1C
00
1F
0E
03
09
1E
10
0E
0E
24
20
12
1C
10
16
F9
F2
01
13
11
04
F0
EC
05
EF
0E
F8
FD
28
1C
06
08
08
07
E9
03
07
1F
0C
FD
15
F1
F9
07
FF
07
05
FF
F0
08
FA
08
EF
F0
04
20
F1
EC
10
00
EA
FF
03
02
FC
EC
F6
04
0C
F8
FF
E5
08
EB
01
14
08
02
0C
0F
0C
F2
1A
09
F6
ED
FD
EA
E8
F0
FC
F2
05
F2
F9
FB
EC
08
EA
ED
05
F3
0E
F1
1E
FD
08
08
19
FF
18
31
F9
09
FC
EA
F3
0B
FF
06
06
EE
09
00
ED
F4
F2
E3
F2
03
10
03
EF
F3
F2
FA
1F
FF
04
28
26
11
06
F2
FF
FB
11
05
0C
19
01
09
04
E2
E5
FA
F8
EE
F9
F6
14
15
0E
07
19
EC
24
08
26
12
FC
00
06
0B
14
0D
FA
0A
08
F5
F6
E4
FF
FC
F5
16
00
18
13
15
03
12
F9
ED
10
08
1F
09
11
14
16
F3
22
00
FA
15
FD
EF
F1
FA
FD
FC
F7
F3
0B
FF
F0
FA
FA
01
14
0D
1C
0F
13
01
1D
05
F9
0C
04
08
FA
0D
ED
F2
E0
00
DC
04
13
00
FB
FC
E5
09
14
0F
F3
14
0F
13
02
F1
07
11
F7
F6
E1
04
F8
FD
07
FB
F3
F3
F3
0A
07
0A
17
1C
F3
0B
EB
04
F3
29
07
E5
F4
FD
0C
F6
F7
FE
E1
E2
03
13
0C
06
04
FC
04
17
18
FB
1C
FE
11
1E
0E
08
F8
0E
29
E9
DC
F0
EB
FF
F0
F8
F1
02
01
03
1B
F9
0B
09
F4
FB
0F
FC
F5
0C
FC
13
11
F4
03
F2
05
E7
FE
FE
E9
ED
03
ED
05
FA
20
0D
F2
FB
09
03
01
F5
03
EE
05
F0
12
08
1C
12
07
FD
11
03
DA
FA
E8
EB
02
03
1C
07
21
22
F6
00
0C
DD
F3
EE
02
EA
01
FC
13
15
F6
00
07
03
F3
E7
D9
F6
E2
F2
0B
1B
0A
10
00
0D
16
16
0A
E9
E5
E8
F0
0C
03
F7
17
26
02
0B
E7
06
07
ED
E3
EC
0D
15
0E
07
17
25
FE
0C
0C
E9
12
09
FB
0A
EE
00
FE
08
08
13
FC
F0
F6
E0
FB
04
E6
FC
05
05
0F
0B
13
FC
0F
0C
FF
F1
F2
0F
F2
04
15
F8
F9
01
07
FE
FD
F9
F2
E5
DB
F6
E0
07
F1
F7
0D
1D
F4
F7
FC
0A
F3
EA
FF
11
14
26
02
EB
12
08
F3
18
14
05
18
08
EC
01
EA
0F
14
0A
10
FF
14
F3
F6
07
13
F2
FD
03
32
0A
FD
12
10
F8
E4
E0
05
FE
04
EF
06
F6
19
FA
16
07
0B
FE
0E
FD
EF
02
F3
0D
18
09
0D
18
F5
EC
F9
FD
E2
E6
04
09
FB
09
EA
F9
0B
0F
09
0A
06
03
EE
F8
E9
06
F5
F6
05
05
07
1F
03
FA
0B
F0
F7
E0
03
12
F8
F0
D7
CD
E2
0A
F3
0B
0F
06
0E
FB
07
FB
E8
08
0C
08
03
09
26
FD
DE
FE
0F
29
F1
0A
12
E0
FC
ED
EC
05
05
F9
F9
01
06
FA
0C
0A
15
07
02
02
10
14
1C
F4
EC
FB
F9
1A
F9
08
0A
0C
04
EE
F3
19
1D
1E
14
0A
00
E3
DE
F2
F6
E1
F4
09
15
0D
17
0B
01
FC
14
10
00
07
F1
F4
06
00
F4
ED
15
23
08
13
18
F8
FE
0E
1B
10
0E
0C
00
0F
04
0D
1F
15
FE
14
FB
0C
FE
0F
05
0D
14
09
EF
FA
F3
12
F5
FD
F3
0B
09
0E
FB
FF
F5
11
F0
0B
FE
0E
FD
0D
EC
01
F7
EE
F9
09
03
F3
02
F3
0E
0D
E4
F1
E7
F6
02
18
0D
F6
F5
EA
F6
F2
F5
0A
FE
10
F0
0A
15
FF
04
0E
EC
0E
EF
FA
DE
06
08
0E
EF
F7
0D
F3
F0
01
FF
F4
0B
06
0F
01
F0
F4
FA
10
FE
00
1D
1B
FA
04
0B
E0
FD
F4
EE
F9
EF
10
05
25
09
10
F9
0B
ED
E7
F3
FD
0B
08
01
F3
F8
F7
F8
EE
ED
F9
F7
10
0B
0C
06
F0
EC
08
0A
07
FF
1D
1A
10
F4
0A
E0
E5
04
03
16
06
FA
FA
0D
F9
02
11
08
F8
F7
F7
06
FA
06
10
12
F2
F0
0B
F8
02
07
07
EA
DB
F6
11
0D
12
02
E6
06
E5
FB
FB
F4
0A
0B
FD
0E
20
22
10
08
FF
E9
F4
05
F5
04
FD
F7
03
1E
18
17
09
EC
06
24
04
E8
09
09
17
FD
04
11
0B
04
03
F9
02
07
0A
F8
1A
0C
1E
04
F8
FF
FC
03
F5
04
F8
04
F4
17
03
F4
F0
FB
F8
01
1A
1A
29
14
FB
03
FF
1A
F6
FD
0A
09
E5
09
04
05
07
F0
02
F9
05
27
19
04
08
FE
0A
F3
F8
1E
17
07
15
F6
1F
0A
02
0B
0E
03
F7
06
0C
E9
04
FE
06
00
1C
15
1B
07
F5
E9
FE
04
10
2D
30
0E
01
00
00
08
10
14
01
F9
FA
F2
FB
0A
F9
F3
1F
FD
07
0C
F4
ED
F1
E4
E8
00
F4
16
0D
24
12
0A
00
0D
25
F7
EF
CC
E1
10
0F
13
14
13
FF
16
1C
EA
0E
FF
01
FD
E7
F8
F8
16
2C
1B
19
15
13
1D
07
EB
D5
D6
E4
ED
FD
FD
03
EE
FB
04
03
05
F9
F0
FE
F8
F4
00
FB
26
0E
22
02
00
17
0F
F0
E4
D4
E8
DE
08
F0
17
03
EE
14
20
0B
E3
EA
ED
00
F2
E6
E3
EB
00
26
22
1F
0C
12
F8
EF
EC
E9
EC
F2
FF
FC
0E
F7
FF
E9
01
EB
07
F0
EB
07
D6
D5
CC
E1
15
05
16
14
04
FD
E7
0A
F7
FF
ED
16
07
0E
0C
F9
F9
16
16
0D
ED
F0
0C
EF
FB
EA
F9
EF
FD
0A
02
F9
00
F0
FC
F2
01
19
F8
FF
01
FC
13
F7
10
00
16
FF
11
00
00
F7
E5
E8
E9
11
13
F9
F7
EF
ED
01
FE
F9
F2
00
F9
FD
F8
F8
1B
06
1A
FC
09
09
11
F9
03
FB
FC
F7
0E
F6
FE
0E
0A
03
F9
03
F4
FF
F5
06
EC
0A
E5
F5
1C
F7
06
F3
0B
EC
F0
0E
04
0B
00
E6
02
0D
ED
EF
F3
08
15
ED
01
0C
02
FD
09
02
06
15
06
06
0A
F7
EF
00
F8
FB
FB
0B
EA
FC
FD
0E
18
01
04
0E
05
FA
F1
13
EA
13
1D
16
04
FA
00
15
F3
FE
E7
06
06
11
EB
F0
EF
E7
E8
FD
04
0A
00
16
03
07
08
09
08
0E
04
21
02
E4
FA
FB
0D
15
FA
0D
17
0E
11
EE
EE
F1
F7
07
FB
FF
F7
08
02
02
0E
02
0B
1A
0B
1A
16
FA
F5
F4
11
E7
FF
24
10
05
03
FF
09
00
00
F8
F7
ED
FE
04
F5
00
0B
13
03
0B
0F
24
1E
FD
06
F7
0C
F4
1E
0B
28
10
13
1F
13
08
02
E9
FC
0B
F5
F2
05
26
04
FA
29
0A
19
07
F5
FE
09
0F
0F
0D
02
F6
09
1D
1A
1A
16
12
0D
27
06
02
1C
F1
1C
27
1F
15
25
17
1A
0F
E9
03
F5
01
F6
F5
FB
03
0E
0C
2C
0C
06
14
FC
11
EF
F8
07
24
27
1E
21
0B
20
1E
10
0C
0F
FF
00
14
14
F3
F3
10
FE
0F
1D
0E
0F
FA
0D
05
F5
01
17
FE
02
1F
01
00
1C
FA
ED
07
0F
FA
FB
03
01
0D
04
0C
FC
07
EC
0B
10
12
13
FC
09
0F
06
12
11
FC
02
03
0A
FF
0C
FF
14
00
F8
09
04
15
FF
F5
F6
1E
22
1E
02
15
F2
FC
F7
FC
08
16
FF
00
18
1E
FF
15
F9
F8
04
07
15
FB
01
F4
FD
07
12
26
17
26
1B
30
19
23
03
FE
17
1F
0E
0C
25
15
26
0B
09
0A
17
0A
0E
EC
07
06
0E
16
06
05
1A
2C
17
0F
08
2D
17
07
F8
00
FC
FA
04
F2
01
F3
0F
02
F9
02
F9
0B
F6
01
07
03
14
1D
05
10
14
0C
10
13
EE
21
F5
FF
0F
05
15
FC
03
DD
FC
F3
F8
08
08
F4
FA
0C
12
31
04
09
F0
F9
0B
F2
F4
E1
F8
E7
11
FB
EF
F9
F8
EA
F3
ED
EE
10
F7
0A
04
F9
0B
0B
00
08
F8
F9
FA
E2
05
0D
0F
06
11
13
EC
05
02
F6
0E
FD
05
FF
F8
FF
0E
06
14
02
02
0A
13
16
EF
FC
10
F3
F6
FC
FC
19
F7
0B
06
0C
DD
01
F5
05
F0
F2
08
F3
FD
01
F0
1B
F8
09
F7
F3
E2
EA
F2
12
0D
F5
26
0E
F6
EC
04
FE
FE
19
1C
08
0F
EE
EA
F9
05
1A
09
EC
FF
EA
F7
08
F4
F1
E8
F7
F3
0F
FB
15
08
ED
06
F0
16
1F
FD
0B
F3
07
06
0E
22
2C
EE
0F
12
F5
FF
FA
FC
E7
07
09
F2
09
FC
1B
16
14
0B
F3
12
15
08
05
EE
ED
E0
F7
1F
1E
0E
01
0F
0E
08
0F
F3
F2
05
FD
DA
F8
EC
F5
2A
07
F0
FB
05
04
06
E1
00
02
0F
18
10
0A
14
FF
F6
F4
EA
FC
07
0F
FB
F6
04
E1
FD
07
20
0F
13
E9
01
FD
F4
EF
08
13
16
0B
17
19
14
03
07
10
0A
F5
0A
01
10
F5
FD
E6
F5
EB
1B
14
0A
FF
10
09
07
06
12
11
10
1C
12
24
08
17
1C
2B
04
1D
0C
FD
FA
04
07
14
F5
17
1E
04
2A
09
16
F7
1F
09
0C
14
12
02
13
15
00
13
12
F1
10
1A
1B
0D
FF
0B
02
00
0E
0D
2F
03
11
15
04
18
16
13
16
16
06
28
33
26
1F
FB
07
0D
1F
1E
F3
06
10
F1
02
FE
F8
23
2C
0B
F7
F2
EB
FD
03
F8
F1
09
FD
0C
20
2C
1F
07
0C
EE
1C
07
05
F6
09
FC
EC
08
02
17
19
08
FA
E3
FB
F4
E9
FA
FF
F5
F8
EC
2A
02
00
1A
05
F0
18
E5
F6
E6
E5
EC
00
10
06
18
F2
F8
F4
07
02
F1
FD
F8
F2
09
0C
11
0F
21
17
0B
E2
0D
FD
E8
D6
F7
01
09
0A
04
06
13
EB
ED
00
FC
EA
10
E5
00
0C
02
04
23
20
13
20
0E
E0
10
FD
01
E4
09
FA
08
F3
12
14
09
F0
F3
FE
01
12
0F
E9
16
01
19
24
EE
E6
15
FA
12
F1
01
00
EE
F6
01
12
19
23
18
2B
13
0F
0B
06
F5
FD
FA
08
01
0C
0B
FD
0E
F9
F3
03
05
F1
19
01
F9
FE
18
00
22
FE
26
12
FF
0A
07
11
EF
02
FC
F4
0A
08
F9
15
16
05
07
EE
02
EF
05
18
06
13
10
07
05
1E
11
0A
1B
03
F9
FC
FD
FD
08
EB
F9
0E
05
20
01
1B
04
FC
0F
0A
FD
F8
FD
04
FE
ED
18
20
0F
17
0C
02
EF
EC
18
0F
05
0F
02
F0
12
08
0B
0A
17
0A
02
09
01
0F
06
0B
07
07
03
11
18
18
14
0F
0A
F9
05
00
F7
14
13
0E
F9
08
00
FA
05
F4
F5
12
0E
F7
FC
F0
FE
14
13
FE
08
1C
11
23
18
ED
0B
2C
08
27
FF
F4
EB
1A
06
0B
07
08
05
FD
00
0C
05
00
F7
00
02
03
05
04
1F
11
2E
12
20
00
F3
0A
1D
EF
00
14
F3
14
0D
F5
12
03
03
15
EF
06
EE
F9
03
F4
02
0C
F1
FA
F8
0C
08
F6
FC
EC
FB
F3
F8
0F
10
06
14
F4
F6
0F
F7
F8
FF
03
F6
06
EE
F6
FE
0E
F1
0F
F7
E7
FE
D4
F3
DF
D6
F5
FA
06
0F
FA
14
13
13
08
F2
FE
E7
FB
FB
E1
00
0B
01
FB
FC
FB
E2
DC
F1
DB
00
FF
00
E9
E2
FA
F0
04
0F
09
0E
0B
FE
FF
E8
EA
E9
FD
00
F3
09
03
EA
D7
F3
ED
0D
F8
07
04
0F
FB
03
F1
07
EF
F4
01
FE
F4
F9
10
FB
D4
00
06
01
01
F0
F3
05
00
0C
1D
15
1A
FD
FF
03
15
FF
17
03
13
FF
F1
FD
EE
EA
EB
E1
FB
05
01
F6
FB
E9
00
05
03
F7
F7
05
1E
18
05
29
FC
0A
EE
E9
12
13
01
07
DF
FE
15
0C
0E
EB
09
E9
FC
F7
06
14
12
20
13
FD
16
25
2D
08
1A
FA
17
04
01
1A
FE
09
F2
25
0A
ED
07
09
0A
11
01
F7
0B
F6
10
08
17
11
0A
1F
09
0A
19
14
06
1B
F6
FE
06
D7
F6
FC
17
DD
F5
F5
0B
F7
F6
12
12
1B
03
07
02
0A
FB
2E
0A
06
09
18
1B
14
1C
0D
F7
08
ED
09
19
12
13
FA
12
00
0B
0E
0D
22
1B
F9
FD
E7
0F
12
02
08
13
10
0C
07
0A
14
01
EE
E5
12
0E
06
1B
09
19
00
F8
04
0D
0E
1F
F7
F7
FB
F5
17
04
0F
F7
06
05
DD
14
FE
04
FD
F6
FF
12
01
03
1A
10
07
0E
12
00
05
F8
E4
DE
FF
1C
FB
FD
03
04
FB
F6
DF
14
03
ED
F9
0B
07
F2
F6
0E
0B
0C
05
08
12
17
11
11
ED
F7
FE
02
1E
0A
0F
F5
D9
F0
E4
E6
08
06
0E
DF
FA
F0
02
F5
0F
05
08
0E
14
0A
F7
08
F2
09
F5
F0
EF
12
F5
F8
CD
D3
DF
EF
19
06
F3
00
04
F9
F0
14
F2
F3
F5
00
05
EC
F0
F3
05
0B
FC
EC
06
E9
F1
ED
F7
EA
F0
EB
08
09
F6
E4
FB
15
04
FD
00
EA
FD
06
EC
EE
E5
E0
EA
F2
EF
07
09
12
0D
0C
F9
09
1B
D9
16
F7
0D
07
16
29
20
19
06
0E
05
EE
EE
EE
E5
E1
E0
EF
03
F3
15
14
12
1B
27
21
10
03
EB
06
F2
09
F6
0C
1D
05
F1
00
0C
13
03
04
05
FE
07
07
FD
F4
FF
16
1A
26
10
0E
14
E1
DC
07
01
0C
EC
08
1A
25
0E
10
15
FF
F4
EA
EC
F4
00
01
06
0D
FD
F6
0E
00
07
F4
16
E6
F9
FF
09
F9
09
2B
05
05
1D
0A
0B
FB
EF
E6
E2
EF
FA
0F
F1
FA
F5
01
FD
15
FE
13
F7
03
FA
0C
0F
FC
0D
11
0C
07
09
F7
F8
05
FE
ED
FD
EB
F5
F9
FE
F9
FE
F3
0D
FB
0E
0A
0E
11
EF
F1
00
05
23
19
0E
0B
FB
0C
FB
FE
01
02
F3
0C
0C
07
03
00
FE
F5
0C
1C
1F
08
FE
FC
F5
04
0A
ED
03
05
19
FA
08
0A
04
0D
0E
FB
16
1A
F7
0B
15
06
12
15
08
FA
20
2C
14
F7
FC
EC
F4
06
FC
08
F6
16
01
2B
12
FD
03
10
23
05
FD
0A
13
12
F1
ED
11
16
1C
15
28
F7
01
F9
14
06
F6
24
09
14
1A
13
00
18
FF
0E
09
20
03
0A
05
08
08
16
08
08
12
0F
1C
00
E2
FD
12
12
13
FB
05
2C
14
12
06
FB
23
03
10
14
11
13
23
0E
20
24
07
F1
11
01
14
F6
06
12
F7
FF
F5
09
06
F4
17
1E
F6
FE
13
04
29
27
23
15
2E
0C
1B
26
FE
17
12
01
08
04
02
13
09
04
0D
F4
DF
11
05
FB
1D
0E
E2
03
02
F2
16
F3
F3
0E
EE
19
F6
02
F7
FE
F4
F8
F6
F7
14
F7
FD
14
FF
08
ED
05
ED
F1
0E
F0
E1
09
1D
13
ED
10
05
03
09
14
FD
08
F7
08
0C
10
07
0E
ED
F3
0F
03
F3
FB
E5
08
EB
E0
00
E8
EF
0D
10
0F
01
E5
D0
EC
E7
08
ED
ED
09
0D
F2
0E
05
E9
09
E7
E9
05
01
0D
00
F4
11
08
FB
11
12
0E
06
EB
E6
D6
FD
00
08
0B
F6
FB
FE
05
16
10
0F
FB
F5
FD
1B
F4
1D
07
0D
FC
0F
EE
EF
FF
1B
F0
F6
0C
04
04
F7
EA
03
EC
FC
16
F8
1B
10
0C
12
FE
02
02
17
10
07
09
01
FC
F0
F8
E8
E2
E9
F1
D7
E6
DD
01
17
11
F8
EB
08
00
FD
18
2B
0C
1D
14
08
14
16
03
FD
02
03
EA
00
CE
F1
E6
DC
C7
E6
01
F5
0D
FA
08
F1
1E
15
22
2E
07
05
17
06
04
14
1A
08
FC
14
FD
FA
EC
03
FB
F1
EA
06
07
1D
14
0F
10
0F
10
23
11
1F
11
FD
13
FA
03
09
0C
07
FF
03
13
15
0B
14
FB
11
18
FF
1D
26
13
12
1B
E8
1A
19
0D
10
FD
1E
08
1B
02
23
09
24
07
04
0A
06
FC
0A
EE
18
1F
FD
11
1B
13
12
01
F9
18
0D
09
02
0A
07
05
16
03
FE
06
14
09
FF
06
0B
F2
FC
E6
FE
0F
DC
F8
18
0A
0D
EF
15
05
1C
01
04
EB
FD
E0
E1
E5
FC
E3
FB
F5
FB
13
EF
E7
F8
01
F7
FA
FE
F8
0E
E0
0A
EF
EE
0F
E7
ED
01
D7
E4
E7
F0
D5
E3
FB
EE
07
FE
FF
F0
EE
E7
F6
DD
F1
DA
07
E8
E2
0A
12
E9
02
E5
F8
D8
E1
C4
BA
D8
DF
F7
FA
FF
00
FB
07
03
F0
EF
E2
F4
F7
D2
09
05
F7
FC
07
15
E8
D8
D2
BA
BD
CF
F2
FD
01
0C
07
01
02
01
EA
FD
11
03
F9
F5
E2
01
05
10
16
08
F6
F5
07
D3
C3
D4
DD
F6
F5
04
05
08
05
13
FF
F4
FE
03
05
F9
FB
05
E3
FD
08
18
01
07
08
F6
03
F9
F6
E7
09
02
12
08
04
01
04
12
06
F0
F1
10
09
06
09
FF
0E
03
F2
25
04
03
10
EE
EE
E8
EC
FB
01
37
27
06
02
01
18
13
EE
13
EF
14
05
0A
33
19
21
28
12
1D
0A
0E
01
F9
EF
FB
06
0F
24
15
1B
FA
02
F4
04
F9
07
0D
20
09
0E
19
1C
26
15
04
FD
16
0C
F5
E5
F9
C7
F2
01
F8
16
11
F9
F7
F1
F2
FA
DB
E8
1A
FA
F4
FB
EE
22
0E
FA
21
1A
05
EC
FC
05
0A
D1
F4
F6
EB
E5
E8
F8
EB
0C
FF
F2
EF
EE
F5
0C
03
F4
05
0B
09
0D
01
0F
1C
EB
03
1C
ED
EC
15
FC
E7
E6
EB
F7
02
0E
F9
0F
F9
FC
E8
F3
F9
E0
0F
00
19
F7
D1
F2
F6
EE
E4
0D
F6
03
0B
F9
EB
05
04
FD
F5
F6
0E
04
FE
FA
04
E6
F3
E6
EC
F2
F8
16
D6
09
F9
01
FE
FC
F5
00
08
06
24
05
08
F4
F8
06
0D
F4
07
F1
10
FC
FC
F0
ED
F9
F7
F2
D3
04
11
00
09
04
E9
EE
0D
FC
29
1E
12
FF
07
12
03
FD
17
FC
F3
F9
F5
EA
FF
EF
F9
FB
10
0B
F2
00
03
11
F7
15
0A
0E
2C
20
FF
08
17
10
FB
06
14
12
05
05
08
17
0B
F5
ED
01
10
ED
FF
F8
13
FF
ED
EA
09
FC
10
1F
17
1C
01
1E
16
14
16
1E
16
18
0C
11
FC
FC
F7
13
1F
03
07
EE
F8
00
F9
FE
0B
F0
EC
02
FE
00
03
11
13
0B
0C
00
09
09
06
F8
03
FB
EC
03
08
04
13
FD
11
03
06
0C
0F
F8
08
F2
EC
F9
FE
FA
0A
F3
02
F3
13
16
07
07
FC
0B
FA
FF
F8
ED
0A
04
F9
F4
11
F0
FE
F9
08
F7
15
12
12
FC
EF
DE
F5
F0
07
12
0C
04
F2
0F
02
01
0D
FA
FA
0E
F7
EE
06
FC
F8
0B
CA
DA
FB
1D
00
C8
E8
F1
03
0C
F7
01
05
E9
EF
F1
EF
F6
00
F7
F9
11
02
F6
FA
18
FC
F7
F1
F3
EF
FC
1A
0E
F3
D9
E0
F7
02
F0
E2
05
F4
FC
08
FD
07
0A
00
0E
01
07
12
07
08
EC
01
06
EE
F9
17
FD
EE
F8
E5
E7
0B
0D
0E
04
FB
E3
E6
FA
FC
E7
EE
FC
12
07
F3
08
14
22
08
09
FF
0B
F8
E1
F9
D6
D7
DF
0D
E8
F7
F2
03
0D
F3
24
02
10
F9
0A
14
FD
F1
FC
04
F9
14
28
17
04
FF
FA
FD
F7
11
F1
0A
F8
00
FD
F0
0B
ED
F9
F1
11
02
E7
F4
14
17
20
FD
38
20
02
00
FC
15
EF
EC
02
ED
F0
FB
01
EA
EA
01
F3
F0
F5
DD
EB
F3
0C
07
F7
F4
20
0D
27
19
0C
06
16
0D
05
02
10
FE
04
18
03
FE
DC
F7
E0
F3
F1
F5
E8
02
0A
FC
0E
13
1D
09
10
0C
1C
06
14
F1
14
FF
07
FD
FC
0A
02
08
EE
F4
F0
E5
EB
08
F9
05
06
03
1C
09
05
01
06
12
0D
0F
F4
FE
12
1E
1C
15
02
01
FA
F7
F3
E7
08
F0
EC
0C
15
E2
0A
FD
EE
0F
37
F4
11
05
DF
13
FB
06
0E
F7
F7
18
19
F9
FA
F4
09
FE
F0
E1
EF
07
FC
EE
15
1B
26
21
1C
F5
F9
0B
E7
FD
0D
FD
11
0A
03
EC
03
0E
F1
FF
0E
F8
0C
07
ED
FD
FF
08
FD
10
08
35
0F
F2
10
11
07
FF
FC
FE
F9
F4
04
F8
0A
00
0F
07
04
F4
FA
FC
EF
F6
F2
D8
FE
02
1D
1B
0B
F9
00
F3
0E
FD
F5
F3
F9
E2
DD
F2
05
FA
FB
F5
05
EA
E2
E9
E8
F9
F6
D6
EB
EB
22
15
1D
F9
16
13
03
13
10
07
E4
ED
ED
FF
07
06
04
0A
17
F8
04
F1
05
0D
02
18
E5
12
0B
12
0F
F1
0B
F3
19
13
0A
12
10
F8
F0
ED
FC
06
E1
DF
F4
10
0D
05
03
00
04
F9
EF
13
00
F9
10
FF
F2
EE
FA
FC
F5
0F
F8
16
14
09
E7
E0
F9
07
10
11
18
03
10
07
DB
1F
EB
11
1D
F0
FB
F7
E7
0B
E4
E9
0B
13
02
19
0F
0B
01
EC
E5
07
FB
02
19
23
2D
2D
0B
0C
02
1C
08
0F
02
09
F3
05
0D
0B
0D
05
FC
1E
05
EB
01
01
EA
03
F3
FA
28
23
1D
1E
14
F3
F1
0F
1A
0E
E5
04
F5
F7
10
ED
11
10
10
F7
F5
0A
F6
EF
FE
03
05
FF
29
1D
1E
F5
F3
EA
FA
EC
33
F3
03
E1
08
F7
F1
06
04
FC
01
F2
EC
F7
F0
FB
01
1D
08
28
1A
16
12
00
0F
D4
0C
03
14
13
FF
03
15
F6
19
09
F2
ED
FF
D7
D8
EA
E0
EB
03
05
19
10
0B
16
03
F7
EA
F7
11
F0
10
19
05
20
02
E6
E9
FB
E3
DE
DF
EA
06
E7
F8
E5
15
09
14
0E
13
1F
15
F5
F3
12
07
F4
EE
12
26
1A
22
FD
FE
F5
FB
FA
FE
F6
FB
04
FB
00
14
11
1B
05
1C
07
07
F5
F6
04
10
F2
06
0D
0C
FF
12
F7
0A
0D
EC
EF
F0
E7
EB
0C
FD
35
18
07
FC
10
07
0E
FF
01
E8
FD
F2
10
0C
01
D4
0E
0C
22
01
1B
1D
0B
FB
03
F8
F8
FA
11
09
02
16
12
06
22
01
0E
05
0F
10
F1
14
F7
F5
12
0A
EC
EC
19
0F
FD
02
F0
E9
E1
EF
00
07
00
FC
F3
E8
1C
FE
F9
F0
FE
0E
FE
14
EB
12
FA
0C
FF
FE
FC
F2
0D
F7
E7
02
0A
F6
0E
17
0B
0A
03
13
26
1C
F1
0D
F3
F2
04
F9
F4
F2
F1
00
0C
F2
F7
04
0F
F5
04
F2
08
FC
04
ED
ED
14
F9
FA
06
F7
EC
0A
EC
00
11
08
03
01
0C
F3
E4
D1
F9
E7
EC
0B
05
0D
EE
0B
FC
03
F0
EF
FE
F1
0B
FA
07
F5
13
FF
02
F2
EA
06
1B
03
EA
EC
EE
E2
02
06
F1
F5
02
01
F1
F2
FC
01
F8
EF
FB
00
FD
10
FC
02
02
11
F4
09
FA
FA
F5
EF
ED
F6
FE
F6
E4
F4
D6
F9
DD
09
FF
FC
0D
10
F3
F0
0C
FB
F8
00
F8
F3
08
02
F0
DF
F6
E4
D6
EE
E2
D7
E3
F0
DD
08
00
FD
05
E1
0C
05
1C
27
1D
00
17
F2
04
0D
F1
08
F2
02
E6
E3
EB
E8
E5
FC
EB
E7
FB
15
FF
E2
EE
FB
EB
03
F2
10
F9
20
27
03
EF
EB
2C
2C
0B
0D
F9
17
FD
E6
FD
05
07
F7
19
F9
03
FA
15
F3
F8
11
11
30
28
0D
11
21
F3
09
14
2A
EF
17
FC
F9
0C
01
12
01
05
0E
01
10
11
FD
12
F5
0A
F7
0F
0C
41
1A
2B
12
EB
FE
2F
12
10
19
F8
F6
17
0B
12
05
13
0C
1B
F5
03
05
21
FF
FF
F9
08
15
2C
25
F9
04
F8
10
1A
1B
F7
08
FC
FA
10
FB
0A
03
18
00
08
01
03
07
EE
FD
06
FB
F2
F5
FB
00
F1
F7
18
03
1E
1F
06
FF
02
18
00
19
08
00
09
03
0E
FA
F3
08
09
FA
FB
FC
05
F6
FD
08
0D
F9
11
0B
04
FB
F3
1A
F8
16
12
16
FF
10
04
EE
FE
18
FB
1B
F7
EC
FA
16
0D
F2
FF
0A
10
02
0A
F5
EE
10
09
05
2C
28
07
17
0E
F2
FE
00
FB
FF
F4
02
06
08
FD
FC
0D
FC
E6
FA
0C
F3
F9
04
02
19
1B
11
28
19
07
13
04
E9
E9
FB
DA
F2
F6
FC
10
09
05
12
0D
0E
09
E6
F3
04
E7
12
FF
06
15
05
FD
21
14
19
06
F7
FA
EA
C9
D6
ED
08
12
F7
16
01
13
09
02
04
0B
14
EE
15
0B
F0
F4
F4
FA
03
13
0E
07
F4
00
E3
D0
DA
05
07
1F
04
F3
11
10
1E
1D
0F
F9
FE
08
FE
EF
F7
FF
08
0B
0B
FF
15
F9
F6
EF
D6
E3
E6
06
0D
01
F7
02
01
EC
09
EA
05
FC
04
05
EE
01
09
F7
F8
F5
0E
FD
05
1F
0E
E6
F8
E6
01
26
07
08
F1
08
17
01
FE
05
02
F4
20
EE
0A
F3
ED
07
0D
F8
F0
FD
08
09
F9
DB
EB
09
17
01
09
EC
00
FF
FA
F3
DA
EC
E9
01
0B
03
17
07
EE
06
0A
EF
05
EF
FF
F3
F2
E9
F5
01
14
0E
FA
00
EF
06
03
EA
EF
01
1C
E7
09
0A
09
E0
F1
10
16
11
F6
04
F8
F9
F9
EA
EE
0C
18
06
EA
E3
FB
EC
FD
E0
FF
08
11
FF
F4
0E
11
D8
0A
F3
02
00
07
FE
E7
ED
E6
04
0B
FB
17
03
FB
EC
01
E5
EF
E6
F9
11
2B
2A
12
F8
E6
DC
EB
01
06
02
05
E9
0F
DF
F3
F4
15
13
0D
FB
04
E7
F4
D9
FB
0B
19
0B
0C
01
07
F5
13
EE
0B
F3
F1
E1
06
FE
01
0B
11
01
F3
18
18
06
14
FE
DF
EC
FC
04
08
13
0A
07
0B
F6
FD
0D
03
00
F1
F9
E5
EB
01
F3
01
F8
06
F4
07
F7
10
05
EE
0E
0C
04
0A
E7
E1
00
0D
F2
14
F6
F9
E8
EE
02
CD
E8
EF
F5
E6
FE
0E
13
15
19
24
13
2B
1B
FF
0E
06
1D
EE
05
FE
F3
FF
FD
03
F1
FB
09
09
FD
03
F0
FA
17
0C
04
0F
1C
1E
04
10
0C
1C
10
E4
1F
FF
FA
F0
13
01
02
07
05
09
19
25
22
02
03
F8
07
FD
15
11
F8
16
0B
1D
EC
F6
12
F2
F1
F6
EE
10
0A
F0
F8
F2
11
0A
13
FB
06
08
FB
0D
04
F7
13
0A
03
0E
15
02
ED
01
FF
09
04
F5
F7
FB
F2
EE
07
0F
0F
FE
0A
F9
04
F9
07
FF
EA
F4
0C
F6
FE
FB
F7
07
E9
F0
01
15
EC
EF
F4
01
09
12
EE
F8
FC
10
F2
0A
F3
FE
F1
E0
D9
E6
EB
D4
D5
DB
F5
02
1B
11
11
F7
0A
12
0B
0A
ED
F6
FC
05
EB
F1
06
09
F8
07
EF
ED
EC
EB
E4
D6
DB
E3
FE
19
FE
EE
F5
1F
01
F5
F5
05
F1
14
00
E5
ED
F6
03
0E
EF
E8
FF
FB
CF
BA
D0
E3
FD
06
0D
07
F2
0B
10
0B
14
00
06
02
01
15
F1
F9
0E
EA
07
F4
0A
EE
F1
D8
DD
E9
ED
00
02
10
1A
1D
0B
0C
E7
F4
04
0D
E3
02
EE
03
08
FB
0A
FA
28
F9
E6
E2
D6
E1
DC
EF
E6
FF
F8
03
05
18
04
15
1E
EF
FB
F8
DC
DA
F5
E4
FD
02
FE
F8
FE
12
E8
EA
E3
F4
F7
EF
EA
FD
FA
17
EF
04
1A
18
07
F2
06
10
D6
E7
04
F7
E7
FB
F6
ED
1A
EC
E3
E8
F1
FC
E9
FB
F5
10
0D
02
ED
F9
EF
0A
1A
0C
05
F4
12
FF
0C
EC
F6
F2
07
FF
00
E9
F3
ED
F7
EC
F0
05
14
10
F5
05
F0
FF
FA
EA
18
0F
14
F8
DE
08
EC
F4
F6
F0
0A
E7
EC
EA
FB
01
0A
F5
0A
00
1E
07
EE
F2
06
EC
EC
E9
FF
F9
08
DB
EE
01
08
EF
0A
F4
05
08
F5
FA
03
F9
01
FA
0B
FF
05
E8
E6
E3
F6
EE
FD
00
FA
E1
F3
E7
0B
ED
EE
01
FC
F6
FA
05
02
F4
F8
13
FF
0F
00
0F
E1
FA
F7
00
07
F5
13
19
F8
12
F6
F0
E4
07
F2
E7
F8
EC
E3
FA
F2
FA
FE
21
14
19
FD
FE
EE
EA
F1
0E
01
FD
1A
01
F7
15
F2
E0
D9
FC
E9
14
F1
F5
EF
F6
E9
F5
08
12
22
FF
FE
EE
FD
DC
F3
F9
EF
FD
08
0B
03
EE
D4
FB
F5
FF
EB
03
13
E8
D2
FC
01
F8
02
01
16
09
F1
F9
05
FE
FB
F8
FB
FB
FE
FD
04
ED
DF
DD
EB
F9
0D
00
10
DE
D9
E2
FC
0C
0B
29
05
14
F6
F8
F9
F7
F2
EB
01
FE
09
EE
03
F7
0C
E7
E9
F8
FF
E6
0B
DB
FF
E6
DF
12
23
1C
18
FC
0B
03
0F
0F
FF
FA
0D
07
F4
FC
E4
FE
05
E3
E9
F9
07
02
0B
D4
F2
FA
00
FB
1D
24
FF
F3
EA
F7
F3
FE
0F
F7
FA
05
08
F4
F6
FE
00
03
F9
EB
01
24
F9
DF
FC
ED
F3
F8
10
1C
10
EE
FE
0B
04
08
E8
F7
01
04
07
F0
F8
E9
D2
F2
EA
FB
06
1D
19
F0
ED
04
02
07
FB
0F
0B
05
FD
F2
FD
E9
E2
E7
ED
E9
05
16
F6
CF
ED
EB
0B
FC
FD
08
EB
02
EB
F7
FE
FB
0F
09
11
1E
1C
FA
EB
D9
DC
F9
EA
12
F7
FF
0C
DE
FB
04
03
01
F6
FB
FF
E3
F2
F8
F2
F1
13
00
19
0E
10
05
FC
0D
F4
16
F0
1A
05
10
FA
F8
E4
FB
FE
08
EE
FD
25
02
D6
03
06
21
03
F2
ED
1A
04
03
00
11
05
09
00
15
04
F3
FC
D9
E7
EE
D9
13
08
FE
FE
F8
20
26
0B
13
F8
ED
ED
0E
F9
07
FB
FC
18
DE
EA
FB
FB
F7
FD
D5
FC
FA
FA
00
01
F2
0B
1B
00
14
06
E6
05
00
FC
17
23
1A
EB
F9
EF
EF
07
F3
F3
FD
02
03
E4
0D
00
10
08
14
FB
F1
0A
07
F4
FD
0A
EA
E8
F9
F6
0C
00
F6
07
F3
FA
F9
EC
FC
00
EC
0C
F9
09
F3
04
F1
EC
00
EA
EF
1A
0C
00
1C
0D
17
F3
FE
ED
F8
05
01
20
1A
E0
E8
FE
07
14
F9
F5
FA
