0C
13
F3
14
F9
FF
11
11
11
0C
03
FB
01
0D
F6
FE
EC
FF
03
09
0B
00
F7
FB
F6
F8
FA
0B
FF
F1
13
F1
15
02
EA
EE
F7
F7
F7
17
02
0C
03
FA
FB
1A
EC
F9
02
E3
F6
F8
F6
07
0B
FE
0A
EE
FF
0B
06
FF
FF
02
EB
EF
EF
F0
ED
F0
EB
F9
FB
14
11
0E
01
FD
06
E7
02
0B
14
F6
01
0C
F4
01
09
06
ED
DB
06
FE
F8
03
EA
ED
03
FC
0B
0A
FD
F5
04
F7
E6
05
DF
EF
08
F7
EC
1B
E4
0C
04
E1
F5
0E
02
FF
09
22
FC
F5
0F
1B
1B
17
F8
02
05
03
1E
1F
16
0E
E0
02
0D
EC
ED
F1
F4
FC
02
02
0E
03
0C
F4
09
11
0E
0E
F5
F9
F3
0E
0D
0B
11
F8
0A
12
D7
13
06
05
FB
04
EF
F9
FB
0D
0A
02
F8
04
18
23
05
04
F0
EB
F6
F8
F2
FF
1D
07
F8
02
E5
E9
F4
18
F1
0E
F0
FD
00
F7
F5
EC
09
07
16
19
F9
EC
D6
F3
EC
1B
02
F6
13
02
F6
0E
0A
DB
0A
EF
F6
F1
EA
05
08
04
E1
ED
F6
0D
07
01
0B
F7
EE
F8
F6
01
18
02
11
16
15
F0
08
00
F3
01
05
FB
FD
F5
F9
FE
F4
06
F0
02
10
1A
F5
EA
F2
03
F8
20
0D
12
05
FE
12
14
FC
00
F1
E9
01
11
FD
FF
FA
02
F2
E9
DB
0F
08
20
F9
D7
E6
00
08
14
F7
F4
F3
EC
17
18
18
F9
09
EB
E5
0F
F7
EC
DE
FE
F6
FA
EA
18
1E
FF
F3
DF
FC
0F
0B
0F
EC
E4
E7
E8
04
18
FB
1D
0F
F8
05
0D
EF
F1
0E
EB
F3
F8
15
0D
24
16
F3
E1
01
F0
13
EB
FB
D9
DF
E9
0A
03
E3
0F
04
FF
00
07
03
EF
0F
09
0A
00
18
0B
1E
F2
FC
F0
07
FE
06
F0
FA
ED
FE
E4
0E
EA
E4
F3
13
F2
E2
F5
F6
09
F4
13
0B
0A
16
03
02
02
E3
00
13
04
FC
F5
03
FE
EE
19
10
0D
F5
01
19
04
07
F4
06
FA
EE
0A
11
05
15
0D
EB
FE
E7
FE
F6
06
10
16
12
17
20
FE
F1
0E
EF
EA
F9
FD
0B
03
15
0D
04
0A
0F
23
F3
F1
DD
01
04
F1
E6
F4
F7
FC
24
24
15
06
0E
0B
F8
FB
07
0A
27
F7
FE
21
03
F9
1C
FA
E7
06
F5
EB
ED
08
07
FA
09
15
0D
10
FD
18
0B
00
E0
FB
DA
1F
15
EC
1B
13
04
09
FC
00
04
E2
F5
EC
05
F7
FB
FD
00
02
08
FC
0A
20
0D
0A
F4
E2
10
FF
15
EA
F5
08
1A
0C
FF
06
EE
0A
FE
F4
F2
FE
F1
F4
EA
FA
12
02
14
16
E7
FC
DD
01
02
05
F0
F3
02
11
FD
1D
22
02
F9
07
0A
03
F4
0C
F8
05
0E
F5
EA
FC
0A
07
FE
0E
F3
06
02
07
F2
FC
FF
F2
0A
0F
27
06
01
1C
01
FA
05
0D
10
F4
01
F2
12
EF
F0
FD
FE
FD
13
18
15
0F
FC
05
0B
E9
F7
06
00
16
00
08
22
13
16
1F
FB
11
F9
08
FA
FF
01
F7
09
F8
10
07
F0
10
03
15
15
02
F4
02
10
1A
19
00
FE
0E
1C
05
06
E5
E6
EE
EC
EB
E3
0A
21
F6
20
09
FF
F0
11
3C
07
12
F4
FC
00
E9
06
FB
F4
06
FA
FF
06
FE
0D
07
F7
FA
FA
F2
06
F2
E3
07
FC
00
21
01
0F
0B
E9
00
E8
EE
09
EA
01
F4
07
02
F9
02
E9
F2
01
0A
14
1E
13
ED
0F
06
FB
F3
F7
F0
13
F3
F7
E8
EC
E3
E6
04
06
0D
DF
DA
DE
D8
DA
09
00
E7
F3
E0
D9
01
FC
F8
00
EE
08
03
06
0D
00
E5
ED
03
09
07
E4
E5
E1
E0
06
EB
07
00
E9
F2
F4
FB
FA
00
FB
EC
F6
0B
05
12
04
03
F3
0C
03
0B
FE
FA
03
FE
FC
F5
0C
0A
01
11
FE
04
02
F5
F2
F9
03
F3
EF
03
04
FF
F0
0F
07
0D
04
20
12
05
1F
04
09
FF
0F
19
0C
1C
32
0B
1D
08
F3
02
02
EC
FC
FC
03
25
FF
0C
14
0E
1F
FC
07
FB
02
1B
0A
ED
FB
15
0D
25
2A
18
07
13
F6
F0
FB
FB
13
ED
F7
00
FC
0E
04
06
F2
F1
EB
02
06
08
FB
F3
05
FE
02
0E
01
19
14
18
09
EB
1D
F7
F9
E9
02
15
F7
EF
0F
F9
F1
F2
F5
0E
EE
00
20
FA
19
05
12
2A
19
06
16
18
0E
08
FF
01
F8
F5
F4
E6
F9
09
00
03
08
09
1A
F9
10
0D
F4
14
0D
1E
0E
1E
25
10
FA
2C
1E
07
02
01
12
18
05
ED
EA
F7
F1
FE
0E
04
06
F3
13
03
08
29
18
33
04
18
11
19
F6
F1
17
FB
09
0A
FD
05
01
ED
CC
06
11
FA
10
F3
16
FC
11
04
1A
FC
02
11
08
05
F4
F9
E5
C4
F5
D8
E9
F7
EE
0A
F0
E7
F2
0E
01
0A
11
0D
01
08
0B
F8
E4
FE
EA
E8
DE
C4
C3
C0
BD
C1
E9
D2
E7
FF
08
FD
11
11
FE
FF
F5
FD
0F
FA
F8
FE
EE
DB
D7
CA
C9
D3
BB
B6
B7
B5
C9
CE
DE
D5
04
E7
1A
16
22
F5
E8
08
01
F5
EF
08
F9
08
E4
ED
E5
E1
F2
F1
DA
E4
CD
E9
D1
DD
ED
EB
FA
FC
FA
F5
0E
07
E1
01
0C
0C
0A
FA
03
FF
0D
F9
08
FA
1B
19
19
13
05
FE
F5
FE
25
13
EF
15
0B
F8
1E
0D
01
F5
0E
FC
EF
F3
EC
0E
F5
17
FC
FC
05
03
12
19
21
FE
08
FF
16
06
03
0E
F2
0E
03
1B
00
F0
F7
11
0C
F8
F8
13
05
F5
EA
07
00
15
07
F5
10
F9
18
08
12
F0
F7
05
FE
F8
FA
F0
E5
02
1E
07
F4
05
20
02
E5
04
F5
04
07
08
F8
0B
00
F7
12
01
01
F1
FC
0F
1F
E6
DF
19
EA
0D
05
FA
0E
03
E9
EE
F5
0B
06
F8
0E
06
11
08
09
0C
06
F2
06
24
EB
05
05
EE
F3
14
0E
F4
FC
00
F7
F6
D7
FD
12
15
03
FA
02
04
0A
0F
07
1A
F7
F2
06
1E
EE
0B
FA
01
0C
0D
F6
0C
13
08
FD
DC
00
0C
0D
FA
13
E8
06
01
F9
FB
FA
FA
F5
EF
FB
19
02
01
21
F6
11
08
00
F8
EF
0A
E4
F4
11
21
1F
10
FA
FB
F5
FB
0E
05
01
0A
F0
01
FD
27
EA
FC
EC
09
FF
F2
19
FA
02
01
02
F6
FF
11
19
FF
0E
01
E8
04
F4
F7
F9
08
F2
04
10
17
FB
F2
EF
06
1E
FD
19
0A
0A
FE
F1
FF
10
03
03
02
08
01
00
EB
09
FD
EC
FB
1A
03
13
06
F5
DD
F6
18
EC
0E
0C
F7
EC
F2
03
FD
F9
16
15
15
FF
F5
10
E9
FD
F0
01
0E
FE
09
0E
08
23
15
FD
EA
E8
07
0F
0A
FB
F8
0A
F5
05
F6
FE
00
FF
07
07
07
EF
F4
03
F8
F1
05
0C
14
F2
F1
07
00
FA
DE
04
F8
DF
F4
01
0A
FF
EC
EB
08
F7
07
F8
F4
F7
DE
FA
12
0B
F6
E4
00
04
13
F5
EE
05
FB
0F
F8
FE
08
18
FF
01
04
01
11
0A
1D
EA
D9
EA
F5
F8
07
E3
E7
E9
FD
FF
12
FB
0F
EE
1E
FD
19
FF
1F
1B
08
14
04
02
0F
1C
19
0A
04
0B
1A
13
01
03
E2
01
10
EF
F3
0C
10
13
0A
05
16
FF
06
0C
FF
19
1A
2C
2E
33
0D
19
15
FB
1E
F8
FF
1F
14
EB
00
FE
EF
EB
F7
0C
F1
02
F4
F8
FF
13
F9
12
1B
1D
FD
10
20
1B
FC
1D
17
1A
0E
12
13
0B
0D
14
EE
FF
13
04
07
0E
05
13
11
F6
0F
FA
00
FA
FD
FA
06
02
ED
EE
0A
FE
14
07
14
12
0C
0D
0B
EE
0A
FA
03
F3
FD
09
10
0B
FD
FB
F7
F6
0E
ED
02
0E
31
0D
0B
34
17
06
15
F8
F4
F8
14
00
FE
F3
0D
0D
04
FC
12
21
F8
FA
EE
08
FE
F1
E0
EF
0B
22
40
27
2A
27
1E
F6
F9
03
0F
F7
F6
F8
05
0D
FC
0A
ED
0F
00
F3
FB
05
FF
02
08
F8
F4
1A
12
1F
2F
0B
1D
0F
F7
1D
00
0E
01
EC
F5
FA
E5
FA
04
E6
11
FC
0C
FB
11
FF
09
00
F7
F7
F3
04
00
FB
0B
07
07
10
32
00
14
03
F3
00
14
17
15
F1
FD
04
13
FB
F0
EA
F0
04
F2
06
FD
FC
F5
09
12
13
25
09
13
FB
FC
1B
1C
17
13
F1
EF
F6
19
08
0D
0B
F6
04
04
01
FA
15
15
F1
06
05
FE
05
0E
02
F3
14
07
F7
2A
FC
02
F6
FC
04
19
FE
10
FE
FE
F5
1A
15
0C
1C
1A
13
0B
13
07
1B
0A
1A
03
10
FB
F6
03
F5
D8
0A
04
08
09
01
18
07
1E
FB
14
18
0A
11
09
0A
08
1E
08
16
07
08
FE
FC
16
F2
E7
02
FD
01
FF
15
F6
F6
F9
12
FF
0A
F4
FD
05
F4
EC
02
0C
11
F2
F8
13
03
00
0F
15
18
FE
15
F3
F0
F4
EB
00
E8
0D
03
11
F5
0D
EB
F5
FC
FD
EA
F5
EC
F4
F0
F2
17
EC
27
0F
01
0E
17
E6
E6
F6
E6
EF
06
23
FF
02
F9
F6
EC
F5
F8
E7
F2
D8
DF
ED
ED
E9
08
FC
20
F8
08
0D
10
E6
FF
F2
D6
02
0B
18
1C
0E
01
0D
06
FA
F7
F2
EE
E6
E9
EE
C9
F8
0F
F1
F0
01
20
FD
EE
04
EB
F6
02
EA
FE
01
12
08
17
06
10
01
FD
FD
F8
E4
DE
CF
DC
FE
05
12
12
06
19
F5
F0
E3
DF
D2
EC
E8
0C
F5
1C
15
05
0E
FD
22
20
10
02
08
FA
F2
D9
F0
E7
12
FF
03
F3
17
1C
F3
F3
EE
EE
FD
F7
01
01
11
EE
02
0B
08
0A
08
20
0C
05
F8
E4
DA
FD
E9
0C
0E
06
1E
0E
FC
06
0D
01
F8
F5
EA
0D
11
F3
0C
F5
FF
21
19
19
F3
EF
F9
D2
E8
ED
F2
0C
18
F8
24
F8
15
FD
0E
FE
E5
E7
FF
F8
12
F9
01
09
0B
09
0B
0F
03
FF
E0
D7
ED
0C
C6
16
06
0C
12
F7
07
F7
F8
01
0A
05
FA
13
08
EE
FA
0F
1A
1C
FD
00
FF
0C
D8
CB
E3
01
E3
F0
03
05
F1
FE
12
F0
F9
FC
F6
E3
EE
E9
FD
F4
05
03
0D
FC
01
ED
00
F1
EA
D8
F1
F4
E5
01
11
EB
FA
08
00
01
07
0F
0D
F3
F9
E8
E8
06
08
E8
F8
0B
FC
FE
F3
F9
F1
F5
F9
06
06
FA
0A
E5
EB
FA
00
03
11
FA
03
F4
F1
F9
E8
FD
00
0B
0A
EA
F6
0E
EC
EA
FA
D0
F6
F3
0B
F4
12
E7
ED
F8
E1
F7
FD
00
F1
F4
06
16
F9
13
F7
04
07
F5
01
00
E2
EA
01
E1
D9
FD
01
EE
14
0F
22
12
EB
10
EB
F1
EB
E7
F1
FB
06
0A
17
FC
FA
09
FD
FE
EC
DE
E0
F5
E7
F3
0E
F4
06
0E
1B
0C
1F
1D
09
13
0A
FF
12
12
16
28
00
1C
FE
E2
E1
EC
D5
EA
D8
07
FE
F0
EC
04
04
FC
10
1E
1E
1D
1E
32
31
21
32
24
20
1E
12
16
13
08
01
FB
E5
F2
E7
05
06
FA
F0
04
12
ED
0F
06
FD
F6
0D
1B
1A
22
16
11
0E
12
16
28
30
0F
1E
07
14
01
27
0F
19
F8
F4
FA
0F
12
14
FD
F8
02
F4
1F
13
40
10
0D
15
0A
F6
01
1F
21
20
10
04
E5
0C
FC
F8
F2
0E
12
0A
0A
FB
FD
00
07
FA
12
0D
EF
0E
EC
FF
FD
00
12
0C
01
0D
F9
ED
02
02
FE
F5
FF
10
FC
FF
00
F0
FB
FB
F4
ED
10
FB
FD
0D
FC
FF
13
06
E9
04
04
0F
EC
FB
FB
FD
0C
0A
12
F1
EC
04
F9
00
10
F2
05
F9
FA
17
0D
03
EC
00
08
13
FF
09
15
FF
F7
10
02
0F
17
0A
05
EC
F1
FA
F0
F8
ED
00
FC
F2
F9
00
0A
EF
F0
DC
F8
04
EA
08
0C
06
17
33
06
1E
03
F5
02
08
F9
FB
03
F1
F4
EA
E2
DC
DD
F3
D0
E4
DC
EA
0E
FB
13
0D
0D
05
15
23
2B
20
14
FC
E7
F6
0F
10
12
E7
EE
03
FB
02
02
F5
EB
F7
ED
F4
FB
F8
11
0C
FF
F9
E9
F5
0D
0C
0C
1F
F6
FE
F4
FC
F2
F1
E2
10
0E
05
F2
F8
1F
04
11
E8
05
FE
FD
14
0A
0E
ED
10
02
F6
21
09
F6
0E
07
18
E1
04
E6
EF
FD
17
06
F9
09
F9
FE
F4
02
F5
EA
10
1A
08
10
0C
0E
0A
0D
FE
EC
00
FC
0B
0D
08
04
08
F7
15
1B
17
0D
0A
F2
09
06
1A
10
0D
FF
00
08
0C
1E
10
06
FB
02
13
13
20
12
05
F6
FC
07
17
0B
0F
17
1D
1D
11
26
24
12
0E
16
FC
09
06
F5
F6
F4
16
F5
0F
F7
F1
1A
07
21
12
05
06
17
15
17
02
04
20
12
09
0E
04
1B
15
0E
0D
01
F5
F4
25
1D
06
1E
0B
15
F7
11
18
23
FE
07
04
01
11
FF
DA
DF
E8
03
F6
EC
E3
02
09
F2
10
EE
23
2F
13
15
1A
06
F7
08
FC
FA
12
09
F5
0B
E0
CE
D3
C8
F0
F2
FF
0C
FA
E8
E8
DF
00
FD
02
25
15
04
FE
07
E7
F2
F1
04
FA
F6
FA
DF
DD
D7
D2
E5
E1
EF
FF
F7
DD
E4
D6
D7
E9
F6
F5
19
FC
10
F8
1E
F2
D8
DB
E1
D4
E4
D9
E8
F1
E2
E6
05
F6
F1
F6
EB
F7
00
EC
03
EF
E6
0C
ED
15
01
E9
F1
E3
EC
DE
D0
D4
DC
E9
F5
E1
EF
00
EA
F5
05
FC
03
03
08
05
04
EC
17
FF
EA
07
0A
05
F4
EC
E5
ED
E6
FA
DF
E6
E7
F5
10
0C
16
F5
F5
F5
07
16
F9
0C
1C
F6
EE
EC
F1
F3
F3
03
F1
D3
C6
E0
F2
EB
FD
FF
08
0C
15
FD
F8
FB
F1
EB
F4
0D
06
FD
0D
0D
FE
E9
FE
0D
F3
06
FE
E6
F7
03
DC
FF
14
0B
05
FA
07
07
1D
0F
09
F9
F5
F1
01
EE
F4
E5
FB
02
F4
F6
0B
0D
FA
07
F6
EF
03
FC
01
FC
FA
F8
02
FA
03
02
06
E8
02
03
F7
01
EB
F8
07
FF
05
15
0C
02
17
0B
21
0C
01
0B
F5
0E
10
F4
1C
1E
FA
FF
0F
F7
05
EC
07
E9
08
09
E6
FB
FF
17
F0
0C
25
F9
FB
14
11
F7
00
FB
14
0E
1B
09
04
FE
04
FE
F8
FF
E3
F4
0E
01
F1
E4
F7
F5
F4
00
FC
FD
00
09
10
15
02
FE
FA
05
0A
FD
FD
12
F8
00
FC
0E
01
F7
09
F6
F6
F6
1C
EB
0D
F0
EA
D1
14
0C
1F
07
E6
13
04
F3
17
1E
FC
13
10
FF
1C
02
0C
F7
FC
E3
08
0A
08
ED
F1
F7
FF
08
06
F7
24
08
09
FB
F6
F2
FB
F7
14
15
14
0D
FD
FC
FE
1A
07
EF
F9
F9
06
ED
07
04
F1
01
0F
FA
FF
1D
0B
F9
F5
08
F4
10
01
F9
FE
14
17
1C
03
0F
F0
F3
F6
0A
0C
F2
FC
03
EB
F0
FD
05
EE
FF
1E
FA
EB
08
E6
08
03
17
F4
F2
12
25
19
F4
ED
0C
E0
00
00
01
F1
0E
02
EC
06
FD
01
13
1B
00
16
FE
F0
1E
08
00
00
14
FA
17
FE
F6
F8
01
EB
0B
15
F6
FF
0E
04
FB
0F
FF
07
01
0C
08
0B
FE
00
15
02
10
02
0A
13
0D
13
05
0B
F7
0D
FD
F6
02
0B
00
08
0A
01
05
EB
EB
FB
FF
DE
E7
C5
E1
16
16
0D
07
E6
E9
F9
DC
08
0A
01
EC
07
FB
07
EC
07
EC
F7
D8
06
F5
14
33
1B
11
23
EA
F5
F6
1A
FA
00
F9
01
0C
03
E9
13
0F
FA
F3
03
F5
F3
0F
16
1C
2C
20
19
2E
25
0E
FD
05
1E
2C
10
FA
13
F7
F2
EE
DE
F2
07
00
FD
F3
0E
F2
F8
25
0D
00
07
1F
22
FD
15
01
0E
0D
01
0C
FD
FC
E1
EB
E2
F2
F0
E5
F7
01
13
26
F7
0E
F6
29
13
0A
EF
F1
16
28
0F
1B
16
15
FC
01
EF
F9
E8
EC
D7
DE
FE
F6
EC
E8
06
1C
07
09
E6
10
0C
17
1B
FD
06
10
22
11
0F
0D
07
FD
0D
16
F0
D7
09
E3
E2
02
1F
F1
0C
0A
12
02
03
1B
16
1D
17
05
FE
FA
07
1A
0F
0F
01
EC
06
F7
13
F0
FE
13
00
F3
DE
D9
EC
0F
FE
35
FD
F4
10
02
0F
07
11
F9
FD
F6
0E
12
07
F3
F9
F7
FD
F8
FC
F2
F0
F9
F6
FB
05
0F
0C
0A
E9
FF
08
FD
07
F6
E2
EE
E4
EE
12
15
19
0F
F8
10
14
00
11
FE
FD
E2
08
F5
01
00
10
E9
F9
F7
EE
ED
10
04
EF
EA
FA
D8
E6
14
0D
18
0C
02
06
F7
F8
F0
E9
E3
F5
0C
22
10
01
0A
EF
EB
DE
F0
05
E5
00
D1
D2
D9
DA
D6
F8
FE
E8
E7
E0
E0
E3
DD
F6
08
00
0D
25
22
12
10
F3
10
F8
D7
E9
E5
DF
D7
DF
C4
BA
D9
F8
F0
F0
E5
D4
E8
FB
09
ED
12
03
0C
2B
1F
0C
1F
13
0B
C9
CB
EE
E0
F6
FF
E8
ED
E9
E0
F5
03
ED
DD
FD
1D
29
12
08
1B
21
29
0D
08
01
F2
04
EE
D7
F1
F2
D7
FA
01
21
11
F3
F8
FD
FF
FD
1B
17
1B
15
0F
14
0A
16
15
12
14
01
F7
0A
F8
F0
02
11
EC
09
1E
23
0F
18
04
07
04
1B
1F
18
1B
1B
1E
08
18
2A
0C
24
17
FD
DF
0D
E3
E0
F9
03
09
1A
0F
0A
0B
14
F1
F8
0A
0F
13
08
0E
07
19
0D
11
00
01
1D
1D
FE
D4
00
EF
FC
FB
FF
17
F8
22
0C
08
16
E4
FB
15
FC
FB
FF
14
2B
17
19
04
25
00
2A
F0
21
E2
F8
19
0F
00
18
20
18
17
09
16
FF
04
08
FF
01
EA
FC
F8
F9
FD
E8
02
0C
11
F4
0E
F5
FF
02
FC
23
0B
0B
06
FA
12
FD
F7
EF
EF
EB
EA
F8
00
E2
E5
E3
E3
EC
EF
14
21
03
0A
EE
00
03
F5
EA
14
26
18
15
06
09
14
17
07
F5
FC
FD
F3
D6
D6
EE
DF
DD
F9
04
EC
DF
02
FC
03
0E
04
FD
10
18
05
16
F2
0A
0E
F3
F7
05
00
EB
D7
DB
C5
CD
E8
FB
FB
FF
05
05
13
EE
ED
FE
F6
F4
E9
00
14
FF
1A
00
FC
17
F6
0E
EE
DA
F2
E9
F2
DE
F7
EC
F5
0A
32
F8
EF
F7
08
D5
E9
10
07
E5
F0
0D
0B
14
0E
03
09
09
FA
FB
E3
00
09
E5
14
F5
09
FF
F9
DA
EB
11
F8
14
F5
E1
E8
F4
FF
15
04
03
0D
FC
FA
F7
03
FA
EF
EA
FC
D5
ED
01
F5
E5
EF
EA
03
F4
0B
F6
0A
FC
EF
07
0B
0D
09
1E
0C
12
08
1A
0B
0F
F5
F6
F6
00
0D
EE
EB
EA
F4
1D
F8
EE
0F
EE
08
E0
E9
D9
ED
F3
FF
09
05
13
18
21
F6
E4
E2
F8
ED
F1
08
03
EC
FC
0F
0C
0A
0B
0D
0E
06
FB
18
F9
F9
E7
04
19
08
F9
1B
1D
2D
0F
0A
03
F9
F7
EA
FC
01
10
02
09
0F
EC
06
10
0E
F0
06
01
EE
0D
F2
02
15
1D
07
04
02
0E
F6
01
F8
06
0A
0C
F8
10
10
F0
FC
F8
EF
10
02
11
1B
00
FC
1B
0C
19
01
09
15
FD
29
0B
28
1D
11
28
09
1D
02
03
0F
F0
00
0D
FF
09
F7
FD
0D
1F
08
16
F6
FF
1D
F7
20
1A
1E
0A
0C
FB
18
F6
F6
0D
18
19
F0
EC
F1
FB
FD
FA
04
19
FE
1D
1F
01
FB
15
07
05
15
04
FF
11
13
1E
0C
06
F7
F5
14
FB
F7
FC
F4
0F
FD
06
0D
18
07
06
FA
08
EC
EB
FA
0B
23
22
18
12
07
FA
09
EF
FF
03
0E
D8
DF
E8
13
11
0F
0A
07
F1
F4
DC
0C
F4
F9
0B
FD
00
EC
FB
0E
05
E9
E1
DA
07
E5
E6
09
ED
FF
FC
05
F5
0A
07
19
F2
FF
FB
E8
F2
E9
ED
F1
05
04
0A
FA
08
E8
FA
D6
F0
EA
E6
CE
FE
EC
00
FF
1D
18
FB
03
F5
FA
17
FF
F6
00
FE
10
09
FE
14
0E
00
EE
EC
E1
F2
DD
E0
DA
FB
EF
DF
F8
FC
08
0E
07
17
06
06
06
20
12
EE
08
0B
16
0E
F1
F9
E2
EB
CE
08
0C
F0
F0
EE
E3
F0
11
17
30
FA
0C
13
F4
FF
10
F8
F5
10
03
FB
16
F9
E7
EA
D6
FA
E8
E9
E2
E5
EB
00
EF
E8
F8
0A
1F
19
02
EF
DD
EA
0F
F4
FD
16
F8
FC
FF
F5
E3
E5
0A
E3
0B
05
F8
04
FD
FA
F2
F8
F7
2B
17
2C
13
12
E7
E6
05
EA
04
16
F4
00
FA
FA
00
00
07
07
FB
26
05
04
00
F2
D2
FA
F6
06
24
35
22
DD
E7
F7
F6
1C
FB
03
F1
01
F7
F1
0A
FA
FB
F7
08
F6
FB
10
0C
FE
EA
E1
FF
02
09
11
1C
F8
F8
01
11
12
19
FF
FB
E2
D9
12
05
18
F7
13
F3
14
0D
04
14
10
ED
D0
F2
15
0C
28
04
00
FE
16
22
13
16
FD
EE
FB
E8
F6
0F
FC
FB
00
0F
01
06
0B
04
FC
E9
F3
FF
07
0C
E8
F2
E9
FD
1F
1F
10
FB
F0
01
F4
02
09
FA
F2
F1
0B
F8
16
FE
FC
21
FC
FF
DA
03
18
FA
F8
E4
0D
0C
F7
00
F6
07
0C
FC
04
F7
11
15
E8
06
04
F3
0C
ED
0A
0C
0C
0C
ED
07
13
24
E5
F9
15
09
E6
00
09
0D
09
06
E5
07
1F
02
00
06
F4
FC
04
F3
0C
FC
08
FD
05
E1
10
FF
F0
E4
03
01
06
05
EB
05
EA
02
06
E8
0C
14
EF
09
EE
F9
00
02
E4
00
F7
0F
EB
09
0E
1D
E9
FC
FE
07
F0
02
F5
F8
E5
EE
EB
01
1C
1B
1F
F4
F2
F9
F1
03
EF
0A
15
F9
F3
12
F3
F2
03
E4
08
E6
E5
EA
FE
F6
EE
FE
07
04
28
1F
12
0B
03
F2
0A
E6
EB
FF
13
19
10
0C
08
09
13
F8
04
F8
F2
0D
F3
F8
E3
02
08
FB
23
0C
0B
10
00
FD
01
02
EC
E6
01
FA
1B
FC
05
F8
07
12
EA
E8
FA
05
15
0F
ED
F5
08
0A
08
1D
16
09
0A
DE
F2
FD
E9
EC
F0
FC
11
FB
FC
F5
FC
06
FA
03
01
E3
D8
D8
CF
EA
EA
E6
0A
F7
07
F0
E7
D2
03
DC
F4
E1
EA
03
EA
FC
F7
05
09
F1
E8
F1
F0
E2
F0
F7
DB
F5
E7
00
F1
FA
10
1F
EC
E1
E2
E5
E7
07
F9
14
12
0D
04
ED
EC
15
14
0B
E9
F3
05
F6
F0
02
1D
1A
0C
20
33
11
1B
E6
E6
DF
DD
0D
F9
F9
EE
FC
13
08
FD
EF
18
F6
13
24
F6
03
03
0C
20
3E
33
37
2B
1E
26
0F
00
10
11
19
E9
ED
F5
01
F3
F8
FC
FE
08
0B
FC
0F
FF
1E
2F
22
1D
45
1B
29
18
26
34
1B
10
0D
0C
F3
06
07
FB
EB
14
03
F1
01
F5
F7
FD
01
FA
13
FB
FA
17
F1
02
04
11
14
F7
FC
10
02
EB
FB
EE
F4
F7
EC
09
10
F3
04
FF
0A
F6
00
07
EE
0B
06
07
01
13
0D
08
F0
08
0A
0C
FF
01
09
08
0B
0B
03
09
EE
0B
F3
0F
F4
EF
0F
FA
E8
09
FD
0C
EE
ED
F1
EE
E0
F9
FB
1D
06
0D
FD
10
F5
06
EC
F6
0B
F8
F1
00
0D
0B
0A
0B
07
00
02
11
06
F7
03
DF
FF
1D
00
06
F6
FD
15
0B
05
19
0B
0E
16
0C
F8
14
13
16
1C
01
04
05
FB
F3
05
04
04
06
F4
0F
08
01
EF
0E
F0
FC
0D
F3
F1
06
F4
0B
F7
08
22
0E
00
FF
F5
09
F6
F4
F8
0E
FD
00
F5
ED
F9
09
0A
F8
0C
F8
F3
0A
F3
14
0E
1F
05
FE
12
EF
04
FB
06
EC
00
FB
0C
F9
EA
F7
00
00
E7
FC
FF
F8
F3
F6
03
01
FC
0E
F9
06
06
06
F9
FA
FF
FA
EA
09
0D
FB
05
1A
00
08
13
F2
06
05
FC
03
FA
C7
06
FF
F7
F1
F4
05
F9
05
0C
FB
0B
FC
16
FF
1F
0A
FB
ED
F9
F4
12
19
04
0B
F7
0F
D8
CA
FB
03
0C
FF
04
FD
0E
02
F3
05
02
18
18
0E
EE
04
E7
FE
13
0B
16
03
0D
09
04
19
0E
F2
F3
E9
0A
06
06
FC
19
0D
F0
09
F9
F5
E6
04
DC
DC
D9
06
1B
11
05
10
03
0A
06
12
00
EC
F1
0F
0C
02
F8
FD
04
0F
EA
00
F3
FC
EC
EA
FB
EF
ED
07
11
17
1A
16
1D
12
16
FC
0C
DA
F3
16
04
EF
E6
F9
EE
F4
E9
00
0F
E4
F9
FA
FD
FC
05
32
0D
13
10
0F
06
0B
FE
07
F4
F6
1F
08
0C
0B
F5
EC
D8
E7
EA
02
01
0C
F6
F8
F7
19
01
1C
0B
18
06
0F
02
EB
F9
0A
F1
DC
0D
FA
0B
F5
FF
06
D7
CF
D7
D5
EB
FD
0E
01
16
0E
20
11
0D
13
FC
0E
F3
F1
19
08
E6
FB
0A
E3
07
FB
F6
20
F0
D4
E4
CE
DC
DE
FA
10
17
06
19
1B
14
03
0F
0B
FF
0C
06
12
FF
00
08
14
E6
EB
1C
03
FD
FB
D8
E0
CB
A6
D2
E9
11
15
13
07
03
FB
0C
04
F5
01
FC
FB
02
15
FB
FD
EE
EF
1C
0F
0F
F8
FE
E3
EC
B4
AF
B1
C3
DE
EE
FA
F9
00
F3
F7
03
FF
10
06
EF
F2
0C
06
02
EC
0E
F7
22
15
19
F8
E3
DA
BD
C4
DC
CB
ED
FA
FB
EF
EE
EE
00
EE
E9
FB
FD
06
09
F0
0F
13
E4
04
01
18
FE
0C
0C
FB
ED
F7
DB
FA
EC
EB
0A
06
03
01
F9
02
FD
11
F7
DD
0A
0A
27
0C
F3
FA
0C
F9
0F
09
07
1A
FD
0F
00
E7
E9
F5
05
F2
F2
0E
03
07
02
04
02
E6
E1
F5
FD
13
F3
0A
F6
03
06
07
13
FB
01
09
09
F9
FA
ED
EA
07
F4
FB
FC
FD
F5
F4
0A
EA
F3
05
EB
20
1B
FB
12
15
FB
05
FE
15
FE
FC
12
F7
F9
F3
01
EC
F8
EE
04
FE
0E
FF
EA
EA
E9
11
F4
0B
09
04
15
18
10
07
16
F4
04
12
08
F0
FE
0E
ED
FC
02
06
01
F2
F1
EF
EC
11
08
19
F2
13
FD
04
1E
18
02
1C
11
FB
09
07
FD
ED
F9
09
F5
F0
F2
EA
ED
E1
E4
00
F7
F5
F5
0F
06
FC
F0
23
ED
28
0F
11
07
23
12
1F
03
05
EF
03
F7
F5
EF
F7
E3
0C
EA
27
08
F0
F9
EE
04
F6
03
EF
1D
0E
0A
13
14
03
19
1F
F4
09
FC
1E
0D
04
34
3B
F7
10
24
02
F6
F6
EA
02
11
F6
13
EE
04
ED
E0
E3
F4
EC
F1
E4
09
03
EB
EF
F0
E3
F5
12
11
F3
EF
F2
FD
0B
0D
F1
EF
13
F8
FB
EB
05
02
13
0F
F6
12
FA
0C
EB
F2
0E
06
F6
EE
01
FA
04
11
13
F8
0A
F2
F1
08
F0
FC
F0
EC
EA
F1
02
02
EE
DC
04
E8
E3
F3
FB
07
FD
E3
F2
F5
D8
E9
E1
00
F0
EC
EC
04
13
EE
00
09
F0
EB
09
F3
EE
F9
F9
E7
CE
E2
02
EB
E9
09
D8
EA
ED
EE
F2
F6
F1
F5
02
FE
0E
FA
17
F4
0D
E8
F5
E2
F6
F0
E9
D9
F6
E9
F5
FF
11
16
04
F4
F8
F6
0B
27
EC
E1
FC
F8
15
F7
06
06
0D
EC
0B
E8
EE
05
15
F9
F6
EA
FD
E5
EF
E4
03
E2
07
F6
F3
FA
02
FE
0D
FA
F2
FB
1E
1E
0C
08
E2
FC
F4
ED
FB
FB
D5
E6
EB
06
F9
F3
06
06
F1
FA
FC
20
09
01
0A
F7
02
E3
0A
F5
1A
FD
F2
D9
F5
DB
D3
F7
F3
F7
E6
05
11
07
10
FD
01
E3
F0
FE
0E
12
10
F2
02
FF
13
13
08
FA
DC
EE
D4
EE
E9
EE
ED
0C
05
06
F0
FC
FC
0F
F0
EF
FB
13
0C
0A
0C
06
F5
E3
FE
F5
E8
FA
E3
F8
D3
E0
0C
ED
05
FA
EC
EC
EC
02
FB
F7
0D
E4
0D
00
08
02
10
0C
02
F5
07
E5
D3
EB
F1
F9
EB
F0
FC
0B
0E
0F
F4
ED
EE
E7
ED
F7
E9
EC
FC
01
F0
FB
0E
07
EF
FB
08
D8
DF
E3
ED
07
17
1B
0C
02
F4
F9
E7
F3
FE
07
F5
EB
F3
EA
E4
FF
E0
F9
FB
19
ED
F9
EB
00
EA
0E
FF
0A
1C
19
29
0D
03
F8
02
00
0C
FA
06
07
1B
1B
FA
EE
DE
E5
04
FD
04
0D
FC
09
10
15
20
19
2C
15
12
18
11
F3
1B
16
0C
FF
FE
13
0C
FF
F8
03
06
07
F7
F8
1A
F8
FF
05
15
FC
1B
11
13
0D
12
FA
EF
04
22
06
1A
04
12
03
0B
F4
EC
07
F3
F6
FD
F7
E2
ED
0A
0D
F9
EA
14
0D
FE
07
E5
ED
FB
04
16
0F
18
1F
0B
F9
F4
EE
E2
E1
E5
04
0E
EF
F7
15
0A
04
19
04
0B
0D
F4
0C
EB
EB
F5
12
20
1A
28
11
F6
11
FB
E6
EE
E0
EA
05
13
ED
EB
0A
FC
FD
E5
06
08
F4
04
F2
EC
FC
0C
FD
28
1B
27
0D
0C
F2
FA
E4
00
05
FD
08
DF
F3
05
FB
19
E8
E6
F7
00
02
FC
EA
F7
07
FA
18
27
10
FA
F9
F7
F7
FE
F5
E1
E8
E5
01
F6
F6
05
0C
04
FE
E2
FB
FF
03
F2
0B
ED
13
02
20
0E
10
FC
ED
E8
FD
DD
D8
EE
F9
05
EF
0A
16
0A
F1
00
FF
04
F1
F8
F9
FD
FE
03
F2
FA
00
01
16
0A
ED
EB
E1
E8
EF
F4
03
08
05
0C
22
F1
E8
01
DF
FA
F0
DE
EF
D3
E9
E5
EF
F4
06
19
08
FD
04
11
F5
0F
05
F2
E6
F4
E9
FE
06
1E
13
FA
E7
05
0D
FF
E1
EE
E8
FE
FD
F8
F1
00
EB
06
0D
FF
FB
F6
18
F5
FF
F2
F7
0B
ED
19
FE
13
F2
FA
F5
07
E8
F5
01
09
FC
D8
02
07
0F
07
27
16
0B
11
FF
0D
F5
FB
F6
05
FF
ED
F2
13
F7
F2
EF
F4
E1
FB
EB
EE
F4
DC
F7
FE
04
FE
03
33
FE
0C
0A
02
0D
07
11
F8
FA
07
EC
EA
0A
FD
02
FE
0D
04
EF
02
EB
FF
F5
E6
FE
06
06
18
F2
04
19
04
0C
0A
16
09
12
F0
08
1A
F1
E9
F2
F2
0E
F2
06
F0
ED
FF
DE
03
F4
EC
01
07
0C
F1
EA
FB
F8
EF
F9
EC
05
EF
06
F0
18
0C
11
18
1E
FE
1E
EA
1B
02
EB
0D
F1
EF
1F
F4
00
F9
06
F1
14
1D
E6
0A
0C
10
FD
FC
12
FA
E3
FB
F9
02
06
EB
13
FA
F5
F4
F7
10
EE
07
FD
EE
FB
F1
FE
F0
09
F1
11
F7
06
F0
EF
08
EE
FE
02
FC
FE
0C
09
F7
FD
F5
0E
FB
03
05
07
FD
F6
EC
F1
13
0F
FA
06
F8
0B
F7
FB
06
23
FC
F2
F7
0F
06
06
0D
0A
FA
FC
D9
F9
06
0D
02
FC
09
F9
0F
04
FD
F0
08
04
FE
10
FC
1E
1D
04
0B
F6
EC
01
EC
EE
0B
EB
F3
08
06
1C
0E
18
02
03
0E
03
08
0A
07
00
FE
F7
05
F2
05
0A
03
FF
05
14
08
17
FB
F5
1F
FF
FF
F6
ED
FA
E6
EA
F6
FD
17
08
10
F0
FE
FD
FE
01
1B
F4
03
18
03
FC
19
09
F3
11
15
1E
F8
F9
F7
EE
E4
EA
CE
EC
F1
18
F9
EC
FB
FD
0E
05
17
13
04
34
15
F8
06
FB
04
E7
F6
F8
F5
E2
E7
D5
EC
01
ED
FB
0A
12
12
F2
0E
01
1B
F3
0E
0C
1F
0D
1A
1A
F9
03
EB
E1
02
09
F6
F0
EA
EA
10
0D
F1
F2
0D
F6
07
F8
10
E5
15
FA
06
24
14
28
18
FA
02
E7
F3
11
FB
F4
ED
FF
FD
11
00
05
02
1F
FE
F3
0E
FA
14
FA
0D
23
24
10
25
0B
0F
06
01
E5
E5
F0
F4
02
09
F0
0F
0D
04
15
07
0A
E9
F7
16
23
F0
19
F9
07
09
FA
1E
25
13
00
05
E9
D8
E9
F3
F4
FA
F4
08
F7
17
29
04
15
F8
EB
0A
06
0A
03
01
19
F9
FA
16
0D
09
E9
E7
CA
EB
05
13
26
26
03
25
04
0C
F7
FE
2C
18
0B
08
11
0C
20
08
14
00
04
FB
14
EF
F4
E7
F4
F4
F5
1F
1F
03
14
0E
01
05
1A
1C
18
1B
FD
18
E1
05
16
0B
08
07
07
02
01
F8
F7
DB
FC
EF
E8
FF
23
13
00
FB
0A
FB
EC
0A
00
F8
FD
F2
03
0A
FD
0C
1C
09
0E
16
1B
FA
E7
DF
E9
EE
EB
0B
0A
02
F5
F2
F8
ED
F8
FE
FC
05
F0
12
FC
0E
13
FB
14
F9
03
19
FF
E8
EF
D9
DF
E3
07
04
E9
0B
08
E9
F4
05
08
08
03
F4
01
18
F8
08
DB
07
FC
FD
1D
F4
10
F8
E2
E5
F0
FD
F3
07
09
04
EF
F5
0E
FB
12
DF
F2
01
F2
0D
01
05
E7
EA
FD
FE
FD
1E
F4
F0
EB
E0
F7
02
06
FB
04
ED
10
08
1C
04
15
FE
EB
E6
01
10
EA
05
DC
07
FF
0C
ED
FD
14
FD
08
F4
F6
11
07
FC
09
FA
13
07
0B
EC
10
05
FD
EA
F7
FF
0F
21
15
FD
F3
F4
EE
10
11
10
FB
17
FF
0E
02
07
F1
FA
FF
1A
10
05
05
F5
F7
DB
07
FD
15
FF
22
11
FE
F0
01
09
FC
17
01
03
15
06
F3
F2
03
F4
06
09
1D
07
F0
FA
FE
FB
0D
0C
17
24
36
21
F4
EA
04
FD
01
07
10
F7
08
FE
0C
E9
F0
F4
06
FB
09
01
15
0D
05
0B
13
0F
13
00
15
1F
FB
09
0A
FE
08
10
F7
20
0C
06
F9
F3
F0
08
F8
07
0E
22
FF
04
01
06
01
F7
EC
01
EC
18
15
F9
09
FE
0C
15
0D
FB
F1
08
EC
E2
FA
F3
F8
01
23
24
07
12
EB
23
FB
EF
12
ED
DB
F9
F6
F8
F7
00
0D
0E
F3
F9
06
F6
E9
CE
F2
09
FF
0B
07
07
EF
17
02
FE
EF
14
04
EB
E7
0F
FF
3B
08
10
01
00
01
14
F8
EE
E0
EF
01
E4
08
ED
14
14
00
F5
F2
FB
F7
06
FD
F4
1A
39
2F
26
0D
16
10
14
13
30
10
15
08
08
02
04
14
E5
FA
1C
22
1A
F2
04
F0
0A
02
0F
0F
0E
0E
16
08
F3
FC
05
11
F2
01
09
06
2B
22
1F
0E
07
07
FB
FB
E5
08
00
01
06
08
FE
EF
16
10
16
13
0C
06
16
08
EB
24
03
07
16
27
12
F1
F4
05
FC
06
F5
FB
F9
FE
02
0C
F9
02
0F
F7
FF
01
0A
F1
0C
FE
03
F0
FB
F4
10
F8
F7
F6
ED
03
F7
F7
F1
14
14
F1
EC
02
FD
F9
F9
F2
FC
05
17
1E
F0
F9
F9
F5
FA
18
22
1B
F5
DF
FD
1D
FE
F2
00
F0
FF
14
F0
12
10
04
09
E5
20
04
F7
08
2D
48
32
34
3A
1B
1C
F9
ED
08
F4
EE
01
F0
D5
ED
FC
03
14
0B
F8
FE
10
13
00
0C
17
1B
09
24
1B
20
0D
2B
25
FE
1C
08
03
F4
EE
1B
21
13
10
0E
11
05
10
00
02
D1
C5
FA
F6
F9
F6
F7
F4
0D
1A
0F
04
11
13
11
10
13
0F
FC
0C
1C
F6
00
0B
EE
18
0E
01
EC
D3
03
E6
F2
F9
E6
FE
14
F5
FB
16
10
11
02
07
08
07
FF
F8
0D
14
F6
FD
E9
17
23
01
15
04
F8
F9
04
E6
F6
EB
D8
FE
FE
08
09
11
F8
FA
06
DE
17
E5
12
0C
07
0C
E9
EA
19
05
0D
08
05
F4
02
E9
07
06
E8
F1
0D
FD
FA
FD
F2
FA
03
F1
FB
1A
35
DE
14
EF
FA
D4
E9
F9
FC
DB
F3
EA
E5
F3
00
06
FF
FE
E8
FA
DB
FC
FA
00
01
03
16
1F
32
F1
1A
F2
EA
EB
D3
E0
FA
E0
14
E9
07
F5
24
1A
0B
02
05
EF
F1
FB
FC
08
FB
FE
10
01
0F
0D
F2
0F
FA
F0
F3
E8
03
F3
E8
F1
D6
EB
0A
14
11
00
09
0B
02
FA
F0
F8
06
05
0E
11
30
11
DE
F7
0C
F3
00
FA
F0
E4
D8
D6
EE
E3
F0
0A
0F
1F
06
0D
0D
21
1F
F5
E7
F8
1A
30
2A
1B
01
0B
F3
02
FC
FC
E7
EC
CE
E0
DF
DC
FC
00
05
2E
1B
1F
22
14
08
11
E7
F5
FD
E7
24
17
0C
E9
EC
1E
EF
F0
D6
D7
C6
DB
C8
E2
D2
EF
04
23
1D
0B
F9
00
0E
10
FD
E4
FE
FF
FF
21
23
0B
05
00
FF
F3
E4
DA
DE
CB
D6
E1
D8
E4
EE
07
21
F3
00
03
0D
0F
0E
0B
F9
F8
F4
FF
F3
FF
F5
11
F8
08
17
FE
01
F9
C1
D7
CC
DC
DD
F6
0E
F9
05
07
F9
19
0A
FD
07
11
02
FD
1E
FB
F6
02
25
11
01
19
0E
0B
EE
DB
D4
DF
EB
FD
F9
E2
F3
F5
0A
F9
16
09
04
09
FE
0D
03
08
FB
00
0D
02
F5
02
1D
1E
F5
00
01
E9
E8
FF
F0
EF
FC
F7
0C
0C
F5
0F
F8
1A
FB
19
15
EA
13
F2
0C
F5
0D
20
FF
12
11
12
27
0F
05
1C
F9
FD
00
E4
01
0C
EC
07
FA
00
F5
F3
0D
FE
E2
FB
04
EA
03
F7
1A
17
21
05
22
11
09
09
03
F0
05
EB
06
EC
F3
F8
0B
F1
E4
FE
ED
09
F4
FF
F2
02
09
F4
03
07
15
01
02
0A
09
FC
0C
E9
FB
E9
FF
FF
F6
EC
0F
09
F7
0D
EF
00
03
09
C7
F5
F1
12
F3
13
10
FD
14
FA
EF
11
FC
06
04
04
04
E8
D6
F6
02
E3
FA
E9
F1
00
11
F2
DF
D3
E1
15
E2
F9
ED
E7
FD
09
01
F2
F9
10
F9
FA
F3
EC
FE
FC
D8
0B
18
D9
F2
FE
02
18
FF
E7
FA
ED
DC
E9
00
13
FB
E8
FA
0A
D9
E9
F3
F3
DA
F7
F0
E8
09
1D
19
DC
FC
F0
F1
F8
07
E2
D6
CE
F4
FE
F3
F0
F6
01
E8
FD
F3
EF
E4
09
08
09
F8
F7
EF
FA
E3
E8
09
12
0A
08
F8
FA
F1
FF
F9
F8
FA
00
F4
FB
05
14
02
FC
E9
EC
09
15
FB
0E
FC
09
04
01
FE
EF
00
14
12
05
F8
F9
15
11
22
21
EF
0C
08
22
F9
FA
EF
09
11
16
F3
F3
EC
03
FF
ED
FB
02
0E
11
0D
06
EF
F3
E8
0C
04
E0
E5
00
F2
09
07
F6
F7
11
12
18
05
11
01
09
13
0C
F8
FB
F8
F7
0E
11
00
11
FD
0D
F3
13
10
0B
01
F2
FA
06
FE
F8
00
0B
15
07
FF
0F
09
0E
01
0E
FE
F0
01
01
00
01
12
19
11
02
08
19
0B
11
FB
EA
FE
0C
20
F9
0E
2B
19
05
0B
0B
F7
08
0F
0C
0F
18
21
03
08
E6
EC
0E
10
04
06
1E
04
02
0B
FE
2E
19
0A
0B
F5
EA
08
F4
F8
EE
F7
D8
FA
0E
EA
EA
0B
00
01
FB
DD
DF
F0
F7
F7
DB
EE
0C
0A
FA
17
30
2F
26
F9
0F
FB
01
FA
EE
FB
02
11
FA
E2
EA
FC
F1
01
F7
F6
E8
00
F1
0C
EE
01
12
0E
14
2D
0A
01
05
FB
FB
FB
05
FB
16
F0
03
F6
EB
F4
F1
02
05
E3
F2
0C
ED
EA
FF
08
05
F8
FC
19
02
04
EA
DD
11
FC
05
15
FF
ED
F9
05
0C
F1
F1
DB
F8
00
01
FB
FE
F5
F8
F6
F7
F9
02
0C
20
04
E3
04
0F
EF
10
FC
17
0A
E6
F2
EF
E9
07
F0
07
E6
E7
F3
F0
1A
EC
04
EB
05
FA
0F
10
14
F9
ED
FA
0D
FA
FE
0F
F9
0C
F7
F8
0B
06
1E
07
09
05
11
FE
FB
FC
F8
0B
F8
0A
18
20
03
0B
F2
0B
0A
0F
14
F5
F1
13
0F
26
1D
21
2E
35
3C
27
17
E9
F0
F9
01
0C
00
F6
FE
3B
18
11
F8
F5
FA
FD
FC
F5
01
1C
44
24
54
51
3F
18
33
18
12
01
F5
00
EA
0E
FE
02
0E
24
FB
EF
FD
19
FE
07
1F
1A
2E
42
3C
49
3B
1B
09
0D
0F
06
11
01
F2
02
FA
FA
FE
0C
02
01
F0
05
07
09
F6
01
0F
26
2A
32
29
17
01
01
07
FF
08
13
1C
0D
0F
13
E6
0B
FE
00
0B
F2
01
F9
F6
EA
F0
07
02
2C
23
2E
06
E6
EC
EC
F4
EA
02
F5
0B
1F
FF
02
FC
10
EA
0E
10
0B
05
FF
FF
EE
FA
F2
08
F5
00
DE
F7
F1
EF
FB
06
EE
0C
FD
0A
0A
02
01
F2
F9
11
FB
FE
07
1F
E0
0A
0E
FB
E6
E3
09
F2
E1
E9
14
06
0C
0B
0D
0A
0F
09
F7
FD
10
05
F4
07
1B
EF
FD
16
FE
04
00
FE
FC
E4
E7
F9
F1
F5
FE
04
05
0F
0B
02
0B
F7
16
F1
08
01
0D
04
FF
EA
18
FC
01
FE
04
01
0C
EE
E0
FE
F3
03
FD
10
FC
F2
F6
14
0F
0B
18
03
09
07
18
18
0D
1B
15
F8
00
DE
18
02
0D
F4
FE
FF
F0
0A
04
FF
FE
12
FF
FF
04
05
FC
05
ED
F2
F1
EB
F1
FE
06
FB
05
EC
FC
08
EE
EB
FE
F0
06
06
01
EF
0F
10
F3
E8
09
EF
F6
F0
0F
FF
14
F6
F7
F6
F0
EE
E3
F8
02
19
D4
E3
FC
F5
F6
F8
FE
FD
F6
F6
07
14
07
07
F7
06
EA
00
09
06
0A
E7
0D
01
0D
0C
FB
FB
E4
ED
E6
03
FC
01
F4
11
16
0D
0A
07
F9
03
03
F8
EA
04
F9
F6
0B
F9
EA
F4
0D
09
FA
F8
E8
FB
E9
03
03
F4
05
FE
15
0E
01
1E
F7
F5
11
E3
F9
ED
0B
01
E8
02
E3
0F
05
FD
FD
05
E2
FC
08
FB
07
F4
EA
01
FF
06
14
05
03
FB
09
0F
FD
F1
ED
F1
F5
10
07
F2
02
0A
FF
13
FC
FC
00
10
EC
08
08
0E
01
F1
0B
F8
10
F5
FF
FE
0E
05
F1
FA
0F
02
14
F0
09
15
FB
0E
00
1A
0D
1B
2B
17
14
10
FB
E5
FC
10
02
F9
F6
01
F3
ED
0E
0A
04
19
09
FE
0E
F3
FE
F6
F1
FC
F9
F8
FD
10
F4
06
FA
12
1B
00
0D
16
24
19
11
15
01
17
17
07
02
FC
F4
06
FA
EF
F1
0D
F9
FA
FC
F3
16
F9
00
04
13
00
10
F7
06
0D
F2
FC
0A
00
FF
0D
0B
FF
FF
EF
FB
EE
FA
02
FB
08
F1
05
F5
F2
13
14
E6
F8
0B
13
F5
03
F3
F1
0A
F1
F7
0F
02
14
F6
0A
F4
05
F1
07
08
07
07
E9
09
06
F9
F7
E5
04
22
FF
F4
DE
03
0B
EA
DF
F0
02
F2
09
02
10
0F
F5
FF
F5
EE
01
10
E6
E7
04
D7
0D
18
18
0A
F3
E1
E1
D9
E4
E2
E0
EE
09
EE
07
05
12
07
EB
01
EB
05
EC
EB
15
F1
13
10
12
FB
ED
09
EE
FF
FC
24
0A
E1
EF
14
25
34
0F
F4
F8
0F
F8
0E
E9
15
0A
0F
F2
0E
F9
1C
0D
24
0F
09
F6
FC
E6
05
14
F6
F4
0C
1D
0F
0B
0E
01
01
01
15
01
12
E2
03
05
0E
F7
0E
10
25
19
14
10
FD
06
FC
F1
F5
0D
F4
EE
F4
F9
15
0A
F6
01
F5
FF
F2
E6
F8
E9
EF
FD
F0
F6
01
1A
06
14
FD
FE
06
FB
0B
06
0A
19
F8
0B
FD
FF
0B
DE
15
EC
0B
03
E6
EF
FF
00
11
07
F9
00
F6
07
08
03
01
F8
F1
E6
0A
F5
FB
0B
08
FF
F8
D8
13
E2
FD
00
03
04
F7
06
08
F7
06
11
0B
EA
F3
03
00
FB
EA
0C
07
0A
04
1A
24
02
F2
E1
DD
F9
F6
FA
17
F7
0A
F7
11
F5
09
FC
EC
E0
F5
13
F1
06
10
0F
FD
FD
04
0E
31
03
EF
05
D8
F6
09
12
11
EE
F8
ED
02
0C
20
F9
F2
DA
FD
E9
F9
07
F4
04
08
15
1E
0B
20
03
00
EB
08
F4
1F
1C
FE
0A
FB
16
0E
0E
20
EB
F7
E1
04
ED
0E
F7
EF
F7
03
12
12
15
08
0E
05
03
EA
1B
2C
29
15
1F
0F
FB
10
27
1A
2D
02
0E
05
12
F9
1C
0E
04
08
08
10
F3
0E
EE
FE
ED
F1
04
36
13
01
F8
0B
EF
17
21
30
20
13
FC
0C
F2
09
17
0B
F2
06
12
F9
F0
11
FF
08
F8
DF
0F
06
F2
FD
0B
EE
07
F7
10
0C
10
0E
14
FC
08
09
04
EC
EC
EE
F0
E4
04
DA
06
07
1C
E1
F8
0C
E8
EA
DF
F2
EC
17
1D
0E
01
13
0B
FE
0B
EF
E4
F8
FB
01
DE
CB
F6
01
FE
E3
0D
03
06
01
F2
FA
E4
FB
06
10
23
10
12
0D
06
0E
03
0A
E5
F6
E8
F3
DD
EB
FF
FE
0C
F8
06
16
FA
E4
F6
E9
E9
EE
FA
0B
20
0D
12
F0
0F
0D
04
08
F1
F8
0D
E7
E6
05
0C
EC
07
09
FC
05
F5
ED
16
08
FC
DB
CF
EC
0A
EF
FA
E2
F7
0D
FE
E7
05
F6
0F
F9
16
0B
F6
0C
0C
00
EE
F5
EB
F9
2F
04
EF
F7
E7
E1
F4
F4
D9
EA
F1
0B
12
18
0D
03
03
0E
13
F4
F3
04
FC
ED
E9
EB
17
FF
23
FB
F5
F9
D9
FC
E4
E9
E8
03
ED
F6
14
1F
22
25
0D
0C
15
00
01
EF
07
0B
11
F0
FD
15
FC
05
F9
EA
F8
F4
01
F0
F0
00
F9
FB
18
07
FD
09
1A
0A
2F
19
0F
F1
F1
F7
06
E8
10
F6
F1
03
01
08
EC
00
07
08
11
F6
FE
00
EF
EF
07
00
22
0F
36
09
19
FB
FB
12
EE
FD
21
FC
F7
F8
02
22
F3
02
07
04
EF
11
0D
05
0E
F9
09
0D
2A
19
3D
13
F7
E5
14
F9
01
FD
F0
F7
F9
F2
F1
0B
16
FF
FE
1A
F9
FF
F4
03
16
14
1C
1D
22
1E
31
1A
0C
E5
FC
01
07
06
F5
FD
FC
04
02
00
0F
1F
0B
EE
13
FC
07
FE
EE
02
EF
F5
1E
1E
22
F8
FB
04
0C
0A
F3
ED
0C
11
13
FE
13
07
12
FA
09
17
19
13
10
0C
FA
FD
FD
F1
20
FC
04
1D
09
EB
0E
EF
F6
15
07
FE
F4
F9
FB
F7
0B
F7
04
01
E6
FC
09
16
F9
08
16
1A
02
0E
E5
0A
EE
0D
10
11
0B
F0
14
FD
EE
09
03
07
07
F7
F7
11
F4
EF
09
0A
02
05
F9
0B
13
03
0A
02
01
09
FE
0B
EC
F9
11
EC
F9
01
14
0A
0D
14
11
FD
F1
0B
F2
F7
FA
19
17
02
17
03
04
00
0A
13
F8
0B
06
11
0D
09
01
24
42
01
09
EE
FE
DA
EE
0B
00
F9
26
05
06
F7
FB
0C
13
13
00
F6
03
03
02
06
F4
08
E2
09
02
27
16
EF
DE
FB
EC
02
EC
F3
01
E8
F9
FD
FC
F7
FC
FB
F8
ED
F5
F6
F7
02
F3
F2
DB
F4
1C
05
27
06
11
17
F0
F3
E6
11
F5
0F
01
FE
0C
ED
F7
18
18
06
FC
EF
00
F5
F2
FD
06
EE
0C
F1
E8
FB
EC
FB
F7
F1
08
0C
00
FA
0D
23
1E
F7
01
FE
07
0A
F8
0E
1A
FB
F2
0D
00
01
08
08
F4
E0
F1
09
F6
0A
F5
04
FB
F0
FF
10
00
06
F8
1C
FF
F4
23
05
06
FD
E3
ED
EF
ED
F8
04
E7
06
F6
F8
F3
00
05
00
07
F5
FC
05
05
03
13
19
1F
F1
07
1C
01
EA
01
FF
02
F8
09
F4
01
F0
03
F1
F0
01
F9
0D
F7
0E
FC
23
F0
12
04
23
FD
06
FC
18
10
FE
04
FA
01
FE
08
17
11
F3
EA
FC
F3
02
F8
03
FA
F9
18
16
12
16
1D
13
02
0C
0E
F2
04
F4
EF
FD
03
0D
09
0F
0C
F4
02
F3
F0
20
FA
0A
EE
0A
09
16
13
11
17
28
15
34
11
F1
FB
06
05
0D
FE
1E
0C
F6
18
04
F5
EA
04
09
08
E8
D7
DE
EA
13
06
1A
0A
19
16
28
17
12
1A
F9
F2
05
25
02
05
1A
F6
F6
EE
F4
12
19
E0
C7
E6
E4
F5
07
01
FF
02
15
F4
2F
F4
0A
25
20
FE
0A
FE
03
E5
FA
EF
EA
F1
0B
19
0E
EE
E9
D6
F3
E9
E0
DB
DB
F2
D8
F4
13
F7
06
F6
2A
FE
F1
F8
DC
F8
06
E9
EF
02
13
15
15
04
DE
D9
EB
DB
E6
BF
B3
BC
CE
F2
06
ED
1E
11
FF
1D
0B
E6
EB
F7
F2
02
F1
F9
0B
2B
0C
08
F2
F5
EB
EE
C8
B9
AF
D5
C3
F2
E1
E7
03
ED
07
0D
F7
04
0A
EE
F2
05
F6
1B
15
26
16
0F
0A
EE
EE
EC
DD
E0
E0
E0
D6
F0
FC
E8
FF
06
EA
18
FB
E6
FD
FC
E8
FA
27
21
02
14
0A
F7
04
00
13
13
FB
F4
05
F1
D6
DD
F5
F8
06
18
E6
05
0A
EC
E4
EB
FF
1A
27
1C
21
02
F9
F0
FA
08
18
0A
F8
05
F1
E5
EA
F9
0C
FD
FF
FC
F4
EB
E9
05
FB
F0
F6
FE
04
12
05
06
07
00
FC
0B
19
13
0E
16
09
F4
F3
03
02
FE
08
E0
E9
F8
E2
05
08
1E
FB
06
0A
0B
0E
06
02
12
0F
12
0B
04
27
1D
F7
0B
ED
EB
F4
19
18
06
E3
E2
D6
06
FE
09
01
13
FD
07
0C
FD
19
25
1F
12
0D
0B
1D
15
2B
0C
F2
E9
FF
FA
09
F8
FF
DC
F6
13
F3
FF
F5
04
F8
0E
01
11
0B
FF
05
1F
22
06
15
24
18
03
04
F6
06
F3
FE
12
03
F7
FB
12
0A
E5
11
08
01
FA
02
FA
11
1F
27
09
FD
02
19
0D
08
14
0E
FA
1A
FE
0C
F3
F1
E3
F3
F1
E6
01
00
09
0E
FB
12
10
F4
F8
15
08
17
29
F3
F8
12
00
0C
FA
06
11
F6
F8
07
F3
E4
D6
E3
F5
EB
EE
FA
FE
18
E6
07
FF
F7
ED
F2
00
F7
E3
ED
04
F7
0E
01
08
FD
EB
F5
03
FD
03
EF
EB
02
06
F4
00
F0
F4
FB
06
00
E5
FB
F4
DE
FC
07
F5
FC
F4
07
02
FA
06
F7
0A
F4
F4
E8
E6
F2
10
E1
FD
FA
ED
F0
0C
FE
F6
E2
E7
08
E2
FE
01
03
F2
00
12
03
FB
EF
FC
FE
0E
EB
EF
F0
12
F8
FC
0F
0C
F5
FE
F9
F2
06
15
0D
0B
14
F6
08
0D
EC
0A
0E
ED
F8
10
0D
13
10
03
0F
FF
16
F3
F1
F4
17
11
FE
08
FF
03
08
0E
04
17
F7
FE
03
EE
FA
FD
FC
F6
E0
02
17
20
1C
0C
2E
29
3F
31
35
21
20
04
00
13
FE
08
0A
FF
EB
F4
00
00
04
EC
F1
EB
00
F7
F9
1C
32
1F
1D
16
24
16
23
11
0B
EE
F9
F6
00
15
2B
25
1F
06
FF
08
12
FD
F8
0D
08
03
18
0B
09
02
F3
0D
16
F3
11
F5
F0
F1
F4
F7
0E
21
17
1F
0E
09
EF
09
F8
FA
0A
0F
0A
24
11
01
04
25
03
EC
F3
E1
EC
D9
E7
D1
EC
12
FD
11
00
19
05
F2
FF
08
0F
07
04
24
08
16
0D
FE
20
0C
02
FE
0B
EE
DD
D3
D3
F4
16
19
14
1B
0A
00
12
09
3D
00
F5
23
15
10
FD
07
F8
1A
FD
1C
18
0E
08
08
E0
E2
E6
F1
10
00
FA
F3
13
09
FB
03
31
1A
1B
21
0A
09
06
E9
14
09
0D
07
F8
1D
0E
EA
DA
E9
FE
07
17
0A
1B
F8
FD
F7
07
0F
0A
FF
0B
1F
F4
0B
0E
0F
F4
FE
06
14
04
10
12
ED
E4
EC
0C
FE
11
FE
17
17
FF
05
0C
09
F7
E9
18
03
FC
F4
FC
FA
00
F9
F0
FB
14
24
11
E2
D2
06
17
10
08
18
0A
12
F9
ED
EA
00
FD
F8
28
12
0C
12
05
F2
0B
F6
FE
EA
1B
0D
0A
EA
E7
07
17
24
08
F7
11
0E
0E
0D
D2
01
0A
15
1D
11
0D
17
FF
02
FA
07
10
12
06
19
F6
CB
DE
F9
24
0B
16
04
F6
0A
0D
08
F6
F7
02
F3
ED
0C
10
03
0C
19
0F
11
FD
F4
FA
FA
EA
D4
D8
1C
0E
0D
11
15
FD
01
03
F5
04
0B
EC
F3
16
F7
07
F8
F4
06
10
F1
00
02
00
F8
D8
D9
EE
0B
1C
11
21
03
FD
01
FD
F8
F0
08
05
FA
1F
0C
F7
10
F7
FC
1B
02
03
0A
F5
FC
DB
E0
0C
19
0B
FF
03
1D
07
1A
05
0F
FE
F0
F3
FA
18
F1
F6
F3
FE
F4
23
05
F9
02
F2
E5
EE
0E
07
FE
17
FB
13
1A
F8
0B
1E
14
07
DF
D8
EA
03
12
11
F2
12
FD
05
06
06
01
E5
E9
F3
F8
04
0E
06
07
FC
05
FD
F5
0C
FD
F2
16
F9
D7
EE
FC
11
0C
F3
EB
02
E9
08
EE
F0
F6
E4
0F
0E
03
F8
F6
0C
FA
18
04
0B
F5
03
13
06
FB
FC
1F
F1
12
00
04
E4
F0
F0
EF
E2
F9
E7
0E
10
18
0A
05
FE
F2
00
EA
EA
D5
15
EE
15
1C
06
F2
F0
E9
EA
07
05
E0
DE
DE
D8
EC
E6
15
F8
FD
0A
F6
01
E8
F1
FB
DF
F1
F3
DF
14
08
FB
00
FE
EF
DD
D0
E5
03
F6
F5
FD
F1
F1
07
01
FB
F5
08
F9
F3
05
D9
ED
E5
01
E5
11
FE
F1
0C
F1
F6
F6
01
E9
E3
F8
F3
11
F2
FA
EE
EB
F0
F9
F4
E4
EE
02
E3
E8
F6
F3
FB
0D
FF
14
15
06
F0
17
12
07
FD
EA
13
0E
E7
F5
E9
02
F8
EE
0A
04
F6
E0
FD
ED
EB
11
09
24
0F
F3
09
FD
1D
1E
11
37
07
F9
FB
06
F8
0B
FD
04
F1
08
03
EE
05
F5
F7
F5
E6
ED
FB
10
09
EF
FE
FE
01
17
27
2B
22
FD
0B
F6
10
EF
06
02
F4
F9
FB
0E
04
E0
EF
01
F1
EA
03
FB
EF
ED
EE
FC
ED
E9
FE
F5
01
0F
E1
EF
03
E6
07
06
13
00
07
FA
1A
04
E3
0C
02
E5
17
F8
F7
08
04
EC
10
14
12
E2
F6
E1
FD
0C
F2
00
11
04
EC
05
FF
0D
0C
F6
FC
06
0A
12
EB
F7
07
F3
F7
EC
0D
07
10
F5
EC
0B
F7
F4
09
16
12
F2
02
0A
0D
F7
13
09
FE
06
FE
F2
0A
FF
FE
05
F3
09
FE
FF
F3
FA
FD
06
1E
19
F3
1A
F6
0E
0C
09
F8
11
FA
18
2A
19
FA
FA
14
14
F4
F7
06
FE
FF
07
EC
04
ED
02
FB
FD
F2
10
15
25
03
EB
F9
0A
FC
08
27
21
08
03
05
FC
EE
F3
FB
F9
08
F7
F8
FF
08
1D
FE
0A
03
1A
16
F7
FD
F5
FF
09
0F
08
16
F8
F6
F5
FA
F0
F0
FD
11
F9
25
10
02
F9
02
FC
EB
FD
FE
FB
0E
FC
08
FC
09
EE
0C
07
0F
0C
04
00
FD
1A
01
EE
F1
EF
EE
DE
01
19
23
F0
FC
F8
FF
06
01
F8
04
06
0C
F3
F4
F0
01
F5
0A
10
0E
10
0C
07
F0
16
00
F5
ED
08
10
1D
24
07
09
12
06
04
12
09
12
13
11
FD
19
08
0C
04
07
0C
08
EE
06
FB
0A
DE
DD
04
EB
F3
16
0D
11
12
12
FC
0C
00
F0
13
06
0C
08
EE
16
F0
EF
F4
FF
E9
02
03
0B
FF
EF
FB
FA
16
21
1C
0B
0A
07
F9
10
02
EE
F7
1B
08
0C
03
06
EC
02
16
F2
16
03
09
06
EE
EF
FC
1B
00
09
1B
FC
F9
FB
E5
F9
EF
11
0D
0A
1D
08
06
ED
F4
09
F1
10
0A
F0
FC
0B
06
26
0C
F1
0F
F1
F7
07
F2
02
14
F5
03
18
12
25
2D
27
1C
EA
C7
DD
07
E3
14
03
07
FB
24
25
0C
08
FB
F5
FD
E1
06
10
25
16
08
1A
1B
04
0E
0D
16
DF
B7
E7
0C
EC
FB
F6
F3
0E
0D
26
1D
FD
FF
E1
EB
F8
04
00
1C
15
1E
1F
1D
08
F7
15
04
E8
CC
EC
E3
0B
04
F2
F8
0C
21
1E
FC
FC
F9
F5
E7
F0
F0
08
21
1F
0A
07
0C
15
F7
EB
F2
EF
DD
EC
EC
0E
ED
10
07
FE
00
F9
07
F4
FA
F2
DB
05
05
03
07
0B
14
FD
F0
10
FA
F9
F8
DF
E0
F6
04
0E
F3
FD
EE
0F
0D
FA
F2
FA
FA
EF
00
02
09
09
01
0C
FA
F9
00
F6
E8
EF
ED
F4
FE
FA
E9
0A
1E
18
FB
F9
12
F2
F4
05
FF
FD
07
F5
F4
02
FA
E6
0C
FF
05
08
01
EA
EE
D7
04
E6
FF
E6
14
06
0F
09
13
02
F9
08
FD
01
02
F8
FF
FE
F5
05
F5
0F
08
F8
0E
EA
F5
E0
CF
E3
FB
E7
1B
20
21
1E
0C
FA
00
EE
FD
01
02
01
F5
11
F6
04
EB
12
0A
F4
03
0B
E1
C9
D3
E3
0D
09
0A
01
10
21
06
F7
F2
ED
F4
FA
E9
F3
05
DC
E5
F1
EE
00
FC
F7
FF
F2
F3
C4
E1
0B
E8
22
0F
F9
E5
02
F7
EB
0D
ED
E7
03
F0
DC
EF
FC
00
FD
EC
07
F3
F4
F6
F2
EA
E5
FE
E6
01
08
FE
F3
F9
E7
04
00
07
07
EB
ED
F1
FB
F9
FC
EA
F2
EF
04
E0
EC
E9
F2
DD
FA
F7
EE
01
0D
F5
12
E1
FF
F5
FA
13
F5
09
E5
09
02
E8
EA
12
12
EC
FF
EC
09
D9
FC
0D
0D
F5
F4
D6
0E
12
EE
03
07
EE
FA
01
12
DE
E2
FD
FF
ED
0E
05
1A
09
F8
F8
F7
02
04
15
08
0F
01
F9
03
EC
EC
19
23
17
17
F8
F1
FE
00
06
12
02
0C
FD
0B
02
17
19
F1
08
FE
FB
1B
FC
F8
E5
F3
F9
FA
05
F8
0B
16
06
FD
0C
08
0E
28
0C
0C
2E
29
30
2E
1B
19
20
1C
0E
F6
ED
F8
FA
06
06
0E
05
FB
FC
1A
0B
09
00
06
F2
17
1A
17
19
15
15
1F
2D
07
1C
2D
06
00
2A
13
08
FE
FF
04
F1
FA
F8
00
02
22
09
F2
EE
FA
03
18
10
00
0C
13
20
26
13
16
28
F7
F7
F6
05
F7
FD
F9
FD
F1
EF
EF
F3
0C
F8
15
F7
F6
02
FE
13
F0
09
0F
FE
FC
F1
FF
FC
12
0B
03
15
F6
13
F5
EB
08
FC
0C
15
F3
0C
14
01
14
04
06
EA
E1
EE
0F
0F
03
01
FA
0A
F4
EB
F8
F4
13
FB
0D
0B
07
0B
06
19
19
00
10
06
0C
14
FE
E3
E0
FA
02
28
09
FF
08
FB
0D
EC
00
04
01
FA
F5
00
08
EC
12
1B
0D
1E
3F
10
02
E1
03
13
02
15
17
13
2D
32
20
18
16
F9
01
FD
F6
13
FF
ED
F9
FB
FE
03
EC
FD
14
FF
F1
06
F7
07
24
1C
22
2F
02
2B
29
0F
01
01
07
F6
F7
04
FD
F6
F0
EE
D3
DF
EF
EB
14
0D
FD
F0
03
0A
0B
04
1C
27
0C
03
20
15
0E
F7
1B
02
0D
00
1A
11
FB
00
E3
F3
EF
F2
01
E4
01
01
F1
08
FA
F4
FA
0A
1F
18
1D
1C
15
1D
15
F3
ED
F9
E0
13
DF
E1
F2
F9
EA
F3
04
F8
F6
E1
DB
EC
F1
00
FE
FB
18
14
06
FF
11
1B
1F
16
0A
0B
06
11
F4
D7
0B
DF
FC
FF
E6
F9
FB
ED
EA
E2
F8
0E
FA
13
0D
18
13
15
0F
2A
2A
F2
15
F7
EC
04
06
F6
E5
D9
EA
E4
FC
EC
0C
0A
01
FA
FB
F9
E6
01
FA
16
07
F5
18
42
0B
EE
EC
04
09
F1
FB
EC
E6
F3
FF
0E
08
02
19
14
0B
E7
00
FE
FB
EF
04
F0
F7
FA
FF
3F
07
01
F4
FC
F3
FC
EB
07
F1
05
19
1F
22
30
17
16
18
FB
00
EF
EE
EA
FF
ED
0D
06
16
1C
21
07
FA
07
F3
04
F7
06
06
23
2C
2A
1A
0A
0D
0E
05
00
DD
F1
03
E3
E8
0F
06
12
10
2E
EF
FE
F6
0D
F5
11
FA
0B
21
10
09
16
1C
FD
00
0F
EA
04
03
ED
F7
03
04
08
03
1D
25
1F
00
F9
02
0E
FC
F4
FF
03
20
05
20
10
0F
1F
1E
09
02
E9
E1
E9
F2
EC
F5
19
FD
1A
17
22
1D
02
0D
08
FC
0C
F9
01
0B
1A
0F
0C
03
E8
F0
1A
F8
FD
F8
07
F4
18
03
F8
04
EC
0C
29
1D
01
09
FA
04
E3
EF
04
14
0A
07
1F
04
F8
16
17
00
FE
FC
F3
10
02
FB
06
F7
06
1A
0B
22
EF
06
EE
E3
E1
D8
00
F3
1F
09
21
1B
1E
03
02
0C
02
0A
F5
0F
0F
13
FD
0F
05
21
22
1B
16
F8
E8
FD
E4
01
F0
FA
15
1D
1B
2D
13
20
07
07
F1
01
04
05
0D
F1
17
0B
01
23
1D
0F
F6
D9
0B
00
D8
F9
FC
12
F5
18
24
17
16
22
1E
16
F1
08
FC
FE
F7
06
12
0A
05
10
18
01
FE
DA
12
0D
FE
F4
FD
04
EF
0C
01
00
17
16
0F
16
E4
0A
0E
F6
0A
F5
05
0C
03
15
16
F8
FD
F0
F1
F3
F1
F2
E4
DF
06
FE
F6
00
05
02
FE
F2
14
08
F6
12
11
0D
FA
FE
16
FE
00
02
06
15
F9
00
0E
E8
E7
F2
EC
FB
FA
0D
F7
0D
12
03
10
04
F7
F9
FB
ED
EA
F9
1D
F7
14
F7
ED
04
FB
10
FC
F4
F6
F2
05
FC
0A
09
18
0F
FB
05
09
F1
07
07
FB
01
F1
FE
19
12
02
F9
FB
10
03
01
F3
EA
D9
D6
E1
F6
F2
02
06
F6
05
0C
0F
11
19
F9
08
13
F4
F5
E8
EC
EF
FC
F7
05
ED
0E
EC
FF
E3
E9
E4
E9
F5
05
03
12
01
E2
06
17
FC
FF
00
F0
EC
08
EE
F6
FC
0E
2A
FF
F9
EF
FC
F7
18
EA
FD
17
05
F5
F6
0B
E9
EE
EF
CF
F0
00
EE
E5
F1
00
03
07
EE
04
0E
EB
EB
02
F8
0C
0B
16
EB
0D
FE
07
EB
EC
00
FE
E4
F0
E9
0B
EE
08
ED
F5
EE
1A
13
0F
FA
F2
