F6
03
EC
FD
0E
FE
F1
EE
F8
01
0F
EF
F8
F4
05
F8
F3
F8
F3
0D
10
0B
F3
FB
FB
0D
FA
F8
FE
F3
FB
F8
E4
DF
03
05
EF
05
E8
F3
DB
F0
F1
1E
0E
14
F8
06
E7
0F
FD
F4
06
12
F0
0E
12
F2
F3
F2
FB
ED
FB
EC
05
0E
09
FD
0B
08
10
0B
0A
0F
F4
DA
F7
F0
EF
0E
1F
1A
FA
11
00
07
F9
09
11
05
05
10
0E
19
0C
05
03
0B
27
00
0A
F9
FA
F1
E0
D8
F2
DF
F2
0E
F1
07
FD
F5
25
1D
11
03
FD
F5
10
25
0C
1B
0A
09
07
FD
13
FC
15
EF
E6
EB
DB
E5
D6
F1
08
FE
02
F2
21
0F
19
02
1A
00
0C
08
1F
FE
29
2C
16
0D
18
06
0E
06
F7
06
F1
EA
FC
E7
04
FC
05
0E
05
0F
2A
04
03
09
0A
0B
00
F9
15
0F
1E
0F
F7
FA
06
08
FE
FF
D9
DB
F1
F1
09
26
EF
F3
F4
1B
1C
0C
1B
FF
ED
DD
F5
F7
17
F7
0C
06
03
F6
EE
F4
0D
F6
DE
C6
ED
E9
07
03
EA
E8
FD
12
1A
1E
F8
FD
F7
DF
F1
E8
0A
0D
05
F8
15
00
0A
FE
12
01
F3
D0
E1
D3
F1
FA
0B
F2
F9
0A
24
03
E1
E7
F5
F5
E3
CE
E5
0D
19
FE
F8
15
F2
0E
18
EE
E2
CC
DA
F5
1B
12
ED
F8
F3
EB
0F
EA
F4
D6
EA
D0
ED
D9
D8
F4
1D
00
08
04
FF
0E
09
F4
F9
D9
D6
11
0E
19
0F
05
05
F6
EF
DD
D7
D0
EA
DC
ED
FA
EC
F2
00
1A
09
F7
0B
07
00
DF
DC
DA
FA
F9
00
1B
0C
05
01
E4
E0
E5
C1
E4
FE
EF
F2
E4
F0
08
16
15
0B
FA
09
05
FF
DD
EB
EB
20
20
10
01
10
FF
17
FC
CB
DF
D7
EA
F2
0C
F7
E5
EA
14
07
08
02
0B
FB
0B
FE
DC
F7
F0
F2
0F
1E
02
08
03
F8
07
E9
CF
FA
F8
F1
F0
F9
DB
F3
FE
30
0F
FE
FB
F1
F6
F2
F9
E8
F8
F7
F8
0B
1A
F2
E4
EF
F7
FD
0E
FF
02
0D
F3
E0
E5
E8
00
17
07
16
E8
E2
FE
DF
F1
F0
E9
0F
F2
27
01
0C
E7
10
09
0A
04
02
EA
F0
F7
00
EB
02
10
08
07
FC
FF
E7
EC
FD
04
E8
E7
1D
28
24
16
12
16
F9
20
FB
0A
08
03
F3
EF
EB
04
00
18
1E
0C
EE
F9
16
08
03
07
14
FD
14
29
19
20
F4
0F
F7
23
1B
FD
12
06
12
F1
F2
06
F8
EF
12
03
FA
03
16
11
FD
0A
10
13
14
1E
0F
FF
F9
11
FF
20
13
0F
0E
0F
FF
10
0D
F6
04
15
FB
1A
0C
03
02
FF
17
0A
05
F6
0D
26
08
13
07
00
F8
12
1A
07
18
14
11
25
09
0B
EC
0C
03
FF
02
13
0C
02
17
03
F7
02
15
0D
1B
F2
0A
F5
0F
09
07
0E
18
1A
0D
09
1D
F1
E9
FD
EF
0D
14
FF
24
1E
0C
04
04
0F
08
1D
F4
E9
18
01
24
33
FE
2B
29
24
19
0C
F9
FB
F2
DF
EF
04
0B
FE
18
09
27
18
03
F8
15
09
1D
F6
13
0E
24
2F
14
07
12
22
12
0F
16
0C
0D
07
FF
F7
FE
00
18
0F
12
08
19
0C
08
0E
03
0D
0F
FE
E9
0B
DE
07
07
F8
EA
14
EE
EF
10
EB
05
F3
DF
00
05
1C
F8
11
12
06
10
0E
07
EF
0D
F1
00
E3
EE
DC
D4
E9
E0
E2
D2
C5
DA
BB
D5
D5
B9
D6
D1
D6
E5
F8
EF
0B
F8
FF
1D
F5
13
FC
10
FD
02
F8
0E
F4
03
0F
E1
E0
D3
F8
D7
E1
DF
E5
F5
EA
09
00
EC
04
F3
0D
F4
FC
FE
09
01
0D
FF
F3
EB
0B
F1
04
E8
00
FF
0C
FC
0D
F6
09
FE
16
FD
00
E7
10
F2
F3
14
ED
08
ED
F6
12
EC
05
F4
F2
FB
12
07
0F
09
0F
14
0F
02
F3
0B
EE
F3
14
12
04
02
04
F5
12
F3
FD
ED
00
0B
05
F8
0C
15
10
0B
15
07
00
02
17
03
18
03
1E
33
1A
26
06
07
0F
06
FD
04
F7
1B
F9
F3
11
04
0A
12
23
2B
16
25
00
22
1F
16
12
1B
28
23
41
2C
31
12
FC
03
EC
0B
EE
F5
16
1E
18
10
32
1B
22
1D
F9
05
18
0F
11
27
08
0B
23
2C
26
24
12
1B
21
0B
FF
11
FB
FB
FD
03
26
1A
FA
09
08
FD
F0
06
11
02
F1
F6
11
0B
F7
20
09
15
0F
DB
04
00
06
ED
14
11
0C
1A
F4
09
0C
FE
01
FF
02
F0
F1
EE
F4
F4
07
EF
F5
F7
FE
F8
E1
FB
04
0E
14
F9
0D
03
FA
14
F8
FD
1B
00
03
17
04
0F
0D
02
F7
FE
FC
FC
EC
05
EE
ED
D5
ED
DE
E1
02
FE
0F
FA
0F
FC
0B
0B
01
FD
FF
FF
13
06
FE
F8
0F
F2
ED
02
F5
E0
EB
EC
D4
EB
F0
EF
FD
D5
07
26
11
32
15
00
0C
04
07
11
1A
FB
00
12
0A
F1
F5
E3
E0
01
09
F0
F3
CD
D5
FF
03
07
1D
12
1F
26
16
14
08
22
21
0B
04
1D
0A
0F
FC
06
FA
E2
E9
F2
03
08
F0
F3
E7
F2
F1
FE
12
01
1B
11
12
1D
14
19
14
06
08
E8
F8
FE
01
F1
E6
0B
00
F7
F3
04
F0
F7
13
F5
E3
24
F9
FC
F4
0C
0C
FA
EC
02
ED
EF
FA
F1
E8
DA
EE
D5
F6
F2
F8
EF
FB
01
1C
FB
00
E9
06
00
F6
01
EE
03
E6
E1
D3
D7
E4
D8
D8
C5
C8
CD
E4
06
EB
0B
03
04
03
15
FB
0A
03
1B
FC
E9
F1
0E
E2
CE
CB
DB
DB
CC
D4
CD
E2
E3
F4
04
FD
12
0A
FA
E2
F4
09
EF
1B
11
21
1E
1C
0C
F8
F8
D5
D3
CC
CF
C4
EB
F8
FB
F3
F9
EF
14
12
0A
FA
15
0D
02
04
0E
FB
21
04
2F
0A
09
F9
01
E9
CC
D6
04
EE
DF
E8
08
0A
14
1F
0C
11
16
16
06
0D
15
07
10
0B
12
24
08
FC
0E
F8
DA
D9
E2
03
FB
FC
02
0B
FA
10
03
12
21
1B
0B
FA
01
04
F5
22
20
FA
1C
2B
2C
14
F8
F4
F3
FB
FD
06
0F
0E
06
04
FF
16
FD
08
1A
19
07
FE
F6
0C
0D
FB
F6
F4
17
21
10
1C
02
F4
DB
15
F7
09
06
F8
05
0B
FD
0A
17
1A
03
05
03
0D
FE
05
F5
E8
05
09
2A
28
FE
06
F4
E7
E7
08
08
01
F4
0D
0F
F7
1A
18
1D
02
25
16
18
F6
07
06
F8
02
04
07
14
38
07
F7
EE
E8
EE
0B
FB
06
05
F6
10
09
F9
18
FD
13
03
08
16
FC
F4
FC
0B
06
04
FD
FD
1F
FA
E9
03
09
02
0A
F4
18
EF
14
0A
F6
02
0B
1A
0F
02
01
12
02
0E
FC
07
E9
FF
EC
FA
0A
0C
FB
F4
EB
FD
13
21
1E
00
0E
12
04
04
03
08
01
06
EA
06
ED
F4
EE
01
DF
01
F8
06
F7
ED
FB
0B
13
EF
F2
27
0D
0C
F7
0A
04
EC
DF
E7
F0
E6
FC
E5
F0
F8
EA
FD
08
FE
E4
00
E3
0E
F8
08
09
ED
ED
0B
19
1F
0E
1F
FF
05
09
F8
F3
09
12
FB
0B
09
07
FA
FD
E1
01
08
09
26
ED
03
11
DF
03
05
1E
0E
1A
FF
FD
0E
08
1B
FD
0A
F7
05
03
10
07
F7
04
EE
E0
FB
06
02
F1
10
FF
05
02
0C
F9
17
22
09
17
22
FF
07
11
11
13
20
E4
05
F9
ED
F0
F3
08
0F
08
12
EF
07
0E
02
FA
12
18
23
33
0E
1E
0C
14
1C
20
1C
21
14
13
13
FB
F0
FA
10
0A
EF
04
F2
FB
0E
00
03
F7
F1
FB
F7
0C
F6
02
F3
14
FB
0A
F2
0E
14
13
0F
F9
F6
12
F6
0F
F1
0F
04
FB
FF
F7
F9
F4
02
04
28
11
F9
11
05
1B
2A
13
06
00
0E
0D
28
29
1D
11
11
09
10
F7
12
11
F4
F2
01
01
15
F6
F7
0D
15
2C
20
21
16
17
12
22
24
1B
1E
16
2D
23
29
20
EA
FA
FA
F9
10
0B
F8
17
09
0B
0C
29
2A
11
1E
27
2C
20
11
13
11
08
16
0B
FF
11
18
1F
0A
F7
1D
05
04
FF
F0
E8
05
F8
10
0B
08
06
EF
11
F1
01
19
1F
02
06
F9
02
02
F4
04
0F
FC
EE
14
09
FB
ED
F0
10
1D
1D
08
0B
E4
EF
0B
EA
09
0D
0B
F0
0A
0D
F8
12
14
F1
0C
F8
F3
F2
FC
0A
F6
00
F3
ED
1F
0E
0E
F0
FE
EB
0B
F2
06
01
E3
00
F1
07
E5
F2
03
F6
F3
F1
E1
DF
FB
07
01
F6
E6
14
FA
05
F9
E7
05
EB
01
F9
EB
00
EA
08
FA
10
0A
0C
FA
0A
F2
FB
F5
F6
E5
F7
29
02
F7
01
14
FD
F0
0A
E8
08
EC
01
08
FA
01
02
F8
08
F7
F3
0C
18
09
F7
E1
02
FA
19
FC
FA
ED
FC
FD
0A
FE
F3
F2
F1
DF
E7
F5
F6
F6
11
05
05
05
F9
0B
F7
17
0B
FD
DE
00
0B
EA
1E
E9
09
20
FB
07
F7
E8
F5
F9
E5
F8
05
15
FE
F9
0D
EB
EF
06
19
0C
F8
1C
03
0C
15
F8
04
F7
F9
0D
F5
FA
FB
F7
11
FF
0A
FF
2C
1B
FD
F4
0A
F6
F5
15
12
10
17
1D
E8
0C
07
0A
0D
05
0E
E9
00
13
06
19
FE
17
12
0B
0A
07
13
F3
0B
F3
F6
0F
F0
08
16
13
07
F1
14
EF
17
22
1B
02
12
16
F7
14
06
18
1A
01
05
11
FE
0B
FF
03
0B
F8
FA
04
16
07
EC
D1
04
10
1A
26
FA
E9
08
02
0C
1B
11
FE
0B
11
F9
FA
EB
F8
00
10
07
03
FE
15
13
04
E0
EC
F8
15
12
14
06
08
F5
0C
04
F3
08
FF
04
F1
F1
05
EF
FF
E7
EA
04
FE
F8
15
0D
09
0C
D1
F1
09
0E
02
11
F7
F5
FD
0A
02
FB
F3
F6
EA
F5
F2
E4
E1
E6
03
0D
F2
02
0A
13
FD
EA
E7
FA
08
06
17
1F
F9
F3
FD
05
00
03
EF
00
E6
F2
E4
F8
F1
F2
FE
09
F9
FE
00
11
05
06
EE
E1
20
04
27
1F
FC
FE
04
F7
02
06
0D
0E
07
ED
FD
03
F8
FE
0F
F1
F7
F2
0D
03
01
06
06
E4
0D
0E
23
16
FC
FB
EA
02
04
1A
20
28
0F
0A
F5
12
10
F4
FD
10
FF
02
F7
06
FE
FB
EE
0D
0F
06
01
FF
FC
0F
F0
03
F8
1D
10
25
24
1E
0A
13
F6
0C
FC
E9
0B
FE
03
E3
FA
00
F7
F8
04
FE
FA
E9
F6
FE
F1
04
04
FB
16
19
0C
15
1A
19
04
00
07
F7
EA
F5
E4
D6
EC
FD
FA
0A
07
2F
1E
F8
F2
F2
E7
FA
EC
08
01
10
1B
1B
0E
FF
0A
0B
08
F6
FB
F3
E2
01
F9
DD
F8
17
FD
F9
FC
0C
EC
E8
FA
04
04
03
08
FD
F7
01
08
02
05
DE
EE
E3
D9
E5
DF
F7
00
04
ED
F8
FA
10
13
19
F6
EC
E1
EA
F7
F6
E6
E1
FC
E1
EF
D8
E0
F1
F0
DC
DE
F3
ED
DE
F2
05
F7
0C
03
07
0D
F7
F1
FA
FC
E6
E1
D9
CD
E7
D1
D5
E6
DC
FD
E0
02
EE
F7
E7
FC
F8
F5
FB
01
0A
FC
F3
00
00
F8
0A
04
F2
F1
05
FE
06
0A
F7
FA
03
0B
0E
0B
00
F4
EB
F7
0C
00
FE
09
09
05
FB
FC
EE
0A
14
F5
F4
19
FA
EC
0E
ED
11
15
00
E6
18
F6
F7
EC
E3
08
F7
02
ED
FE
F5
F0
ED
12
0E
13
F9
06
FF
0F
0B
F6
F8
FD
07
0A
05
FC
FF
0F
F3
F1
F6
F5
F3
01
12
11
01
EE
0B
0D
0D
13
09
0D
EA
0E
FC
0F
ED
10
04
E1
08
20
FE
09
03
FD
0D
FE
16
F1
EE
FA
FA
FB
14
0B
ED
0C
F7
10
0E
F6
F5
00
07
07
0C
EC
FD
F5
FC
F0
F6
E8
FD
F3
0A
12
01
EE
06
0B
FB
03
02
0E
FE
E8
F4
FB
F4
F6
E5
E7
D2
E1
EA
F9
E4
D2
ED
05
ED
09
FC
11
F7
FB
F9
FD
F4
05
07
FF
D5
DF
D6
D8
E7
CF
D0
EE
07
DD
E8
D6
00
E3
EA
11
FD
D3
09
F5
E4
FC
F7
04
00
0A
10
FF
04
F9
FF
12
20
09
F7
1F
10
02
11
14
0F
E4
EE
DE
06
F2
F1
F5
E7
00
0B
F7
0F
1A
10
08
06
09
12
22
13
0C
FC
F9
FB
EB
F3
EE
11
04
F0
03
FE
FF
F0
E8
F8
FB
0C
05
1A
19
24
EB
1D
05
FC
1C
1B
0B
01
FC
E5
F7
FB
0B
08
07
FA
07
EC
F6
0A
03
E9
E4
FD
EE
FC
0D
09
F3
08
0F
19
17
FB
1B
0D
06
FB
F6
05
06
11
FB
FC
02
04
13
06
0B
DF
E0
F1
19
1A
16
0F
02
02
02
06
FB
02
FE
FD
02
04
0D
0F
03
01
14
F7
17
09
07
06
00
F4
F2
07
20
17
1B
14
18
16
10
19
0B
1C
16
1F
1F
0D
11
F8
1D
20
07
F7
14
08
0A
F7
F9
01
EF
F2
27
F8
09
10
0B
1D
03
FE
06
20
26
11
FC
E0
E2
01
FA
00
12
08
FD
08
0D
04
03
08
E6
F7
F8
FF
24
02
06
FD
0D
09
09
10
05
F9
DA
A8
C8
F5
15
0C
0E
ED
0A
03
04
F4
F3
1E
04
0D
0D
12
12
0B
FE
F7
07
02
0F
0E
FE
DF
B5
84
C8
00
F9
03
09
F1
F2
F2
F5
EE
EF
0E
0A
23
12
1F
0E
FC
09
0C
F4
10
FB
06
F5
DF
95
A5
EE
F5
F5
0E
FF
0C
F5
FC
F2
F6
FC
F8
10
21
1A
EC
17
06
05
02
04
02
02
DA
D5
B0
B6
E4
FA
06
FB
FB
F2
04
FF
1A
0B
F8
0C
F4
07
08
09
DF
EA
11
0D
F5
F9
ED
F1
C3
AB
BD
C4
F7
F8
09
14
EC
0B
01
FE
16
FB
0D
04
00
08
0A
FB
F3
F5
0B
ED
08
F5
CE
CF
C8
C8
E1
F1
FC
04
0F
FE
01
0D
0E
FB
06
EF
FA
0D
FB
10
26
FE
0B
FC
0B
E6
F0
D0
CD
D8
BC
E7
E5
15
20
1E
03
FE
07
03
09
F1
FE
0B
DA
03
F6
EF
23
F9
10
1F
F5
E8
E6
B5
AE
E4
EF
FB
06
F4
F9
0C
02
FC
00
F5
13
07
F4
14
F7
EB
E9
1A
0C
06
0F
FD
E4
D2
DB
B7
D7
E5
F7
17
20
FB
14
1F
F7
04
F3
E9
F4
E5
D6
EF
FB
03
F6
13
02
FD
03
02
E1
DD
CF
F1
FC
01
FD
FD
FE
16
05
FE
04
F8
EA
01
E7
08
02
E7
04
D9
05
07
F5
FB
FB
EB
E5
FA
0A
F4
17
FD
06
0A
F6
FB
F2
FF
0B
16
F9
FB
F2
0E
F7
E7
FB
F3
1C
0F
F8
F8
F2
F3
D9
16
0F
25
21
0A
11
07
FA
FB
F4
1D
04
09
01
11
05
EF
0A
04
F6
00
0A
00
0B
F4
EE
F5
00
06
25
19
F0
04
F7
F1
05
01
09
1B
F9
F7
02
FF
11
F9
0D
02
0F
0A
1E
2A
12
11
FD
EC
0F
0A
15
11
02
0C
17
F3
0B
00
05
05
0C
FA
15
06
07
E7
E7
05
F5
14
11
0E
FC
EE
FB
F8
01
E3
0E
1B
FA
FD
1B
17
0A
0D
F8
0D
14
03
2A
2E
18
14
F3
12
F0
F6
02
0C
F8
F0
ED
FE
01
FE
06
01
1E
20
FF
27
0D
F7
20
13
05
FA
29
22
29
EB
F9
07
19
F4
00
F7
09
0B
FB
FA
05
FF
0F
13
F9
05
EF
F9
12
ED
03
10
00
FF
0F
F4
00
0C
01
FA
0E
ED
F1
F3
03
F3
FC
11
F2
09
EC
FA
F6
09
00
11
F8
EB
06
FF
1A
19
06
05
0C
EB
E5
F5
E9
EC
FC
ED
FF
02
F3
01
ED
0B
F0
0C
F3
06
F9
F8
18
00
13
0A
04
09
F2
00
01
F0
EA
F3
E6
FB
F8
ED
0F
ED
12
0D
0A
F2
F4
EA
EF
ED
E5
E9
E2
F9
07
F4
08
FA
C9
FD
05
FF
E5
EC
1A
0D
09
EF
01
EE
02
02
09
11
E3
D6
EF
FB
04
E6
D0
EF
FD
FC
D0
E9
D9
F9
DE
15
0C
FF
0F
19
14
2C
1D
F0
13
27
06
ED
E9
DE
E8
E8
F6
EC
F8
03
F7
F9
F7
E7
E9
F8
F4
FB
FF
09
E8
F9
07
28
13
F7
E2
FA
ED
FC
F0
F8
ED
01
F4
F6
F7
19
F7
08
0D
1A
01
15
05
0B
12
E2
FA
03
13
12
FC
17
00
00
0D
FC
F8
02
EA
00
F3
F8
FE
F3
1C
11
00
14
06
0F
06
0D
07
07
FF
F7
F4
EB
15
DB
16
19
04
19
FA
07
00
18
FE
FD
F6
06
04
11
1B
16
20
03
19
19
F4
F4
1B
13
04
08
FA
F7
0F
F4
E9
FC
15
0E
04
0E
F2
09
FC
01
1B
15
16
10
FF
01
F6
F1
1A
F8
06
1E
28
4A
E7
0A
0A
EA
02
17
18
26
19
0C
0E
06
09
FA
0C
0E
1A
0B
FD
04
FC
FC
0A
07
1A
0B
14
28
19
0C
F4
13
14
20
27
28
26
10
29
0F
F7
01
EA
0B
FD
EF
01
00
F1
0E
0C
16
FA
0F
17
39
0D
0A
F7
0E
13
1F
25
28
0C
02
13
08
F2
ED
ED
03
F3
02
09
0B
FE
FB
FE
05
03
F4
0A
12
EF
FC
18
F8
27
28
0D
01
F0
03
10
E7
E0
CC
ED
06
0B
0D
FF
EE
06
16
08
06
0A
0A
2B
16
10
00
F7
FE
08
17
ED
00
DC
F0
FD
DD
D7
D5
05
01
F7
0C
0D
FD
00
0F
FA
E4
EE
D6
0E
1F
0C
0C
03
E0
EC
F5
E0
E0
F1
E9
D5
E1
EA
E0
F6
0E
0D
19
06
12
07
E8
0E
F2
D1
F0
F7
ED
14
01
E7
F3
EE
E1
DB
E6
DE
E9
DA
F3
E1
03
18
19
FB
00
02
FC
F4
EE
E0
E7
ED
FA
E0
DF
F3
F0
10
F1
F0
E8
CD
EC
E4
DD
00
FC
0D
0A
22
20
0F
F7
ED
01
F5
F2
F7
F5
DF
F7
EB
EB
F1
2B
F8
E2
06
E8
EB
F7
EC
F7
F5
FC
FA
16
1E
04
FD
0D
F6
F1
E7
F1
DB
F0
D0
FE
02
E5
ED
04
EA
E1
E9
D3
CF
E5
EA
00
F1
F8
F3
19
17
1E
FB
15
11
F1
07
00
E8
EB
F2
F8
EF
03
EC
FE
F2
FB
FC
E1
E8
F7
E7
FF
F8
FB
02
0E
00
06
F9
1B
FF
0B
02
00
EA
0A
07
F4
10
F8
06
0B
DC
F1
EB
FF
05
ED
F6
04
FF
06
EE
F3
06
0B
02
F5
01
F7
09
0C
0D
F7
09
F2
14
07
FF
1D
EC
F8
FB
12
01
18
0F
08
F6
F5
0A
0F
07
1E
0D
15
0A
11
08
0C
15
0B
FC
08
F3
F4
E7
F4
F0
DE
D2
0B
16
EF
FC
04
04
02
05
F2
F8
06
FD
0C
0B
08
19
1D
17
16
16
F1
FC
08
0C
F2
F9
EC
E5
FE
E7
FA
EC
10
F6
0C
0C
09
EC
04
1C
02
15
09
1A
12
18
FF
16
0E
01
E2
EE
06
0D
FD
E9
EE
11
F5
F4
E2
0B
F0
F6
05
0E
05
0B
17
1A
25
2E
15
06
0F
0E
0A
F2
FF
F4
0E
F7
F9
0C
FF
16
09
08
1B
0A
01
02
28
06
33
1A
FA
0F
10
17
27
08
0E
F3
05
FE
FB
06
FF
09
0E
00
03
08
F7
1D
FD
0C
12
0D
FC
16
2B
1E
10
0A
10
FD
F7
14
10
F9
FF
F4
FE
F1
F1
F7
F2
12
11
06
01
FC
FC
04
0A
FE
04
03
11
09
FC
0D
FA
08
02
09
F8
F3
ED
01
F6
10
13
FD
0E
00
F9
02
23
FC
09
F6
0A
0A
FF
FB
ED
F9
17
18
FD
F2
00
09
01
00
06
0E
F1
F5
EC
0E
F7
F0
F5
0A
00
FB
1C
0D
F9
03
15
FB
09
0B
13
0D
15
1F
20
0E
17
18
11
06
FF
09
12
0A
F9
04
05
06
15
FE
0B
0D
1D
0C
F3
05
F2
FA
07
03
0A
FC
0E
00
20
F3
FE
FB
0C
FA
0E
F3
F5
DD
0B
F3
1A
FC
FF
0A
0D
F9
0B
F7
12
17
09
0D
05
F1
11
F8
F7
06
12
10
05
0C
EF
01
F4
FA
FA
E6
11
18
23
1E
2F
32
18
0D
FA
03
20
25
17
F2
FB
0C
0E
0A
00
3C
3C
1E
11
FF
F5
E4
E7
FB
F5
01
FA
F7
0B
01
0D
E5
01
EF
07
EF
FA
06
0C
ED
F0
FD
17
24
21
15
08
E2
F3
DB
F1
EA
F8
02
F2
10
06
F4
F1
E8
07
EC
06
F6
FA
EC
F9
F7
FA
0D
2C
32
1E
FB
EA
F5
0F
E0
E3
E9
F1
FE
F6
09
FF
12
F9
FA
EA
EB
EF
EF
00
E8
E2
02
ED
11
18
4A
22
24
EE
01
EA
F8
F8
FA
0D
E4
F1
01
10
22
08
EB
DF
D6
E0
EA
FA
F1
03
EB
F7
F5
18
3A
35
1D
FB
FB
01
EB
F1
FD
FE
07
F8
04
18
1B
0E
F2
E2
F6
F1
E2
E7
F6
FC
F3
F9
06
23
3E
23
0A
FD
E9
D3
EC
05
15
00
FD
14
1B
17
0E
06
E3
D3
D3
EA
FD
FF
02
FE
0C
F1
FD
36
41
04
0B
F4
F0
E9
08
09
08
06
17
0A
11
02
0B
FA
FE
F1
FD
E2
F3
EE
08
0F
0E
04
08
F0
11
30
10
0D
0B
DC
E9
0F
F9
10
0E
03
FF
11
FB
F9
FC
F7
F5
FB
0A
EE
0A
15
F7
00
F6
E4
20
1F
FE
0F
00
F0
0D
1D
00
18
F8
FA
17
06
11
1A
1B
0E
0D
0A
06
F0
FA
F1
E0
E4
E4
F9
17
13
18
FD
FD
EF
0A
1C
0C
02
08
14
11
17
07
11
0E
00
F8
19
03
F1
0D
EC
F0
F3
F3
13
26
06
19
FA
E9
E7
0D
0A
FD
FC
FB
15
0F
1D
1C
24
0F
19
13
15
01
F1
0A
F0
F9
EE
F9
1F
3D
11
03
F5
E6
06
04
07
EA
06
03
F8
1C
16
27
12
0B
02
06
12
02
E3
E2
FF
07
ED
0D
1D
44
16
FF
0A
10
E0
0B
F3
07
EF
E9
16
FF
23
20
19
11
F2
FF
F5
1F
EF
00
FC
F4
F9
30
39
28
14
F8
F7
EE
E9
E2
F0
F9
0F
07
EC
12
0E
02
06
1B
04
FC
05
12
1D
06
FE
09
1D
30
44
01
F7
EB
F0
09
F0
F2
0B
0B
FD
0A
FD
01
05
17
02
05
12
FD
F8
F9
02
F9
11
01
22
26
23
1C
F5
09
00
08
0A
1F
F1
08
01
02
F8
03
12
0B
F8
FA
F5
12
04
1C
0F
06
FC
0B
11
24
1D
09
01
DC
FF
07
F3
04
10
03
00
02
EF
04
EB
0E
02
05
05
FF
0D
0A
FD
0D
10
2A
1A
27
03
0A
DB
F1
ED
F4
13
08
0A
F8
E7
F4
0D
FF
F2
02
F8
0B
04
FF
F4
0C
00
26
20
27
30
32
F1
0A
EC
01
FC
03
03
D1
E7
EA
D9
D5
F4
04
F6
02
0D
F7
F8
0C
F2
0E
10
1F
29
18
13
18
21
20
DB
06
FE
0B
08
05
E7
FC
F4
F5
E3
EF
09
FA
13
F4
0F
15
0F
0D
07
1F
12
1A
F5
15
0E
01
0E
00
F1
13
FB
FF
F5
FA
1E
0D
10
27
23
31
36
25
30
1A
FC
1D
09
07
09
17
FA
19
22
E8
F2
FD
13
F1
F8
F1
08
FF
05
D4
D2
13
FF
05
1A
05
1A
FA
0D
F8
18
19
13
F1
F9
F9
F2
0D
FC
FC
10
09
F1
FD
F7
F6
0F
0F
EC
F0
07
F3
14
1A
F8
F7
0B
01
07
FC
FC
12
F5
01
EC
08
00
09
02
06
04
0B
FB
04
1E
1D
05
00
15
02
2E
14
FE
34
2B
19
05
18
03
06
FD
FF
13
02
09
EF
FA
12
10
F7
F5
FF
15
1F
21
22
40
36
2C
21
22
42
11
30
1F
2D
27
0E
16
1F
0C
15
ED
0F
0C
12
0D
1B
12
11
1A
2F
0F
09
29
32
2E
3F
1E
3C
17
14
06
12
0F
13
22
0A
1C
F0
F9
08
0D
06
09
12
06
27
2B
2A
06
05
0A
13
06
F8
06
F4
0E
02
0A
13
ED
EF
01
EE
0B
FB
F9
F9
04
00
1D
1B
08
13
2C
15
23
F4
09
0E
12
07
09
0F
F1
04
09
0A
F9
13
05
15
0A
21
11
F5
13
0A
EF
11
14
06
07
FF
0E
17
15
11
07
1E
2D
0F
17
09
13
0D
04
15
11
06
08
0D
0F
03
05
FD
0E
22
0D
FB
14
FC
11
0D
16
1A
35
1F
3E
2E
37
0B
0D
0E
FC
F3
E4
EF
F3
FA
EC
FB
DF
21
06
0D
FD
F5
EA
F5
FE
F2
0F
0B
0E
0E
1E
18
0A
FF
04
E5
01
FC
EC
CD
C7
F3
FE
12
FA
FA
09
EF
05
E3
01
EA
08
07
11
01
08
0A
02
F6
FF
FC
F4
DD
FC
00
02
F4
CE
F1
FF
F3
FC
FC
F8
03
F2
02
FF
F7
F8
E6
F8
EC
F0
D9
DE
D8
01
05
E6
02
F6
FF
F5
E5
EF
DD
08
FE
0F
12
0F
FB
E7
E4
E8
00
EF
E0
02
ED
D1
D9
E8
0C
E9
04
19
11
FB
E8
F4
0D
0D
CB
F4
13
FC
E7
FA
05
F0
E6
ED
DB
EB
DC
F5
DE
D9
F5
0D
15
F6
12
0E
07
F6
F4
F1
F0
FD
F5
EA
1B
E1
E6
FB
0B
E3
ED
EB
E3
FF
FA
EC
F9
DC
05
1F
0E
07
05
04
0A
06
00
E9
02
0F
0A
F2
FE
14
F9
EE
03
DB
FD
08
10
EA
FE
05
EA
E3
FC
03
16
FC
1B
17
0D
03
0B
ED
E5
FB
F2
24
0B
FE
FA
00
00
FD
09
FF
F2
FA
07
E3
E3
F6
03
FD
09
15
01
FA
03
17
F7
DD
D7
06
1B
16
25
EF
08
F7
16
FA
FB
F6
00
FD
FA
F4
03
F0
01
EF
02
FB
16
18
13
06
F0
F2
DC
FB
13
25
11
FB
FD
EC
1B
27
16
F6
F9
F8
F5
F0
E8
EC
05
F2
FF
06
FC
00
F9
F2
0A
DD
E0
F0
1A
17
13
F5
F9
06
1C
16
0D
08
F9
F6
F4
D8
F6
F9
EF
0D
FD
12
14
08
08
0A
FB
FF
0B
19
14
09
0B
FC
FA
FC
06
0E
04
07
FB
06
F6
FB
F4
F7
0C
08
09
01
05
0D
0D
00
EF
F5
0E
0E
1D
FE
24
F5
EF
FA
26
26
04
23
06
11
10
02
0A
05
F0
FB
08
11
F7
05
12
14
0B
0E
FB
0F
28
14
F9
EB
00
13
18
1F
05
01
08
F9
F9
F6
EA
06
F2
07
0A
FC
EA
0A
FA
05
F8
EF
09
33
12
0F
F4
F9
05
23
0F
21
09
02
0B
18
02
00
F0
F8
FB
04
F5
F1
EA
F4
09
0D
EE
08
18
28
EA
EA
F5
11
12
18
1F
03
F8
03
0C
F3
E7
FE
FA
00
E3
ED
F2
FE
06
08
F2
FD
03
06
20
1B
08
07
F9
EC
FC
0F
11
0F
1A
0A
25
FD
0A
FB
FA
FA
00
F4
05
0C
0A
17
01
0E
1D
1C
13
2C
05
0F
FF
ED
04
F4
E8
0B
39
3B
25
1B
29
23
1A
35
26
25
0A
2B
22
16
22
1F
18
0B
14
20
10
F7
04
13
FC
F6
F9
1F
1D
26
19
21
2D
31
48
36
2C
33
49
3D
4C
2F
3C
3C
30
31
1C
05
20
0E
FE
04
F7
0C
03
06
09
17
32
13
F3
19
31
15
14
35
32
13
05
19
03
1F
17
09
0A
0F
05
FA
F7
FE
FF
12
F6
F6
FF
FD
F5
F5
F6
EF
F4
19
FA
17
15
FF
FE
12
12
F1
FC
00
08
FD
05
0F
00
10
0E
0A
06
0A
11
08
FA
14
0E
F9
02
F7
0A
ED
F3
0A
0D
08
21
1B
FE
09
04
FC
FF
F3
02
F5
FA
0D
F6
EE
EE
09
08
F4
12
F6
1B
19
12
1C
14
17
0E
27
04
09
1A
02
00
04
0F
EF
07
04
F1
00
FE
07
16
02
0A
0A
05
01
23
07
11
F8
14
FD
09
21
20
04
00
E8
F1
11
FB
05
02
EF
F7
0F
F0
F9
09
13
0A
02
1D
11
24
23
1C
06
06
1D
10
03
12
00
E9
EA
DC
FF
23
23
FC
F1
FB
F3
FA
FC
00
11
FC
07
10
19
12
FF
FF
02
00
23
09
05
15
0C
02
03
FB
F5
18
23
04
F8
1D
15
EE
FF
09
0F
06
14
11
03
F3
07
FD
FE
0F
FE
22
24
1C
14
1A
FC
14
30
2F
14
09
D9
FE
17
00
16
F5
F9
01
11
ED
F8
F5
07
FE
0B
1E
0B
05
0B
FE
FC
17
12
15
2F
42
0A
1A
E5
F9
F1
FB
FA
03
0A
04
F4
24
09
0B
0C
FD
05
F3
1A
01
00
13
FE
06
0D
1B
2F
3F
1C
0A
0D
F5
F7
F7
17
03
0A
1A
01
0A
14
0B
0A
FC
F1
F1
DF
F4
04
00
13
1A
0F
1F
1C
39
34
16
F3
DB
07
FF
16
07
1B
F7
F8
06
F7
ED
F6
EB
F3
E0
EC
E7
DC
EA
F5
EB
06
ED
1D
04
F8
11
F5
E5
E0
FC
08
FC
EC
EC
F1
EA
E3
DB
E7
FE
E1
E5
E5
E2
DB
F7
EA
EA
E8
F5
F9
1D
F4
EF
FB
FF
EF
FB
F8
E8
E1
E6
EB
F2
DF
08
14
FE
EA
F0
FD
F0
FB
ED
04
DE
E4
C6
E4
03
0B
00
04
F1
0A
F1
D8
EB
D6
DD
E7
DF
FF
F2
13
13
0F
ED
F1
09
F3
03
E1
DC
C0
BB
E4
0B
10
F2
FC
01
F8
DF
DA
E7
F6
E6
FD
F2
0A
FA
0C
19
FC
FF
F4
00
FE
E9
F5
D9
B4
DB
EA
FF
11
21
FF
E9
FE
F4
FC
FF
00
FC
EF
ED
F8
FA
FF
15
04
0E
07
DF
EA
E5
DC
DE
CA
D9
1A
18
18
FE
EF
EC
F6
2E
09
F2
E7
E6
F2
09
F9
FD
08
04
09
FE
EE
F7
FE
11
F7
06
01
12
1E
23
1C
0F
06
02
02
16
1D
E7
E3
F7
E3
0E
F6
02
15
0D
E9
EA
FA
18
09
02
01
26
23
30
15
FE
18
20
EC
FD
DD
29
12
05
FB
08
0C
F2
02
FA
10
EF
01
0B
0F
09
03
00
1A
09
1E
3B
33
04
10
F0
E9
F5
E8
0A
14
24
03
18
0D
10
F4
EE
06
F8
00
00
0A
29
14
09
29
1D
2E
2F
21
01
F5
F3
F3
0E
0E
11
35
2B
18
1A
02
07
10
0C
00
FF
12
01
0E
11
13
15
0C
32
25
2C
1C
0C
02
05
DE
08
0F
10
18
23
0C
1A
02
16
02
F9
15
0F
11
0E
09
F9
19
1E
28
0A
18
30
FF
0B
F6
EF
DD
EE
22
04
19
F4
FC
08
FE
EE
0D
11
05
0A
F7
19
03
0D
02
15
07
02
1B
27
0F
25
E7
05
0B
FB
22
1C
1C
F0
F3
07
16
0D
E5
11
12
06
1E
0D
08
04
08
09
17
18
1E
08
07
1C
EC
EC
F6
F4
F8
0A
00
EA
FD
ED
14
14
12
00
0B
05
1B
09
04
11
F1
11
FF
03
06
FD
07
18
F5
FC
02
FD
17
1A
F2
EF
0A
07
02
10
13
21
1E
1A
14
27
1F
14
16
15
E3
01
E2
ED
01
07
25
0E
0D
12
03
F1
07
F7
ED
E5
FF
E4
FE
E9
06
03
05
14
14
08
0D
FF
E4
E3
F3
23
12
0C
02
FF
02
11
EF
FE
FB
F1
E8
F6
EF
FF
F2
EB
D7
E4
DC
DD
B5
EA
0C
F0
DF
F1
F1
FE
12
0F
04
0A
0C
FE
F6
F1
00
F8
0A
FC
F2
08
F1
03
E5
EB
11
FF
10
02
08
0D
F5
F5
F9
05
F0
11
06
F1
FE
F3
02
0F
03
07
F9
F4
F6
FD
00
01
E7
0D
17
FC
07
0D
06
E8
ED
13
FC
0B
0E
11
04
13
FA
0F
FD
FD
EF
12
FF
03
10
13
2A
F9
06
1D
2B
26
2C
26
23
1C
12
04
FA
EA
FD
E7
F8
13
F5
FB
F1
FC
0A
0E
F1
FA
F7
FF
02
08
DB
F2
ED
F3
0E
FD
21
15
06
1E
29
09
14
F3
07
F8
06
F8
FF
0D
E9
FF
E8
EA
FD
FE
E2
EF
F4
01
0D
F3
F8
10
0D
0A
09
08
0A
08
04
17
0C
0B
FB
FE
F7
04
F6
E9
0D
EE
F7
FF
04
FD
EF
EF
F8
00
0B
10
11
17
19
17
05
2C
17
03
14
03
05
F1
22
D7
02
F5
02
10
EE
FD
18
0B
10
0C
15
FB
12
06
00
F8
05
F0
1A
1C
08
29
16
0F
FE
EE
14
F1
F5
03
F6
FC
07
04
EF
04
00
14
1D
13
05
04
F7
07
04
04
F2
00
FF
2A
0D
F9
FE
EB
F5
F6
EC
00
EE
01
0C
09
01
06
08
05
0C
EE
FB
FB
EB
F4
F1
FA
06
F8
03
08
07
16
04
FF
E4
E1
F6
07
01
FB
0C
F3
EE
00
FC
D8
E2
D9
02
E5
07
1A
01
03
E1
FE
00
09
0F
04
04
EC
DB
DC
F4
E3
03
F8
0E
F8
04
E9
EC
CC
D8
EC
01
F2
F4
EF
F9
E7
F2
02
FD
02
04
F8
E9
03
EC
EE
13
0E
04
E8
F5
FD
E7
EA
F8
E8
00
01
FF
00
F1
F2
F2
F6
05
EE
DD
01
19
18
FA
E5
F9
DB
F2
F3
07
FF
06
F3
EA
0B
02
19
18
29
02
17
16
09
0E
0C
07
F3
F6
F9
F6
21
0B
E9
E9
F2
15
F4
FB
F6
03
F5
EB
FA
18
2F
0B
1C
04
F8
1C
08
FF
09
F5
EA
E3
E5
E8
0A
06
F6
E4
0C
F8
0D
F8
FA
FB
F7
09
00
2D
30
09
13
F7
E7
F4
FD
F1
FE
F7
09
0D
15
FA
03
EE
EB
FF
FF
11
1A
0E
F8
0C
FE
0D
26
2C
2F
25
0A
F9
10
F2
F4
FC
00
FB
EE
FE
F8
0E
14
09
0A
06
F7
0D
0A
F0
F5
F1
EE
0B
2C
36
30
12
25
F6
F6
09
F3
EB
EC
F2
E9
07
1F
07
0E
08
0F
F1
F1
FD
F7
02
F5
07
FC
FC
14
29
26
28
32
0C
0F
FE
07
FD
EC
F2
03
DF
08
FE
EC
02
FB
E3
09
FE
E4
06
11
FA
FE
15
0D
0A
10
0F
2B
2C
1B
19
0C
0B
0D
E6
F2
F3
FD
F6
1F
06
EB
E3
0E
0B
F7
0E
ED
FC
04
F8
04
06
0F
10
07
25
0C
19
01
07
EE
05
F4
20
1E
1B
12
10
F9
F4
11
0F
09
FB
14
15
ED
E9
FD
04
18
04
12
08
0B
0C
11
F8
FA
F1
FB
1C
17
0F
FC
F1
02
EA
FF
07
F1
0A
0A
0F
04
FC
EA
F4
15
18
08
07
F9
00
F9
03
0F
F6
FF
19
0B
F0
0A
EE
09
F9
25
25
F5
FB
F5
F1
EC
00
06
F2
FF
F3
15
0C
FF
00
F7
16
11
05
10
1A
10
0F
ED
02
EE
F1
1B
00
EF
0E
0E
1A
00
F5
FD
02
F7
0E
EB
F6
FF
10
0D
11
1E
1C
1F
FC
1A
07
FB
FB
EF
FD
FB
E8
F2
0A
EC
13
12
F0
0A
F5
F6
F2
09
14
0D
00
05
2B
36
23
05
19
17
16
FE
FA
05
0B
EF
07
10
08
08
05
FC
F8
F8
E7
EF
FA
0F
F7
EC
0C
0D
1F
19
22
25
F4
14
15
14
F8
04
F6
16
25
15
18
FF
F4
0F
02
0C
F1
05
EE
04
EC
03
EE
F7
0C
1A
F5
00
01
F5
F9
12
0B
10
FE
F4
01
E9
15
F5
06
1B
FD
03
1D
0E
16
07
FA
08
04
FC
0E
FB
E7
0A
0A
0D
09
FD
F7
FD
FD
08
07
F6
09
11
F2
0C
12
08
FC
F2
E9
FC
03
EC
F1
FD
03
13
06
0D
09
FE
11
0C
0D
0F
00
ED
05
E1
CF
E7
F3
F1
F8
ED
D8
DC
FA
D8
D6
F3
ED
F0
FC
E7
D7
E7
11
09
F3
12
0B
0E
EF
E8
E5
F7
EC
D5
04
F7
03
FB
08
09
02
02
ED
FF
E8
FA
02
20
0E
E6
EF
FE
EE
05
11
F0
FF
F0
EC
0A
EE
F4
1A
10
FA
15
EB
EF
E6
0B
0A
00
02
0E
18
14
FF
05
00
F5
EE
13
F2
03
0A
14
0D
20
09
2F
10
FB
11
1F
17
FB
FF
E9
E6
F6
07
05
2B
3D
1D
14
38
1F
E5
FF
01
09
DC
09
F5
39
FD
F6
03
07
F0
06
EA
E5
D6
BD
BF
EB
EE
E3
F7
14
0F
09
15
48
49
10
11
08
0D
2E
F1
F7
F1
02
1D
03
13
F9
F7
DF
E4
C9
EE
10
FD
EF
F9
F4
0F
15
20
5C
61
29
15
F1
1C
FA
0F
FD
E6
1E
2F
FD
05
E7
F3
0B
E3
F2
0B
14
2B
1C
13
1A
0A
13
44
6A
57
11
E2
F7
0F
E8
18
11
F2
03
10
02
15
03
14
16
F9
F2
FF
1E
13
19
01
1A
16
12
59
69
42
23
15
FC
04
1D
09
F1
0B
06
15
19
08
19
0F
F5
E5
ED
F3
13
08
0B
16
0F
08
09
0F
52
4F
1A
F5
11
15
26
0F
00
E6
03
F8
0D
02
09
03
E3
C3
CB
ED
14
12
00
0C
FE
0A
E5
04
15
36
F4
13
11
E0
13
08
F0
E8
0B
1A
0F
0A
02
EC
D2
BA
DF
F1
03
EF
F6
FD
F3
03
04
F2
0E
18
FE
15
0F
DC
F3
13
0A
F8
0A
07
18
09
14
FF
DA
EF
10
F9
EE
EF
F9
EB
FB
F6
F2
E1
E7
06
0B
08
0D
EE
20
02
F3
FC
0C
12
16
F7
0B
0B
F4
02
0C
01
FB
F7
EF
EA
D9
FC
E0
D2
D4
E4
FF
22
21
FC
0E
1B
07
02
1B
F6
FE
EA
F5
F8
E5
F0
01
1B
1E
19
01
FC
07
FA
FA
F7
FC
CE
02
03
0A
03
1E
FD
09
10
12
07
15
1A
08
0D
EC
09
FE
02
0C
1A
F2
FF
FE
FB
FC
0D
FB
EB
FF
E8
13
F0
0B
EA
06
09
F9
1E
07
08
06
10
0C
0F
00
21
0A
01
0E
F1
EC
F4
FE
ED
E3
DF
F1
F2
0E
01
EC
FA
F6
0F
07
15
0A
0F
FA
05
08
0B
00
08
F7
0E
09
FF
FC
FD
FB
DA
18
06
08
E6
F0
16
F9
00
F8
05
03
E7
EA
EF
01
F7
ED
0A
FC
00
06
F8
07
0E
EC
F6
E7
04
1E
1B
1A
ED
F3
08
1E
F1
E4
E8
E8
E8
06
E5
0B
EE
01
FB
F8
F3
DB
0B
02
06
F3
EF
13
18
0F
22
14
06
F6
17
E3
F1
E7
D4
00
D6
FB
ED
FB
FB
16
F9
03
FC
FA
E9
06
07
09
0E
19
1D
ED
E6
0D
F1
02
4C
14
07
E1
F1
F0
FA
EA
D3
EE
11
00
09
F8
FC
00
07
F8
15
07
05
08
10
F2
F8
03
0E
03
58
0B
18
E6
05
F9
F4
E3
09
F4
07
FA
1A
F8
EC
FF
0B
EE
FD
0C
EA
FA
F7
1F
F5
FD
F9
ED
40
24
18
0B
0D
03
1A
1A
08
F3
F9
FC
07
0C
09
FF
F5
EC
FC
13
03
07
FB
13
01
FE
FB
0C
0A
33
15
29
05
1D
21
2B
0F
10
29
0E
25
06
F7
F9
10
F9
09
0F
1E
EC
F3
09
F5
03
05
0C
0A
24
0F
0F
3B
38
49
5D
3B
45
4F
2D
19
22
16
13
09
FE
F1
0B
1C
34
0B
07
E8
08
FC
F7
F8
00
28
03
20
32
38
39
11
1E
2A
29
04
16
2A
2A
09
14
12
10
FF
17
EE
0C
FF
FC
F7
0B
07
F8
11
0E
0D
0B
01
03
F7
FB
0A
00
E9
EA
F2
06
F0
FD
FA
D3
F7
1B
F0
FA
F0
FC
05
06
07
FF
00
F6
ED
F0
04
0D
07
EF
F2
0C
FF
F1
0D
FF
EE
F7
F2
FC
FE
F9
F6
EC
0A
FD
14
F0
09
05
F6
FE
0E
05
F2
04
EF
0E
13
00
F4
FA
F3
01
0E
FC
0D
13
17
F5
0B
07
0A
13
FC
FD
08
01
FD
FB
12
12
FD
17
EF
05
00
00
F1
E3
FB
E9
11
0B
11
14
08
1A
F3
F0
11
04
08
11
FE
09
18
09
09
ED
03
0F
F1
03
F5
0D
06
EB
FB
0C
FC
FF
01
19
07
11
FD
20
03
FA
F0
10
12
03
0A
F9
02
F0
06
03
F7
F5
F6
0F
07
15
04
10
16
06
0D
EB
0C
0D
FE
13
FD
15
09
0B
0D
09
1F
12
FC
09
E1
F7
E8
D2
FD
DC
F4
FC
1F
10
0B
FF
0B
EF
FE
03
E5
DF
F0
FC
13
21
09
F6
06
0C
FC
10
F6
08
E5
D6
EB
F0
0C
1A
14
0A
F3
08
16
F7
0C
F7
ED
E9
E3
EE
E6
07
09
E6
1B
12
0D
16
0E
F6
EC
D7
DA
F1
15
11
18
02
12
FE
04
0A
03
EE
F1
E9
E2
D6
F0
DA
E7
08
14
0E
F6
15
1A
F6
FF
EB
D7
FA
14
22
12
F8
F6
FE
0C
03
02
F2
D9
D4
F7
FE
E9
D1
03
E8
1C
0E
12
0B
FF
F7
EC
E0
02
08
FE
08
0A
F6
13
F5
03
0C
F3
0D
ED
DF
F7
FC
EA
F8
E4
F6
0F
EB
FB
08
0B
E3
E1
D7
0F
1A
21
19
0C
0C
FD
02
F8
F8
0D
F1
F0
CF
EE
1D
02
EE
FA
07
0D
FB
E9
F6
FB
04
F9
FA
FC
17
18
0F
0B
FA
FA
0C
F5
EE
E5
0C
05
D4
F6
0E
FF
ED
DF
04
F5
F7
FC
06
F2
F2
E3
03
26
1C
13
FE
FB
08
02
F2
F0
EE
FA
01
12
E1
F6
F1
04
04
E3
F6
F0
FC
05
0C
FB
FA
F0
FE
09
2A
0D
FB
15
06
EB
EF
F4
E1
FB
FF
E8
FF
EC
E4
F5
16
E7
01
E8
EA
10
05
F1
EF
FB
03
04
1B
1B
14
F4
EA
FD
EF
F1
0B
E4
F1
F8
02
FB
FF
F8
17
17
06
07
E5
F1
03
02
F5
F0
08
08
08
0E
0F
03
F6
F4
F3
F9
FA
FF
E8
FE
F7
FC
01
EC
24
04
FC
F3
FF
F3
05
0F
07
ED
02
08
08
05
F0
FA
F2
EE
07
04
FD
E9
EB
DE
F4
E3
FD
05
1B
12
E8
F9
F6
F7
0A
F5
EB
07
EE
FB
11
F3
02
F2
0E
FD
06
07
00
FB
07
D8
E5
F3
E7
FB
1C
1D
15
0D
FB
F7
07
02
FD
03
FE
EC
F3
F7
17
0B
FC
05
F8
07
F9
FA
EF
C8
E2
CC
0D
07
FD
0C
0E
07
03
01
F3
F5
EE
07
FC
FB
E6
EA
F9
0D
1E
14
25
0F
0B
E5
EF
DE
C8
DC
06
F1
1B
F2
06
15
17
1B
19
0B
0F
05
F2
EB
F0
FE
FF
0D
07
1B
15
00
08
F3
E4
E4
EE
FD
F2
FE
1E
F9
FB
00
22
0B
FD
FB
F6
F9
0E
06
0A
FA
10
19
1E
05
FE
10
EA
DB
D3
E1
F6
FE
0F
0C
FF
04
FE
04
F2
0A
00
02
0D
03
FE
F3
08
F4
14
12
07
F9
08
E6
FC
E5
D4
D5
FA
01
FE
09
01
1B
2C
01
05
2B
0B
17
0A
F9
06
05
07
F1
06
ED
0B
0F
0D
02
02
FB
EF
11
07
FE
FA
FB
FE
FE
33
05
06
14
23
21
04
0E
F4
04
FF
F0
FB
01
FD
0A
19
FD
0B
05
16
E7
12
F8
0A
14
FB
FF
F0
0B
06
17
02
10
15
03
03
DF
07
FB
EE
F1
FD
F9
FC
0D
09
18
1B
FD
F3
F6
12
FC
F2
FC
F9
12
FD
E6
F7
E6
E6
E3
FE
E8
E7
F3
C8
F2
DB
FC
00
EF
0D
04
E8
E7
08
01
FB
12
F0
F6
FD
F7
08
01
F4
FE
EB
DE
F8
F4
E7
EF
E8
EB
E7
05
EB
FA
F5
03
EE
13
08
0A
F0
EE
04
FF
FB
0E
F8
EE
FF
00
00
00
FB
09
0A
14
03
11
F9
11
0C
13
04
09
FC
EE
F2
10
13
0C
FB
F9
FC
EC
E4
03
EA
FD
02
05
06
09
11
04
0E
1D
25
FD
F6
F0
12
F8
03
ED
13
01
F8
FB
EE
11
FA
11
02
F2
15
08
FD
00
FE
03
F2
FC
21
00
FD
EC
F0
FF
0C
13
FB
15
1B
FE
11
08
00
08
FB
0B
ED
0E
0B
10
1D
1B
04
EC
FA
FA
DF
00
05
F0
D7
DF
F3
E4
02
EE
09
E8
03
ED
FB
0A
14
04
19
04
FE
0E
1D
F9
05
05
F6
10
FA
FA
F8
EB
EC
F4
ED
F9
EA
F1
F2
FD
12
12
FF
11
F1
F0
F6
F4
E3
EA
F0
05
01
1E
FC
12
07
05
F6
05
EE
F6
E8
E5
EF
EA
08
11
15
03
E4
FC
EC
01
DB
FB
FB
FE
FB
01
1A
FC
16
1B
1C
0E
0E
09
05
17
03
E4
E3
EC
04
0D
19
F4
F0
13
FC
15
F8
0F
03
F8
1F
0A
0C
02
10
03
0E
22
18
12
FB
02
0B
E3
06
F0
F1
F9
F8
F3
FC
14
0E
FD
01
14
06
06
14
17
11
0C
10
1D
07
1B
01
0D
01
F7
FF
E3
EE
F1
EC
15
18
0B
E2
01
F9
04
0E
22
19
0D
00
13
0E
0D
1F
0F
0F
11
F5
FC
F2
0D
ED
02
F4
F5
DE
0E
EC
0A
F8
F6
16
F7
1C
10
16
17
08
17
1A
FF
FA
03
F4
F6
F1
11
13
10
1A
06
03
F0
E0
F0
08
05
04
EF
11
11
2D
07
0D
FA
08
FA
EE
DD
E1
09
10
08
03
13
07
0B
0B
19
21
09
ED
0A
1C
0B
01
00
05
10
11
05
F0
F1
EB
E5
D5
DD
E5
0C
12
15
FB
1C
0E
00
19
04
1A
04
01
17
1B
F9
03
FA
F4
16
F8
F1
E9
D6
E1
D1
E2
CE
0E
18
15
11
09
0B
18
F5
14
FC
FE
E4
24
06
07
E2
D8
FE
E8
0B
E6
D7
E5
CE
E4
E6
E0
0A
12
16
16
FF
F9
09
03
05
06
E0
F5
E4
05
12
10
F8
FD
E3
F8
EB
D2
E6
DB
F1
F8
EE
F4
0D
23
0B
FE
0C
F8
F7
ED
E9
ED
F4
DC
F6
02
FE
0E
08
FA
F1
F8
06
F7
E0
04
EC
F1
00
14
07
13
0C
0B
06
05
E7
FF
ED
E6
EE
E1
F8
FE
F5
FF
04
F3
F9
E4
F1
E7
0A
F4
0D
09
05
0E
10
10
1A
0F
F6
FA
01
F6
FE
F0
EF
E7
0D
37
2B
00
21
E6
F5
DB
E7
05
00
02
F0
14
08
13
00
17
F5
EF
FF
FD
F1
FA
F6
EE
FD
0E
0E
14
00
14
F2
EB
FC
FD
DC
07
08
13
12
FF
FA
E3
F5
05
13
E9
FC
F5
F4
F4
0A
00
FB
09
22
0E
28
20
FB
03
F4
F2
09
0D
F6
0C
FB
04
F3
EC
FC
EA
F1
EA
ED
F4
F5
F9
FE
08
EE
0F
0A
0A
15
0B
F8
EB
17
FC
0E
F8
19
1B
13
01
02
E1
00
F7
FC
0E
FA
FE
02
FB
06
11
0C
02
0E
19
02
F1
17
FE
F0
08
1B
15
04
1B
18
F1
07
F8
FA
F3
09
0C
05
0B
0B
ED
FD
11
1C
05
14
0A
F3
F9
F4
00
E3
0B
F1
08
0D
04
FF
FD
FE
FA
14
FC
04
F6
02
F1
18
0F
13
00
03
1B
0D
14
00
F8
EF
09
EB
D5
ED
00
05
17
18
0A
FE
FA
10
FE
05
04
0C
FC
0B
F3
0B
02
09
0A
FD
0E
00
0E
14
0C
06
E5
F8
14
01
15
33
2C
07
11
FF
19
12
1F
10
0A
12
15
20
20
13
E1
D6
08
04
02
F6
EF
0B
0A
1D
0F
28
1F
0E
24
16
12
1B
15
3D
14
FB
19
2A
2F
39
27
0B
08
FE
F1
F7
08
0D
07
FB
0E
0E
06
F2
EE
FB
17
F7
10
07
0B
30
10
FE
11
11
12
0E
FF
FE
EF
F6
04
ED
0D
ED
00
F2
0F
0E
0B
0E
FF
10
F3
F5
FB
0C
FA
0D
FA
F5
02
13
0D
FE
F7
FA
EE
02
12
03
EC
F9
04
00
F9
14
0A
14
06
14
18
13
1E
06
0B
0A
07
06
02
1B
25
19
0A
1D
0C
F1
F9
05
0C
00
10
0F
09
04
F1
29
32
FA
16
F2
F4
ED
FB
08
22
06
1C
11
1C
22
43
2B
3D
10
FB
EF
F1
F3
F2
08
04
04
19
08
0C
01
F0
E3
DD
F4
03
09
10
04
15
04
FC
FC
1A
10
1D
0A
06
1A
FE
0D
FD
DF
09
0C
FB
14
E9
E9
E5
F0
DB
01
0C
EB
E2
EB
F8
16
02
03
EF
FE
0D
F9
E6
E8
06
02
08
02
09
00
F1
11
E9
EE
F4
F4
EC
FE
05
02
01
F6
02
FC
FB
F7
F5
0B
1F
08
E1
00
13
F3
FD
FC
04
07
FB
E0
FB
D1
EC
D7
F9
EB
08
05
10
07
FC
03
00
E3
E3
FA
F6
FF
E3
F7
E7
FB
F7
DB
FC
F0
00
E6
EE
F3
E2
FB
09
FD
01
FF
15
0C
0A
E4
EA
F6
F5
00
F6
08
02
0A
EF
0F
F2
F9
DC
06
F6
E4
E9
FD
EF
FA
F5
E3
FC
01
10
12
F2
D8
D4
D3
F6
E8
EF
E1
E5
05
EA
E7
E6
E7
D3
F0
D5
0B
0A
FE
FC
05
FF
01
01
09
09
02
DF
EF
F1
F3
E8
F0
EB
E9
F0
E3
03
ED
D9
F5
DD
F4
CC
FF
07
06
F8
0B
F8
F3
FC
2B
09
FC
F8
03
F2
EE
F5
D6
E6
E3
D4
D4
F5
F2
05
01
E1
CF
DC
F5
28
06
11
0D
13
14
0C
12
0F
F6
0B
05
09
F1
F7
D7
CD
DD
CF
D2
EC
FD
E0
E1
DB
DF
C0
FD
09
12
FD
0A
22
20
2A
1B
14
FE
FA
0F
2C
10
EC
D3
D7
DB
C1
E2
0B
0A
FB
EC
D4
EA
DC
FE
FE
21
1B
1D
04
20
1D
20
05
02
18
17
26
04
01
DA
BE
B3
BD
B7
ED
FF
00
EF
D6
E3
D4
DB
F9
12
08
12
1B
11
07
0D
F7
0E
08
14
28
0D
E1
C4
C2
CA
CF
E9
F8
05
12
EF
E0
DE
E1
D7
E0
0C
0B
2D
1E
15
0C
11
08
FE
0D
0A
0C
02
F1
D2
B3
E1
E4
DB
01
04
2E
0D
FA
F1
DE
C6
E6
03
1B
22
1C
02
ED
F1
07
0C
09
0D
0F
F1
EC
D9
C9
BA
C8
E7
03
01
07
F6
DA
F0
E4
BD
D5
0C
10
1A
0A
05
0C
14
08
F3
15
F8
FA
F2
E6
DC
02
CC
E4
FC
F5
F7
22
FD
E2
DF
DA
DB
ED
F2
F5
FA
FE
F4
00
F9
19
EE
E2
F4
F1
F1
F3
E6
06
D7
D6
03
0E
11
F7
FF
FB
F7
F7
E7
D6
EC
E4
04
FF
0A
0A
09
FA
F5
E7
E0
F2
E7
02
E7
03
F5
FD
07
01
F1
1B
0E
EA
E2
E1
E7
D6
E0
ED
F3
06
19
0C
0B
EC
07
E6
F8
F7
E2
09
E9
20
FA
E6
FC
08
0C
08
08
08
DE
F1
DE
EF
EE
DF
F0
03
E9
F1
03
0B
FA
FB
FB
DC
F5
0D
04
06
19
E3
FC
15
2C
19
15
03
D7
DC
DF
EC
EB
09
FE
F3
EB
E1
FF
F0
F6
EC
E6
EB
00
03
00
06
12
FC
10
06
0D
11
F7
F7
FB
EC
F6
F2
FB
FC
0D
EC
F3
FF
E6
EE
F6
FF
04
F0
0B
10
F7
0A
1F
0E
28
ED
03
0C
00
0C
21
2E
1D
21
0B
F3
0F
EB
F4
EC
EC
F1
04
1A
FE
05
05
12
28
30
11
10
19
F9
F7
FD
1B
0E
23
29
2A
09
1D
F9
0B
F2
00
F3
EC
0C
12
0B
00
04
29
0B
28
23
03
01
EA
F9
0C
11
F2
0D
12
0C
13
17
00
17
FA
F9
1E
FE
21
0B
0D
1D
17
1C
1F
18
17
E6
17
EC
02
ED
F8
ED
06
01
DB
01
FC
F7
11
FA
E3
FF
F5
D2
FF
F0
09
0C
F6
E9
EC
EE
F8
E7
08
10
11
EE
14
F1
0C
EE
14
F4
00
F5
10
EF
FE
07
19
06
04
F8
F9
F4
13
FB
0C
F5
F7
06
11
0D
FF
F9
FE
F5
04
0C
01
F6
15
13
01
05
05
FF
FA
F8
17
FB
02
0B
FF
FB
0C
2C
29
10
03
FC
04
F8
03
EC
1C
F3
12
10
12
05
1B
27
16
23
24
31
2C
31
3B
3F
1A
22
1B
19
FA
17
1A
03
F2
FD
FE
13
00
F4
14
05
02
21
09
08
0D
F5
06
FE
16
F9
0D
F5
D0
DF
F8
FA
17
0B
03
FA
17
12
EC
EC
00
08
FE
FD
12
0C
DD
01
F6
01
04
11
0D
0E
0E
E9
F0
0B
FB
FC
F6
1C
0C
E2
EA
0C
0F
EE
0F
FA
21
19
1E
FD
14
09
FC
EF
E0
F1
FB
07
F4
E8
E9
F9
FF
05
08
05
F9
04
DF
14
FD
14
FE
F4
FE
0A
21
0A
19
FA
1B
E7
F2
F9
00
EB
EC
FB
02
EE
F0
08
EA
EC
FA
F5
11
0D
17
1B
F8
FE
04
04
17
12
19
07
08
14
F3
F3
F2
06
00
0E
13
08
F9
0C
0E
04
E5
E2
0C
02
F9
11
00
DC
24
07
0D
1A
1B
0E
10
F0
05
F2
F1
1A
11
00
FF
FD
0B
E8
05
EE
F4
F3
F2
00
22
0D
F3
05
04
12
F6
F6
0D
2E
19
F3
DF
EF
E5
03
15
1A
18
F2
F9
DF
FE
E6
ED
FC
F6
FF
FD
F4
0A
E6
E5
00
11
EE
09
05
FC
EE
E5
CB
EE
14
19
22
F5
EC
FE
EF
E6
F1
F0
04
FF
E3
0D
EA
FC
DA
EE
F6
EB
D9
FF
04
F4
CD
C8
D3
E5
0D
09
02
FD
07
E4
0A
04
06
EE
EB
F7
E4
05
F5
25
F3
F4
F4
ED
F1
E5
CC
D7
BD
C8
C6
F5
0A
0C
F1
0B
09
F9
05
14
0B
06
F7
F4
05
01
09
0C
EF
E4
E2
CD
DC
E2
CD
C9
E5
EF
EA
F2
F2
02
0F
FD
EB
07
09
02
16
10
18
08
12
FB
EC
15
ED
D8
C8
E1
E2
EC
F2
F4
F8
FD
F8
0F
1B
18
01
00
01
18
F6
02
36
16
14
06
1D
FA
EA
F4
F0
DA
F0
05
12
E6
08
E6
F7
FC
0B
14
12
0E
FB
09
07
E9
03
12
29
23
08
2C
24
FF
F0
DE
DD
DE
FD
11
FE
F6
02
0C
03
1B
1A
17
07
19
E2
00
F4
01
08
00
07
08
1A
1C
19
F4
16
F4
03
07
F4
1C
15
19
0D
00
07
19
24
1B
0C
F7
F2
FF
09
0D
06
11
F2
0C
32
0A
15
1B
F7
FB
0B
0A
FF
FF
06
1A
1A
05
11
22
20
14
08
FA
F0
0E
F9
F5
19
EC
17
15
21
04
06
FB
FA
E7
FF
FA
EB
F8
EC
00
11
0B
1F
19
0C
0B
08
05
07
04
0B
0B
F6
F4
18
01
30
0F
19
10
02
E8
15
F5
03
08
F5
05
FF
09
04
1C
09
11
F1
FE
EB
12
07
02
04
FF
18
06
0F
0A
FC
10
0C
F9
19
09
FF
E5
F2
02
0A
0B
F9
02
06
0D
01
01
08
02
0A
13
08
FA
13
22
1C
F2
EE
11
03
0A
15
13
1E
E8
F8
EF
F4
E8
F4
01
EF
F5
F8
EA
D6
EF
0A
02
F5
07
10
F7
17
07
06
F0
0B
07
E1
FA
17
10
FF
F0
01
EE
FF
09
0D
0C
FE
DC
D8
E6
D9
ED
08
06
F0
04
18
08
F0
F6
0F
0D
D5
0D
11
13
FA
05
E7
00
06
F1
00
F4
1A
EB
06
F1
F4
E9
E6
01
04
29
11
1F
0A
05
EF
FF
F7
FA
08
0C
0D
03
FD
07
04
F1
06
FD
13
15
EB
C9
C7
E5
FE
F6
E9
F4
17
FC
0F
F1
FB
12
F4
06
0D
28
0C
13
2D
14
12
1B
19
18
0B
0E
02
02
E4
FB
E2
EA
02
03
11
0C
FC
0A
12
11
13
FC
FE
1F
21
32
1A
31
35
27
1A
07
02
17
F3
0C
FE
F4
FA
F6
0C
0F
12
07
F0
05
0A
FD
F7
0B
FD
F6
F9
F0
05
F0
FF
F4
FC
00
12
11
F2
F7
05
0E
F6
04
0B
0A
0E
F6
F7
FE
06
F9
02
12
EC
FD
06
F4
F9
F1
EE
01
E8
1B
03
13
FA
F4
F5
F0
DB
F0
F3
10
09
0E
F8
09
09
F7
E1
DA
F9
EC
EE
DA
CA
D4
F5
DF
D8
E1
E8
ED
F8
E7
EB
F0
E6
EE
05
15
F0
F1
13
F8
EE
05
F7
F8
E8
D9
F9
E8
E3
03
DE
EA
FC
E9
06
F4
02
FB
EB
EB
EC
09
FE
FF
09
E6
0F
00
06
F3
E7
0D
13
F4
10
12
04
03
0A
04
24
FB
0E
00
08
0A
F7
FA
F7
ED
F5
F1
EB
1D
FD
02
F3
F2
08
1A
FB
07
08
EF
FA
FF
0B
FD
05
08
EC
FF
F7
11
08
FA
0B
01
05
F5
07
01
F8
0D
F5
F3
FC
FA
EA
01
0F
F5
FF
FB
EF
06
FB
FF
FB
ED
FA
01
FE
07
01
10
03
02
FE
00
02
0D
F1
F5
DA
FC
FC
02
FE
0C
FF
00
F6
04
DC
E2
DD
EA
FB
EE
04
18
F4
0C
04
0F
06
F3
06
01
FA
EA
F9
FF
0C
07
F3
FE
12
07
FA
11
F1
EC
F2
FB
11
17
F5
FD
EA
08
ED
11
F3
FE
19
E6
E6
E5
EC
DC
02
EC
FB
0E
16
FB
18
F6
06
F3
E8
E6
0D
05
25
0D
01
04
0C
01
E3
F4
0B
0A
0C
F1
DF
F8
F9
F0
14
FE
FD
09
FE
07
F8
F0
D8
FE
14
07
1C
0B
F1
02
EA
E4
D6
E1
04
04
FE
E9
FE
FE
24
01
03
11
09
00
06
FE
0B
0A
0C
F2
07
0F
F9
FD
EF
0C
F7
F7
E1
01
08
04
FE
02
E2
EC
12
FD
14
17
09
00
E9
0E
0D
FE
F3
FF
14
09
01
0C
16
09
17
09
E8
FD
F5
0F
0C
F4
E2
F0
12
0A
F5
EE
F0
DE
0C
11
F8
F1
11
07
14
1C
0A
15
FB
03
0C
00
06
24
28
0A
03
FE
FD
E8
EC
F4
DC
EA
EA
0A
0F
11
16
05
F4
10
0F
0B
F8
EF
F6
02
F3
E4
F3
21
10
0E
ED
17
FD
05
E0
FD
F0
F0
F1
F4
19
22
FE
0F
0C
0F
07
EA
FF
FF
F4
F3
E7
F3
F4
11
10
01
E7
05
DE
E6
E9
E2
F0
15
14
0B
1C
1F
19
05
1C
07
14
FF
F9
E7
07
E3
F1
0A
06
18
F8
F5
ED
F1
ED
BE
CB
EA
11
15
07
06
07
06
1B
FB
FA
04
F3
FA
EB
F5
E1
F0
08
04
FD
0D
22
F5
F4
F6
FB
CC
D7
F6
EA
04
19
0B
1E
00
13
0A
EB
E7
FD
DB
F2
01
EE
FA
F3
FA
05
14
0C
F5
FC
00
DE
CA
F3
03
16
0B
11
16
0A
F0
EE
E9
F6
FD
D8
F2
FA
E6
0A
F7
03
0B
1A
29
F6
11
FD
E6
E3
D8
F5
08
1C
F8
05
16
07
FF
F8
F3
06
FD
FC
EA
09
FF
ED
FE
09
FF
F9
FF
F3
0D
E6
DE
DE
DE
E6
10
02
FC
00
16
F1
E8
01
02
0B
FF
F3
F9
0F
0D
0A
1A
1C
08
F9
10
06
1B
05
EB
EC
ED
FA
17
F4
F1
F6
1A
F2
06
EE
10
FF
ED
F9
F1
F5
0A
05
0F
F9
07
F9
F6
11
09
F8
02
F8
D3
EB
FE
FE
08
14
0D
F4
1D
F3
03
04
F2
01
FE
FE
14
FA
FD
01
15
03
FE
0C
F1
FA
EC
EC
D1
DC
F2
DB
E5
F3
FA
06
03
0D
0D
13
10
01
F3
FB
10
12
F5
DD
E4
05
F9
09
0A
13
F8
E8
E3
CD
E2
D6
D3
EF
E6
F9
EB
F9
F6
1B
10
F1
F9
DE
EA
DE
CE
F3
EB
F8
11
FE
FF
FE
04
FD
00
DF
D8
EF
F3
E4
D4
F8
E5
F3
E9
E1
EC
00
D2
CE
DF
DA
EA
FD
D9
0E
00
F0
F6
FA
0E
05
02
F7
F8
D4
DC
0D
FD
FF
E3
0D
F2
F8
EF
05
0F
F7
ED
DE
EB
03
12
11
10
FE
FD
F0
13
ED
06
07
0B
09
0D
F9
00
FA
0A
E9
05
FA
F6
10
0E
0E
09
10
F7
F9
FC
F6
FF
EF
F0
FF
04
F8
00
E7
F6
F0
D0
CD
E1
E7
DA
C9
03
FF
EA
FF
C7
DF
BB
DD
E1
FE
F0
0A
FA
F7
F6
06
FC
FE
FF
F3
C5
BB
AD
A8
A1
AD
BF
BC
C8
BC
DC
FE
D0
DB
E1
B6
C9
DF
07
19
FF
F3
EC
14
FC
DD
FB
DE
DA
B4
D1
BA
D2
C8
B6
BE
C5
C3
F1
DF
0B
08
EF
F2
F6
F9
E4
0F
F7
06
0D
F9
FD
08
E7
DF
D3
E8
D6
D1
BB
C0
CF
A6
C1
CE
E5
F4
F2
07
F2
0E
06
03
FF
FD
0F
E2
F1
0E
EA
12
E3
EE
E5
00
F7
E4
E2
DE
EE
D4
E6
E8
F9
FD
F6
FC
FE
F5
0A
FA
01
0D
FD
F7
FD
FD
EE
0B
0A
0D
F2
06
0A
02
0A
0B
04
01
05
E7
E4
F1
F0
F2
F6
FD
FD
15
FA
0C
0A
17
0A
09
FD
2D
FA
F8
1D
22
2A
2D
2C
0D
FE
20
00
17
E4
ED
02
F5
FA
02
FE
0E
F3
14
FA
10
00
FA
F2
2A
1E
FD
14
1D
32
0F
FF
1B
0C
00
09
15
05
13
0F
0C
10
02
14
F8
10
0A
17
07
FC
E9
FA
22
0C
0B
13
1D
1C
08
06
11
10
F9
16
20
09
1B
FB
1A
FB
1A
F5
12
0E
07
1E
F6
0B
02
0D
1D
12
0F
0A
09
09
10
FE
0B
0F
04
EB
13
15
0B
03
F7
18
11
06
0A
05
0A
1B
F8
0A
EE
F7
F7
1A
04
1E
11
20
29
00
F7
FE
F2
ED
F7
F9
EC
F4
04
EF
E0
E4
EB
F5
17
22
11
0A
F7
F9
FB
10
0F
FE
F5
17
0B
01
11
F9
E4
EB
F2
0C
06
FA
FD
F4
03
00
ED
FA
12
26
F6
F2
F0
F2
1C
04
FB
F6
F7
00
11
15
18
14
FC
08
03
18
F5
11
FC
0A
01
F4
02
00
03
2E
0E
05
EE
E3
0B
EF
06
EC
FC
FE
29
12
1A
15
17
01
17
F8
10
1B
0A
00
01
04
0E
06
13
23
25
14
FE
0D
1E
F8
06
F5
06
03
0B
12
1C
08
FA
11
0D
14
23
FC
02
14
F0
FA
FC
F5
03
41
1E
16
03
09
0E
FB
FF
0D
FE
16
FD
15
15
18
11
07
05
0B
26
05
14
FF
0B
13
F5
FA
F9
13
11
FD
F1
0F
08
0E
FD
0F
04
0F
F5
0C
14
1F
2B
26
09
04
06
05
18
02
19
14
10
09
13
25
19
E1
15
28
2A
F2
12
0E
03
F9
E2
E5
F2
FA
18
FD
F7
02
14
F6
12
F6
07
04
07
04
F9
0F
F4
F1
F1
1D
0A
06
F4
F5
EE
E8
F5
DE
DC
E6
E4
F4
E4
E9
F0
F5
06
EA
04
FC
E7
FB
21
00
F8
00
FF
F6
01
DF
EE
E4
E4
D5
DB
D5
DB
E7
EC
F0
FB
06
F9
F1
E7
14
E7
07
0D
15
0B
09
0B
0B
08
15
FF
F3
D6
E8
CD
E9
D9
E1
EC
EF
EC
FD
F5
F4
01
F8
F2
01
ED
10
0B
03
F6
05
0B
F0
09
0C
2B
F7
F3
DF
F2
0C
EE
01
F8
EF
02
F8
F3
E7
EC
F9
04
12
F9
11
05
08
FF
ED
F0
F8
09
1E
30
14
F6
EB
0E
05
03
FE
1D
07
FF
EF
F7
06
F5
01
10
0D
0C
05
F8
00
02
FE
ED
07
05
17
18
00
0B
08
1B
15
19
19
0B
FF
FB
0D
EF
0D
F4
F7
23
32
25
16
02
EA
E8
EA
F3
F3
FF
10
F8
F9
E3
F4
0C
F5
F7
19
FF
F8
0B
0D
17
FC
04
00
04
0A
09
07
1C
EE
E9
F1
F4
09
FF
FB
00
D8
E9
E6
F0
E8
ED
FC
F5
F1
14
01
E1
F8
C6
E3
FA
03
0E
08
11
FD
0F
FD
FB
0C
13
F5
09
14
0F
FA
F9
08
05
13
16
10
0D
DC
28
F4
FD
FE
1A
0A
FE
03
FA
F7
ED
0D
F5
