D9
0F
C6
04
0E
14
18
03
06
E6
D1
1B
15
17
F1
ED
E5
04
19
19
0B
09
15
D6
F2
FE
E6
E7
DC
0A
D4
EF
F5
DF
C2
F3
DF
F0
20
EE
F9
1F
EA
FB
25
F4
00
FC
F9
E0
D5
07
F4
1C
FC
FF
FA
16
E8
F8
D2
DB
D9
E7
D2
0C
E1
00
0E
DA
C8
ED
D3
1F
BD
FD
F9
E5
B9
1A
10
E0
FD
EF
0E
19
EA
11
03
FA
E1
12
07
12
FE
1F
01
EF
15
12
DB
FF
B0
0C
1C
DD
E0
12
ED
E4
EF
D0
0D
DD
FA
E6
1C
03
DB
B8
F7
1C
DB
0D
C9
15
D5
F8
04
0D
F4
19
D4
D8
09
0D
EC
10
ED
DD
EA
14
0E
02
EA
05
FE
FC
F5
EA
13
EF
13
0F
E0
04
EC
07
EE
02
13
14
0F
DA
10
0E
11
E3
ED
F9
0C
EB
FB
CB
E3
02
0D
01
EE
FE
FE
E7
F3
E0
E6
C3
0B
F5
EF
11
0F
12
FB
11
F7
0A
DA
E3
DC
F0
FB
12
F4
13
15
16
F9
08
FB
CB
08
F1
00
10
09
13
EF
0A
11
E2
07
0B
05
E3
09
DF
D6
12
E2
F4
E0
11
EA
01
CF
DF
FE
E5
D3
CE
E2
D1
12
0F
F5
F7
06
FD
06
DA
FF
08
C6
D3
F5
FE
