FD
0E
F2
1E
19
FE
05
0B
11
F5
22
26
F6
D3
EC
0D
20
E2
ED
DA
E1
33
E5
12
0B
E2
46
CC
06
01
F1
11
E6
F9
06
15
E9
04
EF
F3
03
06
CC
C0
E2
1C
E2
08
21
07
01
0F
04
F1
EB
10
FD
ED
E4
CF
02
0D
19
EA
D6
DB
E2
F1
1E
05
05
E8
F7
14
F6
EE
EB
0E
24
C9
F3
1C
DF
10
13
08
E5
06
EE
E5
F8
E3
0A
11
C9
FB
FA
12
E8
0F
F0
FA
C9
F5
E5
EE
19
0D
DB
EF
33
12
16
EF
F2
09
0E
0A
FE
DE
13
09
09
0C
C2
12
0A
D7
