1A
E9
FC
22
FC
05
15
D3
F3
03
D4
E9
D7
F5
CF
0A
37
0D
DF
07
F9
F1
E3
00
14
0B
DD
E3
F8
D5
0F
19
FC
0E
F4
09
07
DF
F5
E8
CA
24
00
D3
F0
11
08
0A
DC
DE
CE
02
F7
F1
11
0C
D4
F8
D4
DF
F2
E8
07
15
E0
EC
12
07
FA
11
10
EE
F9
E9
0E
01
EC
E0
00
D8
E5
00
10
D6
E4
E1
1D
F3
C9
14
E4
00
E8
DD
10
13
0B
08
04
D2
F8
06
0A
FB
01
D5
F8
04
11
F2
D6
FF
E4
17
12
08
1B
10
06
FD
F9
E1
19
D6
E9
13
09
DF
