EC
F9
16
01
F0
E1
FB
E9
EA
0A
1C
0A
0F
E5
0D
F9
DA
EA
ED
1C
08
1C
11
05
10
DE
1F
06
DB
01
09
CA
08
DF
12
16
E9
D9
17
10
0D
E6
15
0D
0C
08
D5
F6
BD
18
07
DE
0E
0D
EB
EC
E0
09
15
EC
07
FB
F9
05
0C
1B
03
C0
1A
F8
DF
D8
DB
EC
C5
FE
FC
EE
F4
08
D9
2E
E7
D4
18
0B
E5
E5
DC
E9
07
03
05
E9
01
0D
F2
E8
E5
08
FE
F9
ED
EA
1A
E2
0E
F7
F7
1C
E6
0D
F4
11
08
12
03
1C
18
09
05
EA
04
F1
CD
E9
F0
36
