1E
F0
CD
0F
18
13
CE
E5
D5
16
1C
E6
DF
0B
05
E1
F1
00
19
20
E6
DC
E9
D4
FA
07
E2
DC
F8
DB
DE
EF
FE
D9
DB
DC
0E
F6
DD
19
3E
F4
01
F6
01
F5
F4
F9
FC
D8
F4
02
E9
17
1A
09
21
D7
F9
1E
C7
16
D0
DB
13
03
01
FD
EC
01
F1
D6
20
EF
DC
0D
F5
12
DE
EB
13
DB
10
F2
F9
F2
11
ED
0F
00
E2
12
09
DC
10
FF
07
1A
1C
FB
1D
0D
FB
F7
E8
34
06
16
E8
D7
D9
EB
E2
E5
ED
13
15
01
12
E0
DC
F5
BF
19
DD
EB
02
E1
