F3
0D
E6
F2
E8
E1
FA
F8
08
F2
F4
F6
D5
02
F7
DD
FC
F3
02
E8
07
14
18
E1
DE
06
F0
0F
04
F3
02
08
15
F2
05
C2
EA
25
C8
0F
F8
FA
09
00
C9
10
1B
FC
05
02
09
06
CA
E0
02
03
1F
19
05
16
13
F8
0C
12
13
0C
01
07
EF
1A
09
0A
0C
01
07
FC
DF
D4
13
1B
0C
0C
EB
00
F2
02
F4
13
33
EF
E9
1B
E0
E5
02
D4
FA
F9
E0
E8
29
10
FE
04
DD
EE
F8
E5
04
3A
2A
E7
EA
E8
E1
09
BB
01
F3
CE
04
23
07
F5
28
23
D8
14
