EA
B7
DE
1A
1D
20
20
1E
E5
12
48
26
44
13
21
CF
CD
FE
B1
CB
10
21
1F
4D
16
E6
F2
02
1C
17
09
16
57
37
FE
AF
FD
F6
C6
2A
EC
CF
0E
F7
D0
10
2F
D3
E5
C3
A9
E4
E6
E6
FE
E1
C4
24
41
18
D4
E0
D7
0C
95
2C
42
0D
25
CA
DB
F8
03
F6
05
4C
52
01
D6
FB
1B
16
C2
F3
0C
F5
D8
EA
33
ED
10
F7
FF
13
D2
CC
F2
3F
53
ED
15
FD
10
19
20
4D
D7
BA
ED
F5
22
2A
12
21
09
E0
D7
0E
CE
DB
1C
25
C9
F6
25
D2
E8
F8
