10
FC
02
D6
F7
E8
FD
0A
DC
FA
F6
FA
1A
DA
E9
0A
17
E7
16
F2
FE
F0
FD
1F
F8
1A
E7
14
F0
F4
14
00
DE
11
ED
22
0A
20
F6
EA
04
D0
E5
F2
DF
D4
19
FB
EF
15
12
03
0F
10
D3
3B
04
17
09
E0
FE
03
F5
DB
16
EB
EA
F5
05
10
DD
25
C3
E8
FF
09
16
FA
EA
01
1B
DB
13
26
15
FC
EB
18
03
EB
F0
EC
E6
18
03
D8
09
D2
F4
14
CC
09
CE
10
0D
0E
DD
24
F1
13
D0
1E
0E
05
EA
F6
D5
E6
E4
00
FE
E0
0F
ED
20
D9
0C
ED
