F8
0C
22
DE
E0
D7
DA
11
DE
01
ED
F0
26
D4
11
F0
BA
07
FF
DD
D2
EB
DC
14
E6
0B
F3
0E
18
FC
DE
EE
0D
15
14
1B
0C
E9
F2
10
D0
E7
E4
EA
ED
F8
11
00
12
D0
F1
ED
13
E3
FA
D9
EA
E2
E1
EB
12
06
FB
DF
EE
E4
05
F6
D3
FE
2D
D2
30
D4
D8
08
13
E5
33
FB
E6
1E
10
D4
08
19
E1
E4
1A
FA
0B
1B
EA
D7
F9
D8
FB
13
14
09
FF
F2
7F
D3
E1
F5
1B
0E
0A
F9
E0
18
EC
03
02
F5
AE
C7
1A
1D
D5
F3
CE
F5
EF
F4
12
E3
E5
DD
E8
EB
02
04
06
F2
14
D2
E9
D4
22
1D
1D
FA
D7
11
E7
08
EC
C4
0C
FA
08
F5
C6
07
14
1B
08
FF
F1
FE
17
D2
02
F6
08
D7
FB
F6
00
BF
1E
02
1B
05
13
EC
10
07
15
E4
07
ED
0D
FC
D4
D3
D8
EB
08
13
F1
0A
07
13
E7
FD
18
28
06
FA
EE
D8
1B
0E
F6
DD
0D
EE
E8
10
E4
DD
DF
EE
18
15
16
FC
01
1E
FB
E6
06
FC
12
E2
0F
DC
E9
F0
0A
E6
D9
F1
FF
FC
E9
BB
0F
03
F0
0B
05
EF
F8
EF
0F
04
00
1B
23
E3
F0
E7
