FC
01
AD
07
1B
E2
09
C1
EE
E4
CE
17
A9
E8
32
C7
08
28
18
13
25
1C
D3
E9
F6
15
ED
1F
08
E2
09
1D
A0
2D
D9
AB
B8
F3
36
17
4B
A6
0D
ED
DB
03
C0
1D
11
C0
24
2B
2C
10
FC
DB
EE
F5
37
FC
DB
30
0F
D9
C4
FF
DF
FD
AF
F7
17
D2
06
3B
FD
D6
3F
29
DE
1E
DB
35
CA
C2
D2
0B
DA
F5
BD
F4
11
29
04
19
F0
CE
05
9E
E2
09
E6
1D
F3
16
DD
2A
18
16
EB
1F
08
DA
05
0E
DC
1C
0B
BE
0D
E7
B5
E9
B0
DE
D2
CD
DD
0C
