10
11
FB
13
FC
04
F6
0C
12
F1
12
04
04
F7
0D
FD
10
03
F7
05
F7
FE
F8
0D
F0
F7
FA
F4
02
EC
12
EF
0F
01
F5
09
F8
06
FC
F5
F3
E5
0A
13
0C
FB
0B
0A
0B
F6
DF
F0
F0
11
06
08
06
00
10
F4
F2
E6
01
F2
0D
04
15
F4
03
F8
12
09
15
DC
C7
D8
E8
04
09
09
F6
F7
0B
F8
0C
FB
19
01
F9
23
1E
18
2B
1C
F3
F9
33
14
00
E4
EB
F5
DC
D8
EE
F4
09
1F
15
0F
09
04
06
F1
F4
07
18
17
18
FE
0F
F8
0A
FD
07
07
06
F2
01
DA
FE
F8
D6
FC
E5
F7
02
FD
04
03
08
EF
26
0C
29
16
17
18
04
F1
08
0C
11
F9
14
F8
06
F6
F6
E2
E8
DC
DC
C5
FD
04
F4
14
05
F6
DD
23
2E
01
FA
F2
EF
0D
17
F9
0A
0B
FA
EA
04
FC
02
DF
E0
D9
CD
CF
F0
0C
FC
FD
FF
00
D6
2B
27
FE
16
0C
F3
E6
EC
F3
FC
FC
0C
0A
F3
FF
F7
01
E8
C6
D9
CE
DA
05
01
07
E0
07
DD
16
1E
F9
FD
0F
F5
01
00
F5
F1
EF
FB
09
28
0F
06
F7
D5
B1
C2
D5
D5
FD
01
F7
00
E7
E2
F5
33
FF
1E
F7
E6
DA
F5
E2
FE
1E
25
2F
2F
19
1D
DA
C8
BC
CF
C5
D7
01
16
EB
FF
E3
EB
F8
0C
0C
E8
F1
DE
DA
EC
F9
FA
08
36
27
23
1A
F3
D8
BD
C1
CF
DC
E2
2E
0C
15
FA
ED
07
13
06
07
F4
E9
F3
09
FC
18
07
19
35
26
03
E8
D7
CA
C8
D9
E1
DE
E4
F6
1B
F3
FF
EC
E0
02
08
F6
D2
D9
ED
F9
1D
06
08
19
24
1A
02
F0
CC
EA
E5
DF
D4
F7
FC
21
FC
03
0B
F4
E8
FE
EC
FA
02
0B
F7
07
F9
FB
15
1B
2C
FC
0D
E6
EE
FF
E7
06
D1
FA
16
1C
0F
FE
1C
FC
F9
0A
EA
E5
FA
F7
03
11
F0
FD
04
04
0B
FF
F4
FA
E9
EE
F8
00
F8
F9
08
21
03
FF
0D
FC
02
19
0C
02
0A
FF
02
FF
F3
F6
FA
10
FF
01
ED
EC
E7
F8
EB
09
03
1A
31
0D
F9
17
11
F9
F7
ED
DF
04
1E
25
02
11
ED
ED
F7
06
0A
DA
F1
E6
F4
FC
12
13
1A
1A
29
1A
09
11
F5
FB
F5
FC
05
04
05
02
F4
ED
FF
ED
05
16
05
FD
EF
FB
10
0F
0B
20
11
09
00
0E
10
1A
FF
10
EF
E9
06
18
0B
E8
FB
F3
F4
EB
03
E9
0A
01
F9
13
19
1F
1B
FF
1A
18
04
1C
0C
0A
05
0C
06
F6
F2
15
F2
09
E8
FF
F6
F8
F8
F9
04
10
16
0F
0F
18
0B
14
04
FE
04
21
13
1D
0E
0C
FD
F1
EC
E8
FB
F6
EF
00
F8
EF
EC
00
0A
FE
01
19
07
05
21
F2
FE
0C
FD
1C
F8
FC
10
16
16
25
E8
F1
FC
F6
09
F7
17
02
F1
01
E9
FF
04
FB
FF
0D
0F
08
FE
F9
F4
20
05
01
11
00
06
3D
08
FC
F0
07
01
F7
04
06
E0
FB
F0
FB
0A
18
0A
0E
F3
F0
EF
F0
09
FC
17
0D
EC
F6
0E
1B
0F
F2
0D
03
06
FC
FF
0D
F6
EF
F0
06
E4
08
08
15
13
10
11
FC
1D
03
04
09
14
0A
FE
24
15
0D
F4
09
14
05
FA
07
F2
04
EA
F2
E3
FD
11
27
0F
10
0A
05
0F
1F
10
13
0C
F7
FE
F5
2F
14
3D
32
17
13
FB
F6
03
ED
13
F9
EB
CE
F5
F2
FF
F8
FA
0B
D9
1F
1F
EF
EC
F5
0E
F0
F4
01
FD
00
F9
EC
F3
EF
E9
EE
F0
FB
E7
F7
17
03
F8
04
01
0E
F4
00
13
F4
00
0A
F2
14
F9
01
00
F1
EA
0A
FE
D6
D9
0E
F0
ED
D9
FB
FF
F7
EF
0E
12
05
03
F8
05
08
F3
0F
11
0E
00
05
01
F8
EC
FE
09
0C
03
0B
12
01
0D
00
F9
F8
F4
F0
05
13
03
03
F8
F8
FA
07
03
F9
00
F7
00
06
F0
09
F0
0B
FC
07
0A
15
02
F5
04
09
02
EF
FE
FC
EE
F0
07
FA
FB
F4
0A
F2
F1
05
13
10
07
07
0E
15
1A
18
1C
0D
16
04
ED
E9
E7
F5
FD
F5
EC
FE
09
FF
FD
03
0C
F4
ED
0A
FA
0D
0C
0E
17
11
24
10
F1
EB
FD
E7
F5
E9
D5
ED
DB
05
FE
F1
01
F3
11
06
1B
1A
23
21
04
13
2E
0F
0E
15
0C
05
08
07
FB
DC
02
E6
EC
E4
F6
DA
D9
ED
21
07
0E
F5
1F
06
1D
0A
FD
1D
F7
0D
0C
0A
1B
1A
0E
0E
0A
F5
E9
09
E9
F0
F0
F7
01
FE
1E
F4
0D
12
F6
1F
0B
F6
14
EE
02
11
02
16
1D
0A
28
16
2B
FA
16
E8
03
FA
EF
F1
F8
17
22
12
EE
F5
15
16
17
0A
08
F7
04
03
06
FC
0C
25
20
04
17
13
F8
02
0B
0C
07
E2
D7
00
06
26
F7
EA
F9
08
18
13
FA
FA
E1
10
F2
08
F6
04
0F
1F
04
FB
19
07
FF
06
EE
F4
D9
F9
21
14
F8
01
ED
0B
2B
0A
0E
F9
F4
FD
FF
F4
FE
08
01
1C
15
19
15
11
0A
06
F0
E9
D4
FC
11
22
0F
E6
D9
1A
FB
FC
10
F0
FA
F4
05
E0
FA
F2
0A
0E
00
0A
15
2F
19
19
FD
F6
E3
0A
F5
0B
EF
F7
EF
20
0B
15
06
F8
09
E7
DE
FB
FF
E7
16
08
FC
19
27
17
34
FA
E8
CB
CE
0A
F2
04
F2
09
FC
13
06
18
F5
06
03
0F
FE
F0
D6
FC
07
1A
0E
2C
0E
0C
15
FE
D7
DE
00
15
02
14
14
FD
05
0A
00
FA
DE
FC
F3
ED
EC
E5
E6
01
12
17
18
11
18
FD
04
F4
E7
C9
EF
0A
FB
14
F3
0C
17
15
10
E1
00
F7
F8
E5
D8
FA
06
1A
10
0A
15
FD
F8
FC
F7
DD
C7
E0
E0
EF
21
05
F4
11
04
1A
FA
F7
FB
EF
F3
F2
F2
F0
FA
0A
19
19
FC
0A
F6
E8
D9
E4
00
E9
E2
F3
28
05
12
FD
07
0D
06
F2
EA
E7
F5
05
07
01
ED
01
16
FA
0A
FB
F7
D6
01
FA
F6
05
F8
F9
14
1A
05
FB
F1
FD
16
F2
D9
F4
0B
F7
0E
F5
F9
0F
0D
FE
FF
FD
EC
EF
EF
EE
EF
F5
F0
EF
1C
02
28
09
09
FF
0A
FE
0D
F4
04
0D
FA
01
FE
08
EF
FC
E2
E4
F5
F7
06
F1
0F
18
00
06
01
0F
07
E2
F7
12
09
F1
04
0E
0A
01
01
E9
FC
EF
F5
F9
F5
FA
F8
F3
12
FD
0A
0D
17
22
1E
05
EF
F9
F7
1B
0A
E0
16
0F
14
0D
05
FC
E9
E9
05
02
F6
12
05
03
05
09
1E
FD
18
2B
F6
0F
0B
18
1B
10
11
05
FD
FF
05
FE
07
EC
F8
FF
04
EF
FE
E8
0B
F8
0A
FC
F9
F9
13
06
0D
04
F4
03
11
07
0E
FA
F6
10
1B
F1
01
0C
ED
E8
07
06
FA
E9
F6
F0
ED
08
1B
17
19
23
07
1B
FF
FC
F9
0D
FA
F0
07
03
08
01
02
11
16
FE
03
09
00
F6
0E
01
F0
0C
0B
11
2F
0E
F4
FC
EF
10
E0
DC
16
03
FC
FC
0C
E4
F7
08
F4
F6
13
07
FD
03
F5
F4
0F
0B
0E
FE
02
16
16
F8
0F
EF
06
FF
FC
00
FB
EE
09
00
FA
07
05
FA
F7
08
03
04
E8
FB
17
11
08
08
EC
F2
0B
0D
FA
FE
FF
F6
FE
08
19
01
11
20
FF
04
10
05
06
26
1C
1D
19
05
18
28
F6
18
19
F8
F2
FA
F6
F9
F1
FA
08
EB
0A
FA
F9
0B
10
F9
0F
FD
0D
07
0C
E9
0F
F2
0A
FA
04
FC
F0
F5
FB
00
0C
10
06
10
F6
F3
F0
FD
FE
F4
F9
F9
11
FC
0D
02
07
0C
ED
F7
F1
14
07
F7
F1
0B
05
F6
F1
F5
05
EF
FE
0A
04
F9
F9
FC
00
09
FB
01
07
EB
F0
03
FC
F1
00
E8
F3
FD
FF
F2
0A
01
FD
EC
F5
00
F0
FD
E6
FF
F6
FB
EE
D5
DE
E5
DB
FD
F2
0B
FC
07
12
F3
EA
07
00
F9
13
EC
EE
04
18
0C
F4
16
0D
F8
FF
FB
EE
E3
DE
D6
F2
EA
F4
06
FD
FC
12
01
0E
F0
06
03
04
0A
FF
F1
08
15
0D
04
0B
21
02
FD
F8
1B
F9
FA
0F
F1
E8
EA
05
F4
10
0A
13
08
03
20
FD
E0
06
07
EE
FC
18
0E
14
F8
FC
F4
12
0B
07
0A
06
0A
04
03
F8
FB
0D
EF
06
09
06
00
0D
F0
FB
03
F8
F4
0E
18
02
FF
08
F7
FA
15
FE
0A
F1
E8
FB
FF
E1
E7
FD
0B
FA
15
11
F7
05
09
13
07
FF
F9
F8
07
04
06
0B
01
ED
0E
0A
10
0D
FF
08
06
FE
EE
06
FF
0C
07
F8
12
07
10
04
FB
09
E8
F1
13
ED
F9
00
FB
05
FB
06
F8
17
F6
F2
F6
00
0C
03
F7
F1
06
11
09
0E
FF
03
EA
F4
FE
EA
FC
0F
10
F2
FD
02
0B
0A
01
0E
08
ED
E0
F6
03
EA
05
10
06
F9
FC
05
16
EE
F6
F0
F2
0F
F5
0A
0A
0F
05
F9
F8
FD
FA
F2
04
E1
E8
DF
DB
08
EF
EE
E7
F8
F9
15
2C
FA
E4
E0
0C
0B
E4
F6
FA
05
F3
07
FC
0F
03
00
F2
FB
F3
09
FA
FC
0F
F1
F3
F0
11
05
00
0B
FB
DC
04
EA
E6
05
13
F7
0E
F3
11
F9
02
17
FF
FA
0B
F0
03
FD
07
F9
04
F9
F4
14
15
F6
00
FA
0B
0F
12
1B
1D
08
02
18
08
23
21
0B
F9
12
0B
02
0E
02
10
03
FF
17
EC
EA
13
DB
FD
E1
01
05
05
20
22
18
1D
FF
FF
1A
04
16
26
06
F9
16
F8
FC
09
09
00
15
D1
F6
EB
E9
17
13
EF
F9
05
09
09
FE
09
13
06
1D
1E
20
19
FE
09
FE
0B
F6
15
09
00
F5
E2
01
F2
EC
FF
0B
F4
F1
DD
F2
E8
F1
09
09
11
16
0D
16
FD
02
FB
0C
01
F9
F1
F4
FA
FA
DF
EF
F5
FC
14
08
13
E6
E8
D9
CA
C1
E6
EF
ED
F0
EF
F4
09
E7
FD
0C
06
FF
FE
EC
0B
06
F5
F8
EB
DF
F9
11
1B
E5
CD
E1
DC
C9
B1
C0
CB
DD
D2
FA
04
F3
FE
F2
F2
EA
0A
F7
F4
FF
05
F0
1D
0B
00
0E
0E
E1
D9
CA
CC
D8
BB
CA
D8
CC
DD
DE
00
F9
EA
F7
FD
11
FB
FE
F1
04
EE
01
1E
11
FD
00
FE
00
F1
EC
E1
F5
FB
EC
E3
D8
FD
0A
14
01
07
02
FE
F2
FA
0D
00
03
FA
F1
06
FE
1C
00
20
10
F0
01
FF
10
0B
0D
15
FF
08
11
EF
09
F1
0C
F8
08
FF
F7
FF
0D
09
03
0B
0A
05
F8
0C
FB
FE
F8
08
04
03
0C
2C
16
FD
06
FD
04
0F
F9
FC
FC
EA
EE
15
FF
F2
06
04
0A
11
1B
16
10
03
05
1F
12
1E
23
0D
0F
19
0D
07
0C
F8
FC
F2
16
EC
FE
F2
00
F5
07
F8
0B
F3
0E
FD
21
17
1A
2E
12
1D
14
03
F9
12
08
13
ED
F6
F8
F4
F6
05
08
06
27
F5
E9
0F
F3
02
09
FC
13
14
23
02
1D
0C
12
04
00
12
05
02
04
FA
F4
F8
FF
EE
0C
35
2E
10
FF
0E
F2
EF
FB
0D
22
12
06
F8
FD
F1
FB
EA
EE
FC
E8
03
0B
0C
EF
F5
EF
FA
F7
02
FC
FB
10
F9
09
08
FE
F1
EF
FF
08
0D
ED
FD
03
FC
F8
FB
EF
1A
FE
FC
00
EF
F9
07
E7
0F
0B
FA
EF
0B
10
0A
F2
F5
F7
06
0B
FF
EC
F3
F6
F2
08
FE
EF
F4
F1
F2
08
F5
EF
01
FF
EF
05
02
03
09
F6
EE
0D
12
12
0C
00
F5
E4
00
E9
E0
FB
E8
EE
14
0B
05
F7
04
F0
ED
F0
FB
F2
FA
0F
FF
0A
F7
08
E6
F5
ED
EC
04
03
F5
EA
EC
EE
EA
D3
FB
FD
F8
02
20
0C
DD
D7
ED
05
01
04
11
0D
F4
03
F0
F8
E9
F3
F5
DA
DF
DB
D6
D7
D3
D7
E5
04
F3
FD
ED
DE
0B
0C
28
03
F7
F9
F2
F3
F2
0B
F7
E4
F1
FC
FE
F5
FF
E7
F2
F8
0A
04
14
F4
F8
19
08
E9
F5
0A
04
17
1E
12
1A
07
06
F1
E3
F7
E5
F0
E1
F1
07
FD
07
F8
F4
FE
E2
FC
09
0E
04
07
10
F2
FF
02
40
02
1E
F4
F0
0E
02
F7
E5
FA
FD
0E
00
FC
0D
07
0D
16
09
FA
FC
F9
FF
08
1B
11
13
23
16
21
1A
07
FA
0F
EB
F1
E3
E5
0E
11
09
FF
F8
F7
E9
03
0A
0A
0E
FC
FC
F8
0A
05
17
25
31
02
F9
EA
03
F3
EA
E8
EC
19
20
0B
04
1A
21
FC
0F
F9
F6
F9
FA
1C
14
F0
19
19
22
4A
20
07
18
ED
02
05
F2
E8
0E
0D
0A
27
14
27
24
2A
1F
0A
FA
F3
FC
01
1E
09
FD
FD
1F
24
30
1D
0A
F8
09
EC
DB
0B
09
10
29
35
23
13
25
13
15
08
05
FA
FC
04
11
FD
F3
FB
21
21
3A
1E
F4
09
FC
12
F6
12
33
1A
21
2B
18
FF
1A
FF
FE
01
1C
1D
FC
03
14
08
06
F6
1D
1E
2A
19
FF
06
F4
EA
18
1A
18
17
26
F6
14
FF
07
20
16
12
0C
13
16
14
0D
05
05
EC
F9
DD
FC
0E
12
03
EB
FE
18
16
02
01
FE
EF
EF
FD
0B
05
0F
23
0B
1E
16
FD
18
14
E9
04
F0
DA
E6
F8
FB
EF
07
E1
18
00
08
EB
E9
EF
ED
15
20
FB
19
FB
12
07
02
18
05
FB
F7
E2
02
CF
E5
FB
F7
03
0C
F7
FF
E4
D7
DD
E5
F9
0B
12
FD
1F
F5
0B
11
04
09
04
F9
E3
F3
FC
FE
ED
04
FB
F6
EC
FA
EC
14
D8
E6
FE
D7
FA
DE
07
FA
F9
0B
10
16
15
09
F3
FA
E3
07
FB
DE
EF
EE
E0
08
F8
ED
0C
16
0B
EF
F8
EA
F5
03
F4
FC
1B
0F
0B
21
20
11
E1
EC
FE
0E
E1
04
F2
CE
F0
F8
FB
FB
F8
11
EF
18
FE
06
E3
D6
F9
FC
F2
FA
EF
F6
07
FE
E6
00
FC
FF
F4
F8
F1
DE
0C
FD
04
02
F7
D5
F3
01
15
F9
07
FE
E0
E9
E4
F3
EA
E9
EB
E6
FE
F1
00
E8
F0
F5
F4
FA
EC
00
EF
F8
0D
DB
F1
F2
FA
13
02
F8
FB
EA
E5
09
EF
F8
EF
09
E1
EC
E9
FB
F1
1A
21
E9
DE
05
E1
D3
FE
DE
FA
F2
EF
F4
03
E7
F5
F8
E9
0D
EB
ED
EC
00
D9
FE
0E
1F
1F
16
F4
FD
FF
F6
E0
02
F8
FE
F7
D5
0A
E9
EA
06
F6
0E
13
FE
FF
05
F9
FB
E7
E6
EC
FD
1A
14
17
00
EB
E7
FD
07
F9
F8
FA
E9
FD
FE
ED
06
08
E4
02
FF
0A
F4
0C
FC
F1
0B
0B
1E
0F
03
EC
FA
E3
12
12
0C
FC
EC
07
00
11
0B
03
05
0F
00
F6
0A
FB
09
18
FC
F6
F7
1F
0F
25
0E
FD
F0
04
10
01
0E
F2
17
26
1D
1E
24
1D
11
1D
0F
10
24
26
1F
26
26
24
06
10
1E
12
04
01
FF
04
FF
13
FC
0F
F8
F8
0A
F4
13
11
17
18
25
08
0C
21
14
14
2C
1F
1A
09
12
FC
FB
0A
FE
09
07
0E
07
EE
FE
01
F7
F2
F2
0A
FB
01
0A
10
0F
0D
19
0D
01
17
08
1A
FB
01
19
F3
0B
F3
06
09
F7
0D
05
ED
FD
EE
F9
04
ED
FE
0C
FF
0F
02
00
EF
FA
03
0F
13
FD
12
02
0E
0C
F3
14
05
F5
ED
01
F1
06
03
EE
05
F6
12
0D
05
04
FC
00
0E
E8
D7
E9
02
EF
EE
0B
05
F4
09
05
EF
04
E7
10
F8
EC
F2
FD
0F
F7
07
F1
F2
EC
F6
D7
E9
FB
E4
ED
F0
F5
F6
EC
EE
FC
FF
FE
FB
F4
14
04
F4
FB
F6
05
02
F1
FC
EC
ED
00
07
E9
EE
0C
EA
EF
E0
F4
F2
F5
F3
F5
05
F7
EC
0A
17
F6
EC
FC
FE
FB
E7
01
FF
0E
03
F3
F9
04
0A
10
17
0B
E7
08
18
13
14
17
F0
FF
0C
00
F9
0C
0B
05
FB
FE
12
0C
01
12
03
13
F8
12
13
F9
19
03
FF
18
17
06
12
0F
F9
FC
F5
F3
11
FC
ED
F2
F7
EC
FE
FC
14
0B
04
0F
0E
1D
25
1B
0D
19
FF
24
09
0A
02
02
15
07
01
01
13
F8
E9
F7
FA
EF
FF
02
F7
10
0F
22
17
03
03
19
FA
07
1B
11
1B
FF
07
0F
09
F6
EE
F6
DB
ED
D7
FE
F8
04
E3
E7
00
03
FE
FE
0D
EF
FB
05
16
04
10
10
08
22
06
0A
F5
15
F6
F7
EA
05
EF
04
F9
EB
E7
0C
15
0E
07
05
FA
F2
11
0B
18
F4
05
08
06
16
19
06
1F
00
F8
F7
07
FF
FB
FF
0A
FD
04
08
FF
05
0A
FF
15
17
11
FA
02
F4
16
FF
04
01
14
2D
13
13
F7
F1
DE
FE
0D
10
03
FE
ED
04
08
13
FA
15
0E
09
F8
14
F3
10
1B
F3
EC
F8
16
0C
30
1A
F6
04
FE
F1
F4
04
0E
F2
F9
FF
02
07
0C
12
28
FA
F2
06
FB
EB
F5
ED
E6
DA
01
1C
25
22
07
13
E6
F0
08
0D
EB
FE
02
F7
16
09
2A
16
FD
01
E2
E1
FF
05
F6
01
F3
ED
EE
FF
27
09
FE
05
E5
D3
0E
FB
F9
FE
E7
0B
15
02
0B
FE
E8
F6
04
08
F0
EF
F4
02
E7
EE
F8
F0
26
FA
E6
F0
D8
FD
0A
0A
04
FF
07
12
0C
FB
14
12
FD
F2
F1
0E
F6
14
19
0F
04
06
0D
E9
13
FE
F7
FD
0B
09
1C
02
FA
0A
16
07
0A
14
07
F5
DC
F3
FC
06
17
00
F5
11
FB
01
F4
0D
1F
14
0F
EB
EF
18
2E
23
12
1A
0A
2B
1E
EF
F7
F9
F2
E1
08
F4
0F
0D
05
13
11
19
1B
08
1D
19
28
FF
F4
17
21
31
1C
0C
03
0D
24
F4
E3
E2
E1
F7
EA
09
F9
0C
03
06
1C
17
03
EC
11
EF
FA
FB
0D
17
0D
1F
0D
21
20
26
1E
02
FB
E3
D9
E1
F0
FC
F5
EE
02
F6
02
10
FD
07
10
0A
11
0A
F7
0C
24
0F
01
03
0A
1F
00
FD
DE
DF
E1
02
FD
EC
0B
01
12
0B
08
18
08
F9
06
05
E5
F7
FC
1A
17
12
03
04
0C
0F
05
F9
E0
FE
EB
0A
FA
FC
F5
00
04
08
FE
21
10
FF
F1
05
F3
F2
EF
08
0E
0D
FC
0D
13
11
23
01
17
FB
08
0B
03
FA
04
18
F6
11
0D
25
09
F4
F2
FB
EE
0E
0D
EF
15
F3
F3
21
14
20
25
1A
FA
18
FD
F7
02
0E
F5
0D
07
EC
08
26
20
FC
03
0C
F9
FC
F1
02
11
05
EE
02
08
1A
18
16
18
08
0C
FD
F2
F6
0D
0B
0C
01
04
0F
23
F1
F7
07
EC
10
FE
0C
08
08
0B
EF
EE
0B
1F
06
0D
F6
05
FB
0E
08
FA
08
E8
F5
03
F8
F7
08
F3
14
F8
FB
0F
0A
04
FB
0F
02
E4
23
1F
15
04
FD
1B
0E
F0
F8
13
F1
F8
EB
03
F7
11
EF
06
F3
F2
ED
00
05
FC
05
FB
F9
FD
DC
12
F3
08
DC
0B
FC
00
F9
F4
FA
E0
E6
F4
05
FD
F4
0A
0F
11
01
FD
F2
12
04
FF
FB
11
0E
13
11
E6
F0
F6
EE
FB
FA
FA
08
FB
0C
06
11
0C
F8
F8
00
ED
F4
F4
10
F4
F4
FB
0B
07
F6
1A
08
13
14
0D
0E
0A
03
06
0D
05
02
15
07
F2
F3
F9
12
0C
F2
09
09
2A
07
FC
0F
FD
02
17
FE
ED
F9
FC
F3
D1
D9
0B
02
E6
E1
FA
FA
07
EF
F2
02
FF
FF
00
1F
05
EA
EC
FA
0C
11
F4
D6
E4
CB
C9
CA
C3
BE
F0
F6
E5
E5
D8
D4
DD
EF
0E
F3
0D
13
03
FF
1F
10
02
F8
F9
E6
E2
D8
E6
CD
E7
F5
01
F2
E5
E9
F2
F8
FF
11
06
07
E7
DC
12
07
0B
FC
F2
FC
F9
FD
15
00
F4
F1
DC
E7
F1
ED
00
E7
C7
F0
E3
E9
FF
F2
02
EC
F9
0D
0F
FF
F6
03
0B
E4
FD
F9
0C
03
0D
13
EF
F4
0E
EB
08
0C
FD
EE
FA
FE
FE
F1
0D
F1
00
26
01
FC
F2
EB
E7
F9
FD
02
1D
13
04
0F
FA
F5
FC
EA
03
01
0C
FF
01
06
02
FF
06
F4
03
F0
F4
0B
0D
15
E2
ED
08
FC
0C
08
ED
EC
ED
E7
F6
03
1F
21
1B
01
17
08
0D
F3
FB
F4
0D
E9
00
11
FF
15
F7
FA
EC
FD
FE
EC
ED
D8
E2
DC
F6
14
20
2E
23
FA
07
14
01
F0
05
1A
05
FF
12
F8
04
08
11
0D
FD
1A
01
DF
FA
CF
C8
E9
16
37
18
19
14
0F
01
17
03
FD
1D
34
1A
FB
0C
14
1D
28
21
10
10
04
E0
E9
DE
EF
04
0E
0A
1D
1B
0D
0C
19
10
02
0A
18
25
33
EF
01
FC
13
14
0B
01
F6
F8
0A
F2
02
F7
04
01
0C
0E
0D
12
05
F9
FD
E4
F2
F3
F0
F5
12
FC
02
0E
EC
16
20
F5
F7
06
0A
16
05
0B
F9
14
F3
FB
EA
FD
04
09
EA
EC
E9
E6
D2
E6
ED
F1
EE
15
16
13
0A
01
00
EE
17
0B
03
04
FE
F9
FA
F7
ED
F7
02
FF
F2
DA
FE
EB
DA
E9
0C
E9
06
03
10
ED
FD
EF
F0
01
FC
1E
0C
03
FB
EA
06
E5
03
0D
16
01
E8
E5
EF
F0
F9
F9
DB
FF
F9
F1
0A
F7
DA
E9
FB
21
F7
F2
E6
E0
0C
09
F5
F7
01
0F
1D
09
F8
E6
E7
EF
F1
E9
F2
05
F0
FF
0C
F1
FC
09
1A
1B
04
14
10
03
0F
19
20
F1
01
16
09
02
F7
E6
E7
FD
F8
F3
15
13
0A
05
0F
00
EF
E8
07
EE
E9
07
F9
EB
1A
21
0E
01
ED
0B
EC
D7
E2
ED
FA
FB
EE
EE
15
15
1E
12
0A
24
E6
02
FA
FA
07
06
01
0C
1F
29
26
F8
E7
F6
D3
D8
E1
E6
E7
E6
FE
09
25
FF
FE
F4
0C
FB
C2
F6
F9
F2
F1
0A
FC
05
21
1A
06
F4
E7
ED
D1
C5
F6
DE
F4
F9
F2
F4
11
21
F7
04
FC
DD
D7
F5
F9
F5
FA
F8
FB
05
02
F9
EC
EF
E2
D0
D7
E8
EB
DF
EE
12
FB
22
FD
19
F5
07
08
E1
EE
1B
21
05
EA
03
00
EF
F5
EE
F0
08
EE
D6
D4
D6
F0
E9
EC
09
EB
02
07
FD
0B
10
08
F1
F4
0F
28
0F
11
D7
02
07
17
18
FC
00
E2
D0
D4
E4
E4
DC
FB
FD
E1
0E
04
10
F9
0A
F1
16
F1
08
1F
19
19
EF
EC
EC
EF
F4
F7
0C
00
C5
BF
D9
F7
FB
E4
0E
FE
0B
E8
F3
F9
09
0B
00
FD
09
1C
0C
F6
03
22
FD
01
13
11
F2
DF
EC
E7
09
06
E4
03
F9
0B
EF
06
16
00
F2
01
07
F0
DB
03
20
15
FE
0D
1B
21
12
EB
03
17
1B
03
0E
ED
07
0F
F5
07
04
16
F2
0D
F5
FB
F6
EE
16
04
1F
08
18
22
10
26
2C
1F
16
21
1B
EF
DB
0C
0F
07
FC
F7
02
01
FC
0A
EC
F6
F6
11
FB
13
F3
F0
F4
14
F8
F4
09
0E
EA
08
FC
FA
F5
09
05
10
F3
09
07
ED
01
12
0E
F0
EE
F4
14
F4
EB
E2
F9
F1
10
E9
E1
E2
F8
D7
F8
05
11
0A
EB
05
E7
09
0D
F2
F8
0C
05
FA
05
E2
FD
05
FD
02
FE
1D
0E
0A
09
F6
05
11
01
FB
0B
0D
0F
00
05
0A
F3
0A
0F
01
06
06
0D
FB
ED
FB
F5
EE
E1
06
04
12
00
0F
10
F5
E4
F7
E4
20
21
11
0D
E3
08
E7
1B
06
12
FF
EE
EB
E8
E6
F6
E4
FF
06
0D
F7
E8
EC
F0
F1
F3
F9
FF
13
08
06
FD
34
0A
0E
F5
F3
06
13
18
F5
F2
ED
F1
D3
F5
07
03
E8
F4
F5
0A
FD
16
F3
12
0D
06
0D
1F
37
0A
F4
DB
17
F4
0C
09
D7
0A
F7
D6
F1
FD
0A
F7
0F
F1
06
01
06
F6
F9
0D
F8
F9
02
06
1E
1D
0F
01
F7
09
EA
0D
F7
FA
E9
E2
FA
FF
E6
04
05
E7
03
FB
E7
01
F2
0C
08
EA
FF
05
08
12
10
0E
F7
01
E8
0B
D7
E6
E2
FE
DD
FA
EB
F5
07
EE
FA
01
EA
EF
EA
EF
F9
FF
05
06
17
1E
0B
FE
F7
E9
E9
DE
EC
EC
E8
DF
00
EE
FB
F9
0D
05
EA
E2
CE
E0
E5
DD
E2
EF
0B
14
02
07
2E
1B
10
09
F4
EF
ED
EA
E9
FA
FF
09
EF
EC
07
01
EC
FA
DC
E0
EC
EB
D7
EA
DD
E0
E5
FA
0C
F8
FA
F6
08
E8
EA
E2
D1
E9
EC
03
FB
0C
10
1A
FA
E5
F5
07
EB
D3
F2
D9
E7
D6
E6
ED
F4
F3
EE
F9
FD
FF
FB
D1
ED
0D
F4
F5
13
21
29
1B
13
06
FD
11
E9
FE
E7
E5
E0
C7
CB
D5
F5
F0
00
13
0B
F6
DB
F4
F4
00
11
0F
15
13
20
1A
FF
10
F9
12
0D
08
FB
F4
FD
F7
09
FD
11
18
F1
1F
02
FC
03
EC
FB
11
0E
06
11
24
1F
09
14
F3
0F
15
17
08
04
10
F1
F9
14
14
13
0A
0F
0E
ED
0C
EB
EF
03
00
0C
FF
24
02
0B
0B
0E
F9
01
18
0A
0E
16
0F
0C
07
12
18
1A
19
0C
F6
E7
FC
F2
EF
06
07
04
F8
0E
F9
0C
17
FC
08
F8
13
1F
0F
27
FF
16
EE
F9
01
24
09
F0
0D
E7
00
EB
03
F8
12
11
FB
0D
0B
18
07
EC
16
FD
29
0D
1C
19
11
0A
F5
14
F7
3E
02
16
ED
FD
D2
02
1B
21
01
22
02
14
12
0B
03
04
19
19
29
1B
14
02
0D
17
02
10
23
0B
FA
08
F1
F4
DA
EC
12
08
17
0B
FB
08
F8
0F
04
FC
FB
15
01
02
09
06
00
07
15
11
12
FB
0D
12
F8
E0
FE
F6
17
07
12
FF
05
02
04
05
08
E9
F9
04
FF
E1
F9
05
05
E9
FF
F5
FA
01
14
14
F3
19
F2
19
FD
0C
F3
0F
EB
F6
0D
F9
02
0A
DD
D0
EB
F6
03
02
F2
0E
00
0A
F8
0E
0E
0C
F2
F3
06
18
2C
01
16
F0
01
04
0B
F1
FD
03
E3
E9
F3
FD
F1
F3
F7
F1
ED
0E
05
13
F5
08
00
F1
FA
0A
1E
FB
09
00
01
ED
EC
0B
F7
EF
F3
E8
E8
E8
00
00
F2
09
F8
F6
18
0A
01
12
F5
0F
13
D6
E8
0B
FD
F3
07
E7
00
F7
F2
F6
08
06
FB
F2
06
05
10
FB
00
1F
08
0C
19
06
01
F6
FF
07
03
F7
21
06
FE
F9
00
06
F3
0A
07
07
F7
F8
E7
F9
10
04
19
2F
01
1F
FF
FD
F4
F2
03
08
FF
FD
01
FD
F3
0B
F6
E2
FF
E4
07
01
F5
E5
E0
DA
E9
F5
DB
E6
F0
0D
FF
FE
ED
FA
09
08
FE
FB
F9
ED
F7
F0
00
0D
01
EF
E6
F2
F5
07
E7
E6
09
E1
DF
03
EC
0C
F7
10
EF
F5
FB
13
EF
FB
0C
F2
0F
FE
00
EF
EE
01
F4
EF
F6
0D
09
F6
F4
EC
FC
0D
02
0D
FB
0A
FB
EF
F7
ED
0B
FC
0B
EA
E9
F3
FA
0B
E1
F6
12
E6
F3
E7
E4
E6
EF
EC
0F
E9
12
0D
05
F0
11
F9
06
05
05
EC
FD
05
02
EB
ED
EA
E4
FE
DC
D3
CE
DB
08
EA
FB
E0
FD
05
EF
0C
F0
0E
F6
07
FA
F3
00
ED
17
EB
E0
EC
FE
E3
F4
D9
EB
E1
EF
F5
FD
15
E5
F2
06
1F
EB
E7
F2
EF
14
FA
0D
0B
F0
F7
06
E9
0E
10
FE
F7
0B
08
0C
06
F2
FB
F9
F7
15
F4
01
F9
10
09
00
1B
FC
F2
F8
E9
0F
16
08
01
F8
12
F6
1B
FA
F3
16
0C
EE
04
F1
08
F7
F9
FC
FE
F3
0B
F6
10
03
04
F7
ED
F1
0E
14
04
17
FD
0B
F6
15
F5
03
EF
EB
F8
FD
FA
05
FF
02
0E
F7
0C
F2
02
00
17
1C
E4
0A
F3
05
0D
22
FC
0F
02
08
FD
FA
FD
E7
F0
F6
0C
04
F0
19
1A
F7
F8
00
15
12
1A
FF
FA
11
1A
1D
10
1A
14
FD
1C
13
18
F9
F7
05
13
12
F1
16
14
02
1A
F5
16
F2
FE
F5
FB
03
04
FC
F8
22
01
1C
16
07
11
02
07
0E
FA
FD
14
FB
F0
0B
F9
ED
1B
11
FA
F8
EF
0D
06
17
FC
06
19
09
1D
0C
0B
07
00
EE
07
F1
FF
09
FA
07
05
11
06
12
02
F4
F4
FA
06
FB
18
1A
DE
EE
06
21
15
F7
1A
F5
FC
EA
F6
FA
11
FD
E9
F2
EB
13
0B
03
02
F2
F1
1C
0E
00
22
1C
E4
F0
FB
F3
F0
02
E5
F5
D8
F0
00
EC
08
F6
F0
02
F7
F3
14
01
0B
0A
15
F7
0D
02
FA
13
EF
FA
13
E6
F5
EF
E8
D8
F4
E5
03
F6
19
09
F4
FF
F7
1A
F8
F9
EC
07
0A
2B
06
11
00
04
D5
DB
FF
E1
CF
E3
C5
DD
FC
F4
0D
03
FF
F6
0A
FB
00
0C
06
FE
FA
F1
16
0D
FE
01
0B
03
F5
E9
E6
D9
D5
CD
EC
F6
0A
16
13
04
00
0E
FE
F6
F0
FF
F9
F9
DC
FA
F3
F3
F5
F6
0B
F0
DE
D9
CA
DA
E2
E0
F4
07
20
0E
1D
1E
1A
00
FC
13
FD
F6
F4
F9
FC
F2
D6
F1
02
FC
F6
F8
E8
E3
E0
DD
EF
02
18
17
10
1F
11
FB
14
F0
EE
01
02
08
EB
FE
F5
F6
FC
1F
F6
F8
F3
FA
E1
CE
DC
DE
ED
15
1F
25
29
0A
15
08
F8
F2
FA
E9
F5
F1
F3
EA
EB
EE
FB
07
F5
0E
06
FC
F5
EC
E0
FF
ED
1D
0C
23
11
19
08
14
FF
E3
04
EE
FA
EB
DB
DD
EC
07
06
FF
FC
0F
E8
03
E9
ED
EB
06
14
12
03
19
22
FD
10
F4
0C
EE
F3
F9
ED
DC
FE
F6
15
EB
E7
11
ED
EE
14
DF
DD
E6
F8
F6
FD
F8
06
F9
00
FE
0E
03
00
FB
F9
EC
0B
0C
0C
08
19
02
EF
F9
09
F7
10
E7
F8
E8
F4
10
07
F2
F2
0A
0B
06
F6
FA
13
F5
08
11
0C
06
00
10
F3
FF
06
0D
EC
FF
09
F6
FC
EA
F9
FC
04
F8
00
01
10
FB
10
05
11
09
16
0B
09
0F
FF
E8
F0
DB
13
0E
EC
0E
F1
F7
D5
DB
ED
06
EF
F8
FB
09
FA
FF
0D
0D
FE
FA
F1
0C
FC
F3
F7
FF
F8
EA
0B
F2
F8
F1
00
E4
09
FA
FD
00
E5
E5
F4
E5
0D
F1
E8
0D
05
13
EE
F8
E2
E0
F2
EC
E9
E8
F0
FD
FC
10
0D
FA
E4
E0
EB
F1
0B
FD
DA
0D
FA
F4
E9
FB
F4
EF
ED
E7
D4
DC
EC
F6
05
F1
FF
FD
0A
08
F5
04
05
15
08
01
05
1F
F3
18
07
ED
09
F8
07
2B
22
14
FD
FC
F9
0A
04
0A
00
14
FF
07
ED
02
13
14
01
0E
F6
ED
F1
F8
ED
0A
FE
F2
F2
04
F6
F8
FD
EE
FC
14
10
02
F1
05
F5
EE
F6
F1
0A
E7
F8
EE
EA
F3
05
EA
01
F2
EC
1E
07
05
F8
04
F8
F1
EF
EE
FD
00
FF
0C
EE
F2
14
FC
F8
ED
F7
07
F5
FC
F1
09
FC
00
0E
14
FC
0E
19
02
EF
08
0D
09
FE
01
ED
F2
FD
06
FF
00
FF
F5
E2
0E
08
07
F8
1B
0D
06
01
FB
05
07
F6
06
10
1B
15
0E
04
FD
E4
E3
07
0E
04
20
1B
FC
F4
ED
F5
05
FB
0A
01
24
FC
FF
05
F8
04
20
02
1D
F7
F0
FB
05
02
1E
27
07
FF
1F
F6
F4
F3
E4
06
01
13
F4
19
FE
FA
21
0D
14
0B
22
12
22
10
0D
FC
F6
24
1C
07
F9
FE
03
E8
16
EE
11
05
01
16
0C
07
14
F5
02
23
27
22
0B
1A
21
19
0F
2A
21
30
20
FA
F2
FF
E0
02
1D
03
F7
18
17
F3
0E
F0
EE
0F
05
06
0F
30
0E
0D
04
0F
12
06
06
12
FF
1A
15
04
18
EF
09
F3
F9
17
06
00
0A
F5
09
0E
F3
0A
18
06
15
1A
08
F6
10
09
0A
00
06
01
F9
0C
F9
F9
FB
DD
01
07
F3
06
EF
D9
EB
FC
DD
09
06
12
03
10
F7
00
03
00
FB
09
06
25
FD
F4
F1
F5
04
03
04
0B
F7
01
FA
09
05
00
D9
DA
F3
F5
02
EC
10
E5
08
FA
07
FB
12
1D
E8
E8
D7
F6
F5
01
EE
E9
04
FF
06
FF
FA
DB
E6
EE
E9
E2
EF
0F
10
F2
E8
F6
DF
DA
08
24
FB
F8
F1
F6
00
08
F2
FB
F6
08
05
07
03
06
03
04
12
03
03
0C
FC
F9
06
0F
09
EA
07
22
03
E9
FC
EE
F8
F1
15
15
06
1C
1C
FE
FE
FB
06
05
1A
FC
07
08
FC
FC
F5
09
05
04
FE
12
0D
F5
D7
08
05
0D
05
11
15
20
04
FD
04
00
0A
09
0A
1D
F3
07
FD
F4
07
F3
E8
01
FC
F1
10
09
E9
0D
17
17
16
09
03
F0
F6
FD
07
0E
10
10
0B
14
0F
02
F0
F6
FD
F8
E1
07
18
14
0D
16
06
06
09
FE
F9
01
08
F6
FA
08
0B
FD
0A
01
12
12
F7
04
09
FA
FF
F9
FA
EF
FD
19
EF
FF
12
03
FC
F3
F5
0A
11
0D
1C
0B
F3
0F
FB
FA
01
F2
F3
0D
11
F9
06
06
F9
08
04
12
E1
1A
17
06
F3
FE
0F
04
09
0E
F7
F5
FF
FA
EC
08
F7
E3
EB
01
15
F6
08
FD
0A
F6
13
0D
EE
E2
07
0F
FB
07
16
ED
10
FC
02
FF
F4
ED
F1
F6
FC
0C
F8
FB
F9
18
F4
10
F1
FF
08
0B
EE
10
EC
FD
F6
F6
F4
F7
F0
01
FA
FF
FD
07
F7
0A
0D
FB
FC
F8
17
04
0C
0C
13
FE
FD
14
F9
18
08
F7
04
E4
FE
0D
13
F7
17
19
06
EC
FC
02
F5
05
F4
ED
12
0C
04
1E
09
06
01
F5
F5
11
06
14
F7
F0
0E
FC
05
F6
EF
06
0B
0A
F4
0D
F1
F0
0A
FE
F4
FF
02
12
02
EF
F4
09
01
00
F4
FF
DF
DD
EC
0C
11
FF
12
04
0A
10
00
FF
E7
16
1B
01
12
00
08
01
FA
F5
08
FA
F0
02
F9
E7
F0
E2
EE
0C
09
15
21
17
1F
18
FC
08
1D
F9
FB
11
19
14
10
F7
F3
F4
FD
12
0A
00
14
F5
0C
15
03
07
2A
12
2A
11
08
0A
04
F0
0A
0F
F9
17
09
F5
F8
F4
EE
F2
05
FA
0B
0E
F1
01
33
FE
FE
11
09
11
03
08
05
06
FF
F5
01
02
FB
13
1B
05
ED
08
04
FF
FE
03
F6
0C
F1
02
EE
04
F6
07
06
F7
ED
03
05
06
F7
0A
FF
EA
0A
06
20
F2
F0
FE
06
F9
FB
05
01
09
0B
06
07
FF
FE
F4
07
F7
F1
0C
0A
F6
F6
07
ED
08
02
F7
F5
EF
EE
F9
03
FF
0E
EF
10
0C
F7
0B
03
0A
0F
0F
0A
E3
14
09
F7
0D
05
02
F6
03
08
00
E3
E4
F3
04
12
F4
F6
06
10
F2
F4
03
07
01
12
F7
F4
E2
FE
01
F6
F9
F6
F3
12
16
E2
08
0C
11
15
FD
FE
E9
FF
09
FE
F6
F2
FA
F7
F9
EE
0C
D6
E6
D0
D6
E4
FB
F7
F1
F7
03
EB
FA
ED
EE
F4
F1
CE
09
FD
07
F9
ED
EC
EA
F2
D2
E8
D1
DC
E5
D7
D4
E6
E1
D9
FF
FD
07
FB
FD
11
11
16
0B
04
03
DA
F4
F9
10
EA
E9
F7
CD
CA
D9
CD
F0
EA
01
E2
03
10
F4
EC
02
1E
23
0D
0E
F7
12
1F
D2
EF
E4
11
08
09
E1
F3
CF
CC
D0
D6
C9
F8
DD
FA
E3
12
03
FB
06
11
28
21
00
07
1A
1C
D8
C9
F3
F8
DE
FB
F3
FC
DD
DC
C4
C6
EC
EC
00
FA
11
FA
F3
0E
01
11
1E
0F
14
22
16
18
0B
D0
03
04
E7
F4
E9
DC
F7
D4
E9
CC
EB
ED
1D
09
06
F0
04
EE
ED
E9
12
F7
01
13
0A
FA
EB
E3
EB
F7
ED
DF
F8
DF
00
D1
D5
BC
EE
FF
2B
18
F2
EB
FA
EE
CE
D0
E6
BE
F0
E7
D9
CF
C7
BE
EB
F6
08
DA
D4
D6
DA
CC
D7
E8
EE
08
38
23
26
05
FC
F9
EA
CF
C4
C5
B4
B8
C2
D9
C3
E7
FB
E4
FE
DF
DA
F6
EB
CC
E0
E4
E1
12
1F
28
2B
19
FB
FF
0A
F6
F8
F8
F9
D0
D6
ED
F3
E7
EA
FB
FC
EF
CA
CC
CD
EE
DC
DE
DE
EF
17
09
2F
17
04
FF
FE
FD
FB
06
1C
F3
D6
EA
E8
E9
E2
FE
ED
F4
0D
E5
DA
0A
DE
F1
DE
F4
13
F4
09
0E
1C
0F
03
07
0A
03
F8
F7
DD
D7
C8
DA
FB
F9
F1
DB
F4
F0
EB
10
05
EE
EE
F8
FA
F8
04
FD
1B
15
F0
F2
ED
01
0B
0A
F7
E1
0C
F7
ED
00
FF
E1
02
FB
FF
0B
0C
00
F4
FF
E2
FC
03
0A
FC
11
08
FE
E5
16
01
F6
F7
EC
09
F6
E1
08
F6
F5
E4
E8
00
06
07
F2
E5
E4
07
ED
18
0B
1C
F8
FD
0A
F5
01
F8
0A
EE
09
CB
08
F8
F3
E7
03
0B
06
07
0B
F1
F7
FD
0A
09
10
15
1B
16
F1
F4
02
F7
19
0F
FD
D0
E0
E7
F1
F2
E7
FA
03
12
12
11
F1
F0
EF
01
FA
FB
17
F9
0C
03
FA
F3
03
09
07
FD
EF
CB
D7
0C
16
0E
06
ED
18
FB
F5
26
0D
FA
E2
0D
08
1B
10
FB
03
FC
F7
06
F3
F7
1A
0E
FB
CF
CB
F8
19
1C
0C
D9
0F
08
13
0B
F4
FF
E8
05
FB
05
01
EE
E8
F7
04
0B
13
18
0B
10
E6
D9
E3
0D
11
FF
10
DB
EC
E4
EC
04
0B
F7
FE
03
0D
FB
02
E5
FE
F9
0D
02
0B
08
1B
F5
01
E2
FB
FA
07
EE
0B
01
EA
01
0C
08
EA
EB
E5
F5
15
03
FD
00
0E
F3
F4
12
01
18
02
F9
EB
02
F6
02
18
EF
FE
FB
FD
EC
EA
0C
FC
F5
06
FD
14
0E
FE
0B
14
00
16
0A
16
11
16
0F
E2
F4
E1
DE
FF
F5
FC
F9
08
FD
F7
02
0E
19
08
F4
FA
FF
0A
F1
FE
07
16
F0
EF
0B
1C
FD
16
FE
01
0E
E5
FC
F3
04
0B
FD
FE
E4
C3
D4
ED
F1
F6
00
E3
EC
D7
DF
EE
FB
EE
F9
DD
03
0E
15
0A
F6
EC
F6
12
FA
08
11
0E
05
0C
07
F5
09
F6
D6
D8
E8
01
F0
0A
F2
CF
E4
E4
DB
FE
EC
0E
F1
F4
FA
EF
05
F9
10
07
E2
E7
F7
F5
F7
E4
FB
06
EF
EC
1E
1A
FB
E8
05
FE
DB
F1
E5
FF
11
03
0D
FF
10
10
13
0D
14
07
03
12
FE
04
F2
09
13
1C
0D
EF
02
FB
0E
12
F3
13
FF
F9
08
09
FD
EE
07
0C
0A
FF
F1
0A
04
ED
03
F5
EA
F0
EB
02
F8
1C
04
F4
FF
09
02
EA
F8
F2
F1
F5
F6
03
F5
02
F2
00
03
F0
E4
F5
F0
06
FE
F7
15
16
F8
02
0D
06
0A
FE
14
FD
19
05
F8
EF
01
03
F7
00
FB
F5
19
F8
F5
F8
03
01
0B
0A
1A
24
FD
09
01
FF
09
23
09
00
09
EB
0F
02
01
FF
02
FE
EE
11
0C
F9
0D
04
17
FE
11
1A
F9
01
09
05
08
09
EE
F3
01
F9
09
E0
E5
E7
0D
12
01
0E
21
41
06
F9
ED
11
05
F2
ED
EF
F6
0F
1A
FE
06
0C
11
0B
00
00
11
09
FE
15
F7
0C
0D
F0
12
2B
0D
07
EA
0A
04
EC
F6
FB
05
12
11
09
16
EA
00
0D
17
FE
18
FE
F7
0E
09
FC
0F
FA
FB
1D
01
F7
01
06
00
02
FA
00
10
13
12
18
FD
00
FE
0D
08
0B
FC
F1
F8
28
20
0A
13
08
0A
37
1B
08
01
04
EF
EA
E1
ED
13
2A
33
15
07
12
07
1B
0D
04
0E
F2
07
1A
0B
F0
0B
18
20
17
0F
FE
E6
EF
FE
F6
C6
DC
FE
1A
32
0B
FC
FF
FB
14
FB
F7
FA
EB
22
26
25
FD
F0
F8
03
09
08
05
ED
F1
E5
D5
CA
C1
FC
21
0C
18
07
FB
FD
F1
F3
0D
FB
05
15
21
0A
F6
09
FE
FC
F9
D4
F3
D2
F2
F1
D9
E3
E2
EA
F5
14
F0
F1
FF
09
EF
F0
F7
F4
FC
05
F5
15
F3
FB
16
E0
E9
DC
C4
C8
E5
E1
00
D7
F5
FF
F6
00
FC
E0
DD
F1
F4
FB
DA
02
14
E7
F6
0A
FC
F4
FD
E0
F6
DD
DC
0B
0E
02
F8
F0
F0
0C
07
D6
E6
F0
F0
E6
EA
ED
DE
17
14
16
17
06
05
05
03
01
20
06
0B
FE
FD
FB
06
F7
F3
0F
F3
F4
EB
EF
FD
EB
F5
EE
02
F7
F8
FC
1F
0C
27
F4
08
F9
28
16
0C
00
FA
0B
0A
EB
17
17
00
05
FD
02
D8
E7
05
FF
F6
0B
09
F3
2D
0C
0A
14
11
05
1B
00
08
07
09
05
EC
08
FA
0E
F2
07
F3
F0
17
12
F2
08
0C
16
F1
1F
06
16
01
03
16
03
2C
FD
12
FC
19
04
FC
0B
FA
09
03
F6
12
09
02
01
FC
1D
F8
FC
FD
18
1B
F2
F9
04
04
16
1E
12
FA
0C
13
F9
00
EE
FD
F1
F1
11
16
0C
1A
21
FD
09
0B
0B
07
18
18
17
07
F1
04
FF
08
1C
02
22
07
16
F4
DF
F4
09
0C
1B
01
10
0E
FF
FE
05
02
05
10
13
FF
21
07
EE
FB
FE
0D
F0
20
0E
13
12
08
FF
F4
00
0A
1E
22
10
14
FA
F6
00
17
1B
0C
37
19
FC
17
17
27
28
FE
17
08
0C
0C
12
10
F4
FF
17
06
08
1C
10
13
FB
F4
F6
0C
0C
1F
1C
FE
19
F7
13
28
0D
00
02
1A
12
01
0E
10
0F
0F
FF
F1
0F
F9
21
0A
12
F8
08
EF
F6
FC
1C
F8
10
00
07
1B
1C
1E
0D
F7
0E
03
1B
1A
14
0A
FB
04
03
01
1E
1E
18
FA
EB
07
10
28
20
17
0D
05
08
F5
1A
16
00
01
F9
16
1B
04
FF
0F
15
F9
FF
FD
0B
30
FF
FC
02
DF
11
1F
20
27
04
13
FA
01
0A
19
FD
FF
F7
F8
F2
ED
FC
06
1B
EB
ED
02
FB
F7
E3
E3
E9
E8
07
01
1A
02
02
12
05
F2
0F
18
FB
10
F6
EF
F8
FA
F7
EB
DD
F1
01
0C
12
19
00
ED
0D
F9
ED
FA
ED
ED
14
0F
FC
13
08
05
FB
09
05
0B
F3
11
FB
0D
0B
F1
FD
EB
EB
E8
E1
EB
EB
F1
03
03
FA
08
FB
F0
02
14
14
10
EE
11
00
12
FC
F8
0B
04
F4
02
05
FD
F4
F6
FE
FA
14
F2
0A
F1
FB
F5
01
ED
0B
FB
0B
0A
F8
1B
F9
FA
FE
17
EF
08
10
FE
03
0C
1F
05
20
13
08
12
06
FC
0B
01
05
02
F9
1F
09
02
06
0E
01
12
13
32
10
12
F0
12
F2
FF
07
33
2C
2A
28
FD
15
14
F9
0E
EF
14
06
0E
F5
23
09
17
05
37
22
32
1F
1F
13
03
13
0A
07
0D
29
13
20
16
25
14
FF
22
EE
0A
FC
FF
F4
0C
0C
F7
FE
03
1E
22
0A
08
F5
11
EF
EF
FA
FF
F4
F9
0D
03
09
1C
08
15
F5
FC
FD
1C
F6
04
F8
0A
FF
22
27
0D
11
0C
17
03
06
FB
F6
E0
FA
E3
EC
FE
18
13
0E
FD
FB
EE
01
F7
FD
09
02
E9
09
10
13
20
09
1E
1B
0A
0A
1F
01
14
06
F8
15
09
02
05
0F
0C
0F
FA
FA
08
11
E9
F9
EE
ED
0A
F9
0F
1A
01
FE
FA
0B
0E
22
15
11
13
0E
00
FB
EE
F8
F0
F2
D9
FF
0C
02
18
03
F1
0A
1B
11
F5
07
04
FF
09
F0
1B
02
17
00
06
EE
F1
E7
F3
01
FE
03
0C
0C
EC
0D
05
0E
0E
0C
09
16
16
06
18
F1
06
FB
F8
F9
0C
EE
EA
E8
F0
EE
F0
F8
F7
01
02
EE
F6
1A
08
EF
F4
0A
00
F8
FB
10
07
F8
07
06
FC
FF
EB
FC
E3
E4
DE
DB
DF
EA
E8
0A
0A
0C
1E
0D
1F
FD
07
0A
F5
03
09
F4
06
09
F7
ED
06
0E
EE
F4
FE
ED
F5
F3
F6
FC
00
0C
FE
11
28
15
32
F7
0B
F5
F2
00
07
08
E7
F9
FA
10
1B
0F
F9
10
0B
0A
08
0E
FE
FD
F6
05
12
0F
09
07
0B
19
FD
04
F4
0A
F6
EB
E9
00
FE
11
FE
0E
FB
11
09
20
00
FE
F3
F1
F3
EE
ED
0A
1D
F2
22
F0
00
F1
02
02
F8
E6
FF
EA
06
1A
12
14
1C
20
1F
1F
04
0B
FF
09
E6
EF
03
FA
D5
FA
02
EF
04
FA
09
0A
0A
04
F1
DD
FE
06
F9
0A
11
07
14
06
0D
F1
FD
03
EA
F6
00
10
F2
EF
0F
EE
02
10
0E
F9
0C
F7
F9
00
E6
E5
0C
12
03
18
15
F5
12
09
10
05
F2
F8
F6
01
F7
0E
10
07
F5
FA
F9
14
FC
04
F0
0C
F4
EF
E6
11
08
0A
0F
08
E8
19
FA
16
ED
F6
0B
08
0B
17
06
1D
F4
0E
F5
0F
F4
0C
F5
F0
E7
E7
FB
02
08
F2
FF
EA
00
F2
F7
05
EA
FE
F4
0E
0D
FE
16
0E
0D
02
11
09
F8
01
F1
FF
F5
E5
FF
F0
F8
04
FB
FD
0A
F4
04
F2
EB
F9
0D
0A
0E
19
13
00
04
F9
F6
09
03
04
FD
FE
EF
E9
F3
FB
E9
04
FE
EF
F8
1A
02
19
F1
11
EE
10
FA
17
07
0B
02
E8
0A
EB
07
FF
13
0F
17
F8
F9
F9
E9
E5
FE
F7
0C
1F
1F
24
0D
E7
F1
07
FD
07
14
01
E5
FF
FC
01
04
F7
0D
00
11
10
0A
03
F6
E6
0A
16
08
1F
08
14
F8
E7
FE
F2
EE
F8
11
F5
02
07
0C
04
00
EE
FD
F5
0C
03
09
0A
FC
05
EF
0A
01
11
F9
06
07
04
0C
04
FA
F4
1A
1C
2A
10
F7
03
07
1C
13
0D
09
05
2A
1F
06
05
19
03
19
08
13
F7
E7
FE
06
F2
F1
FA
0F
32
1E
25
19
23
2C
22
37
2F
22
1C
34
32
2A
37
20
07
26
FA
1B
E9
FE
F9
05
FE
F6
02
EF
13
EE
F2
F4
14
1A
19
24
10
1A
2B
0E
08
1A
14
1B
30
2D
0E
FB
11
0B
F7
0C
07
ED
04
01
ED
FE
17
16
23
04
25
1B
16
18
13
07
1E
26
22
11
28
FF
FB
FE
09
12
14
0A
04
14
14
F1
FE
EF
F3
FF
F2
F6
F4
01
F6
13
F6
F4
FE
FF
F6
09
0B
0A
FE
EE
FC
FD
F9
FD
10
F5
14
05
F6
02
F7
13
00
01
0D
F7
FD
0F
17
00
14
09
0B
10
F8
FA
FC
10
00
F5
FE
F5
0F
02
F7
03
0F
05
0D
0E
0E
15
00
F7
F4
FF
F0
01
F8
FA
09
FD
FA
0B
0A
11
13
F0
F8
F7
0B
1B
FC
F0
EC
E8
16
03
0D
0F
0D
16
08
02
08
04
F8
FE
F2
07
EC
02
E6
0A
FB
E9
F3
02
F6
1C
10
F6
02
F9
0F
1B
1E
1E
1F
FE
21
21
18
17
29
FB
0F
F9
02
03
05
FB
F8
1E
10
F0
EF
0E
FE
DE
CB
FE
FB
09
F9
FF
05
0C
11
0A
06
11
1C
03
06
21
F9
04
12
0A
2C
08
EF
F1
F9
0C
0D
E9
FD
00
02
15
F2
08
0B
FF
12
12
14
1B
0D
00
00
10
1A
EB
11
1E
21
FB
19
09
05
03
FC
F4
F5
0B
04
FE
F2
06
FE
FD
0F
17
14
0D
0E
16
FF
FA
0C
EC
03
EE
F7
E9
12
06
0A
FF
07
09
06
16
0A
09
14
0C
09
1F
25
01
13
18
19
12
09
0F
FE
E6
0A
F9
04
17
0D
16
16
0C
EE
1A
F8
05
15
F7
17
17
01
08
0F
F0
08
13
F6
18
07
07
03
08
0B
06
06
16
11
03
F5
F6
F3
0D
FB
0B
F4
04
F9
FD
F9
04
FD
E9
04
F9
07
FE
07
04
F8
F8
FA
1E
F6
15
13
FA
22
FA
F3
14
0B
FC
FC
06
00
13
FE
F5
F4
FD
FB
FD
08
FF
0F
FF
13
FF
0A
1B
1F
24
0F
07
FA
0A
F3
0B
09
00
0B
F9
FE
F7
E5
E2
F9
04
F4
EC
FC
14
08
F0
F4
0F
14
02
07
07
F4
14
F2
0F
F7
F6
FD
F9
F1
FC
F8
FE
FC
D9
04
FB
F7
01
09
F9
13
05
EC
F3
FD
E6
FE
0B
FB
0E
12
0B
FC
FB
EA
FB
02
06
FF
F7
E9
FC
10
03
06
F4
FC
F1
E9
FD
08
E1
EA
F0
DD
ED
17
F9
11
E4
FB
EB
FF
EB
FC
02
F8
0F
0B
F9
0B
F4
0E
01
0B
F1
03
04
09
E4
ED
F1
D8
02
FB
F8
EA
09
E5
D8
F0
01
E2
0C
12
03
F5
F8
F0
F4
E5
F3
F4
FA
06
E2
EF
E8
01
F8
F0
0F
0A
F8
E9
E5
E7
F0
E7
F0
EE
E3
FA
F5
02
FE
FD
F8
E1
EE
EA
F8
E0
E7
EB
01
EB
F3
04
17
0C
09
E2
11
E5
E7
E1
EC
F5
EB
DD
FD
E4
DE
EE
E8
02
04
FC
FD
00
F1
FC
FB
00
05
F6
01
08
00
FE
FE
E7
EF
F5
FA
01
FB
D8
E4
F2
E6
F4
E7
FD
F0
F2
09
F6
0F
E7
EE
0F
19
11
02
FE
08
F9
0C
E9
FE
0A
19
13
0C
F8
04
F0
05
FB
01
0D
FC
1C
12
02
16
17
10
08
17
11
FF
F7
F6
15
02
DF
F8
F9
14
19
18
05
0D
1A
04
1B
18
20
05
11
1C
1C
1C
1A
2A
2D
0C
11
F3
14
FC
F7
03
08
F9
1B
1E
0D
0C
0F
12
16
0B
18
22
09
23
19
1A
F9
21
2C
1A
09
0E
0E
0C
F2
13
12
02
03
E1
FE
FC
1E
11
12
16
0F
1A
01
1C
07
06
15
1F
F6
04
1F
1A
0E
F2
13
D8
02
F5
F5
0B
E8
CF
F1
E9
0B
ED
0E
F7
FE
08
11
FC
F7
1B
07
12
14
FC
03
04
12
26
EF
08
03
F0
F2
1A
11
D4
D3
F7
FD
FF
07
13
EC
19
06
FC
12
19
11
05
11
01
03
0F
FA
16
EE
06
FC
12
04
14
FB
02
F4
F3
0E
07
30
1C
19
13
1C
09
13
12
2B
1D
1F
21
02
23
1A
1E
07
08
0C
11
06
11
0C
10
11
0C
FC
1B
25
10
0B
19
FF
24
EF
FE
FC
07
19
16
0A
0E
E8
11
F3
0B
F8
FD
04
02
04
13
0E
11
12
05
03
02
F6
FC
FE
EE
FA
0A
01
0D
FE
0B
F8
F9
F3
00
F1
10
F3
F1
FC
03
F6
F3
ED
03
E7
FE
0B
F4
EF
F3
FE
EA
00
0F
08
FA
0D
F5
EF
F2
FE
08
ED
F6
0C
FA
0F
ED
0F
F1
F0
12
0F
F1
0A
02
FA
F4
FE
FE
01
FB
EC
01
E7
FC
0D
F5
0D
05
09
0C
0A
0F
FA
07
F3
F5
E0
0C
0E
FC
16
04
F6
13
0A
F3
0D
FD
09
01
02
FE
03
F3
07
F1
03
03
10
11
09
F4
0B
0E
F1
FF
F7
12
10
FB
0A
0A
0A
16
0D
14
06
FE
04
01
0B
06
01
10
F0
02
01
01
0B
01
01
F2
12
14
13
0B
18
11
09
0F
0B
06
FB
00
F5
01
F2
02
18
FF
0D
10
02
F5
F8
0F
09
EF
02
F1
F4
0D
08
07
FE
FF
F0
15
FE
0E
09
18
F7
FE
F5
00
06
14
1C
09
07
F8
02
00
F3
F1
02
12
16
0C
FF
0D
10
16
FB
F9
01
F6
FC
0C
F9
01
0F
0F
17
1B
02
FA
17
F7
11
08
15
01
0A
FB
FF
11
15
09
0C
04
0E
04
05
F8
08
1D
F9
0C
11
03
F6
F8
16
03
1E
F4
0C
F8
FC
F9
EE
15
04
F7
12
1A
0E
04
FC
0A
F5
11
0F
07
11
FD
17
0C
F7
FD
1E
0E
06
0E
1E
04
F1
0C
12
0F
19
10
0F
F4
FE
0E
FF
FD
07
FE
1E
09
07
F4
19
19
0C
14
0F
22
0F
13
F3
F4
06
EF
13
F7
09
15
15
FD
1C
FE
00
02
01
1B
10
11
03
14
FC
F4
F6
21
1F
20
10
1E
08
05
07
E8
F1
0E
F6
09
06
0B
FE
06
03
09
FF
F4
1A
FF
0B
F6
02
03
FE
F8
F5
FA
15
04
F9
EC
FC
E7
00
0B
00
10
06
05
01
12
17
F1
0C
06
02
13
16
0D
F6
03
14
09
08
04
FE
04
0E
06
FE
FD
F3
11
16
0C
07
FF
14
18
09
FD
F0
FC
11
03
04
08
05
00
F8
17
1B
14
0B
14
15
0E
0A
11
07
08
F3
06
F8
0C
0D
FD
0D
12
00
00
1B
15
19
06
07
13
04
17
F7
FF
F8
19
FC
FD
05
F8
0A
04
12
08
19
16
03
0B
F7
0E
00
01
F6
0B
FB
13
18
00
04
16
03
F9
FF
13
13
F3
FC
F4
FB
F8
1A
01
1D
0F
06
FC
01
0E
FC
EE
F6
05
0E
0D
0C
15
04
12
02
06
19
07
09
EF
F5
06
0A
F5
0A
1C
13
0D
FE
06
F3
0E
04
06
0A
0A
0B
10
08
01
02
0C
F7
F8
1A
FF
F1
E9
13
15
00
09
11
1F
F9
F8
05
F7
01
05
0B
17
F9
0E
07
1A
02
F9
F5
11
17
FC
14
09
F1
ED
05
05
FD
F6
1A
03
22
0C
02
EE
F6
F7
09
10
18
FA
F5
11
FC
0E
18
0A
0D
04
FF
02
EE
FB
0E
08
16
00
01
07
03
00
F8
F9
F5
10
06
1D
05
0D
04
F3
08
01
0D
11
F0
FD
FA
1C
00
FF
EF
13
F8
FD
03
0B
F1
0D
FC
07
11
10
FB
06
0E
15
0F
F1
EF
04
11
07
0E
0F
00
09
09
12
F4
0F
13
01
0A
0A
0A
12
0C
F3
17
FC
05
02
02
FA
08
FA
FE
00
00
EE
FA
09
10
20
0E
EC
14
0E
F3
04
17
ED
FD
FC
0A
FC
FB
00
FC
13
FC
04
F6
F2
FA
0E
07
E9
FF
10
FE
F4
FE
FC
03
F7
F1
01
0C
05
F1
06
16
07
17
FA
1A
FC
FA
17
F4
F8
FA
0E
FC
FB
F3
24
F5
0E
0D
FD
12
F9
04
0E
F0
03
F8
FB
FC
F4
F8
13
14
EF
FB
F6
01
09
0D
0E
09
F7
FD
FF
EC
10
F0
FF
00
0E
FF
FC
07
12
0E
03
F5
09
07
0B
11
EE
F9
FE
12
F2
F7
F5
E0
07
19
F4
0D
10
FD
F3
F5
0E
0B
0A
FE
0D
EC
07
01
10
03
F2
0C
FB
F5
FC
00
F8
F8
07
01
F7
FB
F6
05
F3
EE
03
03
05
07
FA
F9
06
EE
09
EF
02
EE
02
FC
00
FA
0A
0B
01
02
F6
03
F8
07
F1
08
FB
EE
03
EE
F5
01
0A
0F
F7
02
E8
04
EF
F8
EE
EE
F3
0C
F6
FF
0E
1C
15
EC
E8
FD
EE
F3
06
04
F2
0F
F0
04
0B
00
11
FE
ED
ED
11
F3
08
FE
FD
EA
FD
EF
09
07
25
07
F9
0C
F0
FF
FC
FA
0D
F0
0E
0C
03
FA
F1
F6
E4
FC
FF
FD
F4
F7
11
F6
F8
E3
E8
FD
12
08
08
08
21
13
E4
F5
FB
F2
ED
0D
0C
05
F8
F0
EC
ED
F8
04
0F
F2
10
F7
F9
E2
FD
F5
0D
15
1C
1A
18
FC
E9
07
06
11
0F
FF
F8
10
E9
FB
E9
F8
0C
06
00
F3
0B
E9
F4
F5
F6
FD
03
0A
08
09
08
16
F4
EA
FD
06
F1
EB
E5
F8
F1
F2
00
FA
FE
10
0D
FB
F3
F4
07
1C
0E
11
10
0E
18
18
22
2C
12
DF
F5
FC
F8
0C
EB
F6
05
14
11
F1
05
F4
10
F6
12
20
05
0B
05
03
16
03
08
19
04
08
14
0C
FD
FF
11
06
FD
F9
F7
FE
FD
0C
F4
FC
FB
10
0F
1E
01
07
FC
0D
03
07
18
FD
1A
12
09
07
0B
14
FB
F4
FC
00
E9
F6
0B
E3
E7
02
02
1B
1B
07
1E
1A
05
05
0B
EE
16
01
F6
20
1C
FE
03
F8
0E
0A
02
DD
EB
EF
05
10
ED
1C
06
05
09
00
03
0C
0F
06
F7
F3
F7
E2
F7
EB
01
F5
1D
F4
FF
08
0B
DD
EC
F7
00
03
06
16
07
FF
17
25
02
19
F9
DD
FE
E1
DD
D2
C9
F2
E6
F2
01
F0
FF
12
09
ED
F2
0C
16
17
06
07
16
F6
0C
19
0E
11
0F
E2
EE
FC
ED
D6
CC
E0
02
F4
FE
EF
F7
25
F2
F3
F2
F8
14
10
12
FF
F7
00
0D
FA
F2
06
02
F2
09
04
E5
DB
F7
F6
F2
E7
FE
FF
1F
10
DF
EB
ED
0B
F6
04
F4
08
F1
09
19
00
01
10
0D
FB
0E
07
F0
FA
F5
E5
DB
03
EE
0A
F5
00
F6
DD
E7
E7
EE
F4
F1
F3
0B
04
FA
04
F4
F6
04
17
F3
E9
EB
E0
E9
EA
ED
EA
0D
14
EF
FA
03
01
F8
06
13
F1
05
E2
FA
00
19
1D
0B
16
0C
1B
ED
FC
DD
DA
EF
ED
09
00
03
F7
0A
0D
08
0F
F7
0A
FA
FC
07
E1
04
FB
F6
0B
0F
1B
1D
F4
F0
F1
EB
D5
E8
03
07
0F
10
0A
FE
1F
FD
0F
0C
F0
0A
F8
EF
ED
03
0B
FD
1D
0C
25
19
FA
F4
CA
D6
D5
DC
F1
03
0E
0D
FF
F4
06
F5
FA
10
04
F7
EC
E0
FE
0C
08
01
02
13
2C
0A
F9
CC
CB
C9
D0
D7
F5
1A
FA
06
FE
04
F3
FE
06
05
13
10
E1
E0
06
09
07
F3
E9
13
25
F3
DA
D9
E4
E3
C9
E5
11
15
F9
FE
06
E1
EF
F1
0C
22
F9
F1
EF
04
EE
F3
F2
F4
0B
FC
F9
DF
E5
EB
D6
DD
F4
01
00
06
F8
04
0E
06
FE
F9
05
05
02
F4
E6
F4
F4
FC
0A
11
0F
FC
E5
EC
E5
CD
CB
E1
DD
08
ED
15
F7
EE
F5
22
02
09
11
27
17
06
15
0A
0F
0D
1B
14
07
04
0E
0A
F5
ED
E6
EE
FD
04
F9
E9
F8
02
FA
EB
03
0B
23
01
31
3E
31
1E
15
09
04
14
19
FC
16
F0
0E
EB
EA
0D
02
01
F7
EF
F2
FB
FF
FF
F5
FC
FC
0F
09
0E
30
03
0E
FF
03
10
1B
05
09
F9
06
FE
00
0E
EF
FC
F5
0C
F1
F8
ED
F7
0B
13
1D
03
17
18
11
23
0F
11
07
14
F8
15
09
EE
08
12
FA
ED
03
10
FC
F9
F0
EC
0E
05
EE
0A
01
ED
ED
FD
F8
F0
F0
F8
0B
FB
F6
F6
FC
F7
0F
F6
0C
F6
F7
FC
10
12
FE
03
05
04
07
08
FC
01
08
14
0C
07
0A
08
FD
FA
ED
1E
03
EB
F6
02
10
04
00
F7
11
EE
F7
F0
0B
F8
0E
02
13
FC
11
F0
12
FD
02
0A
FD
03
E4
E9
0C
17
12
11
F8
FC
08
FA
10
F0
07
EE
0B
02
F3
12
0B
1A
00
F8
09
01
12
F4
01
0D
2A
15
13
1B
3D
11
19
0A
FD
1A
05
E8
FE
09
10
13
14
28
3A
17
2D
1C
0A
FC
1D
F0
0C
14
05
11
EC
03
F9
FE
23
2A
24
1B
29
16
06
F5
F0
18
1E
2D
27
0A
0C
18
08
08
2D
F4
0F
F3
F3
11
0B
0D
F8
02
F5
03
07
2C
12
05
07
07
F9
0D
0A
05
F0
1A
0E
03
F8
F6
FE
F1
13
12
05
11
09
00
09
F6
EF
0C
F9
04
FB
26
25
0E
13
25
06
FC
F7
14
F6
0C
FF
F5
11
0D
FB
13
11
09
05
F4
08
08
10
07
0A
FA
08
2C
26
0C
EF
18
06
0D
14
03
00
00
E7
0D
F9
F0
13
F3
0C
11
14
FE
01
02
01
FF
0D
27
1C
22
18
EA
FF
E7
FF
0A
06
0C
FC
0C
13
15
11
0E
FA
04
EC
F3
FE
01
FE
F9
FE
F3
13
11
1C
0D
1F
FF
00
E4
FF
F0
06
08
F2
F4
11
F0
00
FB
07
FB
EE
F5
F5
04
F8
E8
F8
10
EC
0F
01
27
00
0A
E9
D3
0C
F9
F9
FA
1A
FB
12
04
FA
FA
05
14
05
0F
02
FD
04
01
04
08
F9
06
03
29
16
EA
02
E6
E8
09
0D
FD
0F
FA
0A
14
12
06
2D
17
06
09
F6
06
E5
F4
F5
02
06
15
FD
27
11
FE
05
EF
04
03
F0
FC
04
1C
1C
F9
1C
10
1B
2F
08
13
03
F8
F9
F6
F8
F5
E6
02
FC
FC
09
E1
25
FD
E4
F2
DA
DB
FD
F3
03
04
1B
0E
04
03
06
FD
F5
01
E5
07
07
F8
F9
E8
F9
FD
FE
E3
FC
0B
FF
EE
C4
E5
C2
E3
FA
0A
1E
29
03
08
F1
F8
FC
F0
F7
FC
02
F4
07
0A
DF
16
F7
EC
11
0D
F5
EA
D7
AB
93
A1
BC
F6
0B
01
0A
F7
EF
05
0A
0E
13
FB
0F
F6
F9
09
DF
0B
F4
ED
20
12
14
FC
DD
CD
B7
9F
84
81
BD
C3
BA
DF
FD
F4
E7
F7
FD
07
03
F4
FD
00
0C
07
FB
29
00
17
2B
FE
D4
FE
EC
E1
AF
95
92
A5
CB
D3
F8
00
F9
FD
05
FD
FB
F4
F9
04
07
1A
05
F6
F3
2F
2D
11
F2
02
09
1B
F1
F4
DF
DC
E4
F1
F3
F7
F0
FD
0D
01
FB
ED
F9
03
F2
16
F3
01
F4
04
1C
03
0B
0F
0A
1E
0D
18
FE
07
02
E9
EC
FF
E1
04
FF
EE
EF
02
EA
F3
F4
16
FB
F0
09
00
15
18
0F
14
17
0E
14
1E
08
26
1C
FB
FE
E5
E7
ED
F2
05
E5
11
FD
F3
00
0C
10
11
F7
08
0B
0F
F7
0C
FE
16
24
1E
0D
1F
12
03
F4
09
EC
F7
E6
EE
E8
EA
FD
FC
EA
F3
F4
09
EC
0C
19
17
01
F5
F8
0B
10
0D
0C
17
02
11
0A
FC
FF
FE
F4
FA
DD
EB
04
0C
F5
EE
05
0C
13
FB
0C
17
29
0B
12
1A
0F
09
FE
12
FF
F5
F8
18
13
FA
07
E5
EC
EE
FF
EB
E8
0F
10
0A
0F
0F
02
03
43
19
1B
21
05
FF
FB
05
12
FD
06
EE
05
1D
0E
F1
F2
F8
10
F5
0A
EF
F8
0F
F6
FF
1B
1E
10
0D
FD
F8
35
09
24
05
23
1A
3B
22
32
17
14
22
16
07
21
14
14
F7
05
FD
EE
F0
07
0F
E5
F2
FD
FB
11
05
23
F4
F5
25
13
10
FB
15
15
DD
F6
F0
0B
14
07
FC
F8
