08
F9
06
01
F3
F2
EC
F5
06
01
0F
EE
FD
E8
FC
07
EE
12
FA
12
FD
0C
12
F9
FB
0B
EF
0C
F3
13
F3
F8
0F
F6
0B
0D
12
ED
FD
F3
FE
EC
0D
F9
E8
DE
0D
F0
08
01
03
F4
FD
F9
EE
0D
F3
0C
F9
08
02
F7
0E
FD
EB
00
FB
00
DB
FA
00
02
FC
ED
00
0D
EA
EB
06
08
FD
00
F6
FD
F8
0B
10
F6
FE
EB
EC
12
F2
03
EB
E4
E1
ED
D9
EF
E5
F5
D7
D4
E0
FD
FA
F0
F3
06
EC
F3
0F
02
15
07
00
FC
F5
0A
04
E1
E1
E7
F1
FA
07
DB
E8
F4
FB
F5
FF
16
F8
18
F1
F3
D7
E2
EF
09
0B
19
07
05
06
0F
E9
F3
F3
F9
FC
00
FB
FF
FC
FA
EC
FD
F2
0C
08
0F
19
F4
EF
F1
FA
FF
EA
FF
11
11
0F
EB
F9
E7
E4
D8
E8
F4
FB
EC
FB
F4
DF
F5
F8
EE
00
05
23
F2
22
F9
FB
EA
EA
FF
14
00
F5
03
F0
F4
F6
DD
DB
F8
F5
EC
ED
F2
0A
F8
00
FD
04
26
09
FF
1E
0D
05
DB
10
10
F1
0D
FD
ED
01
F7
F0
DF
DB
EF
0A
09
EB
0D
03
EF
FB
F1
0D
1E
F8
FF
F8
FE
EB
DC
F6
01
F2
00
02
F6
F4
EF
F3
F8
E9
03
1D
02
13
01
FE
F0
F8
F6
F1
1F
05
FE
FF
F1
00
F3
E9
03
06
04
F9
F7
07
DF
FA
E7
16
06
26
0B
17
FD
06
EA
00
E6
F4
0E
14
19
07
EE
01
10
05
05
F7
E5
04
F4
04
EB
F3
10
16
14
15
14
08
01
F8
FD
FC
E8
EC
0B
1E
41
18
07
F3
F4
09
FA
E7
DF
E2
FE
0F
FC
1E
14
3C
24
20
1B
10
F8
EB
DF
02
F4
F8
E4
11
0A
02
13
F0
F7
DE
0A
E0
E0
FB
EA
0B
1D
18
31
2B
25
1F
FE
05
FD
FE
EA
E3
FB
E3
E1
D8
E4
FD
FB
05
F7
E9
FD
01
04
F4
EC
EB
FD
30
0E
1F
11
20
17
11
07
0D
D8
E2
F8
02
F1
DF
DC
DE
02
F8
FF
08
F5
13
FD
FC
00
DB
EF
F9
13
15
1F
07
FE
1F
05
F1
FF
DE
F2
FB
F2
E8
E2
01
0F
F1
0A
FD
FF
12
0A
FB
D0
D1
E8
EF
F1
F5
25
03
F6
0F
EE
07
E6
EA
EC
FC
F1
EE
F3
F4
F0
F8
10
F6
20
15
0A
E8
EF
D9
F5
01
F8
0F
17
08
F1
DE
F5
F9
DD
F0
EE
03
E5
03
FE
0D
06
F8
10
E6
03
15
14
F1
F9
FD
07
00
FA
10
07
18
F6
E8
DE
FF
E5
F9
E5
DF
EA
E0
FC
03
00
16
FF
E5
F1
10
EF
FC
F2
FE
F2
F8
FA
01
05
03
04
F6
F7
02
FF
F1
DE
F1
F5
EB
EF
06
18
EE
F6
F3
D4
E4
06
04
EE
03
EC
05
EF
EB
F8
00
09
F8
FD
05
F4
FA
F4
F9
04
08
F2
17
14
0E
14
F9
FE
DE
16
09
EF
F6
02
F4
F9
F6
EE
09
02
F5
EA
04
E2
F5
FD
F6
09
0D
0F
0A
F0
FE
03
EE
08
ED
F7
0E
0E
05
FF
04
F8
FB
F7
0B
E8
07
F3
F7
0F
F7
08
F4
1D
18
05
12
F1
FC
06
09
EA
0E
04
F8
06
ED
F3
09
FF
03
FE
F4
F0
17
F1
0C
11
0B
EE
FE
ED
15
EF
F2
F2
11
0D
11
FE
E6
FD
EA
06
FF
F9
E0
E7
E5
EF
F7
FE
E2
0C
04
14
14
1F
24
14
09
05
0E
F7
F5
0A
0B
04
EB
EA
D3
E7
F3
01
DB
EB
E8
ED
00
FB
E3
F2
EE
FB
01
0B
1E
17
05
06
07
12
01
01
00
10
11
F1
E9
02
E9
0F
DF
DF
D6
02
FA
E9
0F
E0
EF
FE
F6
D8
DF
FB
0C
F5
FD
F4
08
04
0A
F9
EE
F4
E7
F4
ED
DC
E7
D5
DD
ED
EA
01
08
13
17
04
FE
F9
0A
F4
0F
EC
F1
05
F7
0C
EF
F1
13
F8
F0
F1
14
FD
EF
FD
F4
F0
F3
0F
08
0C
02
F8
F8
F2
F1
EF
04
0B
11
FF
FD
FE
08
FD
F9
F8
E5
E7
EE
F2
E3
FC
E6
FE
DF
F4
D9
E3
DF
D7
CE
E2
FA
F0
0D
05
F8
F8
FA
ED
08
EB
EE
04
FE
01
E7
FB
D9
E9
F0
D6
D1
D7
07
EA
F2
FF
E6
05
E9
E9
EF
F3
0B
EE
04
F7
20
02
EC
F5
F6
F5
E2
DF
F2
EC
E5
D0
D6
EE
D9
FD
00
0D
FC
FA
EF
00
04
F9
E1
0F
08
F0
1E
10
F8
00
04
EA
01
0A
0D
E2
F6
0D
02
EC
00
FD
F3
F4
E1
D3
E9
EE
E8
EE
F2
F9
FA
FE
02
09
F8
17
13
0A
1C
F8
16
03
01
02
22
0D
F7
FF
ED
DD
F6
F4
F5
FA
FA
03
0E
12
F4
0C
1B
03
18
08
00
28
04
0A
05
FD
F2
01
E2
EF
DF
ED
F5
F6
F8
FD
03
0D
01
FA
E5
F6
0D
05
12
1A
07
0B
0D
09
18
ED
F6
03
E3
F9
DA
F7
EF
0D
04
03
FD
F9
E9
07
1D
FC
FB
FF
07
F7
14
02
0B
F5
F3
F4
FE
FD
F8
FC
EC
FE
FB
FB
03
F7
1F
16
22
07
1B
1C
16
08
17
F4
07
F3
FD
EE
F3
09
0A
F1
E0
F2
E2
E1
03
04
16
16
FF
08
06
1A
11
19
01
0B
10
FF
F4
04
06
EF
F7
E8
08
F1
DA
07
EF
F1
0B
EF
16
17
17
0C
04
FC
05
05
11
16
F9
FD
11
25
23
28
09
05
D7
E6
EA
DF
03
F8
0C
F5
10
1F
1A
0F
02
F4
EF
F8
DE
E7
FB
FD
FC
F5
12
34
21
F7
FC
FD
EB
EF
FE
E1
03
1E
13
03
0A
22
27
06
11
01
FB
EB
D8
F5
E6
0C
E7
E2
DC
02
09
20
0E
E4
D1
F8
09
03
15
0D
1E
0C
09
1E
09
03
17
04
FA
05
F9
F3
00
EB
EC
DB
05
FA
00
F5
18
0C
E8
16
1E
2A
21
22
FE
10
04
FF
0C
1F
12
22
27
0C
0F
F5
FA
F6
0F
06
13
06
D0
06
09
FA
11
04
1E
13
0A
29
15
12
11
19
1B
09
1B
0E
20
03
FA
06
03
F4
04
09
E3
F9
E4
FD
F5
FF
FB
0C
FE
F6
11
05
14
1B
14
04
0B
1A
01
1D
1A
0F
0C
07
EB
F9
06
07
F7
F1
DE
18
F4
02
1A
EF
ED
06
14
20
14
13
0B
06
06
0C
09
14
F9
F3
FF
F8
05
ED
EE
F3
DD
DE
F7
0D
F4
05
FE
0F
F0
EB
06
F0
02
07
E7
FA
FF
E7
03
0E
FD
F6
F5
E8
F6
EE
DB
F3
D0
EF
EC
0A
06
07
0B
FC
E6
D5
D9
D4
E1
D5
CE
EB
D3
00
FB
07
EA
00
E5
F3
D8
F1
D0
F3
E8
D8
0D
0F
13
17
FA
ED
DF
D2
E2
C2
BE
C8
C5
C6
DD
E6
00
E7
F5
06
EE
D7
DF
E7
F2
0B
EE
E8
13
05
11
F9
12
EC
E6
CA
C7
D5
ED
E9
DD
03
F4
06
FA
F7
02
EA
0F
EA
EC
E0
EA
18
F7
E9
13
14
EF
01
05
13
E1
D8
E4
F6
FE
08
08
01
FD
FA
F9
FF
F4
F1
F7
FA
0B
04
F4
00
02
F4
FD
0A
F7
F6
01
02
17
0A
F0
15
08
21
16
0C
08
0C
0D
03
FD
F0
F5
F8
EE
10
05
FB
FD
12
21
EF
F1
04
0A
10
FB
06
1E
14
0F
1B
23
1A
0A
04
FB
01
ED
11
15
05
07
01
0F
26
16
FF
11
08
07
09
02
F3
0A
28
20
FF
13
F8
0A
F9
F3
FA
DD
EC
F4
06
0E
F7
F7
F4
0E
23
1D
1F
F4
F2
06
FF
EF
15
0C
05
06
F1
E4
E5
FD
D4
E8
DC
DB
EC
C0
BA
DB
CE
E0
DB
EE
D2
DA
F3
F3
12
FC
00
FC
F6
1B
FE
FD
13
05
0C
0F
E3
F9
ED
DD
EE
E5
FD
E1
F8
FE
DF
E8
FA
02
F2
F0
04
00
02
01
0F
F4
09
13
F1
F0
07
F9
00
EB
0A
FB
01
F9
07
00
F8
05
F8
08
ED
F8
F2
09
F2
10
05
0C
F3
EF
FA
E8
EA
FE
F9
F0
05
E3
E8
06
F4
EE
E1
F3
F9
EB
00
E8
06
04
F0
01
EC
04
F5
F0
06
04
FB
E3
EB
DF
D7
DA
D6
C5
E4
FA
0E
BF
D4
CF
E6
F0
E7
E0
F1
12
FB
EE
EC
08
F5
F7
FC
06
EA
F4
E0
EF
D9
DE
E0
C3
D4
D7
D6
D6
C4
F2
E3
EA
EA
FC
08
07
18
EF
00
0A
03
07
E9
08
FD
17
0F
1E
F1
06
06
3E
1C
07
EB
D5
ED
1D
01
0B
25
25
17
FE
EF
F9
F9
FE
F8
FD
04
03
0B
08
F4
02
15
0D
1D
02
FA
00
F2
F5
F6
E2
F5
0C
0C
00
14
F8
01
03
15
0A
FE
FD
F6
EF
F3
E7
16
0D
F8
F8
FA
03
05
1C
17
FC
D6
D0
DF
DE
0D
F9
28
08
15
1B
04
14
01
03
FC
F8
F1
EB
17
04
09
14
FA
11
12
00
F4
07
ED
DD
D1
F2
13
06
16
07
14
EF
E6
05
05
FF
02
11
00
0A
0C
EF
F6
05
12
0C
0F
1B
FF
0A
D3
D2
FA
EF
0C
15
1B
0E
1F
0B
02
FA
F3
ED
F2
FE
F9
F0
FE
00
01
ED
EE
FE
17
1E
F3
DB
D0
DF
F0
1D
0E
19
1A
06
F5
0B
F8
F7
00
DD
F7
EF
FB
E7
ED
F4
03
EB
F4
0A
14
F9
E8
D7
E1
F6
FF
16
19
0A
07
EE
FC
04
02
10
DC
F2
F0
FD
FA
F9
01
FB
FF
FB
EA
02
1E
19
E7
D2
E7
EF
FB
0C
FC
F5
FA
F5
E4
1B
09
03
FE
D7
FC
01
F2
F3
FC
10
E5
FF
03
07
36
13
0A
EB
07
F9
21
19
FE
22
02
0A
1A
FF
EB
F1
0D
E5
F4
FE
06
03
F5
F6
01
F4
16
0C
0E
05
F7
02
03
13
22
28
0E
1B
13
08
29
0A
17
14
0A
0C
09
F5
06
E2
F3
02
08
0D
03
0B
FE
01
F4
07
0B
16
09
09
11
1B
0A
0E
FB
02
FE
14
0A
1E
0C
03
F9
EE
E5
F3
FB
1B
22
F8
0A
F1
10
FC
1A
F9
FF
14
03
14
06
F9
DA
F1
F3
F4
ED
03
FF
E3
0A
EA
0F
22
19
07
1C
0A
FE
FB
FE
07
07
FE
03
F9
F6
0E
EA
D2
DC
03
02
06
F0
EA
E8
EE
FE
FB
F7
1E
0D
FE
03
0C
08
F4
0C
EF
EF
FA
FD
E8
01
FD
F5
0A
CB
FD
17
03
FE
F2
CC
F1
13
10
0F
09
0F
0D
FD
0D
F3
04
EF
01
E7
F8
F1
F2
09
E8
01
F8
CA
0A
09
0D
0C
FE
EC
ED
12
05
05
1C
F7
EA
EB
EC
FB
06
F7
EE
F9
03
F5
D9
E9
18
12
14
C9
0D
06
F5
FD
13
FD
F5
07
1D
0D
00
FA
E9
F5
01
F2
EE
0F
EE
F4
00
E8
ED
00
21
15
08
F0
01
F8
FE
F7
EB
ED
F6
10
13
1B
1A
FB
03
E9
0A
FE
F9
FE
F3
F0
02
F6
FF
FE
1B
05
FE
EE
05
EC
F2
07
F7
01
03
FB
24
00
01
01
FF
ED
F6
04
F9
15
F4
FC
FE
00
14
04
06
F7
FA
06
0B
0C
07
0D
E7
E2
EE
E9
25
1B
07
05
08
10
0D
F9
0F
09
04
FB
01
16
FB
EF
F1
08
EE
05
12
00
FD
08
E6
E5
CD
E7
F1
F3
FD
03
01
16
07
FE
0A
EB
0B
FC
E8
E0
F8
DD
0C
0B
DF
09
F9
EE
04
04
E8
08
E6
E0
D9
E2
FF
04
F6
1F
00
01
13
19
17
FA
01
04
08
FE
F0
F5
07
F8
00
14
EC
FB
F8
F7
F4
DD
EC
D0
BD
F0
F1
F3
F2
EE
05
F3
EE
FF
F8
E5
D6
F6
F2
EB
E6
F8
F5
01
02
EC
0A
0A
F3
16
E5
F6
FD
F5
F8
E4
EA
D4
D7
F7
EA
03
EA
03
07
F3
E6
FF
13
F4
07
0E
EC
F6
03
F2
F5
F8
0A
09
F8
F6
04
06
15
12
FF
FE
0B
05
0A
13
07
FF
EC
F7
09
12
07
F2
F0
14
FA
FB
FC
0B
22
1B
1E
1A
F3
FC
FB
10
03
0B
14
F4
01
0B
13
1B
0D
23
FA
01
03
11
FC
FF
12
13
EE
14
11
FD
0C
23
22
29
1F
1F
34
1D
1F
FE
1C
09
29
FF
00
0A
0B
07
FC
FA
0E
12
07
F6
25
1D
1B
1D
08
13
02
16
1A
1D
F9
0F
00
FE
ED
18
17
12
1E
07
23
18
1A
EC
FD
E9
EB
09
0C
03
28
04
1D
0F
0C
13
12
0D
0D
12
F7
F3
EF
03
06
F5
F5
FE
0A
0C
06
15
F8
01
1A
17
FE
F4
07
06
11
14
FE
F2
02
06
FA
09
12
FB
00
F3
FE
EA
05
FB
14
F3
07
1E
F7
FD
16
09
05
FF
F1
F6
F8
F7
F0
05
FC
04
02
E7
F2
F3
ED
E6
E9
ED
E0
D5
DA
EC
F3
F5
0E
01
1A
E6
FC
FF
F1
E8
F0
EF
09
03
DF
01
FA
E6
F6
F1
DC
E5
EE
F2
E7
D2
F0
0A
F2
04
F6
1C
04
D7
0A
0F
F2
D2
E1
F1
EF
F1
EF
F0
F6
ED
DF
F6
E8
F6
E2
E7
EC
EB
F7
07
0B
09
FC
F8
00
EC
17
FB
F0
F7
D9
F4
F4
EE
FD
FA
0A
07
E3
F0
F0
E9
02
0C
E5
FF
0A
08
02
08
0B
F4
F9
F3
0C
E5
EC
E5
07
03
F8
EB
FC
EA
F1
FA
F6
EB
FD
E7
08
08
EE
0B
0F
0B
1C
E4
06
09
F6
D1
12
FD
F0
F7
DD
FF
F4
E2
DD
F1
EB
D8
D2
DB
E9
F1
F6
EF
FC
09
04
11
FA
00
F4
10
FA
F7
ED
F9
F5
E6
FC
DD
F8
FF
01
00
E8
F4
E6
F2
E8
F3
F4
F3
FE
05
FE
0F
01
F6
08
07
F1
FE
F7
E9
E5
FF
F5
E2
F0
0A
08
19
17
0F
0A
F6
EB
F9
FB
EC
EF
10
21
03
12
17
13
F8
F6
1F
0A
06
07
EB
00
06
FE
00
16
27
34
11
F9
DF
03
ED
06
F6
FD
12
17
0A
13
12
FE
E6
F9
08
03
06
13
FF
02
0C
05
04
26
18
19
1A
1F
FB
0D
0C
09
FC
02
FF
16
10
25
FB
F2
0A
07
22
F8
12
0C
1C
13
FF
09
23
1D
24
22
23
03
04
F6
0B
00
05
19
10
F8
21
18
10
F3
EF
09
0B
0B
07
2D
0E
20
0B
15
F7
10
08
23
FD
12
03
01
05
20
0D
FF
12
18
20
00
09
01
10
01
22
18
0A
01
0F
0E
0E
03
09
0D
15
0A
FC
11
1A
0F
0A
0F
19
0A
26
1A
21
13
0A
06
03
E2
F2
1C
00
27
06
09
0B
14
FD
0D
1F
03
16
23
20
1D
10
18
07
1E
0A
08
1B
14
19
FB
F9
FE
F8
0A
03
00
15
1A
F8
07
13
14
0B
06
02
06
FA
FE
FE
07
19
05
19
11
0A
0C
F8
FE
08
E0
03
06
FE
EE
13
04
12
0C
0D
FD
05
1B
0E
FB
10
0F
07
FB
05
03
02
FC
01
F1
F5
F7
12
F9
10
15
0A
FD
EB
00
08
E7
FB
FB
00
F4
F6
03
F1
E5
EF
12
EB
FC
ED
E9
FE
0C
ED
EF
EC
1D
EF
22
1F
F7
FF
F6
FC
02
E0
F7
E0
DE
F1
E1
FF
E2
EE
EC
ED
02
F0
EE
FE
0D
F0
EC
14
05
E7
F6
E0
E7
DA
DC
C6
C9
C0
CA
EA
E3
F2
EF
F1
E5
DF
EA
02
15
FE
07
25
0A
09
F8
13
FB
ED
EC
EF
DD
F2
E2
C9
FD
F7
09
D6
ED
E7
CF
F1
FD
ED
E6
07
02
DE
02
05
0A
09
ED
0C
00
07
EA
E8
ED
E6
0E
F4
FF
FE
E7
E2
E2
F7
F7
05
09
FC
05
FB
ED
23
EF
FE
14
F9
05
0D
F2
04
FC
F8
EE
0E
FB
13
15
01
10
F9
0A
FE
F3
F4
F1
03
FF
0B
02
07
FD
0D
F5
14
0E
F2
0B
F3
F9
F9
0C
12
14
F7
F4
05
FF
15
F3
F1
04
F5
ED
11
FB
13
F4
F2
FF
09
07
14
0B
FF
F3
FB
FA
07
1C
17
05
07
03
00
23
12
08
09
11
05
EF
0B
1A
1B
10
FA
0D
EF
FA
EC
FE
FB
0B
09
09
FF
FF
18
24
0E
2D
0A
2F
0E
19
F5
F6
01
0C
FC
19
0C
03
05
1A
0C
FC
ED
08
12
FA
FF
14
02
06
2D
0D
0F
25
0E
1E
1A
24
0F
1F
30
29
16
EF
F4
FF
35
1D
0A
12
FB
05
0E
FA
F5
00
0F
17
F7
04
0E
35
07
24
14
21
0A
28
0B
FD
FE
13
FA
F0
0E
E5
F6
0A
0C
EE
FE
29
F9
1C
09
16
13
FC
10
02
F7
11
F2
04
0C
0F
1C
19
07
11
05
05
FF
FC
06
0E
EE
F9
16
09
13
03
0A
06
09
07
00
F3
01
F8
F4
11
05
EB
03
FA
07
01
01
F6
F8
FA
07
F7
1B
E6
EF
FE
0F
23
0C
0B
18
FA
EE
F3
E7
05
02
F4
0F
0B
FB
E2
E8
00
F4
08
FF
E6
E4
17
FF
F4
0F
EE
04
0E
00
F4
EE
F5
F4
EC
EA
0E
02
FE
E9
02
07
E3
FB
01
F5
1B
EF
EF
EC
19
06
03
E9
17
05
05
F3
FE
03
10
09
0A
F9
EA
F8
11
FD
F8
FD
08
05
0B
06
1A
25
23
19
FB
05
13
02
04
05
F6
09
04
15
F6
FD
E8
DD
FE
FE
0A
EE
F5
05
EF
06
F8
01
01
13
35
F8
06
F5
01
04
F6
0B
15
F7
0F
F1
EE
FF
DA
D7
F8
F9
04
01
E6
E9
F5
06
12
06
FE
10
1E
F7
FD
F0
FD
F0
0E
E6
FD
04
08
EA
F5
F8
E3
EC
03
1D
FD
F3
E4
EE
08
11
F9
ED
E8
0D
2A
22
05
0A
0B
04
FC
FA
F6
FE
EE
EC
F4
DE
E7
02
13
1C
12
FA
FB
FC
F5
F0
F9
E5
D8
08
0C
FC
14
F1
01
FC
07
FB
02
F4
E6
EA
F4
F1
E6
FB
24
13
0F
15
F4
EC
FC
0A
F0
D2
D4
F4
12
FD
26
FC
17
0B
06
F6
FD
F0
EB
F2
E2
F0
E8
F7
2D
2E
02
11
F7
F8
FE
F8
DD
EF
F0
F8
FE
02
08
F3
EF
FA
23
10
04
F7
F9
E4
E3
04
13
0D
10
23
1C
08
00
EE
F2
EC
F3
FA
02
01
0E
1E
0A
FB
EE
FE
19
24
20
10
FE
FB
E8
EB
09
06
0F
1A
F7
06
FA
02
03
EF
03
0E
13
1C
1F
00
03
13
04
FA
04
05
15
1C
F7
09
02
0A
07
03
19
F6
12
FD
12
FF
11
10
02
17
11
2A
12
26
FC
FC
14
DA
F1
0D
13
08
01
01
02
18
01
FB
02
18
FF
1F
10
19
FB
11
18
16
34
34
20
FC
FF
F1
FB
F1
06
1F
FB
0C
27
26
FE
FA
FC
1D
22
FF
0F
11
1B
16
FF
FF
11
2F
11
15
0E
F5
04
03
01
FC
1F
03
0A
0D
04
03
1A
17
12
F5
02
03
18
12
1A
1B
1A
14
2F
05
22
20
E7
0A
03
FC
06
F6
1E
17
03
0C
10
FE
05
16
16
F7
15
04
FF
0C
1E
0F
13
26
26
0F
FC
FD
F4
1D
0D
06
FB
14
12
23
FE
10
F8
F2
12
FC
EC
0D
09
1C
0C
12
12
03
1C
12
01
ED
F8
FB
1A
08
F5
01
F9
EE
0D
0E
CA
EE
E3
F9
FA
0D
FD
F0
04
03
FD
F3
1C
F9
04
FF
F5
FE
EC
0E
05
06
22
0A
F8
F4
02
EE
D4
EF
D9
DB
02
E2
FE
F0
10
EF
E3
E3
F2
04
F6
FD
E6
EA
F8
F5
0C
F6
00
0E
F4
F2
F3
14
EC
EA
F6
FB
FE
F4
FD
DF
E6
ED
E0
D7
0A
0C
1A
0D
01
FC
06
18
07
F7
EE
0E
09
14
EE
F8
F7
0D
FA
09
F0
04
DD
E8
EF
02
0F
FC
03
FC
F5
F0
F9
FA
0D
0D
0A
EF
F3
F4
10
07
F3
05
F6
FD
F4
0A
F4
0C
09
0B
09
FC
F2
08
10
0D
F2
07
F9
11
F8
FD
06
EE
04
0B
FD
ED
EC
F1
EF
09
F2
F7
08
FA
FA
03
FF
EF
06
EF
D6
EE
FB
0C
09
F1
01
F0
FD
02
05
03
ED
04
EC
11
0E
EB
0E
17
08
18
FC
03
FB
E8
CB
E2
F6
DC
DF
D8
F5
02
FC
07
11
03
EE
FB
FB
00
FC
FA
F8
00
F4
E4
FD
1A
05
E3
B8
C4
C4
E3
E4
F2
09
EB
08
EA
DF
F4
FD
FA
D4
0B
F9
0B
0B
00
13
0E
14
02
FE
0E
02
F5
F6
06
FC
F9
05
FB
0A
1A
02
F5
05
DE
FA
F3
FA
F7
0D
0D
1B
F8
12
08
18
15
E9
11
0A
E3
D7
E7
ED
EF
F2
F5
FE
16
FF
EE
E1
02
11
14
F9
E9
01
11
EC
0F
24
0E
FF
0C
1A
09
06
06
D9
DC
DA
D5
F2
01
1E
23
2D
11
00
0D
EB
0D
18
1F
08
13
D7
12
11
02
F5
F4
0E
FB
03
FD
0D
E0
E7
DD
FF
FE
16
15
1C
0B
E8
E0
D6
FE
20
28
14
10
04
11
F4
EF
08
0B
01
07
11
17
F4
E7
C8
F4
FC
0A
0C
15
FE
FF
E7
F1
EB
F8
1C
05
0C
09
11
04
02
E9
0B
02
FF
19
28
2F
15
E7
C8
F8
07
07
FE
00
04
06
04
14
F6
01
13
21
00
00
E9
F0
0D
EC
00
16
16
0C
09
F3
F2
CA
BE
F3
FF
1B
06
FE
FC
F8
13
07
FD
0D
14
32
16
0B
E1
0C
FF
00
1C
0C
03
03
E8
D4
D7
C6
F4
FC
14
01
02
10
0C
00
13
FF
02
DB
F7
FA
15
FB
F8
03
0A
10
18
EF
D7
D5
F8
F4
01
F4
21
08
FD
04
1A
FD
12
15
07
E5
FF
D7
06
0F
FF
12
07
0E
05
06
02
F6
04
D1
EA
F8
20
FD
10
12
04
FA
EF
0E
0C
FF
EF
02
FC
FA
FC
EE
14
02
FC
1D
14
02
F4
E9
E4
E1
ED
03
11
1D
18
25
10
19
09
0D
ED
04
D5
E5
EA
DA
E4
FC
0E
08
0F
0A
04
F5
FC
D9
E8
F1
F8
0B
28
0A
13
28
25
F1
07
F8
ED
F7
00
E2
EC
DC
FD
E7
06
1A
15
FA
FC
F5
FC
01
E8
FD
0E
04
22
12
07
0C
06
0E
FD
F9
E7
E8
E0
F2
EF
04
E4
EF
F6
2B
19
E5
F5
FB
F5
06
FD
02
E8
0D
F9
F6
03
09
F1
FA
1A
EA
01
F1
02
F6
04
22
F5
0D
F9
19
12
F3
F1
F8
F9
EE
D7
F4
F9
00
04
E0
FC
F0
FF
0F
F6
E2
00
15
07
F1
EE
0A
13
0A
0E
11
29
F7
F4
FD
EB
E9
FD
00
01
0A
EF
E6
E3
F3
14
02
F7
0E
FD
19
F3
FD
FF
FB
02
0B
F7
02
FE
04
1E
E7
0B
E8
FC
F1
EB
06
EF
EF
E2
F3
03
03
06
FC
13
1E
09
EC
04
E0
0B
10
1E
0A
11
2C
24
0D
18
0E
0E
10
00
11
02
12
03
F7
00
F6
FE
FB
16
1B
19
FF
15
16
F8
F6
1D
06
0D
05
10
1B
1B
EE
FB
F6
0C
E5
03
00
0E
F4
0D
03
F6
25
0A
10
00
0B
FC
04
39
04
FA
0A
28
23
14
EF
0D
0D
F8
F2
01
08
F4
1D
06
05
06
F3
09
18
FB
03
FE
05
E9
19
22
04
F3
FF
2A
2A
22
08
EC
F9
05
0E
04
FD
02
F7
10
12
1C
0E
0C
E4
F0
F1
02
02
F4
29
1F
0D
05
FB
1F
E7
1C
05
1A
39
43
2B
36
3C
28
24
17
11
F5
FB
05
F9
08
EF
12
17
EE
05
15
ED
06
08
FE
11
0E
12
07
17
F1
EE
03
F9
ED
16
06
F1
06
01
F6
FE
08
F1
FA
EE
0A
01
0D
FA
F0
06
F6
09
04
22
22
10
07
0C
F8
FD
FC
07
F6
19
0B
EE
E8
08
F7
02
14
19
EE
FE
04
00
FC
12
EF
0C
04
FA
F3
0D
01
EC
0F
11
0B
17
12
EC
08
13
07
07
FB
EE
06
EE
F0
F2
09
F9
0A
10
00
FC
05
04
04
F9
1D
21
11
01
17
08
EF
10
F0
17
0B
15
2E
20
12
04
F6
F1
F5
07
04
05
FB
EC
15
09
0D
2B
14
26
2D
29
04
09
FA
05
FD
14
2C
12
2A
21
0B
1C
FD
F8
F5
10
0D
F3
05
FB
13
FA
1A
0F
2C
15
23
FD
18
F0
E7
FC
FD
F4
04
1D
13
13
16
29
07
FA
1D
FD
EE
0A
FD
05
FD
F2
FF
02
06
04
EE
0D
FD
F9
04
F0
EA
F9
F2
FB
FC
02
F3
08
0C
2A
FE
00
EC
F7
02
E7
FF
EA
F1
F9
04
00
F2
FB
FC
12
15
00
E7
FE
EB
F0
14
0E
F5
05
F6
0B
00
24
03
F1
01
ED
F2
E3
FA
01
EC
0B
F7
04
01
09
10
13
ED
04
E6
EC
F2
FC
F0
06
12
28
09
FD
0F
0D
0C
F1
E0
FD
ED
04
0F
F8
FD
08
17
14
12
FF
EA
F1
F6
F5
F3
06
FC
04
18
30
21
FA
FB
04
F9
FA
ED
FD
F3
F9
1C
07
F5
18
1B
19
10
EF
E1
E7
EC
FC
F1
04
00
06
3C
26
0B
02
0F
09
ED
FD
03
08
2A
24
0E
24
22
26
16
2B
0E
E8
CE
EC
E7
FE
F6
14
F9
1A
39
25
2C
F4
08
FD
16
09
F8
12
1F
1B
28
21
2A
2A
41
3B
27
03
E1
F3
01
FB
F7
F5
1C
FA
1F
1B
10
0E
02
FC
1F
10
FD
2B
13
16
21
15
19
0F
06
16
1C
0F
F8
EF
03
08
E7
F9
FC
03
30
27
14
F6
F9
E9
19
17
26
30
2B
12
FF
FB
16
0C
1D
06
04
22
12
F0
05
F8
09
FC
F9
15
FE
04
EA
13
F4
04
11
1F
14
FB
04
0B
EF
F3
F9
03
FF
15
15
0C
01
F6
F6
02
FA
F7
F3
09
FB
F5
05
0C
08
11
01
0A
DB
03
ED
E1
FB
E8
05
FD
00
05
18
F5
F8
07
13
12
EC
EF
FC
02
0A
09
F0
01
04
F0
EC
F9
E7
F1
01
EE
EB
F9
FF
16
14
FF
0F
0B
09
F6
FE
FE
04
F0
10
14
FC
10
EB
F0
FB
0E
F4
FD
E1
E9
EF
FB
FC
F9
06
07
10
FF
14
17
EF
F0
F5
01
11
FC
17
04
10
18
DD
00
04
04
01
02
F1
14
FF
FC
FD
F0
14
F2
1F
0A
18
08
0A
0B
EC
02
F7
0E
11
24
14
1B
E7
FF
20
FF
18
ED
DF
FD
1A
12
02
02
0E
F6
02
05
08
02
FA
12
FD
06
F5
F5
FA
06
12
11
E8
F2
09
07
EC
E8
F4
F9
FE
F5
FA
02
02
0F
09
F0
02
05
04
0D
F0
0F
16
07
06
04
02
FD
EF
EC
FF
F3
F1
F8
E1
0D
02
05
02
F0
F6
07
11
07
03
FE
F1
0A
FA
02
FC
0C
0C
06
0E
F4
0A
ED
FF
09
DD
DB
FD
FA
F9
FD
F5
07
EE
0E
01
F1
0D
EC
F5
0A
08
0C
0C
03
0D
F8
DA
FF
FF
DF
F6
03
F9
EF
F3
E1
00
07
05
0C
09
04
F9
06
03
02
07
FB
F1
0F
FC
0B
E7
00
FC
FF
EE
EF
F9
F7
0D
0D
10
F0
F9
EA
F1
0A
FB
F9
01
07
F7
ED
04
0B
FA
F8
1F
FD
07
16
0D
EC
FE
07
02
F9
F9
F7
EB
FE
03
EA
0C
09
00
00
02
08
FF
FC
F2
F3
00
FF
13
01
05
F8
01
01
0D
F7
09
0E
06
19
11
1E
15
1A
25
18
22
20
FC
12
FB
1F
04
01
10
0E
23
27
1F
09
14
F6
03
0D
F6
07
01
EA
F6
00
08
25
21
0C
06
11
1D
14
14
11
0B
F7
FE
11
22
19
07
02
03
09
F7
F1
F5
FF
01
FF
F6
12
02
0C
0E
0F
0E
12
0A
23
11
03
FD
0C
0A
1E
14
0C
14
16
09
07
F4
EF
F1
FA
00
F8
FB
F7
06
ED
01
05
0F
05
00
F9
F7
F8
03
03
F0
01
01
0A
0D
01
FC
0D
0B
F1
11
FE
12
0D
F0
0F
EA
12
FD
0A
15
14
09
01
EE
19
1D
FD
06
E0
00
E5
F2
FF
0B
ED
08
EC
01
02
F2
00
09
E6
FB
01
FB
F5
E7
10
18
24
10
20
25
0E
EB
E7
D6
DF
FB
F3
11
10
01
FE
F9
07
23
F5
F8
FD
09
EC
FD
EF
FC
EB
F6
11
25
23
04
ED
F0
F2
F5
E8
CA
E5
D0
EF
E5
0E
13
0A
20
F7
05
E9
FF
0E
E0
E2
F2
0A
0A
00
FA
0D
FA
09
E8
ED
03
E6
E2
0F
01
E5
DA
E5
ED
EE
17
0F
E6
09
05
F8
EC
E2
E9
12
F6
10
0F
0C
02
F5
F4
F4
FB
F2
FB
21
15
E9
EC
FF
F1
EE
04
FC
06
EE
E8
D9
FB
F5
EF
FB
EF
06
0A
09
0C
F5
FF
FF
FC
F7
FE
0A
10
EF
E3
E9
ED
E7
FE
EA
EB
EE
E9
ED
FD
E8
F6
F9
FE
0E
FE
FB
07
FD
EE
06
F4
ED
0D
FF
EB
DF
FA
0C
E4
E4
00
01
0B
F1
0D
E9
05
05
0F
F5
E2
FA
FD
01
E4
EE
09
ED
F6
07
0F
06
E9
E2
EF
09
02
DC
FC
01
EE
0A
F4
F6
02
05
05
F3
E8
DA
FF
07
05
E5
FB
05
D7
06
F9
00
0E
FE
04
F9
14
E1
04
FA
07
00
0A
12
0D
02
FD
E9
DB
F9
08
2C
19
F2
F1
05
EB
03
F4
FF
30
35
1E
FF
06
14
05
F4
F6
03
E5
F4
F5
F2
08
F4
D7
F1
06
1F
06
F5
0A
FD
E8
06
07
28
2C
1B
FA
02
07
E6
21
01
FF
F0
D1
EC
ED
EA
ED
E1
F3
F0
16
26
1E
00
FD
D9
DD
EA
E1
E1
03
08
FC
10
12
03
24
F8
06
FA
DE
D0
D6
E5
FE
F9
F1
E9
16
0D
16
EC
F7
F3
C0
E4
F9
F6
F3
08
17
0C
0A
F4
01
0D
0D
F1
DD
BF
F6
0E
05
ED
F7
F3
02
F6
12
0B
E8
DA
EF
E7
08
EF
FE
E6
0A
0D
FB
FB
F6
11
E2
F4
D8
EF
FB
07
FE
02
E4
EA
12
06
11
FB
BC
B8
D2
EC
DD
ED
EA
D2
01
10
F0
15
FA
FD
E5
F2
02
10
F8
FD
F7
EE
EC
FE
25
F0
07
C1
B1
CE
D4
04
F1
FC
CF
EB
04
21
F3
0C
EB
F1
F5
FC
05
FF
05
07
00
19
09
25
21
FB
E4
BB
BB
F8
EF
07
F2
0A
03
26
15
23
23
ED
F5
FB
EA
08
15
13
06
12
1E
0C
2A
1F
1C
EA
D3
C5
ED
12
04
0B
12
07
28
17
15
15
F7
02
0B
FF
E9
13
10
12
01
1E
27
24
2E
14
03
EE
D4
F1
FF
0B
1C
17
0F
ED
1E
32
09
10
0E
01
17
03
FF
04
0B
1A
08
20
21
0C
15
FA
FB
F8
0F
1E
24
0E
1E
17
00
07
22
20
13
F4
0F
1A
FB
10
13
14
1C
04
0D
19
FF
03
0B
01
F5
09
FA
04
1A
13
19
F8
26
28
16
0E
0B
F4
10
13
0C
33
1D
20
F9
00
20
16
FE
EF
DD
F1
07
21
04
12
18
09
0F
20
2F
28
0E
0A
0B
0C
EF
FE
F7
EE
04
1A
FF
F2
E6
01
F7
F6
07
F9
0C
03
0A
09
16
02
FF
2B
2E
FD
0E
20
15
F9
EC
F8
0B
D9
09
E2
EC
E7
E8
E3
E2
F0
03
0A
0F
FE
F8
F9
09
06
05
05
08
EE
05
14
10
03
EE
0F
F2
F8
07
F1
DB
F2
E4
D5
C9
CD
D1
D6
FA
D5
D8
C9
E8
FC
F1
10
23
F6
FE
24
0E
07
02
F9
F7
F8
0B
03
EC
EA
FD
FD
E7
D6
DF
D3
D1
D7
D7
FD
FD
EA
FD
F3
F3
FD
FA
04
F3
EC
ED
F7
12
11
17
0A
05
15
FD
07
06
EF
00
10
12
F7
FD
16
16
18
F7
EE
03
0B
07
FA
0E
F7
FD
10
0C
0F
ED
00
EE
F5
F1
F8
F7
FC
09
0C
F5
0C
F6
0E
04
F7
EF
0B
F3
11
F5
04
0F
0F
0F
11
14
11
0B
EA
00
ED
04
07
FC
F8
FC
03
0E
1C
0F
03
EE
E9
F0
09
F5
07
09
0D
0E
EE
00
F9
FE
01
F0
DF
07
EF
F1
0F
16
EB
F5
1E
0F
06
1B
08
EE
FE
02
13
ED
0C
15
05
03
FF
EF
EF
F9
1B
F9
F2
ED
EE
0C
08
11
05
19
20
05
FD
16
FF
FB
0B
0E
F7
E1
DD
F6
07
02
09
01
11
15
1F
F4
E7
F6
0D
FC
04
13
03
25
08
14
15
29
08
FB
F4
0C
E5
DA
FB
F6
E4
0C
FE
13
FA
12
0D
ED
08
0A
EB
05
07
0A
0C
1B
0E
20
1E
22
1E
15
06
00
04
FA
ED
DB
13
1D
F3
0D
06
F6
F1
F3
F4
F2
03
06
EB
08
10
01
12
12
03
1F
06
0A
07
F1
15
04
EE
E7
F5
F9
F8
EB
1E
FF
E3
FE
0A
FF
0A
0C
F7
EA
05
04
01
FA
1E
1B
0B
17
09
1A
F6
06
10
FB
EB
22
FB
09
17
F0
F4
06
F2
11
F6
EC
F0
0E
06
02
15
FA
18
19
28
28
0C
0D
10
13
19
F7
F3
03
F1
F3
F5
0D
06
EE
F6
ED
EF
FB
EC
F3
F3
EB
07
EB
EF
1B
10
26
24
0E
FD
23
1B
0D
EE
FD
FC
07
FE
1E
05
FA
05
E7
FF
E3
E9
E7
FE
F4
DB
FE
CB
FE
21
02
1B
0A
23
21
08
F0
CF
FC
0B
0D
EE
EF
D7
E6
EA
F0
EA
F3
DD
FE
ED
E8
F7
DB
DE
E0
10
1E
18
1A
FE
19
00
F0
DD
F4
01
03
FF
FC
ED
E3
F7
E4
08
F6
EA
EE
03
FE
FF
ED
DA
E5
14
0D
06
09
FD
02
F8
0C
0A
E1
FC
06
22
13
E5
D4
F3
F3
E7
FE
ED
F1
F9
F2
EE
FC
F1
EB
F3
0F
15
FD
03
0C
F6
03
04
F8
EF
15
04
FF
E1
03
0E
F2
01
F0
EE
01
04
04
0E
E4
EF
06
EF
03
FD
01
11
E1
00
0D
E6
0E
05
0C
F8
10
07
13
1B
F0
FC
02
F6
07
05
01
EC
F7
04
FF
EF
02
F1
08
F6
F0
FA
F9
F8
14
FD
FC
EB
FD
25
03
F9
FE
04
01
1D
08
13
FA
E8
E1
02
07
01
FA
EE
00
01
07
03
ED
08
FC
FD
EE
E6
18
0D
18
0E
FE
08
08
FD
03
08
FD
00
EE
F9
EE
EC
EC
F0
06
00
09
06
07
0D
0C
04
0D
00
F8
14
21
06
07
F7
12
FB
0E
0A
FE
ED
EC
EF
E6
F2
FA
04
F1
0C
08
F4
25
F5
10
12
FB
07
03
09
FE
FC
01
FF
05
F9
1D
01
02
F1
11
0A
06
EC
05
FA
0B
EE
FC
04
11
07
03
15
F9
11
FA
12
08
14
0E
1A
06
08
1B
0C
FC
FF
F1
F6
F9
EA
06
FC
FE
10
08
05
00
15
F3
FA
E5
14
1A
F4
20
17
24
09
02
14
0A
F2
F4
09
09
0B
09
F5
FF
F7
F6
F0
11
F3
F6
06
16
FA
F2
F4
19
04
17
1F
25
02
10
F9
F0
0E
F4
09
F2
ED
F3
FD
E9
00
F8
F9
1C
05
05
08
13
14
08
09
13
FF
0F
12
1F
14
0A
17
18
05
20
02
09
F2
F8
0A
F5
E7
0C
13
0B
14
F7
06
FF
FD
05
10
FB
10
07
0C
EE
FB
0A
16
1C
18
07
06
0D
03
FB
F4
0D
E4
E3
F8
F7
03
FD
15
14
0A
13
EC
03
FC
F5
DD
FA
FF
E9
E0
05
E4
F0
EC
F1
03
D7
E1
E6
E7
F5
EA
CD
F3
DB
F1
13
ED
08
02
00
06
EE
02
F0
F7
0C
F8
03
F8
F2
07
E9
EC
FB
EE
00
E5
F3
FB
E3
0F
08
EC
FD
F3
F6
EE
F2
01
03
0A
F6
0A
09
F9
FA
02
18
FF
F5
E4
F5
FB
07
01
FA
01
E7
EC
FD
10
0C
09
ED
F2
FA
F9
EE
08
F2
EF
0B
F4
0E
02
F0
17
F1
ED
EE
0B
ED
FC
0F
FB
11
EF
0B
F8
F1
0A
F7
EE
0C
EF
F2
F5
10
12
00
F7
F7
0D
FD
1F
0C
F3
07
00
12
2C
0D
2A
28
19
02
10
11
F0
F9
FC
0E
FD
1E
22
2B
0F
FE
F8
08
FC
F8
E1
CE
FA
F3
32
34
55
4B
3B
32
24
02
04
12
03
0F
EF
08
F3
25
F4
10
F9
F8
0D
F0
01
E4
E5
DE
F4
17
17
26
10
0C
22
31
2B
3F
05
1E
FF
04
F4
00
0A
1B
18
06
06
E7
08
09
12
22
1B
0E
23
1C
13
22
19
06
08
13
0A
0C
11
10
0C
14
FF
13
EF
F8
FB
20
0C
14
04
19
0A
08
10
0C
0E
0D
0A
29
14
1A
12
05
FB
14
21
10
0D
F2
04
FD
11
F9
0B
F3
0E
FA
F1
0F
0A
10
E7
E9
05
EF
F6
14
05
18
FA
10
08
03
39
10
FF
19
0C
03
13
F9
15
06
F2
0F
FA
E5
E6
E4
F7
F7
02
FE
15
19
12
02
FD
FC
18
34
3F
03
09
1D
25
27
07
2A
FD
06
F3
EE
05
FB
04
FB
FB
F5
F3
10
F6
0C
01
03
19
1E
10
29
32
F8
05
05
19
23
13
0C
F2
05
FC
FC
FD
F5
08
FF
FD
0F
F4
FB
04
02
10
1E
0A
1E
14
38
2D
15
FC
25
1E
0C
46
1C
00
F9
FB
FD
F8
10
18
2F
21
0B
0E
0D
08
10
FA
0E
0D
0E
11
43
37
1B
0A
0F
19
1D
44
15
06
0B
0E
09
1D
08
1F
28
23
15
13
EC
FB
F4
F5
FB
0D
F5
17
33
29
1F
FC
16
01
43
29
14
07
17
19
FC
02
14
01
0A
1E
25
F2
03
F4
E2
ED
F1
FC
F5
14
20
1F
11
0F
11
10
35
07
05
12
F9
19
01
FA
14
FE
F5
1B
FD
E2
DE
E9
D8
EF
E9
DA
F7
F9
3F
09
F2
05
04
01
2F
33
01
F9
1A
F4
06
00
0A
FF
12
F1
02
EF
E3
E8
F8
D2
F1
D9
00
10
16
03
F6
05
1A
0C
02
FC
04
02
F8
04
F0
02
F6
07
0C
EC
F0
F6
E3
DF
F1
F1
DE
E7
DC
04
1D
FF
01
F1
09
04
1B
04
EB
F7
05
F1
FF
F0
03
F1
04
FA
F0
00
EE
EE
06
04
FA
E1
F6
10
F7
F7
FC
F6
08
0B
0E
FD
F4
F6
11
0C
F9
FE
19
04
FB
E3
E6
E4
F1
FF
FD
02
E1
FA
E2
14
FE
F7
02
07
16
F5
28
0A
F4
0F
03
18
1C
13
05
FC
ED
E5
F2
FE
EF
EC
F1
F6
15
F0
F3
F1
EB
F5
FE
F6
EC
0F
14
07
F7
24
12
0F
0E
07
11
F1
EE
FD
E2
EB
E6
0E
F6
FD
F5
0C
1E
05
EC
FD
FC
F6
FD
04
F5
00
08
20
06
FC
11
18
16
FC
12
0F
F5
F6
08
EE
01
04
00
FC
01
EF
E2
F0
E2
F0
E5
24
00
09
EE
ED
04
1C
06
21
07
1D
04
06
16
EF
0F
18
F0
12
0A
03
0E
EF
DF
DD
ED
0D
F4
0E
0E
FF
15
05
03
13
F5
F4
0C
1A
0A
0A
19
0C
0B
0B
F4
07
01
FA
FE
0D
FF
FF
EA
0E
EF
00
16
1D
EE
F4
FE
F4
11
0B
00
F9
0E
0D
0F
20
19
06
ED
08
FA
ED
0A
E5
DA
02
ED
01
06
13
14
26
05
F2
EF
07
02
FD
0F
0C
1D
1E
1F
F8
01
F4
EF
DF
FA
F9
F4
E5
FF
D7
ED
01
F0
FC
FA
06
F0
02
1F
1C
11
02
10
1B
05
07
04
1C
FF
17
05
13
42
20
1A
F3
12
0C
F7
13
09
F3
0F
FC
F4
02
F4
1B
00
F7
F9
1D
41
4A
20
0E
22
20
28
5B
27
29
4A
16
FC
F5
F0
05
14
FF
14
05
1E
0D
19
11
02
29
25
12
19
2D
11
16
02
13
13
22
1A
0A
0F
1A
0B
10
F9
14
03
08
F3
EC
F0
0D
05
F8
FC
EF
EF
01
F6
00
F5
0A
0A
FF
FF
06
09
06
F9
04
0F
08
ED
02
EE
0F
07
F8
1E
10
1B
22
19
0A
0F
07
1E
1E
09
14
F8
05
15
14
15
27
2A
17
F7
04
11
FD
05
09
FF
17
25
0B
07
12
24
1C
0C
0E
FE
08
FD
F9
FD
11
0E
25
0C
09
10
08
FE
E2
01
EF
F8
06
01
03
08
03
09
05
FD
08
0D
FB
15
21
F3
13
0C
F9
17
17
25
13
21
12
0D
F9
ED
0A
FF
F5
F0
EB
2C
13
13
25
03
F8
0F
12
E8
F7
E5
FE
F7
FE
00
2E
18
09
0B
E6
EB
F3
F2
09
07
F5
F3
12
0F
06
0C
FB
FC
E8
EF
F3
F3
E2
01
05
FA
14
F5
23
01
0B
EF
E9
FC
F6
F9
FB
0E
08
F0
F1
14
F0
F5
09
FE
F5
F5
0B
0E
FF
FD
18
01
0D
F3
04
0C
ED
FE
F0
FE
F7
FE
E9
F3
02
E7
05
0B
F5
E5
05
FC
FD
05
13
11
09
0F
FF
08
FE
F6
03
F2
E5
F1
EF
EA
C1
F3
F8
18
05
FF
F0
F4
EA
08
06
12
14
0D
1C
0D
F8
FA
FC
09
EF
07
01
EC
F9
01
F5
FC
ED
01
05
08
F3
04
04
0B
EA
07
06
0D
0A
17
F0
06
EA
04
D8
F6
F1
F0
07
F2
05
07
F5
FF
EA
E4
F6
F3
0E
FB
0A
EF
E8
E2
EE
FF
FE
19
02
F8
FF
EE
E9
02
EE
F6
FF
FE
05
06
06
13
EA
E1
E0
FA
ED
EC
FF
D1
0D
F8
27
15
12
02
08
F9
12
15
F3
EC
EF
E8
EB
12
16
0E
23
14
EC
FA
EA
08
E9
FC
F3
E5
13
2A
02
F7
F8
EB
06
08
13
16
F4
0D
06
FF
F3
E3
FE
07
3C
23
08
F1
F6
12
00
E7
EE
07
05
1C
06
F8
09
17
F3
F5
05
13
1A
17
0F
F3
F3
F6
FA
13
0D
13
E3
ED
FD
01
16
02
E7
FB
1B
11
09
F5
03
F6
15
0A
ED
F7
18
1B
09
00
15
0E
04
1F
20
09
E3
E7
EE
FB
18
0E
EA
EB
F8
F0
05
05
F2
02
F0
09
FC
F1
FD
EE
F5
FB
00
F9
FE
02
08
0D
0F
EC
F9
03
1C
09
CB
EF
F8
00
ED
02
0C
FB
FE
F7
02
E7
FF
02
E2
01
FB
06
02
F7
0A
F8
06
D9
F3
0A
13
EB
F9
E8
F4
FE
F4
F2
ED
04
05
0D
FF
E7
FB
FD
F2
01
FF
FF
F7
EC
0F
01
13
03
03
02
10
11
17
EB
EB
E8
F0
0B
12
0C
FD
04
F8
DB
E5
F4
0F
08
F0
0C
05
EB
EB
F8
15
FE
E9
F6
EC
F1
1E
02
0A
EE
ED
FD
0C
21
16
09
F5
04
00
05
0F
1C
20
10
EF
FA
F2
F5
FA
05
F5
ED
FD
01
0C
E5
F1
F6
FF
FD
12
1A
03
F8
F6
11
FE
0D
10
25
02
0E
E5
F9
D6
FF
0E
F3
08
F7
1B
FC
05
E0
E2
0A
08
00
18
0E
17
FF
15
1B
16
09
22
14
08
FC
F3
E3
CC
FC
FF
F3
15
FA
F9
FD
E1
D0
E6
D7
E6
08
0C
00
08
FE
0E
24
1A
11
0D
FA
E6
F1
E8
C9
F3
F7
F7
F7
FD
14
11
1B
1A
E5
F0
E8
EF
EE
EB
EF
F5
EE
FE
1F
F6
F9
F6
E7
D8
EA
EE
C6
F1
E5
EA
F2
04
14
0A
1C
F6
13
F4
E8
E3
08
01
09
F2
1F
00
05
0F
F6
F8
FD
FA
07
02
F2
04
EF
EE
FF
F6
05
0F
14
E8
18
09
0C
13
08
0B
19
04
0E
FB
0D
F8
0D
11
0C
14
0A
06
04
F9
05
F5
E9
0C
FB
05
F4
FF
11
15
14
0A
00
0E
0A
FC
16
25
21
07
12
21
02
11
09
21
03
14
18
03
10
F2
F1
06
F7
0D
FA
F9
FF
FA
EB
EA
F0
07
00
EA
0C
23
EC
FA
0B
0A
EA
F4
F2
F8
08
F9
FB
0C
0F
0C
05
F5
03
F5
00
12
11
12
04
F2
FA
F7
16
01
FD
EE
F4
FB
F0
11
14
FA
0E
F0
09
F8
03
FE
FC
0F
FD
13
0C
07
0F
ED
18
F1
F0
FD
13
04
11
21
F3
0C
20
FF
FC
0A
05
ED
04
14
EE
0F
0C
EB
15
03
09
F9
1B
02
14
1B
28
1B
1C
08
14
02
FB
F8
16
13
0C
25
08
F9
06
03
05
FA
F9
04
14
F8
EB
F1
F9
04
13
FE
14
F7
07
F2
F9
20
1D
06
04
0A
0B
F4
04
F7
05
FD
FA
03
0B
05
14
E7
E6
04
EC
F0
07
04
F0
DF
F1
F6
06
F3
09
F5
0C
13
F1
E8
ED
FF
08
18
13
0B
06
11
03
FA
11
FF
EA
F5
02
07
03
FC
10
FB
1A
0C
09
16
12
15
01
05
05
F6
FF
FA
FE
EF
F1
06
FE
04
02
02
F4
F9
FA
FC
F8
12
0C
26
1F
17
F7
FE
F0
09
F4
FD
11
E6
05
F0
F4
FE
03
0B
10
F0
F7
F9
EC
02
0F
0B
1A
11
08
F9
FF
FE
0B
E4
03
E6
E7
E7
02
FA
0F
06
DC
E9
F9
FF
FC
0A
FE
EA
03
F8
F2
1B
01
02
0D
E4
0C
F3
09
F6
EA
FF
FF
03
08
E5
F0
03
13
F7
F9
EB
FB
FC
F0
F9
0C
EC
16
03
05
ED
F7
E4
E1
E5
EB
FF
0C
F0
E6
FF
F0
D1
F7
F0
F9
00
EF
00
ED
F7
03
F2
FE
03
F6
F9
F8
F9
E3
DE
0B
F4
FC
F0
06
FF
F0
F1
F4
F9
01
F0
F7
FE
02
E4
FB
06
FE
FA
FC
05
15
0B
F5
F3
F9
05
0E
13
0E
0D
F9
E3
F0
EF
0C
23
E2
04
F8
F9
23
EC
E6
EB
FF
FE
03
FA
0F
FE
0D
FA
04
05
F7
1C
F4
0E
F9
E5
09
FF
E4
05
03
F1
EF
12
03
11
FE
F3
01
0A
05
F4
06
15
FE
FA
07
09
1B
0E
FF
06
F9
02
FB
00
08
FD
10
FD
EF
02
04
F8
07
04
F7
0D
00
FC
F6
F7
EE
0B
0B
16
1D
F4
05
E5
F7
0A
09
F5
E6
EF
FF
15
E9
E9
ED
FD
FD
04
00
04
06
F7
F2
08
FB
0E
FA
FE
08
FE
F2
E2
E7
FA
0D
FF
EE
04
08
FB
F1
03
0E
0E
08
F8
0D
FF
EE
FD
FD
F9
FE
0B
19
F7
07
15
FF
FF
FC
FA
F4
EC
01
FD
07
FF
F9
EF
0C
FE
12
F2
03
FE
F2
EC
FE
01
16
0D
05
FF
FE
05
E5
E7
EF
F9
07
E8
F4
F4
17
16
00
EA
E9
F8
FD
0A
04
01
05
03
FC
0A
F0
FA
07
F9
F3
F4
F8
F1
EA
F6
FC
FA
0D
12
01
16
0C
DE
EC
FE
ED
02
07
11
0C
01
F0
03
F7
06
FD
08
11
06
F5
FB
EE
00
14
0E
15
FA
0C
F7
F6
02
09
08
00
F1
F0
F5
07
14
10
FF
EC
ED
F6
EF
ED
00
F8
F0
F7
06
03
04
FE
0B
F8
E8
FE
10
13
FB
FB
FB
07
FA
09
10
0A
FD
EE
FF
FD
FD
13
07
FA
F5
F6
FF
0E
F0
F6
11
05
F2
F3
F9
07
23
F7
F1
F8
F0
EE
04
FD
01
F9
FC
F1
FB
FB
FD
18
F7
F9
F8
F5
00
F1
07
F2
0F
F8
00
F9
EA
06
FC
F0
00
FF
FB
EB
FA
0A
F1
F1
FF
02
F4
05
FA
09
05
FA
14
0C
0D
EF
EE
0A
12
05
ED
FD
08
0F
0A
F7
E6
09
FF
E9
01
11
04
00
05
0E
06
F7
FA
FF
FA
F7
F7
EF
FC
F9
05
FE
F5
0B
FD
15
F7
F5
E2
F8
E6
0C
09
11
F9
1F
F6
00
E9
08
EC
02
ED
ED
FB
F2
0A
FE
08
06
FF
0E
12
11
FA
EF
FC
08
0B
08
DE
10
1B
FB
F5
0D
12
07
F7
F4
FD
FE
02
12
F0
0D
08
0A
EF
E9
FA
EB
F6
14
01
EC
01
FF
09
04
18
F7
07
F9
03
18
F4
FD
ED
F1
05
F0
0B
F4
0E
0F
02
01
06
EE
0B
03
F7
EE
FB
FE
09
12
0F
06
FF
F8
0F
13
EF
F8
14
07
F5
06
FD
10
EC
FD
F3
ED
EF
16
F0
F7
18
FB
13
1D
04
15
1B
F7
FB
19
04
12
05
01
09
FA
14
F4
01
FC
FD
F6
13
FE
FD
F5
11
F1
0B
F7
FC
F2
FD
09
22
22
37
23
1E
1C
0B
FC
F4
10
09
07
08
EE
F8
1A
01
17
F5
F7
0A
F1
FF
FA
F9
0A
10
10
08
0B
09
28
22
07
19
06
F7
F4
06
08
FA
ED
19
16
0A
1F
04
05
FE
0D
FA
04
00
F6
FB
F9
06
0B
0E
04
F4
F3
F6
0C
1A
16
00
11
04
10
F0
1D
13
0A
13
17
F4
F4
F8
02
F4
FD
07
00
0F
0D
FA
06
0C
FF
F4
EF
FE
1F
0A
1A
FE
F0
EC
18
F5
07
0B
F8
F4
07
FD
0C
24
07
0B
24
07
0C
02
FB
F5
FF
0B
EE
0C
F2
06
05
F6
0E
0D
05
F7
EC
F3
FD
EF
E8
01
02
1C
19
0E
29
16
06
F9
F8
05
EC
03
E5
E0
F8
F5
05
0C
21
FC
F5
0F
F6
F5
EB
00
FA
06
F8
10
01
12
18
05
FB
EB
05
EA
F1
FD
E4
DF
DB
09
1A
FA
08
10
FB
F2
E7
EE
03
FE
FC
F6
FE
05
EF
04
05
F3
F0
DE
E9
EA
E3
ED
E5
F5
E8
02
EB
04
F6
00
EC
20
F6
EB
0A
0F
0C
03
FF
FC
F3
F5
08
F5
DA
FF
E6
E5
FE
F5
F7
E3
EE
FC
F7
09
EE
07
E7
21
F4
0E
FB
F5
EE
01
F5
FE
11
03
FC
ED
EF
F1
0B
F5
02
EA
DB
FB
DD
E1
0A
01
03
F5
09
16
07
F6
F8
0B
FB
FB
04
FE
0B
11
1C
FC
0E
17
18
0C
10
F5
ED
F0
EE
DC
03
F0
11
00
F4
02
F4
11
F3
09
F7
06
05
F9
ED
09
19
02
0B
05
09
05
10
FB
06
EC
0B
E5
FF
FC
E4
F8
FE
EA
ED
FC
06
05
FE
06
03
FB
F0
0E
20
FD
06
FE
F0
FA
F3
15
00
EF
E3
FD
00
0C
FA
13
12
FD
DF
D5
F0
E8
FD
0E
F8
FE
09
09
F4
0B
FF
E9
F4
F8
05
19
10
08
08
E9
F5
07
05
05
1D
06
FB
DC
D3
D5
EE
02
FE
F7
04
1B
05
07
F8
EC
0B
0F
00
05
22
FA
06
D7
E9
F3
03
16
0B
16
E9
D8
DC
EF
CE
D3
F6
FC
DE
03
01
09
E8
FB
F2
FC
0F
0F
F1
04
F5
EA
0B
E4
F6
F7
09
21
0D
E8
FA
E4
03
DA
DB
CC
C2
D8
E7
EF
FF
14
09
16
04
1C
F9
F9
F8
ED
0F
FF
09
F7
20
18
F6
EE
EB
F1
06
F7
EB
DD
D5
EF
ED
16
FA
17
1E
21
0C
01
FA
E4
FB
EC
01
0E
EC
11
EA
03
08
F3
03
0B
06
F5
FE
EF
CF
F4
17
08
09
00
21
00
16
0A
10
F2
EF
FC
F6
FE
FB
F9
E4
0F
10
06
16
02
06
0C
F1
03
05
11
09
19
0F
07
F9
FD
0C
09
EC
D9
FA
F5
EA
EC
08
FE
FD
19
FF
07
02
F6
19
0E
0E
04
FF
FD
F5
0D
0F
0E
05
18
10
0C
FF
02
F3
05
EE
E9
10
FC
17
1C
0F
14
EE
F3
0D
F5
01
03
0C
0F
F4
03
F6
F6
08
FE
18
0C
E4
FF
06
F4
1B
F7
F1
06
FB
28
1A
16
02
10
0A
0E
22
0D
02
04
F8
F7
0E
0B
0C
02
0E
07
09
01
F1
F4
FD
F2
0A
F0
08
F3
0B
07
FF
21
22
32
0E
0A
10
1A
FE
0C
FE
00
FA
27
2E
2A
10
0B
09
0D
F7
F7
00
12
F6
FE
F6
01
0A
FA
0C
2F
25
12
28
25
05
07
11
20
F5
07
16
2A
0E
06
12
02
0C
03
12
F5
FA
0E
01
15
FF
FC
06
F4
F8
ED
14
0E
1C
1D
05
F4
F6
00
F9
15
12
F6
F6
F8
04
11
FA
05
FF
0B
08
FD
FA
F1
F7
0F
0A
F1
03
E8
0B
14
0E
10
07
0F
10
F2
0E
09
06
09
0D
00
FA
F7
12
F1
0C
04
F0
DD
DF
E2
FE
0D
FB
09
16
D8
DC
FE
EF
DD
DF
ED
F5
FB
0B
00
EF
F1
FD
0D
F6
F4
FB
EC
E8
D9
D4
E6
F7
F4
E2
F4
F2
EB
0D
F4
DE
F6
DA
F6
F0
01
04
05
11
0E
13
10
F5
EF
E9
F3
EE
E1
F7
D2
ED
E9
EE
F9
F8
F8
E3
ED
D3
D4
FD
02
F5
0E
10
10
EF
F2
12
EA
FD
15
F2
E7
F4
F2
FB
19
FC
0C
F6
07
F3
12
F9
F2
FA
04
02
FA
07
0F
07
FE
E5
F7
12
F6
F0
10
F9
05
11
EE
FB
FB
04
FF
FF
04
F0
FB
F4
0A
FE
0E
F4
E9
05
F9
05
F8
F2
06
04
00
FF
00
04
03
07
FB
FE
06
F4
F9
E7
00
05
E2
EE
20
12
F6
F2
F1
F3
03
E7
E8
05
E7
FA
0C
21
10
29
26
0D
18
09
0C
00
F9
0E
F1
F2
00
FD
F7
10
1D
00
F9
EF
FB
ED
03
FD
EF
04
F6
20
1D
28
0F
1C
0B
F1
FB
0B
0C
02
EB
F5
F4
FC
FB
09
0E
10
F8
F8
0E
EF
E7
07
F5
09
0C
FB
03
0C
1F
FD
05
FE
F2
FD
F6
E7
FA
D7
EF
F3
18
0C
1F
08
12
0A
FD
0D
E5
EB
F1
F2
0E
19
1B
FE
1D
09
F2
F6
11
07
F7
14
FF
D2
DE
FD
01
18
04
00
15
19
1A
F1
D4
E7
09
0E
11
0C
13
0D
10
EF
FB
06
FF
FC
10
05
FB
E1
D6
E0
FD
0B
1A
10
1E
26
1E
FB
D6
DC
FF
F8
F6
0E
08
F3
F3
F8
ED
FA
11
03
11
11
01
CA
BF
E2
10
17
0A
14
FF
1E
01
12
ED
11
03
08
0B
18
11
0F
14
04
ED
F7
04
FB
08
1C
E0
E8
BA
E6
06
26
02
F8
0B
06
04
16
08
01
1E
0C
E5
FE
FD
0E
09
01
00
F2
15
08
FD
13
F7
D1
C1
FD
22
09
02
FF
0D
12
FA
08
F6
1A
FD
1B
FF
02
FE
06
1C
FC
18
14
0B
04
1B
EF
D7
D4
D1
0D
28
32
15
0B
0B
03
FA
07
FC
1C
1A
18
0B
14
06
F5
F9
12
24
0D
0A
06
ED
E5
D8
DB
06
19
12
0B
0E
17
03
09
E7
02
0D
36
0B
EC
F9
FF
F3
FC
09
0D
FF
0E
01
F8
F5
E8
F2
E8
0B
21
22
10
0D
FF
05
05
07
FB
F3
1F
0D
E3
F3
FF
EC
EE
15
07
FE
1B
FB
06
ED
DA
07
F2
17
FC
0E
09
FB
EB
0F
01
E5
F6
00
16
F9
FE
18
EA
EC
03
EE
1A
FC
F7
F8
F6
F1
F7
ED
FF
11
11
0A
FA
FE
0B
FE
13
E9
FA
E4
F8
0D
13
01
0F
05
E1
03
F1
F7
07
06
FF
FC
FA
FA
15
18
09
16
05
06
EE
00
08
DF
04
03
F6
01
06
F5
FA
06
E7
F9
05
EF
E7
F3
F2
0E
F2
06
F5
ED
0D
FD
FF
FB
F6
FF
01
F0
0C
03
10
10
06
EC
FC
F7
0B
0F
09
0F
EB
0D
03
03
06
12
0B
F5
07
FC
11
16
15
F6
FF
01
FD
20
F8
03
FD
00
EF
F7
FB
EE
12
08
F3
FC
06
F6
F9
F3
07
02
00
08
08
0B
07
17
03
03
0B
1E
0B
F9
F9
FB
0A
EF
E7
EC
FB
F8
F8
F1
0B
E7
E7
FA
F9
FC
00
FE
EC
F2
01
F7
EC
FE
E5
12
FE
F2
0D
09
E6
11
0A
ED
E9
F4
EE
F0
08
04
E1
F0
05
09
F4
F9
E2
EB
CF
FD
F4
F9
FB
FC
FC
F8
14
F3
02
EB
ED
E3
F7
EF
05
EE
03
0A
06
F1
FA
E9
10
0E
01
E6
E9
EA
03
02
15
1B
F4
01
FF
ED
FF
01
08
03
E8
E0
04
00
FE
F5
E5
0D
10
F3
17
1D
09
16
12
EA
FC
16
0D
F8
F8
09
F5
12
FF
02
F0
02
13
F8
13
03
00
F4
02
0E
EC
06
12
FB
10
09
06
F1
ED
F1
0E
05
12
F6
F2
EC
0B
07
0E
0A
FF
EF
FD
FA
FF
E4
EE
E6
E4
03
04
FE
F2
FE
E0
D7
D7
FC
F5
F1
F7
08
EF
0E
EA
EB
EE
FC
F4
E6
01
EC
EF
F2
F6
FE
0A
0B
05
0D
05
01
E5
FB
E8
E3
FC
F4
F1
F1
05
F9
F4
08
F3
EF
E4
07
FE
02
EF
00
F0
FF
0E
FE
FC
F2
F0
F7
FD
EA
FA
08
09
F6
02
05
02
FD
09
16
F6
EA
FB
FE
10
15
F6
02
F8
E3
E8
F6
D2
DD
D7
DF
EB
F5
04
E8
DE
ED
F8
1E
05
09
F8
FF
F1
0B
F7
F7
FC
13
FA
F0
F5
0A
FD
01
F6
09
F7
E9
E3
FC
00
EA
F4
0D
0C
01
00
E7
FC
0B
F5
FF
06
0A
05
FB
EC
F5
E8
ED
0E
14
0A
10
06
E9
E2
F4
12
0C
EE
E9
F2
E8
00
F2
19
26
17
E6
0D
03
06
EE
E9
FD
EF
F1
FA
04
0F
FC
12
EB
F6
F1
0F
F9
08
FC
02
F5
FC
01
0F
08
12
19
03
F8
01
01
F7
F9
EF
E4
EF
F4
0D
08
F5
E5
04
EE
E8
01
DD
D1
FC
09
E7
11
FA
10
03
0C
19
0C
0B
FC
01
04
08
F6
06
1B
F8
0A
F3
E7
F3
03
F3
E3
D4
D9
DD
10
FF
16
EC
02
F1
FD
19
FE
0B
FF
0C
FA
F3
0E
15
0A
0F
07
0F
F4
F7
EF
EF
02
E0
E4
EF
FC
10
FA
0E
DD
09
12
FC
0E
08
05
17
12
12
E7
F1
2A
25
1F
0A
FE
06
F9
F8
F0
D9
EB
E1
0E
F0
F3
01
F7
0E
F2
01
11
11
19
0F
03
F4
F1
0C
18
1F
22
0C
0B
0D
0F
FC
00
CE
FD
EB
02
13
F7
FD
FA
1B
05
25
15
17
16
F9
0B
FE
F3
13
15
34
09
0F
10
14
1B
F7
01
01
1A
10
01
F6
F7
E8
0E
22
0E
09
0D
FA
11
F3
12
0B
F3
1C
1F
15
29
0F
0D
0F
FB
FC
0E
F8
10
08
0E
10
EF
10
19
35
11
06
F4
F4
F1
02
0F
F6
EC
04
08
2F
1F
18
18
FC
FE
05
12
EF
F8
1C
F8
16
09
19
FF
24
EC
F6
06
FD
11
0B
FB
E2
09
1A
14
1D
0C
1F
07
11
F8
15
04
0E
06
19
15
F5
0C
23
00
05
03
EA
06
FD
EA
EE
FB
F3
EB
FE
15
13
FD
00
F0
FB
FB
12
FC
F9
FD
12
10
08
F6
00
F0
F3
E5
EF
E0
FD
EF
F2
E4
F3
E1
06
12
FF
F1
EC
FE
EC
EC
E6
0A
06
14
0D
12
0E
EA
04
EB
00
F7
EE
01
06
EB
EC
DD
DE
FB
E7
F4
EE
D7
F2
E8
E0
F6
EC
FA
12
13
09
F7
13
FF
F0
DC
DD
E4
E4
FC
F4
F2
E5
E8
E7
F9
00
E8
F3
F4
D9
CE
C1
E2
E9
DC
04
18
08
06
10
0A
EE
EF
D3
E4
DE
DD
F3
F4
EF
FE
F9
FB
E6
F0
FE
E9
D6
CE
D5
E9
E0
E3
1B
12
F4
FB
02
F8
F7
07
0B
E0
D3
DC
F0
F7
F1
04
0C
FC
00
F2
00
FD
06
0B
E3
E6
00
F8
15
26
FF
0B
F3
F9
F4
03
E2
C6
D4
D9
D4
EB
03
EA
07
F4
01
00
F9
FF
12
F8
04
16
FE
11
05
17
F4
07
EE
F1
FC
08
EB
DB
CB
F9
E7
ED
FF
09
00
F7
F3
F9
18
03
14
13
0B
03
0C
06
13
0E
13
14
FE
12
0E
00
0D
F6
E9
E3
0C
FD
00
10
05
F6
E7
FD
04
EA
FF
04
15
F0
04
FE
EC
FD
08
13
08
EF
F2
FD
F7
01
0B
F1
FF
0E
F6
01
15
F5
04
0E
F2
0D
16
FA
EC
0D
FC
F7
1F
05
F1
FE
07
F4
F3
F6
04
FE
10
11
F2
F0
FA
EA
09
F7
FF
F3
08
0D
19
12
08
1D
05
FF
0D
F7
F5
FE
13
FD
FD
07
0B
0D
FF
F4
05
0A
F2
0D
EB
0D
F5
03
F3
0E
0E
F4
0E
F9
02
08
0B
EE
ED
F1
F9
0E
ED
00
08
F9
FF
F4
E4
DF
EA
03
F9
DD
FF
FA
08
F5
CB
EA
FE
EA
E5
F9
07
08
06
13
11
FB
F6
0C
E9
FA
EB
EB
F4
0F
FB
FF
F4
E3
F7
10
05
F6
EC
F9
EF
03
EC
0C
10
0F
12
F6
00
F4
FF
ED
F5
08
1A
07
F9
03
F5
01
2C
17
0F
1C
F5
E6
CF
E2
16
28
1F
F9
2B
07
E2
F3
10
00
08
F6
04
F4
F1
03
08
13
22
0D
2A
2F
0E
12
E9
ED
CC
E7
ED
04
0F
11
2A
32
39
05
10
12
F1
04
FF
21
1A
0E
FD
0A
0B
0C
06
FB
EE
FA
0E
DA
C6
C6
CC
FB
07
04
0B
30
1A
01
05
00
FE
0E
05
07
F8
07
06
11
06
FB
E6
D8
E8
E9
F0
0A
FC
EB
02
D4
FE
F2
23
0E
10
EF
17
1F
FB
06
FA
F3
10
FF
F3
FC
EB
EB
D3
EB
F8
04
EC
E8
F4
EB
ED
F6
09
F0
0F
E0
E9
E7
F7
13
DC
0D
0F
F0
F2
E6
F4
E4
E2
F0
FA
E0
F2
0B
F8
0C
E8
E0
EC
DC
FD
E9
05
DE
FB
F5
03
F5
E3
EC
13
1D
1D
F1
E2
E2
DC
F6
0D
10
1D
1D
F7
04
E0
E0
0D
0B
FD
11
02
F9
FC
E2
FA
05
FC
00
11
2A
08
06
ED
11
12
15
3F
32
26
19
05
E5
01
0A
F6
F9
0B
0A
00
24
FB
FC
FD
0B
25
F8
06
17
F7
11
19
21
2F
3E
4A
21
0D
F3
ED
F9
F5
E8
F2
FC
0E
FB
F9
F0
F4
24
0A
1A
11
1C
04
F7
0B
20
05
27
26
22
1C
0F
07
F0
EA
02
0F
0A
EC
12
F2
F0
DF
FC
F6
0E
EE
06
F6
1C
FA
0F
F7
1A
03
22
09
06
13
FB
EE
01
06
05
F8
0C
01
EF
F1
F4
0D
F3
01
02
FA
F5
09
17
EC
0A
02
DE
11
00
F7
E9
FB
D4
EE
01
0D
06
F9
07
0B
ED
F1
FB
01
02
0E
ED
FA
07
17
FE
06
09
FB
F1
0C
FF
F0
E8
C1
EB
FB
17
1A
1E
14
10
11
EA
0A
19
FA
F5
FC
F5
0F
0E
FD
FA
FE
F4
F4
F4
FD
F3
F4
BB
D2
07
00
FB
10
05
12
F9
F6
F4
FA
21
17
F0
02
F5
0D
1C
01
0A
08
01
EB
EF
11
FB
CA
E3
DC
F0
E9
0D
FE
20
0D
06
E7
07
10
05
10
F3
ED
14
13
18
0C
ED
F5
E6
EE
02
04
D9
E5
F9
F9
DD
06
DE
04
EA
0D
FB
10
FD
07
FD
05
F7
0C
19
0F
1D
0F
F5
F2
E8
EC
F2
0A
F7
01
02
05
EC
EF
ED
11
0D
12
15
ED
1B
FD
06
08
F9
08
F1
01
07
0E
DA
F6
E4
C9
D1
0E
ED
0B
EA
07
01
0E
08
F0
07
F6
12
05
F7
EC
0A
E7
C9
E0
0F
EF
0C
D7
E6
EB
DB
D3
F4
EF
F4
F3
FE
EF
F4
03
F8
FB
0D
F6
0E
0E
07
FC
F4
E5
EA
EE
F2
FE
0B
F2
EF
C7
D5
CB
E7
E3
00
EF
05
06
14
E5
FC
E6
07
1B
06
12
FE
00
E3
EF
E7
0B
EE
13
05
06
FC
E9
F2
FF
E5
EA
0D
EB
11
F3
F4
F6
FF
F3
01
00
25
15
F8
DF
DC
E0
E9
02
F4
FB
0B
EB
F3
03
02
FE
11
14
12
FB
19
00
F4
F4
F2
EA
F4
1B
14
F8
F1
F2
F0
DC
E8
F7
FE
05
F9
01
11
16
EB
11
07
FD
E2
F3
FE
06
FB
17
F9
0E
F7
1D
29
F5
0A
E9
13
F4
E9
F3
F1
13
FE
ED
E5
DC
0A
F1
EF
EE
FC
0B
F0
01
0B
D0
E0
FD
0D
22
16
1C
07
F4
01
EF
FC
01
05
EF
F6
F0
0E
20
06
DD
EC
EC
EB
08
E4
E7
FC
DB
1E
1E
0C
FD
E7
DE
0B
0C
1C
0E
F5
0B
F3
