0D
00
07
14
F9
F8
0F
08
ED
07
EC
F5
06
0C
00
11
14
10
ED
F9
01
10
FD
04
0B
F5
F4
14
00
0E
EC
F8
11
01
17
FC
1D
FF
00
F4
01
FC
EE
FF
0B
1C
04
11
07
09
1E
FD
F7
11
FB
FB
02
F5
03
FD
06
FF
03
03
F9
F8
EF
F3
FC
1D
25
EE
06
10
F3
00
0E
1D
0D
13
05
01
00
FF
0F
EE
06
02
F5
1F
12
0A
F5
EC
00
17
F7
16
05
0D
1A
08
F4
02
F4
05
DE
09
F3
FB
0A
01
12
F6
F7
16
F4
15
14
04
EF
05
F0
F2
FB
F0
06
08
F7
FE
0A
E8
FC
02
F3
F5
FE
D4
07
0C
04
06
11
16
EC
F9
FD
FF
FB
05
0B
0B
F8
FD
05
02
EF
04
04
05
06
F7
08
F3
EE
07
0B
10
08
FF
F1
F8
0B
20
FB
EC
F2
DB
FC
E6
DF
F2
EF
FC
08
F6
F6
FF
F6
08
12
F3
07
1D
0E
FD
F4
F3
02
09
20
09
04
DD
E2
E0
F8
08
FE
F8
F4
ED
F4
F7
0C
F6
FE
EF
05
10
0B
10
13
14
24
F1
09
FD
FF
FA
D5
D1
E5
FF
E8
EB
F7
08
06
0F
17
08
11
FA
03
FE
16
0F
FC
0F
14
02
1C
0A
FB
07
00
E9
E5
E9
ED
EC
F6
0E
04
01
F1
10
13
02
F5
0E
03
F0
EC
11
F5
0D
E9
0C
F6
13
1A
04
08
E8
DC
E5
00
0F
05
1B
FB
06
F6
EB
0C
05
15
FD
02
ED
F4
07
E8
E4
03
11
0C
11
F7
19
03
E9
E9
DF
0E
0A
FA
0A
07
04
EA
E4
E8
FA
F0
0F
04
EF
DB
08
D4
F0
D8
FB
FF
12
FA
14
F7
FB
F6
FD
07
F6
01
09
0A
EF
D1
CA
D9
F1
FD
F9
F9
03
EC
0B
F1
F6
FD
FB
0F
02
02
ED
FC
F7
02
03
14
15
13
FF
06
EF
DD
E0
E6
EA
EF
00
01
EC
0D
FF
22
0E
0A
1E
01
F2
16
F5
F5
FA
03
1D
1F
19
0A
0B
09
02
F1
F3
EF
F7
04
03
06
09
F6
12
1E
03
03
0D
1E
EE
0C
00
E8
03
0E
06
13
07
22
11
0C
04
F8
FF
F6
F8
1D
05
FB
F4
0E
1A
32
27
2C
FC
0B
00
07
FC
F4
FE
09
0D
0F
0F
24
15
18
0B
DF
E9
14
0A
1E
16
FB
ED
0F
19
25
31
25
FA
03
FE
15
E3
F8
F5
F4
02
0E
21
25
20
0C
00
EB
08
1B
1E
FF
08
F1
11
23
0A
13
20
16
0D
00
FC
08
F4
1D
E8
00
0B
20
0D
0F
06
05
F8
0E
FF
0A
18
10
F0
10
00
01
11
04
25
FD
0A
09
11
F9
01
20
F1
F7
FF
F6
F8
26
15
01
FE
15
1E
1A
0D
0E
10
FF
0E
02
FD
22
13
02
EF
F0
0B
19
08
10
FC
07
0F
FB
FA
1D
FF
FA
EA
05
04
FF
16
18
0F
F1
0B
18
0F
0A
26
02
07
12
06
04
22
16
16
F7
FE
F8
FC
03
FD
04
05
F6
0B
05
09
08
F2
FF
00
00
E7
F1
02
FF
10
10
EC
0F
1E
06
16
04
E6
FF
F4
FF
F3
16
FC
FE
E9
ED
03
08
F7
E9
F0
F0
FA
00
1B
1A
05
10
0E
13
E6
F1
19
0E
07
FD
F4
F4
FB
01
FA
FF
E4
FE
04
E9
E2
EC
FF
20
F7
08
21
29
EE
F3
FF
F9
E9
00
FE
E9
E6
FA
F8
00
FF
FE
FD
FC
FA
F3
01
1A
FA
E9
F7
08
E8
EE
1B
19
FD
F1
F8
07
FE
E8
FC
EA
D6
F0
E1
F3
EC
E5
E2
DC
E8
0A
F5
16
FE
F7
FD
E9
D2
DC
0A
15
09
00
FB
FC
F5
1D
00
DB
E2
E4
F6
FF
F8
0D
05
F8
E9
15
2F
13
FE
1F
16
FA
22
FC
FE
11
F3
FA
F7
F8
12
0B
EE
F1
00
FC
01
F8
12
0E
0C
03
E2
F3
0C
00
0C
05
FB
05
08
F1
06
EE
FC
EF
EE
F6
F5
ED
03
FE
FC
FF
0A
F8
01
01
09
FA
07
F8
10
03
03
0A
EC
09
10
0C
0D
F0
12
05
EC
12
10
FF
12
FD
0B
E5
E6
02
FD
E1
E2
F0
F0
DD
E1
F7
F4
E0
06
E7
03
F3
EC
05
F6
0E
F9
02
01
E9
F4
0E
14
10
16
12
13
0F
22
06
13
FD
00
FC
FB
F4
14
1A
07
F7
09
11
11
05
0F
E4
F5
ED
0F
01
04
0B
00
0B
09
F2
F5
07
F4
F6
05
F6
EE
F0
F5
06
21
01
F8
ED
ED
F7
02
E3
04
1A
FD
13
F9
19
13
11
F6
0F
07
0C
15
00
EE
E4
F6
1F
0A
20
1B
10
05
FA
0E
FD
08
FD
0D
06
01
F8
0C
FA
FA
03
13
0F
0F
00
07
FC
F8
0A
F5
00
14
10
F2
07
FA
01
01
FC
EF
EE
D6
0A
FA
07
F2
FD
EF
FB
FD
FD
FE
01
09
FB
FA
0F
0C
0A
FF
FF
01
F8
F1
EE
0E
F4
F2
E6
F1
14
F5
F0
FF
07
0C
F6
FC
07
03
15
16
F4
F2
FE
02
13
F5
06
01
EF
EC
F4
FC
FE
FC
0F
FB
F4
F9
02
F2
EC
EA
E1
FD
F8
EC
E4
E3
00
FD
00
03
FD
FA
FE
F3
DD
E9
05
05
05
E9
01
E4
FA
DF
F3
E8
00
04
EA
F3
E0
E6
DF
EB
DD
F2
07
02
F5
F9
0A
EB
D9
F2
01
0D
07
EB
EF
DB
FB
01
F3
E9
F7
FF
EF
FC
EE
EF
DC
E8
EB
F5
F7
0E
FE
FF
09
F5
F0
F1
F7
FE
FF
F6
E5
F4
FD
07
FA
F7
06
0C
F4
07
EC
E1
E6
DE
05
0C
10
04
13
0F
0D
07
F7
EC
E4
E7
E8
EF
F5
EC
F9
0A
15
F0
F0
0C
F0
F0
E6
DF
E8
FB
FA
16
F8
01
14
0E
23
09
1B
05
E8
EC
07
EF
DF
F9
0E
09
05
03
F8
F8
07
FA
07
15
0C
1E
FF
06
FA
1B
15
09
0B
09
01
22
F5
0C
04
FF
D7
03
E6
07
0A
FD
01
0A
FF
21
21
1C
12
1F
22
19
17
F3
FD
FC
EC
F6
F7
18
0E
FB
02
FE
05
13
F7
15
1C
03
0B
01
14
0F
14
1E
10
27
11
FF
F7
FD
E8
01
E9
DF
E7
FA
0C
0C
13
E9
ED
09
ED
01
0A
FB
01
FF
1A
1C
2E
35
27
08
1C
09
F2
F5
FA
F7
F5
F0
EB
1E
1A
11
FF
E0
14
EB
01
F3
11
18
04
06
25
2B
2B
27
16
1E
07
15
06
E2
0D
04
F4
F2
06
FA
0B
FB
EC
FC
01
02
EA
04
11
05
16
22
FC
1A
17
18
16
0B
02
0A
08
FC
F0
E6
F4
05
07
00
13
01
E7
E1
E4
01
EE
F0
E8
0C
E5
F0
00
09
F0
FB
07
F7
16
09
0D
07
0B
F1
06
17
0D
05
FA
F7
04
F2
05
15
E6
F5
03
FE
09
07
EB
FA
EF
F4
F4
13
06
02
02
FD
08
10
F6
0A
16
20
0E
F2
09
05
05
0C
F4
F7
FB
01
F4
FC
0A
06
0C
FD
F8
0C
0D
17
0D
1B
F0
FE
F7
11
0A
FA
06
F1
0F
F1
00
F0
15
0E
13
10
0E
00
06
FE
02
FC
0F
ED
03
07
0D
13
08
04
0D
02
F8
16
02
F5
05
13
00
EA
DB
01
F0
0B
17
0D
FB
F8
11
F5
FD
EB
FA
F9
00
0F
21
28
0A
06
F9
09
F3
0E
01
FB
07
F8
D6
D3
E1
FE
01
ED
0A
0A
EE
03
ED
F4
09
0C
0B
09
2D
2C
1B
04
12
07
FC
ED
08
08
01
E6
FB
EE
06
E7
FF
F0
F1
09
FC
14
FE
EB
F2
F4
F8
F7
21
06
00
02
E5
01
08
F5
EC
06
F1
FC
FE
FF
F0
11
0C
0C
F5
F9
00
11
00
FF
F3
F6
02
EE
14
FB
E9
E5
11
E5
F9
0B
FE
11
06
FE
E6
DE
09
05
0E
E9
F4
02
12
02
09
F5
F0
05
E8
EE
1E
01
F5
FA
09
02
10
00
F5
01
0A
0A
11
FD
0A
FE
03
F4
0D
05
02
FB
07
EC
11
10
0B
FF
ED
FB
F0
F6
10
FE
14
F6
F7
F0
08
08
0A
12
11
F1
0B
1D
1B
0D
00
FA
26
08
01
F0
FB
08
19
07
15
0F
FD
04
07
12
F8
10
FF
0D
F8
10
11
05
02
06
E5
E2
01
D9
09
FC
E7
D3
EC
E4
DD
DD
F9
F8
0F
E7
EE
FA
14
12
0B
04
04
EA
FD
F6
FD
00
FA
D2
D6
00
FF
01
F8
F4
F1
FC
F3
E1
FB
FD
EF
D7
FA
01
FB
02
23
1D
FA
00
DF
E0
E2
EA
E1
D8
E3
E0
06
0B
00
FD
F6
F5
0C
FF
04
EC
F1
CE
D8
E4
0E
01
00
07
15
08
25
10
08
EA
E2
E2
EE
FE
F8
07
06
04
00
13
01
0C
F7
0B
00
C3
F0
EF
FA
17
E9
0A
FD
02
FA
0F
FD
00
00
F7
0A
03
01
FD
FF
F4
EE
03
FD
09
16
1A
F0
E6
FF
EC
FA
F7
FD
FF
03
E8
0B
10
05
0D
29
0E
FB
F5
08
08
F7
02
02
0F
0E
0A
F4
FD
06
CB
E8
E0
02
1F
05
23
19
E6
ED
00
FC
FA
FA
F6
01
0F
18
24
06
1F
FB
FD
0B
0F
07
E8
FB
EC
05
F6
F7
04
F2
01
F0
08
E1
E7
04
0F
00
E9
CA
FA
22
17
14
14
1B
0B
F9
FD
1A
F0
00
F6
E7
09
F7
F8
0C
FE
FC
F5
E8
03
FC
10
ED
C5
AF
F1
02
1D
0F
07
FF
F6
0D
FE
02
02
E5
01
05
FD
14
0D
1A
0B
F8
F4
EE
0B
EE
00
E3
CA
B2
F3
19
0B
21
12
03
F6
FC
F9
F5
06
E6
0D
20
09
F0
0F
FE
ED
16
02
E7
12
E6
DF
DC
E3
D6
E7
F9
21
03
F3
F0
05
F7
0D
09
ED
E8
F6
FB
00
F5
FA
14
0B
F8
FF
EC
00
FB
F8
E9
E2
E0
EF
1D
1A
08
00
03
EE
F5
FF
E5
D3
E7
F5
F9
03
0F
1B
1D
FC
FA
FF
F8
00
F4
DE
EB
FE
E9
06
0B
17
FF
04
FF
0E
19
1D
E4
EC
DF
E0
10
04
0C
15
0B
E1
FC
F4
F3
FB
10
01
03
F0
07
0C
11
01
0F
F9
06
FA
06
EF
F0
E8
03
E5
EB
E6
FC
0A
FF
F8
07
F8
FB
F4
00
10
FC
F9
F7
1F
1A
07
16
00
02
FD
DA
08
EC
D9
E6
DC
FA
0A
FD
22
FE
14
FC
F3
0B
F0
F4
FE
FF
F6
F3
00
15
F6
11
F5
FF
F3
F4
D5
E4
F5
F8
FF
17
F1
05
F5
F4
EA
FD
FC
00
E2
F8
01
E0
E3
0E
F6
1E
16
FC
F0
E9
F6
D8
EE
F9
FB
F2
F8
0B
06
12
0D
1E
FB
F1
FD
F0
E6
F9
E9
F7
F9
00
08
FD
F2
FD
FD
DF
E1
E5
EB
FC
FD
0F
02
09
FC
F9
FA
06
E8
F3
1B
12
F8
03
04
F3
F9
04
F6
10
F0
06
DA
DC
08
F8
01
04
0A
08
FB
0A
05
09
E1
FD
F1
0D
1E
1D
19
04
F7
0C
F9
F8
00
F1
0E
1B
F9
D1
FE
02
01
0D
0A
16
01
F9
F1
12
EE
1F
0B
FD
3C
2F
09
0A
FE
09
06
FD
08
00
10
EF
EF
DC
DC
D8
F5
05
F6
02
ED
FA
EF
EF
F8
F3
00
18
22
2C
10
F6
FD
19
0F
05
FB
12
ED
F7
B3
C3
D4
C6
06
14
0B
0B
F7
04
12
0A
F2
20
F8
F2
10
2A
0A
FA
08
FB
0C
07
F5
06
0B
D2
D7
BF
E1
F7
06
09
04
F0
07
FE
11
13
EE
0D
16
F6
E9
F8
0D
0C
07
FC
0C
06
06
FC
F2
E5
ED
F3
F8
06
FD
EB
00
FE
11
F9
F3
FC
F5
FE
F3
07
F9
F2
09
FB
D3
E3
06
EC
EC
00
04
F6
FC
EE
02
02
EC
02
FC
0D
14
00
F4
03
03
05
F2
00
FA
FF
0B
12
49
00
12
32
0E
FB
04
FC
F9
0D
F8
F4
08
FE
FC
10
EF
EC
F6
0A
EE
05
ED
09
F9
07
08
01
03
F9
01
0E
13
FE
05
05
08
07
07
F1
FD
F6
11
F8
09
05
07
05
FE
F9
14
05
10
0B
1D
0C
02
08
F6
10
F8
FF
FD
E9
FC
FF
FD
0D
FC
17
07
0A
F7
F4
10
ED
FF
FC
FC
0B
14
06
0D
1F
24
28
17
1A
07
FF
01
10
10
F5
04
1F
0D
FC
13
08
03
EF
F1
04
0C
F8
FA
18
10
FC
F4
1F
0E
16
08
19
25
22
0E
08
26
14
06
0C
F8
FD
22
09
FB
21
0D
0E
0B
0C
21
0F
F6
FC
00
F2
FB
F4
EE
01
0D
F0
F2
F7
F8
FE
F8
0B
E3
F9
FF
EE
01
FE
20
F5
FE
FC
F9
0D
14
01
10
13
06
09
03
01
F4
EF
08
04
01
E9
E2
E2
EE
01
EF
E4
EE
0C
15
FC
03
0E
0A
FA
1C
06
17
0F
09
ED
F4
F7
F5
04
F9
0D
FC
11
D9
DF
F1
F8
DE
D1
F3
E8
07
10
18
07
02
FA
1B
1A
01
F7
0B
F6
02
E9
F1
FB
FA
1D
FC
FB
E7
08
F6
EB
E8
F2
E7
F6
E7
13
14
16
05
02
03
10
00
FF
0D
F9
FA
03
FA
F7
09
0F
FD
01
F8
02
01
E8
EE
E9
E3
DD
F1
07
0A
F6
FF
05
18
08
F9
09
05
F8
08
06
FE
03
07
FC
13
18
18
01
ED
FA
F0
CE
D8
C6
E8
11
12
0A
20
FC
00
09
08
03
EC
05
0F
05
F2
F9
EC
07
0E
2F
12
0D
09
FA
F2
C2
D1
DE
03
09
0A
12
0A
08
ED
F4
EB
FB
ED
07
F0
04
02
DF
F2
FE
0B
1A
04
21
19
10
EC
C6
DE
D8
FA
01
21
0F
0E
05
EE
FF
03
05
FE
05
03
E7
D8
E4
ED
0E
12
13
05
19
13
11
F8
EF
E5
DE
F1
F8
1B
07
FF
07
04
07
FC
03
E9
FD
FA
EA
EF
F0
E2
FE
FF
14
F5
03
E9
0B
F7
06
05
06
00
11
03
0E
02
22
FC
20
19
13
FB
08
E7
DD
EF
DD
0A
FC
FA
21
19
0F
F1
0E
05
23
0D
18
F0
04
0C
DD
0B
0F
19
18
1A
1D
09
FC
FE
EB
E3
FF
11
0B
1C
12
1B
05
21
24
09
05
0F
15
11
06
0A
05
06
0B
0D
29
24
1C
2C
0F
07
FA
EF
0D
03
0F
00
11
1F
0F
26
07
08
04
14
29
0B
F7
EC
01
FD
FA
0B
0D
FD
07
13
04
12
F6
FA
0D
14
1D
0F
1A
15
1A
12
0F
F4
FA
31
10
0B
22
06
27
0B
10
05
0A
09
0D
0F
01
18
09
0A
05
0C
16
18
1C
20
0D
00
FD
08
FD
27
0C
1A
09
19
05
F8
0C
F0
F3
06
06
EE
0A
12
0C
06
0A
06
FE
04
F3
11
0E
F3
10
FE
FF
26
25
FD
05
00
F8
ED
EA
03
E4
E9
0B
EE
04
F6
FE
FD
11
06
0B
F3
05
02
E8
EA
F4
01
12
1B
19
EE
0E
04
F4
F8
01
F8
FB
01
FA
F7
FB
F1
03
F9
F1
F9
F2
E2
F0
ED
E8
E7
FC
FC
32
22
FC
15
ED
EC
01
1A
1A
F9
EE
0B
E9
0D
ED
E2
F4
FB
ED
F6
FE
E7
D6
F3
DD
FE
FA
F1
16
08
FE
1A
F5
0A
DC
09
EC
0E
15
1E
07
0B
0E
FC
F4
EE
F9
04
FB
D6
DD
E5
D7
E7
03
FD
1B
17
06
FC
FB
EC
FF
FE
F6
24
1F
14
FE
FC
E9
F7
03
04
E4
F4
E9
08
FC
E7
FD
1A
FF
F2
01
0C
0F
F6
FD
13
E0
0E
0F
FF
1D
FB
16
0B
0A
FF
F0
12
06
14
1B
F2
04
1C
1C
35
0A
0C
F8
13
03
02
0E
04
F9
06
0C
0C
0E
0D
1A
28
18
1B
01
1A
1E
0F
0E
0F
0B
33
0F
33
09
24
06
F3
06
13
F6
03
F3
0D
1C
0B
1D
1C
23
0F
2A
0A
FB
F5
F9
1D
15
02
19
11
04
1A
0E
0B
13
FB
0C
FA
03
FC
14
EF
13
F9
F9
EC
F1
08
EF
EF
05
03
FD
0E
F2
00
EF
09
0E
03
07
14
FA
EE
0A
FB
12
FA
F5
FF
F9
F7
06
F0
EC
E2
F6
EC
0E
FC
F7
FF
D9
E1
F1
F7
DC
00
E7
F6
0C
0D
14
0B
12
FC
EC
06
FC
F0
EA
F6
ED
F5
08
EE
FD
10
03
05
05
0A
F9
EE
EF
07
F3
F7
0E
FA
0A
ED
11
F2
0A
07
F2
05
EF
01
0B
F8
F6
FF
F1
F2
FE
F2
00
0F
0D
E8
F3
E3
09
03
FE
13
FA
EE
07
FD
F0
EB
FC
F8
F2
EE
01
0E
0D
06
06
FE
F9
0D
09
F5
08
0B
02
E5
F0
F2
F4
F6
0D
0A
00
0D
EC
11
04
05
F6
ED
0E
F8
EF
FA
F8
01
04
05
0A
F2
EB
F5
F9
EA
ED
DB
D4
EF
05
ED
F9
02
E9
04
02
08
0A
0A
07
FB
0D
FF
EC
0D
0B
FC
0F
FC
0A
F7
FB
F8
F5
EC
EF
F2
DF
14
F1
EE
04
0E
00
FA
EE
0D
0A
FC
F3
F6
0D
09
EE
04
EA
06
F7
EE
FE
EF
EA
E3
DF
00
F9
04
ED
F2
EE
EB
F7
09
10
02
E7
0D
0E
0E
EA
F2
F3
0F
10
FF
0E
01
F7
04
ED
FA
F1
FA
DF
F9
F7
07
0E
FF
03
EE
08
F8
09
FA
FC
F4
08
EF
07
01
F4
11
01
FB
00
F5
F1
02
FA
DA
EC
ED
F1
EA
0B
F2
FE
0C
F5
F4
0A
F8
EE
FE
00
F3
F3
F4
FF
FC
F1
0D
05
0E
E9
00
FA
C9
EE
F6
0B
E0
FC
F3
02
FE
11
F2
07
EE
FA
EE
0A
FC
04
00
FD
02
F3
F5
F6
EF
0A
EA
EF
CB
E5
FA
02
E1
D3
0F
FF
F3
F1
0A
E9
FD
0F
EE
0A
07
05
08
F5
05
F1
12
FF
FF
0D
F3
EE
DE
F7
0B
06
E4
E6
F0
02
01
F9
EC
F2
F6
FC
FB
04
ED
02
E8
07
F3
02
FD
FA
0E
07
EB
0A
FB
00
02
0A
04
E0
EF
0C
EE
0B
03
05
02
EB
F2
F8
EA
08
F2
F4
F6
07
FD
06
08
FD
0C
03
0B
FF
07
0A
08
F4
01
F4
0E
06
F0
11
0A
FD
EC
EF
E6
EE
11
FE
11
07
0F
04
F1
0F
EA
FB
F9
F0
F0
08
FF
F0
01
FF
0E
EB
01
10
EF
12
FD
10
FA
0C
ED
08
F6
03
EA
F3
FD
ED
07
EF
E1
F6
0D
F8
04
F4
FE
EB
F6
EC
ED
0F
EA
07
F4
10
F7
F7
0F
FA
F4
EB
0A
0E
F2
0B
E9
06
DD
10
F5
EC
06
ED
0C
FA
07
0A
05
F5
02
E9
F0
E8
FB
F6
F8
FE
F2
05
F6
0E
07
F6
F9
E9
04
FE
0E
ED
02
EF
F0
FB
05
05
F3
ED
04
F0
FD
0F
EB
F3
02
F9
FF
08
FC
09
ED
EC
EB
00
EF
0E
08
06
05
EE
FF
EC
EA
F4
F3
ED
FF
E9
10
F6
FC
00
10
06
0A
F9
FA
FA
0A
06
0A
0A
EB
FA
08
07
F0
0A
FD
05
01
F0
06
02
0F
0F
F2
FA
ED
04
EE
08
EE
10
09
E9
FA
00
FA
FB
04
F5
FC
14
F7
07
FF
04
07
FC
FD
F4
0C
02
02
FB
EE
EC
04
00
0A
0B
F9
08
F9
F3
06
FF
19
0F
F7
02
06
EC
07
04
01
F7
0E
EE
05
FE
E7
FD
F2
F0
F5
07
FF
F6
03
01
07
06
F7
0A
00
F9
07
0E
04
11
FF
FE
12
F1
F0
EF
02
0C
E8
F3
EA
F8
FA
FB
FF
F3
13
FA
0B
FB
F9
04
F2
F7
0E
0E
F7
0B
07
FE
12
FB
0D
FA
FD
F2
DB
CD
E8
E4
F5
F0
01
FE
0B
01
15
F1
F5
F9
06
F0
0F
F6
0A
EE
F9
0E
0A
F9
05
10
F3
EB
02
FF
F0
02
E3
09
03
FD
0C
F1
F6
00
E4
0A
07
04
09
EE
10
FD
FC
F0
F5
F8
F4
EB
EE
02
FF
F9
E9
DA
E7
01
0D
12
F2
F8
ED
0A
DF
F4
0E
EC
14
F9
FF
0C
09
F6
F4
F7
04
F0
EF
FF
EE
05
FC
13
0D
EE
FA
08
0F
11
10
06
FC
F4
00
02
09
FC
F8
FF
12
0F
10
EF
ED
FD
FA
E8
0B
FC
E1
EC
04
08
01
F8
D5
F9
02
0C
0B
0F
F4
FB
F6
EE
07
EF
01
FB
EB
FF
04
FE
DF
D7
F0
FD
E5
00
E8
E5
E3
05
EC
F6
F0
E1
F7
F6
FF
FB
04
F8
13
00
13
F4
FB
EF
F3
03
08
FB
15
F2
00
11
14
04
EF
FE
F2
E3
F1
F2
F3
F4
00
FA
05
FA
06
F8
F0
05
0C
25
FE
1A
04
08
01
07
27
1B
10
09
10
0F
0D
FD
F7
EF
EB
0A
10
14
EC
F7
F8
02
1B
F3
FA
F9
FA
00
02
03
FC
17
07
14
F6
0F
07
28
08
1E
16
00
10
FA
17
03
FD
01
16
F4
03
FF
E8
01
F0
F5
F0
0E
04
FD
FD
14
0F
06
F0
0D
0A
15
12
19
13
1B
08
F7
23
FE
04
FE
EA
F2
09
EB
06
18
F6
06
06
0C
FB
FA
04
F9
EF
00
02
FC
0A
FE
0C
06
15
F1
04
02
E3
06
F4
06
08
0E
10
FF
FA
18
02
0E
F4
07
FD
06
F6
0C
00
00
F1
14
2E
27
0B
F3
03
0E
F7
0E
F1
0E
00
06
0C
0F
FD
06
EE
06
F0
FE
03
0B
FE
07
0B
0A
14
13
1B
26
01
1E
11
0B
FA
F3
FC
09
17
FE
F1
03
FB
FE
F7
F1
04
FE
0C
F6
F4
FE
EB
FC
07
05
0E
24
11
38
03
FF
F5
EA
09
EA
FA
0D
ED
EA
04
FB
E9
0B
F6
FF
F0
DF
DD
F4
00
FF
F0
F8
12
40
2D
36
F6
E2
FA
EB
07
F5
06
FB
FE
EF
F1
E8
07
09
1E
11
FF
FE
ED
E4
FE
EF
0A
E7
FC
41
33
20
FA
F5
09
F0
FA
EF
FB
ED
E2
F3
FE
0B
08
0B
12
13
E9
F9
FC
E6
E8
DC
E6
E8
FA
39
26
07
10
18
F8
F3
FC
F6
0C
DE
ED
F8
F2
06
12
1D
0E
FE
E0
F6
F8
F4
E6
E7
DF
F0
0A
22
1E
1A
F0
00
15
0A
FC
FD
10
01
FE
DF
F9
01
13
15
0B
ED
ED
E6
FE
E1
D9
F1
D4
F5
1C
31
0A
08
15
E8
0A
F9
01
F3
F8
EF
F1
EF
F7
F5
15
0B
F0
EE
FF
F9
F7
0A
FB
EE
E9
01
01
24
0A
13
10
0B
F1
ED
03
00
1E
FF
EB
EB
02
0E
08
F6
E8
E9
F6
15
09
F9
F5
0E
FA
0B
20
0F
08
12
14
F9
0B
F4
0B
26
09
10
16
F9
11
0B
FC
14
FE
E8
09
FE
1B
00
FF
09
07
21
34
0B
F4
F7
F7
05
F3
0C
F8
17
2F
11
12
22
0A
23
F9
03
03
FB
0E
FC
12
12
12
15
0D
2F
2C
09
07
1A
E6
0D
18
0F
20
02
27
3A
1A
1B
25
27
0C
1B
02
EE
F7
15
22
16
1B
24
35
21
1F
1F
11
0A
EC
DE
EE
2D
33
24
15
1F
17
17
14
0C
17
0C
18
16
0E
07
2A
26
11
25
1D
22
3C
EF
F7
FC
F4
03
FF
28
2C
08
19
02
F9
FE
0E
1E
26
12
2D
0B
FF
19
08
09
16
1C
1F
20
06
FE
ED
F4
0B
F2
0F
28
29
E3
F5
08
F5
16
00
19
10
0E
1E
0D
22
19
11
17
22
15
03
0A
F9
EF
0B
10
F6
00
F8
E8
F5
EE
CF
F0
F7
0F
0C
F8
08
29
0B
0E
10
1C
EA
10
0D
FF
F5
00
1A
23
01
10
FF
F1
09
1B
0B
F5
EB
E6
F5
F1
FC
FF
09
FC
0C
FF
06
F2
09
06
F0
E7
D9
E3
F8
03
F1
09
FA
F0
F1
FC
F7
0A
F7
EA
FE
E8
E7
E4
00
F3
E8
F8
E9
DD
EE
07
EB
DF
EE
F3
F5
F0
EA
F4
FB
F9
07
04
FC
EF
0F
08
01
06
07
09
F5
08
F8
FC
FF
EF
08
F1
EE
EF
06
08
04
12
01
0B
F7
09
F5
EE
02
0D
09
F0
EF
09
EC
0A
01
F1
01
05
F4
05
F0
F3
FA
01
09
06
08
FE
FA
EC
0D
FA
F0
F4
F1
FD
F7
DA
D5
F2
F9
0A
F4
E8
01
E4
FB
F3
E3
FB
FA
EC
F2
FC
00
ED
13
09
01
F2
04
11
F4
10
0E
00
0D
F8
EA
D0
05
11
07
F0
E6
ED
ED
DB
F3
DE
06
02
F2
EF
04
F5
13
01
F9
FB
F9
10
2C
0C
05
FF
FA
06
0D
05
EE
EC
DF
EF
FA
EE
E0
EE
DE
EE
01
09
E8
F1
F7
F2
10
FF
11
1F
2E
10
1B
03
16
0B
09
DA
CA
C8
DE
07
FE
0A
0F
03
06
0F
FB
02
F3
0A
E8
F0
F6
F1
12
2B
23
25
00
1B
1C
F2
F0
00
E9
0F
F1
09
FC
E7
00
E7
FC
07
FC
20
F1
F5
FA
02
F6
0D
0D
FF
00
11
16
F6
00
FE
02
0E
04
07
EE
06
13
FC
0B
F3
05
FB
FD
09
E8
14
05
06
FF
FF
0B
EB
01
14
10
19
1F
17
FE
F8
F1
EB
EC
15
00
15
FE
FB
F1
F6
01
FB
F7
04
18
03
FE
F8
08
04
00
07
FD
16
13
FE
01
F6
F0
E3
13
FC
08
1A
15
0E
F1
FA
F7
FD
EA
0B
02
FA
F1
05
1B
06
14
ED
1F
FF
0F
F9
07
03
E5
EE
0B
09
17
04
04
13
FE
0D
0D
08
EB
06
03
FE
F1
13
0B
09
FE
12
FF
F8
06
FD
0C
F3
F7
EC
11
18
0D
0C
FC
00
09
F6
0A
F0
0F
F9
0E
0B
FB
F9
FE
0F
F1
10
07
E8
13
FA
F9
E8
F0
12
19
1A
23
16
F4
FC
00
00
0B
D7
EE
FE
08
09
FB
04
19
12
F1
FE
F4
07
0B
1C
EF
F6
03
21
2E
11
1B
18
F7
F7
18
10
EF
EA
FC
F5
FF
04
FE
F5
18
F5
F9
00
EE
00
03
F2
F5
0A
03
09
0F
04
21
1A
0A
14
21
0F
F3
E5
00
E8
08
F4
09
F0
13
05
F8
EA
F9
0A
00
FF
14
0F
22
05
21
13
1F
03
06
FF
00
FF
00
F1
00
05
01
F2
20
FA
02
F1
E0
F1
F4
03
17
18
12
02
0D
08
FE
FF
0B
F9
F5
F0
03
FD
EA
E6
FF
E7
E7
11
15
FA
0E
EE
00
E5
F7
E6
F3
0B
07
EE
04
FB
0B
24
1F
FA
F2
E7
09
F1
E9
EA
E8
01
FF
FD
27
FE
FA
E3
FF
ED
D8
E8
E4
E9
ED
F5
09
08
FB
03
EC
0A
F7
07
0B
F4
08
E8
15
10
FB
DF
FF
FC
02
E4
D8
CF
CB
BE
DF
D6
EC
FC
EC
E6
F8
FE
EF
E8
0C
F9
03
F9
F2
ED
E7
12
17
FF
1D
13
1D
01
DD
CF
E1
DE
CC
E6
02
FE
05
EC
E8
F1
FC
FD
EA
E8
FF
08
E9
F3
F6
E6
20
07
00
16
29
06
FD
FE
FC
F7
F6
05
06
F5
F9
E4
F0
EF
F5
FB
05
01
12
01
F8
FA
F5
14
1A
03
F7
17
19
24
06
0B
09
06
00
10
F7
F9
E6
F1
E4
F4
EE
04
EC
ED
07
F8
F4
04
F8
13
F5
0E
0A
1E
10
0B
2B
19
02
16
0A
0D
FE
EE
EE
00
E6
D0
FC
F9
11
E1
11
0C
00
02
00
FD
FA
FE
F4
F4
EC
0E
1C
15
12
04
FF
00
09
F3
0A
F4
EE
FA
D9
FE
EB
DF
09
FC
04
0C
07
18
0E
EC
03
FA
07
15
1E
04
13
F1
05
FD
EE
EC
E4
E8
F5
F7
E4
EC
FF
06
F1
F9
0B
FA
F1
0B
0A
02
FA
08
11
02
26
F5
11
18
FC
EC
FE
FA
05
E9
FE
E2
E7
03
02
EF
04
15
FC
0E
01
04
04
EF
01
F4
E5
FC
28
2D
05
F6
E8
13
07
03
DD
E8
00
0F
F5
E9
F7
E7
08
05
DC
0D
1A
08
FB
F9
08
FB
12
F7
FE
0B
08
F1
D6
1E
19
0C
EA
03
0A
0F
10
07
FC
ED
F7
F1
F8
F0
08
02
FA
0A
FD
12
EF
F0
05
F3
08
F3
03
02
01
00
0E
F8
0A
10
09
F8
12
12
02
02
FB
FD
00
08
FC
09
FF
13
FF
0E
13
EB
0A
D9
E7
F6
15
E5
F3
09
F9
0F
F7
EC
EF
F9
EC
FC
EE
08
03
F2
0C
04
F3
ED
06
FC
F7
E3
F3
04
07
0E
ED
EE
11
12
05
0A
FF
FE
08
E6
0A
F2
F7
00
02
07
F7
0E
F5
0D
EC
03
0E
02
F9
EF
12
0F
F0
02
F6
F7
0A
09
FA
FD
FF
00
F7
F3
F3
F6
0B
09
0B
F3
02
02
05
09
FA
F8
EB
12
F6
F7
0A
FE
0A
04
F3
F3
08
F9
08
F0
07
F7
F5
FB
EF
10
12
14
12
FD
F5
F0
F9
10
0B
10
F8
08
0C
EF
F3
08
F2
FB
F6
0C
ED
E9
EC
02
EA
FC
02
FA
09
FF
F6
FD
02
14
08
06
FD
09
FF
01
04
00
09
FE
F5
F2
FB
FD
EC
FF
FC
0B
F1
F0
F8
F7
FD
08
03
08
10
07
EC
EC
10
F7
08
0E
FC
10
EF
EC
ED
EE
05
02
F6
FA
0F
04
07
ED
F2
01
E9
E0
F6
FD
03
FE
05
F4
FB
09
EF
EA
FE
EB
EE
FA
07
0F
0A
FB
F7
FD
F7
07
EC
F9
FA
FF
05
F8
FB
06
13
05
07
F1
05
EC
06
01
FD
FD
08
EC
03
E8
FB
0E
FB
0F
0F
08
FB
E7
F1
F6
E9
06
04
08
FA
FF
EF
07
EC
05
06
F2
EF
F5
F6
F5
0A
0B
F8
FB
F3
F0
EE
FE
FF
FE
F2
D4
F8
FA
11
00
08
FC
04
14
F4
FE
08
FF
EE
F1
0E
F5
F0
F6
07
12
0E
04
00
0B
E8
0A
F1
E8
E8
07
0F
0B
ED
03
07
0D
F1
F2
FA
FA
04
F9
F7
EB
0D
F9
F6
F1
F4
0D
0E
01
EB
EA
F5
FA
F6
FB
F0
EE
03
F3
F5
FE
FC
0C
FB
0B
FD
08
F8
06
09
ED
01
01
05
EE
EC
EE
FC
0C
03
09
FA
FF
0C
F5
0D
17
FD
F5
F0
09
07
ED
08
07
07
05
FB
08
F2
FD
08
06
F3
EC
08
F4
13
F1
F3
0D
14
02
0F
11
F9
0B
08
10
F8
E8
F1
F8
F6
09
0E
0C
01
F4
F1
FC
F0
0E
EE
EE
F5
F6
F8
08
F8
FA
16
FD
0E
0A
0C
E8
0A
EF
03
F1
10
0F
EF
04
F2
F9
0F
0E
EC
07
F1
F4
0F
FB
0B
EF
EE
ED
09
F3
0C
00
EC
0B
FB
F5
0B
F7
F5
F7
FB
0C
FD
ED
EC
FD
05
E9
03
FE
F5
09
FA
EB
F4
01
11
01
03
06
04
E8
F2
07
14
F0
ED
FB
06
02
FC
0A
EF
F3
F7
0A
F0
05
10
EF
0E
EB
11
F6
0F
0D
FE
0A
06
F4
F3
F6
FC
03
00
02
00
10
10
06
0E
E9
07
F4
EC
FB
FC
02
0B
0D
F0
06
FD
FB
EA
FB
FE
F9
EE
08
FD
0B
EA
EA
F4
F9
FE
EF
F4
01
0A
04
EA
FD
F6
11
EE
04
06
08
0D
0F
05
10
06
FE
E8
12
F5
EC
0B
ED
02
03
F4
0D
FB
E8
F6
F5
F5
F2
F4
EA
09
EF
F8
01
12
0A
F6
0B
F4
FB
F4
02
07
FE
09
FB
F3
0A
0C
01
08
EA
F2
0F
EE
FA
10
FD
FA
FF
FB
F9
EE
12
F1
01
EE
01
FD
F4
01
FC
F1
0E
EF
01
08
FD
07
FB
00
FC
F5
F0
F1
F0
F3
04
FF
EA
F3
FD
F3
F3
FF
FB
F6
EC
0F
FF
11
09
08
11
EF
11
F3
F9
F8
02
02
01
1C
09
02
F7
0F
E9
DF
FD
F5
12
F4
0E
11
0D
0F
FE
FA
06
FB
FC
10
0F
11
0A
06
FD
F0
D3
ED
00
FC
F0
F3
F2
02
F9
06
03
0C
0E
FE
FB
06
07
05
FC
04
EE
0A
0B
0F
EC
01
09
E4
FE
04
0F
0B
F6
EC
03
0D
0C
0C
F7
E8
09
EE
0D
09
F5
FD
0D
FC
06
06
13
14
FF
0F
0C
FE
F2
0B
04
FA
03
F2
13
10
0C
0C
10
13
12
FC
07
0A
EA
F1
12
ED
FA
12
FB
F2
ED
0F
07
04
FD
F3
0C
F1
F6
FA
12
09
ED
ED
F1
EC
0C
FF
FA
0F
EB
FF
E1
FF
12
FE
D5
DB
E9
D0
E6
0B
05
10
F3
EE
F2
F7
08
EB
F4
E5
FA
05
05
01
11
F1
01
0D
FE
0B
00
0D
04
08
F2
E4
EB
EA
06
15
00
12
01
F1
05
09
F2
FD
12
1A
1F
10
21
25
18
1B
1D
2E
0A
13
02
FE
EB
04
E7
E2
F8
03
FE
05
FD
04
FE
08
ED
1F
07
10
14
14
03
11
05
12
04
F4
09
F8
0A
08
FE
FF
EE
FB
05
F8
0D
0C
07
F6
05
01
0F
13
FF
0A
12
19
20
15
11
16
09
0D
14
08
FE
05
EF
02
F2
FC
FB
14
ED
0E
FC
1C
FF
FC
13
1E
09
F6
04
0B
1B
03
0E
17
12
FD
0F
11
FA
0B
F2
F7
E9
0F
19
20
07
F5
F3
06
08
04
16
0E
01
00
1C
00
1B
19
15
0C
2C
20
1D
10
FF
0A
17
12
12
0A
11
2B
FB
EF
DD
FD
E2
FB
FE
E9
F0
06
05
EC
14
11
18
0D
1A
1A
03
17
08
03
19
0A
1C
09
0E
1C
03
00
11
01
08
06
FF
03
02
02
E4
E2
E8
DD
E3
E7
EB
08
04
F9
00
01
14
F6
01
05
EB
0D
12
FD
06
FF
16
09
E2
FE
08
E5
F8
DD
CF
DA
DB
D2
E2
E5
07
FA
F8
F3
F4
FA
FB
DF
E0
02
11
22
04
04
0C
FE
FF
E5
E3
D6
E1
D2
E2
DC
D7
C8
EF
EB
03
F1
F7
F2
E7
DB
F0
E3
F3
F6
EA
13
0F
EF
0F
FE
CB
D0
D2
DC
D9
DF
E1
E9
E4
00
F0
EC
0D
F1
08
17
EB
FB
E1
D9
01
F9
0C
F6
0A
F0
00
0C
EF
D9
CD
C7
C5
DC
FB
FC
03
0D
09
FB
F6
F6
02
F5
FC
F7
F3
E3
04
0C
16
FE
F2
FE
FF
0D
E8
E4
E5
DD
E2
00
18
F8
12
F2
0F
FD
0E
F7
0E
0C
F2
EB
F4
E6
FE
0A
16
F9
04
F5
EE
2F
0C
0E
F7
DB
F2
F3
FC
EF
0C
FA
17
08
F9
06
00
FE
0E
EF
F2
E6
19
0B
32
FF
09
12
08
3A
0E
17
14
05
F1
07
F3
F0
08
14
04
02
EF
02
F7
0E
0A
0B
19
E4
14
13
02
1A
FA
02
FC
1E
3E
08
09
06
FA
EE
E3
F3
E6
F0
EC
FD
09
0B
09
01
0D
F8
E7
F6
FF
0C
0C
0B
FE
FE
0E
1A
2F
2A
23
12
21
15
F7
FE
01
0A
03
F5
0C
12
1F
F4
0C
0D
11
F0
13
0C
FA
F2
06
F6
1F
15
10
19
19
19
1B
04
11
18
24
0D
05
02
1D
00
07
09
FB
09
F5
F7
FB
13
07
0F
F4
F9
11
1B
13
04
1C
FE
02
05
0D
01
18
FF
F3
0F
0B
FF
06
FE
12
FE
11
FC
EE
ED
02
F4
F7
05
01
0F
10
01
13
11
0D
FA
14
FA
04
F6
0F
0E
FF
08
10
01
00
03
F0
16
FC
1B
03
ED
FC
06
E4
18
0E
E6
02
FA
EE
0B
0B
FF
F7
F1
07
02
11
F7
0B
0E
0E
0A
0B
19
09
1F
F6
FD
FE
01
0E
0F
0B
F7
E8
EE
F4
E2
EC
F0
F1
F1
F1
EF
FF
01
02
0E
FC
12
15
1A
31
0A
05
F9
F7
F1
DC
08
18
F6
0C
05
ED
00
02
06
03
12
05
FD
FF
07
F9
E8
F9
03
01
F1
0D
09
02
F4
12
07
E3
01
20
26
0E
0E
1D
06
27
FF
18
09
06
0D
04
F9
F9
06
FF
0F
ED
12
12
19
13
0E
ED
FE
01
E8
FF
0B
F6
1B
FF
12
12
04
EE
0C
0F
EF
FC
DD
D6
F8
FD
D8
04
0C
05
00
F5
06
EE
07
EF
00
FC
FB
0D
F8
F3
EF
F0
E9
03
0F
06
F5
ED
0E
F4
F0
E6
F1
E1
FC
0B
F6
F8
0C
EF
00
EF
03
01
F9
FA
0B
01
0C
0A
FE
F9
09
0E
F4
10
FE
F4
02
F4
F3
F8
02
09
0A
06
0E
F5
12
0E
F6
ED
12
00
FA
05
F0
0E
F5
07
01
F5
FA
ED
0E
10
01
02
02
0E
1B
FA
0C
0E
14
03
11
EF
FD
07
0C
01
11
23
0C
1A
1C
0A
1D
13
06
06
FC
0E
0C
FA
FC
F4
06
2A
0A
0B
F0
F5
09
E5
F4
1D
F8
05
0C
00
1D
0D
26
05
FF
F6
0B
16
14
13
08
16
05
21
1B
FB
12
0E
F3
14
F4
E9
00
26
1D
F9
17
18
0E
1F
0E
09
0D
FB
FD
03
FB
06
13
FF
08
08
EA
EF
09
05
18
ED
F3
F8
11
18
F0
F5
0C
07
F8
0C
ED
FB
DA
EA
02
06
FE
F7
FE
05
0A
0B
E9
FD
EA
08
01
0A
09
0B
F9
11
D8
E3
FB
DE
DD
ED
FF
EA
E1
E2
F2
FC
06
08
E5
FD
F4
FB
F6
DE
01
0F
0F
EE
EF
F9
E5
02
DE
F0
E0
F7
E3
EF
07
FE
04
F3
E9
FF
EA
07
F5
DF
E9
F0
E6
ED
DD
FF
16
08
03
01
F1
18
FD
E6
E8
ED
FA
EE
EA
FB
05
0D
F1
EC
FC
02
FF
FE
E9
F1
D5
D7
E4
06
05
F9
08
E0
FA
FB
ED
EE
EA
FB
F0
E6
FA
EF
10
02
FA
11
F1
FB
F9
F6
E8
EC
D5
F3
F5
FF
09
EF
F1
F9
00
F3
15
16
E2
FE
E9
03
01
0E
F4
F1
E8
E0
01
0E
FB
FE
01
DE
EA
E2
F5
EC
01
FA
E6
E7
FD
19
19
07
E9
0C
12
0E
F4
04
E2
E9
EB
E4
E4
0A
FC
FC
FA
0B
E5
EA
E0
E2
FE
EB
06
03
FF
00
FA
15
F0
EE
11
EE
FB
DB
DA
D5
F3
EC
FD
0F
20
1F
24
22
14
04
FA
F6
EF
15
E7
F3
F3
1A
FE
FE
FD
13
15
EA
01
02
01
EC
F6
01
FC
0F
1C
23
14
1D
1E
0B
FC
FD
F3
EF
FE
F6
E6
FD
07
2D
1D
09
16
F6
06
F4
06
F9
03
F7
10
0E
03
1F
F1
01
EA
F0
2B
14
05
0B
04
E5
09
12
19
16
08
1A
05
17
06
0D
17
02
1F
19
21
03
13
0D
F7
F7
E2
0E
17
32
FD
0B
F1
0F
FA
1F
11
0B
06
F4
1A
22
2E
2D
1B
03
0B
FF
1E
00
FB
F8
FD
06
F6
FA
18
38
0C
11
09
F0
F9
04
ED
06
F8
12
0D
1A
16
11
07
11
11
1A
F8
00
09
F8
FF
13
0F
09
2A
1C
0F
F3
01
FF
FD
FD
EB
F9
04
01
16
01
12
1D
13
10
11
0F
22
00
07
06
0B
03
09
1B
2D
08
0F
F8
EF
F0
07
F6
02
02
06
FA
FA
13
04
12
FF
01
14
14
01
01
08
06
02
0D
13
EE
34
0B
F8
F0
0A
FD
ED
0A
05
F9
EB
ED
0A
0A
12
FE
16
19
F5
10
03
12
10
19
F7
0C
04
24
33
12
FD
FA
F5
0F
1A
F4
10
FA
06
01
EE
04
F6
F7
FD
09
0C
FA
0B
FB
0D
EF
F4
EE
FF
2E
39
F9
11
FF
14
0A
14
0A
FE
05
E1
05
EA
02
FE
FA
05
E3
EC
EB
EB
06
02
F0
FF
07
06
1A
17
09
07
0E
06
05
FC
FC
08
E7
F8
FF
FA
03
DF
DC
E3
E5
CE
DD
EE
FE
EA
10
1B
22
25
08
31
02
05
F5
F1
08
D9
E3
F0
E3
F7
04
08
E5
DD
FF
DB
FA
E5
DC
03
F8
00
1C
08
FD
09
FD
0C
F5
F9
FD
08
1F
F7
0E
F2
06
06
F8
11
F0
F4
F1
FB
05
FC
17
E3
FB
F1
08
09
F0
E8
E2
0F
13
FE
EC
0B
F2
FA
07
10
15
25
21
F9
FC
1C
28
0C
18
11
12
FA
EF
0A
03
04
EF
02
1E
E6
00
EE
FA
13
08
13
0A
E2
F9
18
06
00
02
05
19
F7
15
04
03
FD
13
21
04
16
F0
FB
05
10
ED
0F
F9
00
FE
EC
F4
F6
0A
04
F5
0A
F0
04
10
00
06
F9
FC
F5
04
F8
FA
EF
09
EE
F5
09
13
F0
EC
09
F8
09
1E
1A
0A
00
F8
01
06
08
08
01
ED
14
FC
F7
10
24
17
04
14
F3
01
0D
FC
13
F6
F3
15
F7
EA
F9
11
03
21
FF
1C
06
FA
FF
1F
0C
F8
23
1A
1B
FE
FC
11
19
0B
F9
0A
00
0C
EC
E9
06
F8
15
12
1F
13
02
0F
FF
14
0F
21
01
FA
03
07
16
F1
F8
06
0C
07
F6
07
04
00
F2
E3
F3
FC
00
04
12
04
05
F0
F7
F7
ED
F9
E4
E3
03
E6
F8
F5
F4
F3
EE
E7
FF
F4
FB
01
FA
07
EF
15
1D
02
12
18
F7
0B
12
FE
F0
02
F4
0C
F5
F4
08
E2
F6
F0
D1
F9
02
0C
18
11
E6
F8
FF
F3
EA
13
04
0F
FE
F5
13
16
F4
19
FB
0F
0D
00
00
F6
EA
E7
EC
D8
F1
05
F5
FA
0C
15
0E
07
EC
06
02
FD
15
F6
16
05
08
16
10
14
01
FA
10
02
03
E9
FC
EA
F1
FF
EF
FD
08
F6
00
03
01
05
14
02
F8
12
F3
F2
10
1B
12
F4
F5
F5
FD
FF
E8
08
0B
EA
E4
E7
FC
08
0D
F2
F5
03
08
12
0A
00
17
11
0B
F9
F2
13
00
F9
E5
F0
EF
0C
F4
0B
1E
FE
EF
E7
EB
F6
F6
0D
FF
F5
1F
03
20
18
03
F1
FB
F4
FC
12
FA
F5
EB
FF
0C
03
F5
14
27
0D
E7
F4
EC
15
FF
20
F0
13
12
03
0F
F7
13
FC
F9
04
EC
F7
10
EB
FF
09
F9
10
17
0B
0A
08
F6
F2
DE
EF
05
01
06
1C
0E
15
03
0F
FF
F6
04
F9
E2
DE
F4
02
F7
15
15
18
0C
0B
08
F8
FF
D4
F6
03
08
17
02
00
FC
13
12
FD
0A
F6
FA
D3
E8
E7
00
18
15
F7
04
21
FD
07
FC
13
FF
EE
F9
EA
08
25
EB
EF
ED
0A
F6
EE
09
FD
FC
D6
E2
07
13
12
09
11
1F
12
0D
F3
06
F5
19
15
F1
00
08
E7
F7
FB
FE
09
EA
F3
FA
F8
D3
DC
F6
1E
14
0B
15
15
0E
FF
0A
EB
FA
06
1C
F6
FA
21
EC
0B
D9
E4
F3
01
EC
E2
EB
EE
E7
F9
12
10
07
FF
01
0F
F3
FD
F5
ED
FF
07
17
EE
F5
0E
E5
0C
FF
E4
00
F9
E8
E5
DD
DE
05
F2
0B
16
0D
F8
0A
08
F0
01
EF
E9
FE
FB
0C
08
0C
07
F8
F8
E8
EF
F0
00
E9
D3
F6
F6
08
1A
05
11
17
12
03
13
F1
03
D0
F5
FF
04
11
06
08
E7
06
F6
F5
E3
E1
DE
FC
FA
F0
09
04
19
1D
18
07
F2
0C
FB
03
EF
E1
E4
E5
08
11
06
F0
FE
F5
08
F5
EB
D4
F5
E7
EC
FB
E6
F1
15
18
16
00
02
0D
F1
06
EE
F9
DD
FD
02
07
F3
FD
FF
FB
FE
EB
EF
FE
01
E6
16
06
E9
F0
06
10
FD
F5
02
F7
FA
FC
EE
EA
0B
0E
05
15
0C
F1
0D
FD
E6
FC
0A
0F
F5
15
FE
F0
F0
F2
03
07
FE
0D
08
EF
EE
03
03
EE
E8
06
16
0A
FD
F8
0E
FA
D4
EE
09
FD
FC
15
FC
00
11
0B
E6
F1
00
05
04
18
FD
F8
13
FB
EA
12
F4
F4
FF
0F
0B
0E
E8
EB
0C
1E
F2
FF
F9
FF
FB
F1
F8
FE
E8
10
1A
05
F8
F6
22
1D
F4
10
02
00
10
FC
14
FE
DF
05
0C
1E
F8
F1
09
2A
28
FF
00
F1
00
11
0D
13
1E
0C
09
1B
05
FC
07
FD
F9
09
FA
EE
EC
07
E1
00
FF
F3
1B
32
24
0C
FD
F2
18
1C
13
0D
24
2C
24
1E
0D
F5
EB
13
0A
01
FA
05
F4
F7
EE
EF
F4
EE
FA
01
F7
26
0B
0D
07
05
FE
22
26
26
FF
1B
12
FE
F3
EF
FA
FB
13
F0
05
F3
0F
0B
0B
03
FA
13
F4
12
EE
06
0B
F7
F2
0E
12
F3
F1
03
EF
13
F0
01
0D
08
FE
F4
EC
0E
01
14
FD
E4
F3
0B
E1
FD
08
FC
E2
0B
F8
EE
13
F8
01
F8
E8
08
0A
08
0A
F4
0F
ED
01
E8
F9
FC
02
F8
E2
F5
E6
E8
E7
03
F6
FC
05
0F
F7
05
DA
FE
06
08
F9
EB
0F
F5
EF
EC
FC
01
0A
E7
0B
0D
EA
08
E7
D1
EB
ED
E7
01
15
09
00
E4
02
E0
E7
E7
11
FF
06
04
14
0A
ED
08
F7
09
F5
F9
01
00
FA
F4
06
FD
F3
08
FC
10
02
E8
F0
CA
CA
E8
FC
E4
F0
0B
EF
0F
F1
0E
F7
F6
F0
0D
E9
05
F3
06
F8
F3
0E
11
0A
12
ED
F7
E2
EC
05
04
F8
0C
EA
E8
F8
12
F3
0C
FB
07
EE
FA
D1
D1
E9
E1
FE
01
14
07
0D
F7
F1
FF
F2
E5
18
00
E6
FD
0B
E6
12
EF
E6
0D
FA
F7
E1
FF
D2
E5
F4
F8
01
0E
10
F9
03
F1
DB
FD
FD
FC
FD
F4
13
FA
ED
F4
25
DC
F8
05
0A
EE
DB
D8
DC
E2
05
06
05
13
05
F6
E9
EA
DD
E3
DE
FD
09
00
F0
F4
F7
E8
F5
E9
E2
EB
E1
FA
E3
EE
F1
FF
16
0B
0C
17
0E
FC
E8
DD
E6
EF
01
F5
F7
01
FB
00
ED
02
08
DF
F1
E2
FE
FC
BF
E2
FA
06
05
FD
15
16
F5
E0
EF
E0
FF
E2
FE
09
EB
E4
E2
E1
E0
02
F6
F4
FF
DB
E8
D5
D6
05
14
03
12
02
16
16
FC
00
F0
14
EF
17
06
F8
F9
DF
CF
C6
EA
FE
FF
FE
EF
F4
DE
E5
F6
E6
0F
F8
1C
01
28
20
1B
05
1D
0C
28
12
17
02
F8
F8
E9
DE
EF
F7
FD
FC
FD
D2
E5
DF
E5
EC
04
11
FA
1C
1D
0B
0E
17
17
13
24
1F
FE
F7
EC
DD
CA
CB
E7
01
02
01
F1
EB
FE
F1
F5
02
05
00
0E
02
12
12
0D
FF
16
05
0C
1A
F1
E0
EA
F4
D9
FC
D8
F3
E1
06
F9
00
E3
F7
D2
D7
FB
03
16
FE
FF
02
19
09
1F
08
04
F8
DC
D7
ED
EC
EC
DE
F7
FF
14
07
E4
05
F7
FD
D3
F2
EF
03
15
1E
03
06
16
FD
05
0B
F8
06
ED
DD
EB
F3
FB
D9
DA
E8
14
FE
08
F4
00
FC
F1
D1
FA
F9
0F
FE
12
02
1E
10
FF
F2
F7
E7
04
08
07
02
E1
D7
03
EB
FE
F3
EC
05
FE
0B
E5
DF
D9
08
06
0A
0B
F4
FF
19
F5
EC
DF
F1
F0
FD
FB
DA
F3
00
F7
1A
F8
F7
E7
11
18
F2
E3
D6
E7
DD
FD
F8
FC
03
1B
F7
FD
DD
E4
F6
FE
FB
FD
D7
EE
08
04
16
0C
01
0D
05
26
13
EE
E0
E3
D3
EA
E7
05
0D
03
F9
E9
ED
DD
F0
E8
F0
EE
DF
E4
00
07
EE
FC
1B
15
0C
F2
0D
E9
DD
F0
F0
EF
04
EC
F6
08
F6
F7
DE
E8
F4
03
E6
09
F8
0E
07
20
0C
0F
09
14
F5
EE
F5
E5
0A
FE
F3
E9
EA
FC
EF
0D
04
F7
E8
FB
FF
F3
0C
F6
02
F4
08
14
09
F8
F5
FC
FB
E6
FC
0D
0F
F7
FC
F3
F1
01
EC
EF
FE
FD
10
E6
E5
F5
F9
0D
06
07
01
19
0D
00
EC
15
F5
F3
1B
0F
06
FD
F8
EE
F0
00
F8
F0
FB
F3
05
EB
FE
0D
0C
14
08
FD
1A
F6
F3
12
0F
FC
EA
0A
04
FF
EC
04
F8
08
FB
EC
00
04
12
00
23
F8
BD
DB
E2
EC
FF
F7
E9
01
03
FF
F3
0D
FD
15
DF
E7
FF
F9
07
02
ED
F3
F6
17
14
0D
0F
00
EA
CD
FB
E6
DA
00
ED
07
13
0E
FE
EC
F0
E7
FD
03
FC
F8
DA
D6
F4
F1
04
00
2F
FD
18
0B
02
01
E2
EC
F7
FD
EF
FD
01
0B
FD
0F
01
EE
F5
F1
F4
F6
F3
F5
F9
FB
F7
ED
FF
F1
08
0D
FD
09
0C
ED
F0
09
F9
EC
04
F3
10
0B
13
08
15
05
F9
02
03
FB
18
01
1A
01
04
11
1C
16
1C
08
FB
F7
0E
F7
08
04
0F
04
EE
15
0F
11
04
09
18
0E
F5
11
23
08
1A
2C
1B
05
F7
1A
FE
2D
11
15
18
02
02
12
0B
0E
FF
19
0D
0E
10
19
18
0E
10
10
15
21
39
18
14
F8
02
1C
FC
F4
FC
F2
E6
E8
03
15
06
01
03
F8
F2
F3
03
F3
1B
F0
0F
F7
FE
0F
FC
0A
0E
FD
01
17
FE
EF
FB
12
03
E8
FF
13
04
F3
06
F6
E8
FF
05
F2
FC
08
E8
03
F8
0E
F7
FE
F0
F3
FE
0C
F2
F9
0D
09
FC
02
13
0D
19
FB
F0
00
FB
14
17
0A
FC
FE
13
0E
11
14
18
19
FF
00
F6
F0
00
F4
F1
E3
FB
FC
19
17
01
15
07
F5
02
10
04
06
0E
FC
08
FA
11
13
15
04
FA
E9
FB
F0
01
DC
F2
F6
FB
08
19
13
F6
02
05
02
FF
0D
04
04
F0
FA
18
04
0A
24
06
ED
FB
F1
05
09
EF
F9
E9
E2
F5
E6
E4
FC
F3
04
E8
1A
11
16
00
FC
F0
FD
1C
12
16
04
03
FF
E9
F8
FA
F3
DF
F3
00
F5
ED
E1
EE
E7
02
0D
E9
F1
21
07
01
05
03
0F
04
14
04
EF
F6
F5
05
FD
0A
F4
FA
08
07
06
E7
E9
12
F4
09
0A
E3
FD
19
0B
DF
04
03
17
1C
F5
ED
D4
D5
F9
FF
FC
0B
08
FA
10
08
FC
09
08
0B
E9
16
F2
F6
05
23
F8
16
03
F7
FC
0E
F8
02
F1
E9
E2
04
F0
03
1D
11
0C
19
1D
13
0C
FC
EF
11
10
02
DE
36
12
1B
21
F3
19
ED
EB
EC
DF
DC
04
06
09
FD
09
F5
0E
11
00
26
FA
E4
E8
02
00
F2
DD
FE
1E
28
22
05
09
FE
F1
DA
DC
E4
ED
FF
F4
06
FE
0E
FD
FC
17
10
0F
06
E1
F8
05
1C
FD
12
03
09
13
10
02
0D
F3
FC
FC
FC
FF
FF
FF
FF
03
EE
13
FF
14
0D
EA
01
F4
F5
FA
17
04
10
04
07
09
0C
08
0F
14
0E
05
EF
02
EA
F7
E8
09
01
00
0B
21
08
04
FF
DC
08
0F
08
05
29
EC
FC
05
F7
FE
FD
02
FA
09
FE
E5
E6
FF
07
03
16
17
1D
11
0B
EE
FD
E1
EC
F4
0C
FE
0A
F0
F6
0B
1A
0B
07
03
17
F6
E6
E3
E7
F5
02
11
16
F7
0A
16
04
06
F9
F1
F2
04
1A
0B
21
ED
03
EF
09
10
0B
10
FD
FC
D8
C7
EF
05
0E
10
26
05
18
05
00
FF
F8
00
E9
03
0B
08
00
F6
F8
EF
02
00
03
EC
F5
F6
F0
DB
0C
13
16
12
1C
10
0D
00
FB
FB
11
0D
10
13
0E
F7
FB
0D
EC
FE
02
DB
EB
ED
F1
EA
DD
FF
FA
0A
18
1D
0B
0D
03
F8
0D
11
F2
F6
02
EF
24
09
E2
E6
FD
FE
F0
EE
D6
E2
E6
FC
F5
03
19
05
1F
1C
13
FC
FD
E6
0E
02
07
0F
0A
06
F4
01
F7
0C
0E
0C
F0
E3
E8
FA
F2
F0
0C
09
0D
13
11
F9
0F
19
06
F7
03
05
FD
EE
06
14
FF
EE
13
08
11
FB
F8
04
FE
02
0F
03
12
11
1A
24
1C
F6
10
F9
09
F8
08
FE
FE
DF
F5
F6
FC
01
00
FF
09
F7
11
06
1F
14
FD
29
22
08
F6
F6
10
12
1B
FE
ED
31
2A
3C
05
FA
08
11
FA
F7
04
07
17
08
FD
11
17
FB
FE
17
0B
F2
0F
F7
FC
22
0B
25
21
13
14
14
F9
0A
10
13
EC
0B
F5
02
08
0B
1A
FD
F4
09
F8
FC
04
0D
03
ED
FD
F2
F0
E4
02
ED
E8
F0
F8
06
FE
14
ED
F8
0B
01
08
03
14
FE
0E
04
08
0D
F6
01
F0
0B
F1
0D
04
0F
ED
12
F7
FB
F3
FC
02
11
F8
FD
01
11
F2
F1
05
13
F4
F6
13
1E
01
05
06
F8
EA
F8
EE
EF
FA
01
05
13
00
F7
F5
FF
0A
F8
F4
F2
E2
00
FD
ED
D9
DB
D9
E4
CA
BA
D6
E1
DF
D9
D6
D4
ED
1B
0F
FB
05
FF
06
FB
F3
04
EF
EB
ED
CD
CD
F5
DD
E5
DA
D5
DB
F7
F0
DE
E8
03
F1
ED
EF
D5
F9
01
FD
F0
0F
F3
FE
15
F0
E9
D2
F2
F8
06
0F
EF
ED
ED
DF
ED
05
F3
03
E9
E6
03
E2
EE
F1
04
EF
ED
08
FE
F6
14
05
00
E7
07
F0
F9
F7
02
0A
02
F5
07
07
05
E9
01
03
01
F6
E7
F0
ED
EF
F1
EB
F4
08
20
0D
02
F9
05
FD
DF
E7
FB
F2
F9
F6
0E
FE
11
00
0F
07
04
02
FA
07
F2
E0
EC
00
FB
15
12
1C
08
FC
03
F7
E9
0C
F8
04
03
FC
0E
F4
0D
09
0B
0C
07
11
18
F8
F1
D8
F1
F3
19
15
15
FD
02
E6
07
05
F9
F1
05
FA
04
F4
12
03
28
00
04
01
1D
0A
0E
F8
F6
F6
E8
E4
1B
FB
25
1C
F2
FD
04
F7
06
0A
02
17
07
0F
05
F1
17
08
1C
1E
02
07
16
1C
FC
F5
CF
11
FC
10
2A
2A
15
05
0D
FA
0A
0F
18
0E
EB
0A
08
E6
05
19
0A
10
1F
15
2A
01
F6
E9
E7
14
19
FC
1B
21
03
05
00
0F
F7
F7
FE
F0
F8
0C
E9
EC
D6
FA
18
18
13
09
11
04
08
E6
EB
20
10
FC
F5
12
08
FC
07
20
FA
01
F7
0E
00
E7
D9
F0
D1
E4
01
09
24
0D
0B
FF
0E
E8
0B
0B
01
07
FD
1C
16
1A
0C
06
00
FE
FF
02
07
F8
E1
DD
CF
FD
13
F2
03
13
18
15
FD
EA
FA
04
F1
0D
F4
EB
1F
1B
0D
2B
15
F1
EF
00
F6
FD
DC
BF
CF
ED
FC
03
17
00
FB
0B
02
06
0B
01
EA
EF
F5
C9
04
13
FC
0C
F8
F1
07
F9
EF
E2
E2
DD
D9
F7
01
21
1A
0A
0B
07
15
F6
0B
FC
1A
ED
0B
CC
14
1D
06
07
F6
EB
07
00
F5
D1
D9
E7
E4
07
0E
07
0B
00
EE
04
E8
F7
F7
01
EF
0A
DF
F4
16
07
08
05
F7
0B
0A
02
0B
D9
DE
DE
F2
27
1A
16
00
F4
06
0E
F8
03
F4
00
08
FE
D2
DC
F7
FE
08
FA
17
04
17
12
F8
F4
E5
0F
1A
2B
15
02
F9
0A
FF
02
FD
01
16
F8
0F
1A
E4
D0
00
FF
F4
09
06
05
0E
06
F5
F2
F1
EC
1A
10
08
FA
FA
FE
FE
04
07
04
04
12
FD
06
E8
F9
07
F6
00
02
11
EA
07
07
F6
FB
16
02
05
F5
0F
F5
F8
FA
E1
DD
09
F8
F8
FA
EE
12
DB
04
0A
F0
00
F2
E6
E1
FB
E9
F7
07
FD
FC
1C
F9
F3
01
08
F3
04
F2
FE
15
08
06
02
FD
F6
F4
F3
F2
F5
05
ED
EC
F4
05
F9
10
0F
01
17
06
F2
E6
0B
EE
F3
11
F2
F8
0A
17
0B
10
F1
F4
EB
FC
F4
0A
F1
08
F6
0F
0E
F4
0B
07
07
00
F7
04
F5
13
04
F0
FE
FC
E2
09
F6
F8
15
FC
07
0C
EE
08
FD
F8
F4
07
F2
FB
F8
F7
02
0D
01
F5
10
01
F9
FC
F9
02
17
FA
0E
13
F3
F6
F6
F8
EA
F5
FC
D0
E6
E3
E3
F5
FA
F8
EF
F5
00
EF
0D
0C
1B
F4
F6
07
14
00
0F
F9
13
0B
ED
10
11
0C
06
F8
F3
00
E0
D3
FF
0E
1F
13
EE
D0
EC
FA
1B
01
20
0F
04
0D
EF
08
FF
05
01
E5
0F
F3
07
F1
FD
F7
F2
F8
05
1E
25
13
FD
05
05
0B
FC
0B
EE
0F
EC
F0
12
02
F3
0E
EC
0E
EC
11
04
06
03
0C
F6
0E
E9
F4
0A
F9
0D
F2
F8
F2
01
F1
F2
06
F8
F2
FF
F9
F9
0E
14
03
0F
F6
FF
E5
F9
F7
0C
F8
EF
F9
FA
F0
13
F9
EC
04
FE
E6
11
0C
F9
F4
F0
10
03
F2
E5
E6
FA
04
0C
10
16
1B
FF
0F
03
17
FE
F5
0B
08
FA
F5
00
05
0D
11
F9
FE
EF
09
DD
EF
F7
00
16
0A
24
12
0E
18
15
0E
1B
13
FF
F4
F4
FB
19
07
07
DA
FC
0A
11
08
F0
EC
EC
06
0F
0D
1D
25
22
2B
23
15
0F
07
02
01
05
04
06
18
12
FD
FB
FF
16
06
0B
FA
0B
F2
F1
11
15
FB
0C
0A
13
1A
0D
E6
0C
FC
0F
06
05
02
F8
F7
10
E5
12
1D
1A
0C
F3
0A
F4
0D
10
03
15
2B
FF
F9
07
F1
FC
F4
FF
F7
0F
05
E5
F0
E4
02
E8
E8
FB
0A
13
14
0C
FB
06
07
F6
11
27
09
18
17
F0
E2
DF
EF
FB
00
10
FC
F0
E2
E7
DC
04
03
0F
13
20
18
0A
EB
FD
10
0A
02
1C
F6
FA
FE
F6
F5
F1
F8
F1
0B
13
0A
E9
FE
01
F4
F4
FE
03
F3
0B
19
F9
E0
F1
ED
F5
E9
0D
08
00
13
01
E3
E8
E3
FF
02
EE
FF
EC
E7
EA
0F
03
02
0C
EF
FE
1D
F5
09
F0
FE
F2
EC
F0
EB
F1
E8
E4
FA
E3
FA
F3
F1
F9
01
02
0F
FF
F1
0A
02
F2
F0
E3
1E
F7
05
FE
06
FE
0E
ED
FD
DF
E0
E4
FC
07
04
16
FE
E5
FA
03
00
F3
ED
E0
F3
DC
F9
EF
F3
E3
08
01
E1
F3
FB
D9
E0
DD
F7
11
F7
08
1D
12
0B
FE
EB
09
FC
FA
05
D5
FE
F3
E8
F3
E9
E6
FE
F1
F0
FF
F7
0D
F2
00
FC
13
0D
14
25
27
09
F9
F4
F0
F8
F9
F8
E9
FE
EF
18
04
0B
0B
04
0F
08
E5
01
FE
0C
12
06
1B
19
11
21
FE
F9
08
FF
FD
FE
01
0F
EF
FB
1B
04
02
22
0F
06
0E
05
0A
24
0B
F4
FC
FE
0C
01
08
14
0B
0C
FE
09
0D
FC
06
04
1A
07
1C
07
16
0E
FA
0A
F4
05
FF
19
16
F4
04
07
0D
0D
F3
F7
F4
FB
11
1C
05
1C
1F
1E
1D
FB
1E
1F
04
0A
0A
0B
04
F9
15
16
09
1C
15
05
01
F6
FB
EC
04
F2
01
F7
10
1F
02
17
14
05
04
17
23
06
04
FC
00
F9
FB
1E
04
23
11
14
00
F6
08
FE
0B
FA
01
FD
29
11
0B
0A
06
13
1C
33
2E
25
F9
DB
F6
FE
0B
0A
22
22
14
FC
EF
04
0A
10
FB
FF
11
2A
15
11
12
0D
01
20
0C
26
1A
05
F6
01
06
07
03
16
0F
0B
1E
18
14
1D
03
1E
1D
03
0F
04
0F
04
02
FE
26
16
0D
21
14
02
F1
11
ED
F5
22
1C
06
15
01
F4
17
1E
06
1B
1A
15
FA
E7
FF
09
FC
FE
04
FB
18
18
E0
08
F6
EA
EA
0C
0B
09
16
08
F9
01
F5
FB
12
02
0F
FF
EF
E5
FA
04
06
1D
03
1A
F2
F6
F4
E4
F3
02
13
13
04
35
1B
00
FD
05
0A
10
EC
08
FB
E3
E7
DD
DF
E3
02
FE
F4
19
00
FA
12
F2
15
EE
F2
FE
03
08
11
04
08
FC
EF
EF
F3
F9
EE
E6
04
05
F5
E4
F1
DE
EF
FA
01
21
25
27
1A
F4
03
14
21
FD
10
FE
F4
05
EF
02
E3
EA
EF
EE
EE
F9
DE
DD
F6
F6
0E
EB
15
27
06
07
10
13
F0
FC
F3
03
07
07
EB
D2
DB
E1
FF
DD
F0
E4
DC
E8
E9
E6
F0
EA
FE
F2
F7
0E
FF
F9
02
F2
03
FD
01
FD
13
10
00
F0
EC
09
F9
DC
EC
F0
D9
E4
09
EE
E6
03
EA
E2
ED
F7
FD
03
FB
06
FA
0D
F7
F3
F7
F3
F1
05
F2
00
FA
0D
0F
F3
06
F2
ED
0E
00
F3
0B
11
0A
0F
FA
02
EF
08
0A
0F
0E
F6
0A
0B
FF
F1
11
FA
13
04
0D
F8
06
FF
F7
0C
0F
FB
F4
FF
EA
EB
09
07
00
F8
EE
FD
0B
F1
FF
FE
09
FD
E9
FB
EA
F2
0D
18
19
07
01
1B
FA
F4
EC
E7
EE
10
F0
E5
ED
EC
F7
ED
0C
04
0B
F3
FB
EE
D8
F5
00
F5
EB
F7
FA
E7
E1
07
10
E8
FD
06
F4
00
F6
F1
06
13
FD
FD
11
13
F2
FC
EF
FF
E1
FE
F0
F6
03
00
F8
F6
FF
00
F1
FA
02
1E
0B
3F
01
23
ED
F1
F1
05
E7
F0
F7
F5
00
FC
F0
05
FC
F4
F5
F0
FA
F1
E4
FA
11
F2
11
FB
21
2E
33
1C
F6
0D
10
ED
10
F4
F5
02
04
0A
05
F7
07
05
F4
FC
DC
F9
F2
F9
F9
28
16
09
1A
0A
29
16
15
06
03
09
14
FA
EF
0A
F7
0D
06
07
F4
02
F0
F5
D6
E7
F5
0A
1A
13
05
19
14
F0
13
14
20
03
02
09
08
FE
F2
FE
07
07
07
16
0E
1B
01
17
E6
CE
CE
F6
01
F8
F1
E2
F4
E4
13
1F
0A
02
FB
FA
15
03
DF
EC
05
1B
0D
08
16
17
0F
04
EC
C0
D8
C1
B9
CD
D2
D8
C5
D3
EB
00
01
0E
F5
FE
1C
EF
04
FF
06
0D
0C
1F
F4
12
1B
05
ED
F8
E7
E8
DD
C9
D5
BF
D3
B2
CD
01
EC
F2
07
1F
01
0D
F7
0D
0F
12
FA
01
14
16
13
14
F9
02
04
0A
02
FC
E2
E6
C2
E2
D7
16
E4
FF
10
22
19
F9
F4
01
03
05
09
F9
17
09
1A
F6
08
15
18
14
0E
05
0C
F6
F4
05
E2
D7
ED
E3
F4
1E
0D
0C
F4
04
0F
01
0A
14
00
12
FE
FB
ED
08
04
02
15
0C
05
11
26
13
F7
DE
C9
FB
00
09
17
14
0C
01
0B
13
02
08
0A
12
0C
FB
F2
0A
14
11
02
FF
06
01
01
12
FD
F8
E7
00
1C
F2
0F
23
03
EA
FC
04
01
1C
FA
F3
F3
03
01
F3
0B
11
08
00
0C
15
FC
05
04
1E
D6
DF
F8
FF
03
02
0C
07
F3
16
00
FC
FB
EF
DE
FA
FC
FE
10
22
1D
15
1C
13
09
F9
00
0B
DF
FA
FD
ED
F0
11
FF
12
09
F0
00
1A
03
02
EB
ED
01
0B
10
10
11
0A
1B
0F
08
11
F4
07
DB
E8
E5
FD
11
15
0A
FD
F5
FD
14
FF
F0
D7
E5
07
2A
23
19
07
FB
08
10
06
F8
FE
0B
01
F5
02
F5
0D
F1
0F
1D
1E
F8
F5
FE
EC
F5
F1
E6
12
0D
11
16
0D
04
05
0B
11
EF
E7
0F
07
FC
01
05
FE
FD
0D
07
11
E7
F3
0A
F0
DB
E0
EE
0D
02
0F
14
10
03
0A
E3
04
FC
08
FC
F7
0C
0B
F9
FE
F2
0A
09
F3
07
EC
FC
FB
01
D7
EF
FF
1E
09
10
0F
17
FB
EC
01
09
05
07
EE
EA
10
F7
F6
EB
FA
15
EC
EE
EE
03
E9
F4
D9
FE
04
03
1E
1B
1C
13
11
FC
11
F9
F4
13
E9
09
EB
F2
08
06
F3
FB
04
03
F9
F7
EA
F1
F6
E7
05
07
FA
25
02
FB
0E
17
FF
E9
03
F3
EE
1C
08
F3
ED
FE
03
F9
EF
0F
FB
FD
F1
F3
E7
EE
13
FE
FE
02
08
10
05
08
15
0B
0C
F3
EC
FD
F6
F5
0B
FB
FB
0A
07
FA
0B
08
03
F5
F2
0A
EB
0B
0E
F8
04
13
FC
F1
F7
FC
1B
0C
F3
FC
F0
F5
0C
07
08
F0
FB
0B
07
FD
EC
F8
07
FD
0A
0B
08
19
F3
03
F1
EE
E1
0E
FA
DA
09
F8
ED
0A
ED
09
00
F2
F8
11
12
14
15
22
13
F2
01
03
1F
1B
02
14
FD
00
01
01
1A
EE
F9
02
12
