F9
0F
EC
07
EE
09
05
F8
06
13
0C
ED
F3
0A
FF
02
01
F9
FB
01
0F
FA
FB
04
F9
12
0F
01
F3
06
11
07
FF
EA
E4
F2
07
18
05
E9
EA
F2
FE
F9
01
0F
15
FC
D8
01
FB
E5
01
12
F9
0A
03
0B
FB
09
08
FF
13
F4
F6
06
FB
F1
EC
E6
FC
01
FB
FA
09
ED
EC
E9
CA
EB
F6
01
12
09
11
0F
F0
07
FC
F4
06
E8
E6
12
0D
1C
00
E2
F6
FB
13
EE
01
DC
06
12
06
17
0F
17
F6
F9
10
FA
03
27
1F
FC
FC
EB
FE
18
06
14
1F
11
FF
06
EF
14
0E
01
FB
F7
1F
09
2C
0B
22
22
07
FF
F4
19
12
FD
F5
05
F9
19
0C
14
01
06
0F
F8
01
0B
18
0A
F3
F9
EA
10
24
32
04
2C
0A
11
06
F7
05
EF
0A
F8
FF
10
15
02
0A
00
05
0B
0B
14
0A
00
11
EF
E5
12
15
04
E4
08
F1
17
FF
1F
30
0A
04
F7
03
ED
FF
17
F3
12
0C
FD
EE
0F
00
0D
F3
05
E8
F4
FD
F6
09
2B
FF
01
2D
F6
06
16
0E
13
0C
0F
FB
F9
F5
00
13
EB
09
EF
FA
F1
FE
FA
E0
03
10
1A
05
EF
0C
04
F2
F9
07
0F
FA
F0
FD
00
0D
FA
F5
F9
EF
F2
00
07
12
09
0E
E8
F9
E8
EB
0F
00
09
05
0E
0E
D8
04
06
0C
ED
F2
FB
0C
E9
E5
CC
DB
E3
04
F0
0F
FD
0A
EC
EA
F7
D5
04
07
0D
13
ED
15
F3
FB
0D
19
E9
E4
ED
F5
F1
E1
D5
F2
EB
EA
F6
0A
F6
0F
FB
00
01
F4
06
F7
01
06
07
FD
03
F4
FD
04
EC
10
FD
E4
C9
C3
C7
EB
E3
E3
F2
F6
0C
F8
FB
FF
DE
FE
E1
08
11
02
07
E8
FE
F2
F5
00
18
F8
F9
E7
E3
E1
DA
DE
E5
EC
ED
0E
09
10
01
04
FE
05
13
08
FC
15
02
02
1E
0D
04
0B
0B
12
0C
FB
0E
03
EA
D0
CA
EA
0A
0C
0A
04
00
FB
F1
0A
01
FC
0F
0C
EF
08
E3
F7
FD
02
11
15
31
23
10
1F
EC
E2
F9
0B
0F
0C
EF
EA
F2
F8
0B
FD
1F
1E
0C
FF
FE
DD
F8
EC
F9
06
15
0E
1D
1E
0E
0D
EF
F6
F8
13
28
1B
F2
F0
FB
FF
13
04
22
FE
05
FE
F2
F5
F9
04
0A
00
F8
08
32
1D
0D
22
11
20
FF
19
FE
13
11
03
0E
18
03
1C
0A
18
F9
F0
FA
04
E4
F5
F3
FA
F1
04
11
24
02
F5
F5
1C
03
03
11
FC
04
16
15
0A
10
04
13
07
17
01
E8
0A
F2
01
FC
07
0A
FE
0C
0B
FE
10
13
06
F9
0D
FC
0B
FB
FF
04
1A
05
F9
11
F4
0D
FF
FF
1A
23
1B
0C
06
20
18
10
0E
0F
19
10
F8
02
0A
20
14
0C
00
FF
19
2C
17
FD
12
13
F7
F5
12
11
1B
15
00
F9
F5
FF
F1
E5
05
F8
00
F8
01
01
06
EF
16
29
25
0B
25
FB
03
04
0A
FE
28
2E
FE
11
1C
0C
08
FB
00
E3
EC
04
FD
F4
E1
DD
F2
ED
03
0F
34
25
0F
1A
F6
FC
0F
F3
FD
1A
0C
F6
F1
02
13
E5
E6
F2
DA
F0
E9
F7
D7
F3
FF
FB
01
28
16
34
1A
16
03
02
02
FC
F5
FF
14
F9
ED
E3
F7
F2
D9
FD
F7
01
07
FA
E0
F8
FD
05
FD
0C
F5
06
F1
0B
0D
EC
F7
F7
01
2C
FE
FA
FA
14
EB
DE
06
F5
07
11
03
03
F4
06
E4
F8
E9
E7
E7
F3
EC
FA
F4
ED
10
07
EC
ED
F3
04
0E
FB
05
E4
F9
08
F0
07
0A
16
F2
E3
ED
F8
06
F2
0F
EB
04
0A
FB
F6
EC
0E
00
0A
00
EB
F9
0E
F5
FB
26
FE
00
FF
0E
F9
D8
D9
01
01
13
F8
F7
EC
F7
0A
10
FF
F7
F7
FE
FC
0E
09
10
10
11
ED
FB
FE
0C
02
0C
FE
EC
02
00
F3
14
F0
EF
F1
EE
FC
F5
11
0B
0A
11
EF
F4
13
14
07
13
15
12
FA
00
E5
FC
F8
0C
24
EF
F6
05
F1
0D
09
FC
00
F2
FC
FE
EC
F1
0A
E9
02
FB
10
0B
05
F2
F7
04
FF
EF
DC
CD
F2
F5
02
E3
FA
0B
EB
EF
02
F6
FE
0A
F9
1C
09
FF
F7
0E
16
14
E1
EA
EF
EF
F4
E7
E7
D2
ED
FC
F2
F9
EA
11
00
09
00
F3
13
F7
18
07
02
FA
05
E8
F9
DB
EC
EB
EC
D3
EF
E0
F2
DF
EB
EC
FD
EF
FD
0C
F9
DF
00
F4
0C
01
12
11
08
09
12
0E
F1
F7
E9
ED
D9
E7
EC
F6
02
F4
FD
01
02
F0
DF
F6
FC
E9
E7
F8
06
0F
08
11
FC
14
18
0C
0A
1E
0D
06
FE
05
03
F7
05
F4
1E
04
0C
E9
06
F3
EA
F4
DB
E8
00
05
F5
04
03
1F
14
17
1D
2D
0C
0A
0C
13
12
FC
FE
F3
11
0D
06
04
FF
0C
FC
E7
D8
01
FB
02
1C
15
19
26
1B
09
0E
21
25
24
26
15
20
09
0F
11
03
F8
FC
04
0A
20
15
D8
E2
E5
0D
13
0A
21
24
27
FF
24
07
1A
1D
1B
1B
29
1A
1F
1F
07
FB
16
0E
15
F4
04
06
F4
EC
FA
0A
F6
FB
08
00
FE
13
05
1A
FD
18
15
13
20
12
28
03
02
ED
18
0C
00
1C
04
EC
FB
EB
FE
1B
10
FF
0B
17
06
F0
FF
F6
F8
07
0E
07
FC
F8
F7
F3
FB
00
FD
0E
FB
F3
F3
EB
D2
06
00
FC
08
F9
18
EF
EF
F1
DD
F8
E7
E8
F2
DC
C0
EA
E1
F8
0B
FC
09
FE
01
EA
F4
E4
F1
0E
05
F9
13
19
15
03
C9
E2
D1
F2
EB
D9
D9
D5
C5
E0
ED
08
F1
FE
F2
EC
DD
E6
E8
E5
1E
1E
08
01
15
01
09
E2
DC
E3
CD
E6
EB
D7
D8
D3
F0
F1
F2
F7
F6
F8
FD
0B
ED
E3
F0
EC
26
2A
21
17
05
F7
0A
E1
F3
D5
DE
01
EB
F1
05
F8
FD
FD
F8
FA
F6
06
05
1F
FE
FC
FB
04
29
00
41
1B
0B
00
FC
F9
D2
00
16
02
EE
F7
F4
F7
16
F2
FD
F5
EE
05
F8
11
F7
06
2A
0C
1D
05
25
2C
0E
05
DE
D2
DE
EC
E6
F7
EB
EB
FD
F8
03
06
02
F6
F8
EB
0F
0B
13
07
29
2A
04
1E
1A
FD
EF
14
F8
E5
FF
FE
E6
FD
EC
F2
0A
03
FD
0E
FC
00
FC
0D
0C
05
0D
07
09
0A
0D
27
ED
0A
EC
F4
00
00
F9
F3
E9
01
02
02
FC
04
1B
0A
FF
02
12
F2
F5
1B
FD
1A
06
20
FF
0D
09
FF
05
FC
F1
07
1E
07
FB
FA
F0
0A
F6
FC
02
09
03
EB
F0
F0
F4
FE
09
0C
F9
FC
FB
02
05
07
E3
FC
23
1E
23
1A
0C
FD
00
06
F9
F1
15
18
08
07
07
F3
00
0A
07
00
ED
E1
F8
F4
02
12
00
16
02
11
0A
24
13
20
F1
0E
0E
04
EC
FA
03
EC
FD
0F
11
14
04
F2
ED
EC
D5
01
02
0C
01
02
03
01
0C
04
12
FE
F2
14
FD
0C
13
11
F0
14
06
06
11
F3
F3
EB
ED
F1
0C
1D
16
04
F7
F3
16
23
19
1F
1E
0C
F7
0A
F0
F2
FD
F7
1C
09
FF
F7
0F
EF
E3
ED
E7
DA
11
15
27
0D
F0
F7
E6
F0
1C
00
19
02
14
0F
19
07
0C
06
0B
06
1C
01
19
05
F8
DD
E1
EC
E0
0E
18
EF
0B
F7
F9
EC
01
05
03
1E
07
FD
02
10
02
00
0B
14
1A
25
1B
15
01
F8
04
FF
FD
11
0E
F9
EF
05
F2
EC
18
FC
28
04
1A
33
2B
FE
12
12
0D
0B
1D
0E
18
FC
03
EE
F2
26
04
0A
07
EF
03
10
F0
F6
12
10
08
EF
0B
FF
F0
10
F6
09
F9
15
01
FB
0B
12
FE
0E
F9
F5
F5
ED
12
05
F2
EE
0D
01
FB
02
0D
19
04
03
06
06
12
21
13
20
08
05
FC
00
0C
07
28
FF
0F
0A
0A
0B
0B
12
0C
FF
10
0A
0F
2B
36
29
0F
0D
23
31
0E
19
12
21
12
04
0A
24
10
1C
22
F7
FE
EE
FA
07
F6
0A
F0
0D
0B
19
FE
29
17
11
FA
10
11
E8
01
06
09
16
2E
18
17
F9
03
E3
04
09
F6
F1
ED
FB
11
09
0A
0B
00
11
04
05
13
12
FB
00
0B
24
08
0C
15
0B
04
28
EB
1D
FD
E2
F2
05
1A
0C
25
10
07
04
00
10
F5
F1
0C
0D
08
10
08
0E
00
0A
16
FD
FF
20
1B
08
0F
F8
02
17
11
02
F0
09
F4
E2
FD
0B
03
03
F9
12
08
12
25
05
14
1C
10
03
09
23
1A
1A
FE
0A
FD
0F
0C
EE
F4
11
FD
15
ED
0B
13
07
1A
15
22
18
08
08
FC
1D
13
06
F4
FA
12
26
1D
00
04
F4
04
1C
01
16
F3
0C
FB
0F
1A
18
13
04
19
15
F3
FA
EF
E0
EC
DC
C9
E6
E8
FF
15
FC
FB
DE
17
10
1C
F9
FE
FF
0E
F2
F9
EC
01
02
FE
F4
CA
CA
BF
C7
D6
C2
DB
B8
BC
EF
F4
2A
12
08
19
0D
18
0E
0F
F5
05
FA
E9
FB
00
F6
EF
CE
DD
C9
BE
E3
CD
CA
AC
B7
C3
EF
E8
0B
FE
EE
1D
1C
FF
F9
F9
DA
DB
F2
D5
EE
EC
FB
EF
E1
E1
E7
F4
EF
F3
C0
C4
DB
CA
DF
DD
EE
0C
00
08
17
F5
DE
DB
E7
E1
F5
E5
00
02
FF
EE
06
E5
0E
FA
F3
F6
02
FC
D9
E3
00
02
EE
10
F9
ED
0D
D3
DE
E6
DE
E9
DB
00
E6
0F
0F
0D
FA
EE
FC
11
FC
0F
02
0A
10
0F
FD
FA
0D
0B
08
E9
06
D8
F5
FA
F1
F2
EF
EC
EB
0E
FB
0F
FE
0B
F6
08
F6
F5
11
0F
0B
08
1C
19
02
FB
FB
03
15
F1
09
0A
00
FC
F6
03
0E
03
FD
01
F0
EA
EA
01
F9
0C
F8
0A
0A
0D
29
2D
F6
07
0C
EA
05
07
0A
F0
F7
E7
10
08
0F
F8
04
03
07
E5
03
04
F9
11
16
F7
FB
1B
39
35
03
F9
01
0B
19
F8
FC
F0
F1
FF
FA
01
FE
F4
09
11
F2
10
0B
F6
11
0D
1E
00
F7
26
27
2C
F4
05
FC
DE
06
0A
FC
FF
F5
08
02
FC
03
FB
07
F2
17
05
0B
1A
02
F9
F4
FC
04
0E
23
0E
FC
09
0C
F2
F4
0D
FE
07
0C
F5
11
09
0C
11
0F
15
1B
01
08
11
0D
12
0E
04
09
29
10
22
FA
F3
FF
EB
09
0D
18
01
15
18
0B
0F
07
1D
06
FF
07
11
1B
11
1E
0A
FD
01
0B
FF
25
1D
1A
0F
11
F8
FF
F9
01
03
11
02
0A
18
0B
07
FC
0B
0B
F4
FC
1A
21
13
17
0F
1D
15
FE
0D
F9
09
E1
F9
F4
F8
13
07
18
0D
1A
07
03
FE
09
EA
F2
15
17
07
00
26
16
F9
23
12
06
13
EE
01
14
FF
EB
18
0F
09
05
18
1A
FA
02
1D
00
06
08
0F
FC
FC
F0
10
0E
14
FF
14
0F
05
FF
FA
FF
02
03
F7
09
16
08
18
18
04
16
17
FA
16
0A
FB
06
14
0D
EC
0A
0D
0B
27
28
04
FF
ED
F0
02
13
06
02
24
1D
2D
1C
FB
1F
27
0E
14
F7
08
0F
FF
F4
E0
F5
12
F7
0A
0C
03
02
ED
05
13
08
12
EB
F3
EE
01
EE
11
FE
09
F4
F3
E9
E9
04
0B
02
1E
0A
18
0A
F6
F1
F0
F6
0B
F8
EF
06
FF
F8
19
F4
EE
0E
0E
FF
13
F0
F4
FA
F8
10
EC
0F
0D
FC
F3
05
FE
EE
11
10
F9
07
FB
05
05
F0
FB
12
00
13
0F
FA
F9
09
FC
FD
FF
F3
0D
F8
EF
F0
F3
04
EC
07
F4
FF
FB
FA
0D
F9
0D
16
05
03
E7
DC
EC
15
DF
EB
12
FC
ED
05
E1
EF
F3
EB
DC
F3
F0
F6
EF
09
F2
0A
10
03
F7
00
10
10
FA
04
0A
00
28
23
01
F4
00
DE
D5
01
00
F0
08
0A
20
0C
09
F1
07
F0
F3
FF
E9
F9
E9
07
1C
03
14
F2
11
10
0D
0A
00
08
EA
06
ED
F4
F8
08
1E
F8
18
0E
EE
09
FE
12
12
11
08
E6
0C
01
01
FB
04
0C
EE
03
01
F7
0A
06
F9
16
02
1C
03
EB
FA
06
F1
07
F9
F7
1E
F4
F2
E4
0E
FB
F5
05
01
01
05
F1
01
14
FB
FA
05
09
08
05
0E
F6
11
14
03
00
0C
0C
03
EC
0E
E3
F8
FE
FA
F0
E4
01
F7
F0
F9
FF
FC
15
0F
05
12
05
EF
D4
EF
0B
14
F3
00
03
18
17
07
0A
EC
FB
FE
04
04
FD
02
05
00
0F
15
11
04
19
FE
06
D9
DE
F4
09
12
F9
F6
F8
F0
E2
08
F8
EA
05
01
0D
FC
06
FF
FD
F4
22
F9
08
00
0F
EC
FA
DF
E0
F7
EE
14
0C
FC
EF
04
FE
ED
F1
FC
F0
08
EF
03
F7
F2
DA
07
17
1D
14
06
EF
16
F4
EA
D4
C4
1D
EF
09
F2
00
EE
03
E1
FB
02
EC
F0
F5
F4
DD
D3
E7
09
21
2B
1D
FA
1F
F5
10
DC
D7
CF
0E
FE
16
F1
F9
F3
09
EA
F5
F0
03
06
ED
FE
E6
CF
C9
EA
FA
02
08
08
FF
FC
11
EA
D3
D5
05
05
02
E3
0C
17
F2
FC
F0
00
F5
E9
FB
ED
D2
E4
D2
E5
FA
12
07
10
05
0B
20
38
11
0D
0C
0A
03
ED
11
FB
06
06
04
F0
F5
F9
E0
FE
EA
EB
E3
DF
E1
F5
ED
04
00
28
1A
4D
31
11
0A
06
EA
06
0B
30
14
2C
1D
08
EA
08
FC
F7
DE
D7
EE
EC
F5
E2
FE
FE
FB
0D
18
18
0E
12
0C
F3
FC
0A
0E
1A
0E
00
25
1A
15
18
06
E8
03
E8
F0
04
FF
07
0F
17
02
03
F6
04
0C
0B
FE
FC
EF
0C
FB
0D
18
12
24
05
13
25
00
FB
01
F5
F8
0A
0F
0A
05
0F
13
00
09
F9
25
2E
05
0B
08
0B
FD
07
13
F7
16
1C
1E
09
1A
0E
03
EC
1B
FA
0C
12
0F
00
06
FB
ED
F4
2C
1B
04
F6
02
EF
03
EE
FE
FC
03
0E
22
1E
09
0B
0B
FB
F6
12
09
0C
04
00
11
18
F8
09
1D
0B
F2
10
17
FE
FF
F8
F3
F1
0F
08
11
15
29
15
F9
EF
F1
F9
01
09
FC
FC
0A
FE
02
F7
0D
08
F3
12
10
0C
0C
01
EE
F7
FE
14
05
38
27
0B
03
F0
FF
F1
F8
FA
0C
07
FB
F6
00
EF
1A
09
01
ED
FF
FC
1C
03
FB
07
EB
03
13
11
22
17
F5
E9
F9
14
04
05
0C
19
10
15
16
1F
FE
23
FB
F0
F4
EB
F5
F6
08
F5
F2
19
1F
17
02
0D
F0
FD
F7
F4
0F
1B
FC
12
03
04
08
1A
25
10
03
FF
0C
FC
FB
F1
00
0B
17
10
18
1A
1A
0E
F4
ED
E4
ED
EE
09
F9
FA
10
0A
E1
0E
25
18
ED
11
12
08
F3
14
01
F1
FE
23
02
05
20
19
F8
FB
E7
F9
F7
07
EC
14
FA
F2
05
00
1B
FD
FA
0D
10
FD
05
F7
0D
F5
08
01
04
FA
D6
DD
DC
C7
C5
C9
DC
D2
D6
E2
E0
D9
DB
F9
F8
12
FD
0D
F7
00
FB
0F
F1
10
28
22
06
02
01
FF
E6
E1
EA
D2
E0
E7
DE
D8
C7
D5
DF
09
FA
FB
08
F1
FC
F5
F7
0F
09
F3
F8
F5
FB
FE
FC
F9
FC
F8
E9
F0
01
08
02
E8
EB
D7
03
F1
F5
0A
0E
FB
FD
FE
F2
F5
12
F6
FF
04
12
14
0B
FA
0C
ED
EF
00
07
12
03
F1
FA
FB
12
F9
01
03
14
FE
0C
0A
FE
FB
EB
FA
EB
FB
E9
F3
E6
F8
FF
06
E3
EC
FA
00
E6
ED
F3
E1
EB
0E
13
03
F1
02
03
04
F6
05
F5
E7
E8
EE
E9
E5
FF
04
FA
F8
F1
D8
D3
ED
CC
F1
EF
D6
E7
06
05
13
12
0A
02
1D
FF
E6
02
07
D7
E5
F0
EB
EF
DD
D9
E7
E3
E5
FF
04
FC
F2
EC
09
F6
08
06
02
F9
F7
EF
0B
05
E8
FA
E4
E7
F6
09
F0
EB
EB
EE
DD
E2
FC
FB
EB
02
02
04
0B
F6
F2
0A
0D
04
14
F8
11
F8
E2
EC
F9
FB
05
E7
DB
06
0E
FE
09
03
06
10
FD
04
E4
ED
02
01
0F
04
20
06
11
FE
01
FE
F9
FD
07
04
F0
EE
F0
ED
00
04
FD
0A
0E
F7
08
F7
01
07
FE
0B
F2
EF
18
FF
F6
F8
F3
FA
F7
F9
07
FF
E7
FB
F7
08
F7
0A
0E
07
07
F1
05
0E
09
01
06
05
0F
06
EF
FA
EB
09
E8
04
FA
FC
FB
EA
FC
F2
ED
03
10
0C
11
06
FC
EF
FA
F4
FF
0F
0B
13
FB
F4
0E
FA
E9
01
FF
08
05
FB
11
FD
F8
EF
EE
06
04
07
16
08
F8
E6
FC
00
FA
0B
11
15
0B
FF
FF
0B
F0
FE
E5
ED
FB
09
0D
FF
FE
F0
0D
F9
F2
FE
01
08
EE
06
05
E2
F8
F6
1B
02
04
D7
E3
FF
FD
E9
05
D8
EE
24
0B
0E
18
14
19
F8
F8
06
19
08
0D
EE
05
E7
F1
0C
09
FF
00
F0
DF
F8
06
F4
FA
EE
22
11
0E
1A
0E
1C
01
05
F1
FF
FE
00
01
FD
01
07
1B
22
17
17
0A
03
E0
FF
ED
E9
FF
FE
01
FE
15
14
F7
F5
E8
06
EF
06
16
0A
0B
04
1B
F7
08
2B
14
07
04
EC
0B
13
08
03
FC
04
0F
09
08
0E
07
E5
FD
F4
02
0C
1A
14
13
07
F9
0C
10
17
01
12
F4
F8
07
13
0A
EC
EB
13
18
EA
EA
F7
ED
F9
E4
11
0A
0B
09
1E
00
F5
EA
0A
FF
FE
0C
18
FA
EE
DC
EE
18
FF
FA
1A
F4
01
DE
DF
F1
FD
04
0A
1B
07
18
13
11
0D
F4
ED
EE
04
EA
FD
FE
DA
EE
02
F3
F1
0A
11
C8
D3
EC
F6
EE
E4
0D
16
03
17
0E
07
F7
ED
05
FF
09
0E
F7
E4
F7
04
FC
F3
00
FA
05
07
CC
D4
F3
E9
FF
EB
11
1D
17
08
FF
E4
F7
DD
DA
EA
06
0E
F0
DA
DC
F5
EA
EE
FB
F9
DF
E9
BD
F0
F2
EC
F3
F8
08
0D
1B
EF
EC
F2
ED
F8
FD
FC
F4
F6
F7
DF
FC
E9
EE
F1
FF
0F
E0
D1
D9
ED
ED
F3
01
FF
F5
0B
19
0A
EC
F0
EF
F4
E8
FE
F5
04
F7
03
EC
F6
09
E9
0C
F7
D6
D3
DB
00
0F
0B
F2
07
FF
02
0C
FE
E9
FF
E0
FE
EE
F7
E6
09
FA
FF
FD
17
F5
00
F1
0F
F5
EB
DA
F3
04
FD
FF
08
FC
0F
FC
0E
F6
EF
FC
E7
05
01
EE
FE
08
0C
04
F6
EF
0A
F7
07
EB
D2
E9
E1
FC
F9
F5
0B
E5
03
16
0D
13
F1
0D
03
FA
E8
F7
E6
08
05
01
FE
D1
02
04
07
0B
F0
0D
04
FF
18
F8
FF
0B
10
FD
02
0D
0B
ED
F5
EF
06
F8
02
07
15
00
E9
FC
FB
05
06
01
F5
15
0B
12
07
03
EC
02
F4
03
F8
FF
09
E2
E7
DF
0C
0F
FB
F8
01
FB
FA
FE
0C
F4
F8
FE
E2
04
11
09
12
F2
EB
FC
FA
FB
DB
EA
EF
E3
FC
C8
E4
E9
08
12
F0
18
05
F8
FA
F9
11
F6
F8
FC
F0
E9
F7
FD
E2
F5
F0
04
F4
07
17
FC
0C
DC
F4
F6
06
FD
F7
F4
F8
EF
0F
FC
01
10
0D
F5
F3
0B
F2
14
14
EF
F6
0B
FD
ED
12
F9
F0
14
EE
FB
07
00
EC
05
08
F9
13
10
0C
F2
F3
06
08
ED
FF
FB
EC
FF
EE
F8
01
08
E7
E2
E6
DA
DB
DA
EA
D9
E1
F5
F3
F0
02
11
13
0C
F4
D7
EF
EB
E0
EF
F8
DE
F9
DB
E3
FD
E8
FB
D6
D6
E7
FB
D3
EE
EE
F0
03
FF
04
00
F5
0A
E2
F4
10
DE
DF
E8
FE
02
08
FE
FD
1F
FC
0B
02
EB
D2
F9
E8
D4
EE
F3
0C
F6
0E
04
10
08
08
FD
03
0F
F1
06
ED
F3
EF
F5
02
E7
F3
F1
F1
FA
E5
12
F1
FE
EE
F4
E7
F7
E5
F8
06
F7
03
F8
F2
01
FB
F5
01
E1
FB
F4
FA
00
F2
00
F9
09
ED
01
04
E5
01
01
01
F1
F2
04
0F
EF
F1
0F
EB
E7
00
F5
DB
DA
E3
EE
EF
F2
0E
08
0D
FF
F8
04
0B
0E
F8
E6
F7
0E
02
12
E1
01
F3
EF
EC
DA
E5
EF
F3
04
F6
06
F3
F2
04
FA
0D
09
F4
00
FC
03
E8
F2
07
0D
E4
E6
F3
15
EB
FE
DD
E0
FB
EF
E7
F4
04
02
F2
02
EE
FD
F5
FF
EC
F6
F2
F1
EE
04
F8
05
04
02
02
E7
D8
E7
F1
F9
FD
FB
F0
F8
FA
FF
08
E2
E2
E9
EE
F1
05
FF
00
03
02
04
FA
F4
06
F8
FC
01
D6
F5
DE
06
F2
19
02
0D
FC
FD
00
DD
EB
DF
08
01
0F
E9
E7
FC
FC
DA
FC
E5
F5
FC
EB
EF
FF
FB
E2
F1
04
00
03
00
FD
12
F2
F5
03
FC
0D
FA
18
FF
FB
EA
E0
DC
00
E5
FE
06
ED
D6
E7
02
DC
17
1C
FF
0D
2D
09
1D
06
13
25
18
13
1C
0E
00
EB
FB
CB
C4
F7
18
00
FF
EA
F2
E7
EE
EF
19
1D
0A
20
0F
1C
23
26
13
1C
0C
1D
01
0F
0A
F6
FE
E0
D6
EB
0F
FD
05
F8
DF
EE
02
F2
0F
15
16
11
15
11
0A
26
0F
07
27
0C
22
0A
FE
EB
F3
F3
F8
08
19
16
F9
FB
E6
F2
0C
05
04
16
19
0C
03
22
16
FA
10
24
2C
14
17
16
11
F1
E0
EC
E4
EF
0E
03
F8
F8
EF
01
1F
14
0D
1E
11
F9
14
06
0A
F4
12
20
24
1B
0A
FF
F2
F8
E4
02
E4
F9
FD
15
0B
EF
01
F2
0D
F3
FD
16
08
0B
07
1B
12
1C
0F
15
09
10
06
FB
F8
F9
E7
F9
EF
F2
14
25
EA
F8
FE
FE
08
FD
01
F4
FC
04
10
00
F4
0C
0B
18
15
F8
F9
FA
F3
13
FA
F9
10
0E
FF
F3
0F
EB
06
EE
0A
0B
17
F3
08
F2
02
EE
F4
00
0E
F8
F3
FB
DB
FE
E5
F8
0B
06
07
FD
0C
F0
02
E4
0C
F1
13
FF
DF
E7
EA
DB
F6
F5
D5
EB
E3
F0
F8
00
EC
F8
02
FD
F4
FC
F5
05
EB
FC
F9
01
10
FA
E5
F6
DA
EA
DD
EC
E3
D4
E7
E4
EE
DB
F5
E5
D7
E6
E2
F5
F5
FB
1D
0D
FE
FF
0A
10
01
07
DF
D9
F4
D9
E6
E9
01
DE
EB
FA
DA
D7
ED
E1
DB
EF
F7
EB
FE
EE
0C
14
EE
FB
EC
13
F1
FA
DF
E1
00
EA
08
DD
F5
EE
E3
F1
E1
E8
EB
F2
F9
07
EB
F4
F8
EE
02
FB
0A
F3
00
14
12
D8
05
0D
10
FD
F9
EA
00
EB
E2
DA
EF
FD
EC
05
0D
05
FA
0C
10
FA
10
29
F9
08
11
0F
23
F3
15
10
05
FC
0B
0B
F7
FE
E0
0F
FB
FE
0C
03
F5
08
20
07
0B
0B
0A
01
F8
F5
F4
0D
12
15
FD
E9
1D
FD
FD
19
00
00
FA
F7
03
03
EF
03
06
04
17
07
FB
00
F5
F3
07
EF
FB
08
F0
F8
08
EC
F3
00
DD
F6
E6
06
F4
ED
05
11
0E
E0
FD
EC
01
F8
ED
09
EE
09
0F
FD
00
0F
0E
F6
06
FB
FC
F9
FF
04
EE
11
FE
0C
03
0C
FE
FF
EC
0E
04
FD
11
F9
11
FC
08
EF
0F
05
EE
F2
FD
12
DA
E9
F5
DA
E7
F3
E2
E2
D8
E0
DF
F0
DF
E2
DA
EF
F5
08
FC
01
EC
07
FD
FD
13
FB
F9
F5
ED
DD
F2
C1
DF
F1
E8
F3
B8
E7
07
EC
D0
FC
0F
08
03
F5
02
EE
ED
12
F6
02
F9
F4
EE
09
E7
D6
C3
DC
DF
F9
B7
AF
DF
CE
E4
ED
C4
E3
0B
30
27
21
F7
04
05
F0
12
01
14
09
01
03
D8
E3
E0
CD
F4
E2
12
01
F9
EF
E9
0C
1A
2E
26
29
00
09
12
04
05
03
F7
F5
EC
19
31
0A
FE
EA
EC
12
F9
06
F7
F9
E0
CC
CC
E2
03
17
12
1A
28
21
1D
1B
FC
F6
EF
0B
1B
16
43
26
0D
04
FC
FE
FA
F8
EF
FD
E7
CA
C7
EA
03
1F
00
14
03
29
14
0E
03
0C
15
18
14
1E
28
00
00
0D
ED
F1
F6
0B
F9
01
D9
EA
C6
ED
FE
01
03
0D
04
F6
01
03
0A
03
E9
1A
34
F9
2B
00
F4
18
19
11
05
00
10
ED
E9
C9
D5
F2
0F
F7
08
1D
FD
0B
F0
1F
FC
07
10
27
06
09
1C
EE
ED
0A
F7
0E
15
28
23
F6
01
C5
E3
07
17
0C
0E
10
EB
F6
F8
07
E0
FC
0F
16
0E
0E
0A
0D
0A
FB
05
01
19
2B
29
06
E6
E8
F0
1B
1B
18
0D
13
00
F8
EF
D6
E0
F3
F9
09
0A
01
01
F9
FB
02
F8
1D
13
1B
2D
FA
D3
D5
09
0A
2E
FE
02
F2
F7
0C
CC
D5
04
F3
F9
13
FC
08
09
F7
03
1C
1A
0B
15
30
0E
D9
CA
E2
12
26
17
02
0B
12
0D
D0
F0
FE
0A
15
F7
25
00
FC
08
11
1D
11
0F
1A
20
16
E9
BC
D1
D3
03
2C
14
FF
F9
0D
F1
F6
D6
E0
FB
F0
27
0F
16
04
F5
07
FF
FF
0A
FE
01
E0
DD
C6
F1
ED
08
04
0C
0B
F7
EF
ED
FA
E9
FA
03
FA
0F
01
18
1C
09
08
0E
FF
00
FE
F5
E5
E7
D5
09
0A
10
23
0E
F5
04
F7
F0
0A
CB
FA
F6
FB
0F
00
FF
1D
04
05
2D
1D
00
F8
E7
D7
CA
EB
01
07
04
FE
F3
F8
EF
16
1B
18
FB
0E
15
0B
09
F5
2A
12
0E
F7
F0
07
E9
F3
BC
C7
D8
F4
07
F2
1F
0D
0F
02
06
FA
0C
17
1C
1B
1D
02
DA
F6
09
30
16
03
02
ED
F5
DF
BA
E3
03
12
17
00
12
0A
13
1D
08
F0
F5
FB
1B
11
0A
20
12
07
FD
25
15
FD
F6
D4
D2
AF
E3
E3
09
F1
16
0C
F5
05
08
17
FF
E1
D7
EC
1E
20
FC
14
09
14
F8
E4
D0
C4
D5
C9
BF
CB
FD
FF
FF
04
11
01
F0
00
00
13
FA
FA
F1
E2
1F
E6
17
05
EF
FE
FF
E3
EB
C4
C7
C0
F8
F7
13
FE
05
F3
EE
0A
F4
0E
FE
F8
FA
F4
04
03
18
EA
09
FD
FD
04
FE
E7
F2
00
DF
E2
02
0D
EA
EF
05
0A
0F
FD
07
01
09
13
05
F8
F2
FA
18
21
0F
03
F2
F9
F1
F7
F2
FF
1A
00
FD
0C
F2
E0
0B
0E
F6
0B
0A
0E
06
06
13
0A
04
F7
05
13
09
0A
04
0D
0D
F0
EA
03
FB
00
EA
FF
EF
F0
F2
F5
F1
03
F6
F9
FB
23
11
11
FD
16
FC
FD
17
F2
EF
11
01
0B
18
00
EE
1D
1C
03
F6
06
FC
F3
F6
0D
F7
FC
F4
EB
E9
FF
F6
FD
FE
00
FB
0F
EF
09
09
EA
FF
DE
E1
06
00
F0
F7
DA
D9
EE
FD
0C
FC
F7
EF
08
D3
EF
14
12
F0
1F
0E
0B
F3
03
12
F5
13
16
FA
12
09
FF
14
E4
F6
03
E0
FF
0A
08
0D
E5
05
10
0F
0A
09
01
F9
EC
11
F1
0F
FA
FD
00
09
0E
03
F7
0D
0C
0D
FD
FD
01
01
07
13
F6
EC
01
FC
F7
07
13
0E
FC
10
FA
ED
F7
F1
08
14
0E
0E
12
00
F6
20
0F
FD
0B
17
08
00
F7
FC
FC
08
F6
F6
11
04
FB
04
FC
02
FA
1C
F9
15
F5
FC
E7
F5
0D
E2
E7
EB
E6
FF
13
FF
18
FD
F1
F9
FD
FF
F3
FC
F3
0A
EE
0E
02
01
1B
0E
12
16
F4
0A
16
09
EC
E9
0E
FB
0B
06
05
00
04
09
E7
F6
09
0E
FA
07
FB
00
FA
EE
0F
F4
15
00
06
1C
29
1B
16
04
15
11
F4
F4
EC
01
04
12
ED
FC
FF
06
F3
0A
F1
09
F7
F0
13
EB
00
05
FA
1B
0D
F6
05
08
08
F9
F6
05
EC
F7
F7
12
E2
EA
06
FA
E2
F5
FD
1A
13
14
0C
FD
0C
0F
03
17
19
FA
FB
F6
F6
F1
F5
01
00
ED
07
21
0A
E2
FE
FD
FC
FD
14
14
1B
2D
17
1D
1F
07
14
F8
0E
F8
01
FC
14
1A
03
17
0E
FD
FA
02
F5
0E
12
EF
FC
29
07
1C
2F
1C
05
0C
10
00
F7
12
12
03
FE
0D
FC
0D
0D
1C
05
04
FB
0B
0A
00
01
F2
EF
F6
06
08
0A
0E
01
17
02
05
1B
FB
EE
EE
FC
12
FA
02
0A
12
0F
13
03
16
E7
FC
F3
ED
16
04
14
FD
06
12
0C
10
13
10
0E
09
E9
FF
0E
F1
11
05
12
0D
16
0E
F4
23
FC
08
EA
DB
05
1D
1B
15
20
05
E1
0B
1C
10
0F
FC
19
0E
11
FD
0C
19
29
08
0D
09
F6
F5
11
0F
EB
EA
0D
F4
EE
FD
0D
01
F2
08
04
FF
02
0A
21
22
1B
09
1B
14
0F
1B
09
08
F1
FB
17
05
EC
17
0D
11
04
06
2B
06
07
FE
17
F7
F8
06
07
05
FD
F0
EB
05
00
FF
00
0B
08
0E
07
03
F9
05
F4
08
05
02
1B
09
F8
09
18
09
02
F3
03
FE
F3
FD
F2
E6
F6
22
14
18
09
0B
F8
0B
F7
08
0C
E3
0C
F2
FC
08
F8
01
02
05
06
02
EB
F9
ED
DF
EE
ED
FB
0D
0C
05
13
FC
09
0B
04
EF
02
14
FE
13
EF
09
04
EB
04
14
FB
FC
01
E1
E7
F4
E5
DF
1A
13
0D
0B
EC
F9
0E
F5
E7
E5
EB
07
06
F4
F7
02
16
E2
17
02
F5
01
E8
F0
DB
DB
E9
FC
03
17
1E
F8
FC
F0
0D
17
F9
E8
F8
0B
0E
15
05
F8
08
09
F8
FD
01
FC
F0
F1
DC
E8
FA
14
05
12
04
EA
F7
09
07
05
04
04
ED
F3
14
1C
03
07
F4
0D
02
03
FE
F3
FA
E4
F5
FA
0B
1B
12
0B
10
E7
F5
FC
F5
F7
1D
EB
04
08
1D
F4
04
1B
EF
04
F4
F2
F4
F7
E4
FA
F5
07
06
11
F8
09
F6
F0
FF
04
E4
0D
05
FF
0F
FD
F6
FF
1C
00
00
00
03
F7
01
08
02
E5
E1
F4
F2
FD
F9
00
EC
04
F3
F2
F0
00
03
F7
12
08
09
FD
05
00
09
05
04
F8
09
F0
13
FF
F5
1B
0D
16
0F
E7
F3
04
ED
E6
FD
F3
15
F4
F5
09
11
07
20
F8
FB
0A
03
FF
EC
0D
0C
0C
14
02
1B
17
00
EB
F6
F1
E5
F5
0A
20
0E
02
0D
FE
0A
F2
3F
2C
08
0F
00
1C
EF
0A
19
0F
0F
0F
15
17
10
1B
01
01
F7
FB
09
F9
FB
0F
0A
EC
09
0D
0A
1E
46
1E
1C
1D
25
20
1E
24
1C
08
0E
2E
34
12
41
1D
1F
38
22
07
F0
0B
09
F2
FC
13
FD
2B
2D
43
23
3E
38
29
35
2E
3B
23
27
1C
39
19
14
2F
27
12
1D
00
0E
10
13
10
F6
FE
F5
FC
13
FB
0A
1E
21
09
03
F6
F9
28
0A
F2
13
FB
F2
FF
08
0B
F9
F0
11
FE
08
06
0D
F2
FF
F5
FD
13
14
F3
00
FC
ED
0D
14
ED
F8
EF
F9
F1
05
06
FD
08
00
12
02
0E
0E
00
0B
04
FB
13
17
FA
F7
EE
EF
F1
EA
0A
ED
F7
F6
EF
11
12
08
18
17
28
10
14
04
0F
F6
FB
01
16
FC
1B
FC
F9
F7
EE
F9
F6
08
02
0D
2E
17
1F
28
0E
06
12
13
3D
1D
01
FB
FF
11
06
F7
E7
F6
2B
E7
0D
F1
F9
F1
D6
D7
05
13
20
F7
20
07
F3
F4
08
F6
15
FA
08
F6
FC
05
09
F9
01
F5
FE
DF
EF
DC
DF
E0
D6
D8
F9
FC
F9
00
08
06
F9
F7
FF
08
ED
06
F5
DD
F0
06
FB
12
F2
04
EA
E5
E0
F5
DD
FB
EE
F6
F5
02
0F
F2
F4
06
07
01
02
0E
07
09
07
DB
07
FF
0A
0A
ED
F2
06
EB
D8
D9
D3
ED
D7
D9
F8
EA
05
F9
08
F8
FB
F7
07
F6
10
0E
EC
DF
EE
0F
00
FB
00
F7
EB
D8
E1
D8
E9
D7
F0
EF
F3
F3
07
01
FD
E3
FB
F0
12
01
19
06
0B
DB
E1
09
F5
E1
F7
DB
DA
DA
EA
F5
E6
07
EF
08
0A
03
01
01
F4
E2
EE
05
FE
ED
FF
EA
FE
EA
02
09
03
F2
DF
D2
D1
D2
F8
0D
EC
FF
F7
01
F8
0C
12
EE
00
EA
F9
04
EF
09
FD
FA
EA
DF
FE
13
01
07
F6
DD
EC
D4
EE
0F
1D
03
11
1A
F8
F4
19
03
FA
FD
F6
07
00
03
04
F6
D1
DB
D5
EF
08
0B
E4
C7
F6
F0
F5
0D
1B
10
0C
F6
05
1A
20
0A
F5
FD
FC
F8
08
0D
F8
EB
04
E4
D4
01
0A
EB
E3
DA
E2
FF
1A
19
14
2C
0D
0C
00
18
20
21
12
11
2F
24
15
0E
FF
0B
0F
F8
EE
FF
0B
E8
00
EB
E7
D8
F6
0A
0F
FA
FD
11
18
05
0D
12
12
2A
0C
26
10
F8
FC
F5
E5
D2
CB
01
F8
EE
05
F3
F3
EF
DF
0C
10
F9
08
F8
10
15
1A
1C
FC
0D
FB
E7
D4
FA
F2
E7
EB
FC
E1
02
1E
FF
11
EC
FA
E0
EC
01
EA
04
09
01
12
05
17
10
09
FB
F4
DA
CC
EB
E7
D2
E2
FC
E8
09
00
FF
02
F1
DA
CC
EC
01
01
17
0F
00
0E
F7
18
08
FB
ED
F3
DF
DB
D1
EB
EF
F4
02
FB
EE
FB
06
F1
ED
C1
C1
DE
03
1A
0A
20
F6
0D
11
03
F4
F6
E3
D1
DC
FB
EC
07
EC
EC
CE
E8
FA
18
FB
DB
F0
C8
CC
D4
F6
13
23
1E
0F
F6
11
FC
EB
FE
ED
E3
EF
0E
F7
F2
01
DE
F3
FB
13
07
E6
E1
CF
E6
C1
F0
F4
01
29
FA
01
F5
F5
0A
FD
FD
E5
0D
EC
02
F8
15
15
F1
04
FB
14
FA
0A
F2
C0
DB
DD
F2
F1
08
0F
E9
FD
09
F6
F4
F6
F1
07
01
FF
0F
05
0A
0E
FC
FD
ED
05
1B
0B
EF
CB
D3
EF
F8
00
EC
11
FC
EC
FC
FC
F0
13
06
02
0E
FE
F1
0E
0C
08
EE
06
0B
ED
1F
1C
F9
F4
D8
F8
FB
E7
02
E7
E9
08
FB
15
03
F9
FC
10
09
F6
0D
15
E2
E7
0C
1E
02
F2
F9
FD
0D
D6
DA
09
FF
EF
06
F2
EB
F7
11
0C
03
08
06
1A
20
11
04
F5
ED
ED
0D
F9
F4
F4
FB
06
0A
F3
F2
F3
EE
E4
F1
F1
FB
00
F8
EE
F8
05
0C
01
15
FF
FF
02
05
06
F7
0E
E8
F6
F2
F4
1E
FD
EA
F4
ED
F0
08
F6
F2
EC
F8
06
FB
FA
0F
FC
FB
00
26
F3
F9
FA
08
03
F9
F5
F5
03
10
09
21
19
0F
1B
30
36
0D
11
16
FF
03
16
06
05
EA
E4
F2
F5
F9
13
13
F0
F9
F3
0F
01
0F
FA
EC
E5
FB
02
0A
02
09
F5
0E
01
14
EE
DE
E8
F6
12
F0
F9
08
EE
EF
F7
FE
F8
F4
0F
13
F5
00
FA
ED
08
12
11
0D
F5
00
0D
00
F2
04
09
10
12
FD
0C
F1
03
0F
01
13
EE
FF
ED
14
04
F9
FE
01
11
FA
F9
FF
F9
12
F2
FF
01
E7
F7
0A
FA
FD
EF
10
0B
12
F3
0D
0B
11
F9
EF
EC
0D
FA
0D
03
02
F2
18
0A
ED
16
05
F1
07
FF
FE
EF
EA
04
FE
07
F8
11
F1
03
0D
12
11
EC
F2
0C
F7
FC
04
FD
08
0E
1D
1B
23
20
04
02
14
07
07
09
F6
ED
07
E1
0E
0B
F4
11
F5
07
E8
07
FC
04
11
21
00
0F
19
11
0A
19
FA
11
07
0E
04
F2
0B
EE
03
EC
F6
06
12
09
F0
0E
08
18
FD
03
08
09
06
03
07
15
FF
0D
11
08
10
10
FC
11
08
02
05
10
0C
03
F0
F7
03
FD
13
0D
F9
11
11
09
03
02
F8
0F
0C
F4
10
04
02
09
12
FF
FF
F5
0B
0A
0F
10
F2
F8
E9
15
0C
0B
06
F6
F9
01
0E
FE
13
F8
12
05
1A
01
0B
0D
0F
15
EE
F6
09
1B
1B
2D
16
13
EF
1F
05
04
F9
04
F6
00
00
05
10
0F
0F
06
0A
10
1A
0F
FB
13
03
FC
00
25
16
0C
14
1A
19
FE
1D
F7
FE
0C
09
E8
09
EB
06
15
14
0F
FC
01
0D
04
04
13
13
0E
1C
34
0C
22
11
12
1A
16
17
F0
05
E5
FA
E6
F6
05
10
0C
F4
EE
F9
F6
F5
FB
04
FF
EE
F6
1F
07
36
1D
03
0B
1B
18
F8
07
F8
F1
F0
F3
04
03
13
05
F2
E9
EC
F3
14
F2
0C
05
DF
03
02
F8
31
0E
0C
16
20
07
02
F7
F9
04
03
02
19
13
F9
F7
ED
F2
F2
EC
FB
F5
F8
FD
E7
D7
F2
D6
09
F3
05
19
33
10
F9
0E
08
21
08
0A
0E
0F
EE
05
DF
E2
EB
E0
F5
E9
08
D6
F1
F0
F2
0A
22
06
1C
0C
2F
FC
0A
21
08
0A
19
FC
F6
FA
E7
D6
F7
EC
E2
EA
F8
F7
0E
FC
F7
F0
13
F6
17
F0
06
02
0C
F9
19
05
08
0F
E4
E1
D9
CF
E7
ED
E1
DE
F5
04
0A
FC
04
04
F2
00
FA
0B
14
EA
F0
11
FC
0E
12
0E
EC
E2
E1
DC
F0
E8
DD
D5
DA
EC
F1
F9
F8
FC
12
03
F8
0A
00
13
1A
FC
12
F4
FA
1D
27
0A
E3
D3
E0
C3
C8
CD
D2
D3
D5
EF
01
F5
09
19
18
FE
05
14
05
02
07
0A
1E
09
F6
F9
2D
1B
FD
D4
D6
CB
D6
E6
D8
DD
E5
13
14
14
06
09
12
07
FA
0B
02
22
FD
FC
02
14
04
12
34
0E
1E
05
FC
EE
FE
F1
02
06
F7
19
10
01
FE
FA
11
03
11
F4
05
0E
07
E7
04
05
F3
23
17
0E
01
0E
0A
04
11
1D
1E
12
14
1F
11
0A
0A
FD
FE
0D
0D
17
EB
D9
FC
FB
F8
FF
00
25
11
13
23
0C
24
07
0B
0F
24
15
18
12
04
10
06
00
05
15
1A
0F
F5
DB
0E
F4
02
08
11
19
10
FD
1E
29
1A
25
17
19
1A
0C
1B
13
0C
10
10
0D
04
0E
F7
09
00
E5
FE
FA
10
13
F2
0A
14
1B
03
0E
11
0D
19
21
11
01
11
00
F7
0D
0F
0B
F1
10
13
00
FE
EE
15
FE
F0
0F
EC
23
17
16
11
22
0A
0A
09
1B
09
0C
04
FC
FA
0C
11
F1
02
D9
EA
FE
0C
EB
11
F5
FE
10
FA
FF
0D
1F
20
30
30
21
03
FE
0F
15
1B
F6
06
13
1C
19
ED
E9
01
0E
FB
0D
06
11
F6
10
F8
F4
0F
08
24
1A
2E
27
24
32
26
28
16
18
39
0D
2E
40
0B
12
18
12
0A
FE
EE
01
11
13
EE
05
0D
15
06
FE
1C
1D
29
2C
28
42
39
F7
1C
22
F7
FE
1C
0A
0E
F1
0A
F4
02
10
13
F3
FE
14
14
11
0B
FB
0D
00
01
F3
01
13
F8
15
04
09
F4
0C
FC
03
08
0F
F4
EE
12
08
0A
00
06
F3
F3
0A
1D
0F
23
27
10
07
1C
21
25
2D
24
25
17
19
17
24
12
08
02
FD
F6
FB
0E
ED
07
04
04
03
1C
2A
26
3D
2F
33
40
20
17
17
27
21
22
14
20
11
21
22
2F
03
ED
05
0B
05
0C
25
25
3D
13
3B
18
29
2D
4B
2D
3C
21
26
27
23
22
0A
0A
09
19
2F
22
19
14
FF
F6
01
F7
F8
12
0B
FE
E5
0D
17
26
08
14
FA
1D
02
0C
0E
2B
07
FE
22
03
F1
E9
06
F4
18
05
02
16
0B
1E
FE
06
FE
05
11
07
07
00
03
F8
FE
1C
F9
06
11
00
01
0F
FF
FC
04
F6
DC
F4
07
FB
24
0E
FA
0D
27
12
12
08
0E
07
02
06
07
F9
FC
16
FC
09
1F
05
06
05
EB
16
08
FD
1F
0D
27
21
1A
11
09
F3
F3
F8
07
07
05
15
F7
06
FA
FF
09
07
0F
00
02
EC
07
F6
00
09
17
1B
0B
29
20
F8
F8
F9
F7
10
15
1B
00
F8
08
05
F7
E7
EA
FF
F3
F8
F9
F8
ED
23
2B
04
0A
09
2E
29
14
15
F0
04
09
FF
02
13
FB
11
05
EF
E6
E1
E1
E5
E3
10
FD
19
12
0C
23
0B
0E
19
1C
0B
F4
04
07
00
EC
E1
E5
01
07
08
FD
01
F3
FB
EA
FE
02
00
FC
17
07
0F
0C
FE
08
11
0B
11
F7
F5
EC
E4
DB
EC
E4
D8
F2
FF
00
E7
F9
E3
02
FF
00
F5
1B
FE
10
0D
EB
06
10
FF
FC
F9
CD
D0
DF
D3
E0
EB
D3
F5
17
06
0C
02
06
FD
07
EF
F6
FF
FD
1B
2F
01
FF
F3
FB
02
F3
EE
C9
BD
CC
D3
E5
D7
E8
F3
19
16
F7
F3
FD
F6
F8
EF
F0
F8
16
41
2B
23
08
01
E8
09
F4
E7
D4
D5
E8
EA
EB
05
E7
02
30
2C
1B
EE
F1
FC
08
0A
01
E7
11
37
18
0E
1B
0D
EA
20
F9
03
F2
12
F1
F7
05
EE
ED
0A
24
0F
03
E5
F9
F7
02
06
1B
19
18
1D
22
26
04
0B
18
06
0C
00
05
0B
00
02
15
03
12
1D
29
FD
08
FA
FD
04
14
FD
22
11
1C
1F
1B
1C
F4
04
03
0B
21
14
FF
FA
13
05
14
24
08
08
FE
0B
08
05
FA
04
01
FA
F2
0C
03
FF
24
FF
13
15
02
11
32
1F
F8
08
FA
09
08
03
0A
08
FA
F5
F4
0A
04
1C
18
06
09
F9
19
2F
2F
12
09
FA
F7
F8
22
0F
F6
0E
FE
08
2B
18
17
F9
F6
F9
19
19
06
FF
18
04
10
16
24
0C
21
1C
17
0C
E7
14
15
2D
00
23
19
09
04
F9
06
FC
01
FF
15
1B
0A
14
12
10
F5
06
FB
FC
FE
14
EF
F2
1D
06
21
0D
14
12
1A
00
FE
0A
FC
11
0F
12
05
10
17
04
02
F5
F8
EA
E2
FF
18
FF
F6
01
0E
01
02
FC
10
2D
1E
05
0C
07
FE
08
F4
07
FF
0A
F6
FC
0D
07
FB
F9
E3
0D
1F
05
03
FC
08
0E
13
1C
F9
13
08
FE
FB
FD
1A
0A
05
05
06
FD
F9
0D
F7
F3
15
FB
0B
0B
09
08
F0
08
05
FE
12
FA
01
F5
19
F2
19
FD
06
0B
08
11
FC
F7
F8
F8
03
00
ED
EA
E8
14
14
0E
FF
11
08
0A
EC
FA
E9
0B
08
0A
0D
04
0B
29
0D
07
1A
13
0C
0B
FF
16
F0
0D
E1
FE
13
1A
13
F9
0C
11
F6
F3
02
FF
24
12
F2
FF
1E
0E
11
14
0C
14
08
1F
0A
13
0C
F7
01
F5
0F
10
00
EE
0B
05
00
14
02
23
FB
08
09
F1
17
19
12
F9
0A
14
15
F2
0D
E9
E1
F1
1A
0D
EF
09
0E
FE
FA
F0
EC
0B
FF
0C
ED
09
0E
14
07
06
EC
12
0D
F6
EF
F2
08
F9
10
FE
08
0A
F8
01
02
F7
03
F8
09
F8
10
FB
05
1E
FD
06
F3
05
D5
DF
04
14
FA
EB
E1
E9
DD
01
F4
EE
07
12
F0
EF
03
F3
E7
EF
F8
0C
20
FF
00
13
14
0D
FF
E1
E0
F0
F4
16
07
06
F5
F8
DC
1C
20
06
F7
EF
11
FC
09
11
20
1E
1E
10
1E
19
2E
07
01
13
F1
F7
05
04
2C
22
19
26
2F
2F
F9
0B
0A
ED
ED
15
10
F2
F7
FD
EC
12
01
02
03
1B
03
18
FA
FD
11
19
15
18
3B
3A
0D
35
11
1A
02
07
0E
1C
0E
EB
E2
FF
EF
E8
03
0C
FF
08
17
0C
F5
0E
F1
FC
FB
EC
FE
01
FA
F2
25
26
06
EC
05
F0
F7
D6
B1
EF
EE
E5
F6
11
E5
06
E8
0C
EA
F2
F4
07
FB
ED
0B
E6
1C
2D
25
20
1B
09
18
F6
F2
FA
FE
EB
EE
02
F7
00
04
EE
00
FD
13
FD
ED
0C
F6
F4
F2
09
04
F3
04
14
01
F1
15
F2
0D
F8
EE
0F
09
E9
E3
F8
F4
09
0C
0C
0A
04
07
04
F9
16
F7
05
F3
00
1D
10
27
10
11
04
F4
ED
06
11
FF
F7
EF
EC
EF
14
02
1C
01
07
10
F0
EB
04
11
FA
FB
08
14
20
EC
0C
0B
0A
30
21
1A
24
2B
03
13
05
0C
F5
FC
FF
06
FD
0F
08
09
12
0B
12
FE
0F
08
42
05
03
20
1A
3A
20
2E
1D
2F
1F
1D
0C
0C
06
F6
E3
01
02
FE
11
12
02
F0
09
17
2B
0A
2E
FB
01
25
26
30
FF
24
18
22
1B
16
FE
04
E4
D4
E4
F2
E7
F1
EF
0E
1A
17
05
07
1C
25
38
F8
F8
1E
2E
20
0A
18
0B
FF
F5
0C
EB
EF
E7
EA
F4
00
FA
FD
04
FE
1A
FF
F8
F3
FF
1B
12
F4
1B
0D
1D
05
09
EE
F0
E8
05
E9
E5
D5
E6
00
FF
01
E1
04
ED
FF
EA
F3
E9
E5
FE
10
DF
0E
0F
F9
22
09
E2
D9
D9
D1
D0
E5
D9
E1
FA
F3
0C
04
F4
EB
E2
E8
E7
FE
05
FD
22
06
0A
10
03
FC
E4
10
E6
BC
B6
CC
E2
E1
EC
EE
0B
01
17
00
01
FD
05
F5
F2
E7
05
03
FC
FE
F0
04
F1
0A
E4
FF
CA
E4
C1
BF
CD
E1
04
0E
21
10
19
E2
02
F9
E5
E6
F8
EF
E0
E5
F9
CE
03
0E
02
FA
08
FF
DD
E5
D8
EE
0B
08
0E
10
28
25
02
08
09
F6
05
E5
DF
D3
D9
D5
FD
C4
03
E4
05
1A
11
0A
EB
F5
13
F9
0A
0D
09
0E
13
04
FF
0E
12
FF
0C
F5
CF
EE
F6
01
10
05
F3
FB
08
EC
25
21
18
FF
0B
21
14
1D
1C
02
FE
0A
0D
12
F9
19
FC
F9
F3
E9
F4
17
20
F3
EF
ED
00
E8
10
25
1E
11
31
12
10
FD
04
0F
10
06
0F
00
FF
13
05
09
E2
D8
ED
EB
F6
D4
DD
EF
EB
06
10
05
20
2D
09
06
0A
F6
00
14
F3
0A
08
0C
FF
00
04
03
02
DE
F3
E8
F3
F7
E5
F4
05
01
FC
1E
1B
FB
04
09
FB
15
10
05
0B
03
FD
16
F7
05
28
1D
EF
E5
00
1D
0A
20
FD
FA
00
ED
EB
15
EF
EC
00
FE
07
05
09
14
0C
12
19
06
17
0F
1E
16
15
FD
E4
12
F6
FC
ED
0E
F0
ED
F8
EE
DC
F2
F8
F3
EE
FD
12
FF
F6
08
05
0E
06
0E
21
1E
28
0B
FF
FF
1A
FD
FC
F9
02
01
0F
E4
14
EE
E9
0E
26
10
00
FD
03
10
01
E0
FE
E8
16
FE
07
F8
02
11
05
0A
06
F8
F4
F1
FC
FD
16
FC
06
10
28
0B
1C
F6
F1
21
10
E4
11
21
F9
08
F2
E6
F9
09
F6
FE
0C
F5
FC
F1
FC
0A
F4
14
FE
F3
06
04
02
F8
0C
0A
0B
F7
F7
13
10
13
EF
06
F6
F5
0F
06
ED
0F
07
EF
F2
FB
0F
F4
F9
0A
08
04
10
ED
D7
E4
D2
DB
01
FE
D4
E7
E8
E1
F7
F0
F5
FF
0A
0D
14
07
13
F2
ED
01
02
04
F9
F5
E7
ED
E8
DA
CB
DC
D6
E0
F9
D9
E6
E4
E5
ED
14
08
FA
05
FA
EF
0D
F1
F7
F4
ED
0E
FE
FA
F6
FF
E6
D7
EA
EE
EC
02
F8
FE
05
F9
04
01
E7
F2
F9
14
ED
EC
17
02
F5
0F
F8
D9
F2
E7
03
F7
0C
E0
F6
D4
F8
F3
DB
D1
E8
D8
F2
FE
D8
F1
07
EE
FA
EE
0A
16
EC
0B
0C
0C
07
EF
F5
0B
E6
EE
D6
E4
EE
E3
EC
03
F4
D0
F4
0F
FE
26
07
08
F9
F8
EF
E9
EF
10
0C
02
F7
EC
10
F9
FE
F6
FA
F9
F4
DD
EB
E8
E1
FE
01
09
2C
2B
30
18
FC
0A
06
E3
ED
F3
09
FE
08
10
05
F3
F6
FF
0B
F7
F0
F1
D5
EE
F5
01
F3
11
2C
32
42
0E
E1
0E
0A
FF
D6
E3
E9
E5
F5
FC
F5
FC
10
FE
06
0D
08
00
05
0A
25
08
1C
0F
20
21
18
16
FB
FD
0A
F2
DF
06
0F
0F
08
FA
07
12
26
17
02
06
16
08
07
09
1C
25
FC
11
0A
27
38
F8
F8
F8
0E
0F
E9
16
0D
1A
09
F7
08
00
23
18
17
36
0A
04
F1
F4
F3
FB
EF
16
FB
35
46
E6
04
F9
F7
08
14
15
08
0A
05
17
0D
1A
09
06
1A
13
F6
E9
DC
D6
D3
D4
F4
DC
EE
24
30
0C
F4
DF
DB
0C
1A
16
F9
19
E9
0B
F9
F2
11
EC
12
EF
EC
D8
E3
D0
E3
EB
DC
CB
EC
04
05
F2
04
01
DF
F8
04
06
E9
FD
DD
FD
07
0C
11
FE
F8
EA
E8
D3
EB
E6
E0
F5
D8
DA
FD
13
1A
FC
FD
E8
DE
23
0C
ED
F1
CD
E0
F4
02
29
11
FA
07
11
FC
E3
EF
F7
03
F3
FE
07
EF
23
25
24
FE
E8
D7
2D
02
ED
EB
CC
E6
F3
F9
F9
18
18
FA
F5
04
F9
F6
F0
11
11
F0
05
32
0E
26
11
FB
DC
D8
08
F7
FA
F8
08
F7
F4
0A
F2
F8
F2
14
07
F7
14
04
F9
0E
0B
21
11
24
29
30
22
06
05
F6
F4
0C
F4
04
FC
FD
FC
FF
E4
02
EC
0E
F7
14
0E
0E
FA
1F
19
F4
19
0D
2D
23
11
05
06
F6
E4
F7
EB
09
FD
07
02
FE
06
F7
10
18
05
0C
2A
11
17
0F
1A
F2
1A
3B
27
F1
1F
03
E6
05
F3
00
FA
09
EA
F1
F7
10
12
FC
14
17
10
FA
04
F6
EC
0D
08
F4
21
43
03
F2
0B
04
FD
0C
E6
FF
0B
02
F5
0D
EA
F8
E4
FE
FA
FF
F7
FE
E5
E5
DE
E1
0E
F0
16
2E
EB
F0
F9
FC
F9
04
E1
FC
03
EB
17
0C
FC
0E
12
01
0F
14
FD
F1
DD
CE
E1
E0
CF
06
01
19
04
05
03
FB
F7
EE
F8
24
05
FD
01
F9
09
FD
F5
1C
1C
FF
FF
E8
D3
E5
E6
D5
E4
03
0F
1B
10
E5
0E
F4
12
F7
ED
F2
F8
10
F9
18
FF
FD
F2
F0
0B
E8
F0
00
D5
F1
D6
F2
EA
0C
1B
00
EF
1A
01
04
03
EA
E4
02
F3
12
12
F2
EA
E4
F1
D6
14
0C
DB
DB
CF
E0
E9
03
09
F5
0D
1C
0B
04
13
F4
F7
FF
F0
00
0F
09
EB
DA
D5
E6
F0
0B
FE
FB
07
F5
D9
EC
F8
EF
0C
0F
18
1C
02
1B
EE
13
FF
07
00
0B
04
EF
D6
D6
E5
EF
03
24
13
2E
0E
FD
EB
FE
D8
E2
F8
DF
ED
F2
12
F0
0A
04
F3
14
07
05
D5
CC
F8
F8
D6
F9
1B
07
F6
16
EC
C6
DC
F7
01
F9
09
F7
E3
FE
F1
F1
0D
08
FE
F8
02
01
F5
14
F8
F8
02
F5
0D
0F
F1
EC
09
FB
01
F8
01
12
10
12
0C
FE
EE
0A
11
F4
0A
02
F6
07
11
02
06
F8
FE
14
FE
EC
07
08
D7
D6
EC
F9
FC
05
06
EB
03
F1
EC
FD
F9
F4
00
FB
EB
04
22
F7
10
26
0F
F4
F6
EC
1F
FC
11
15
F9
02
FC
0E
1D
12
0D
00
DE
F6
F0
F5
02
F2
E8
0C
F2
05
01
0F
F5
0B
FE
FA
F8
DF
FE
FF
0F
0F
10
FA
07
14
09
23
1D
EE
FA
10
0C
F3
FB
08
F4
EC
FD
FA
FB
E3
EB
E5
00
08
F7
ED
FF
01
08
12
16
19
27
0F
21
24
1F
08
FA
E9
EF
E3
F4
FB
EE
F8
0C
FB
F5
F6
ED
EE
FB
FB
0E
F4
05
11
10
1B
20
08
FB
17
0C
F5
FF
F4
F0
FF
DC
DA
FD
FD
EE
F3
EB
0A
EC
F5
F2
E8
F9
EB
07
01
05
07
19
06
12
FC
04
F3
F6
FB
F1
D6
03
EF
06
FB
F5
F8
F4
ED
05
01
FF
F4
07
EE
08
E7
F8
0B
25
28
3C
15
06
14
0A
01
FE
ED
00
ED
EE
05
01
FE
E9
E9
FF
FE
04
0D
04
F7
03
04
19
0E
0C
33
0C
FA
F9
FB
FF
0D
ED
E5
E7
09
FF
11
18
16
EF
DB
EF
C9
DC
03
E4
03
E9
F7
EC
00
29
0B
FC
F6
FB
F1
02
FB
F6
12
EF
04
21
21
2B
31
1A
09
EC
E7
F8
FF
DF
DF
F4
E0
EA
F3
0D
0F
ED
E3
FE
E2
02
0D
FF
09
34
2E
2C
2B
22
1D
36
26
02
F7
F2
04
F7
F0
F9
04
16
23
09
04
EC
F6
FF
0C
0B
00
0D
14
24
30
14
16
20
2E
23
30
0F
F4
0F
0A
09
EC
01
16
05
23
2B
31
FF
FF
0D
08
03
EA
0A
00
FA
14
13
03
1D
13
20
11
09
02
EE
0B
03
1F
F3
0E
09
1F
22
19
12
F9
0E
12
0D
FA
EC
FD
07
10
0A
FC
11
0E
23
1A
02
F4
06
04
01
06
00
FB
13
FF
0E
00
06
D0
EB
FB
0C
14
F1
F8
EE
0F
FB
F8
14
FD
20
10
05
FD
01
F5
00
F5
0D
0A
0C
FD
04
06
10
E7
F5
FF
F0
0F
F8
E4
FA
E4
0F
13
F9
0F
06
F9
11
03
FF
12
0E
01
14
09
ED
E6
DF
FD
EB
C5
06
FE
09
FE
00
E1
EC
FA
F4
1B
15
03
06
0B
21
0C
10
03
FF
0E
02
03
12
EF
03
F9
0D
E3
F9
F1
FF
0E
F7
13
16
13
02
11
09
0A
0F
03
06
10
12
F6
FC
F1
F3
01
EB
EC
E9
FD
0A
01
E8
FD
E7
FE
F2
08
1A
EC
F0
09
FE
E3
F5
06
FD
F0
0C
FA
FF
F8
0B
F3
ED
02
F8
FB
0C
E0
E8
F2
02
03
F0
F8
12
E8
F6
FF
F1
F7
F1
03
F6
FB
F8
03
F1
FD
FD
F1
04
ED
F2
E5
08
0B
F3
F8
17
FC
02
06
01
F4
0A
14
05
F5
EF
0E
F7
F7
06
FD
11
FB
03
02
09
01
F5
EA
F7
F8
FD
F9
FA
FB
FF
21
E2
FA
ED
02
08
FA
0C
10
F4
F3
EF
14
09
0B
1A
08
18
FD
19
07
09
FC
0A
11
EF
0C
18
FC
E1
F6
F7
FB
FF
03
E5
F9
E8
08
0D
F3
11
FA
08
2A
06
1B
1A
F7
01
FB
07
F7
03
F6
ED
F1
E5
00
04
10
0C
00
F3
0C
F5
F9
FD
0E
FF
EC
2B
22
38
21
0A
03
0A
E9
0A
EF
06
10
03
E5
DB
01
05
FB
0A
E3
ED
E4
0C
F1
11
0C
05
0A
19
FF
01
02
0A
ED
E1
F0
13
FD
04
F5
17
0D
EF
08
10
EE
EE
10
0F
0F
18
12
FC
08
02
E3
EA
F4
EB
05
F3
F1
0C
FE
04
FE
FB
EC
FC
FC
FC
FE
E4
EB
E0
F1
F8
EF
F5
FA
06
0B
EE
FD
12
01
F2
0E
03
08
0E
0B
0A
ED
13
F9
FA
04
FA
F1
ED
02
F6
F8
FC
04
E4
EF
05
F6
05
ED
11
EF
07
F3
04
EE
0A
F6
13
03
F2
FA
EF
FE
EC
FD
E0
E9
F5
E6
FE
EA
00
0B
FC
EC
FC
F1
D6
EC
EE
DA
F8
04
ED
0A
EC
F1
09
0C
F3
01
F6
F2
FC
E7
E8
EE
D2
D9
F2
E1
EC
FC
FC
DE
F1
DF
F9
F3
DE
E2
EE
FF
F6
F7
F8
02
E3
F2
F7
E6
ED
DE
EC
D0
E9
C5
CB
DB
D6
EE
F5
F0
0C
07
03
E9
F3
F2
E9
E9
03
05
01
FB
F6
EA
E3
E0
DD
F3
C2
D8
FB
E8
EA
C4
E3
E3
EA
EE
F8
09
FB
FF
F4
16
0E
FC
F9
F2
EC
CE
04
E7
19
ED
07
ED
D9
DD
E6
E5
CC
D4
C8
CC
CD
E2
F0
EF
E6
EF
0A
F3
F7
FC
F8
0B
F4
03
05
F0
FF
D9
02
E5
EB
06
11
FE
EC
E5
F3
E6
08
E7
EC
EA
EA
EA
F4
06
F0
DE
FF
F6
FA
FC
0A
F2
DF
EB
09
08
01
19
11
08
1B
10
06
11
18
FC
FC
00
08
FB
00
02
23
00
03
F7
FA
FD
FF
FF
F0
F4
F4
03
F3
03
21
0A
08
1A
26
23
10
11
04
07
10
15
06
05
21
E9
19
E6
F8
0E
09
ED
00
00
09
FF
04
06
15
F9
12
0A
14
0D
09
1A
00
F2
12
09
10
F8
0C
11
00
F0
02
11
EB
FF
00
07
1B
0B
1A
F3
0D
18
FF
1E
0E
22
FF
FE
16
10
0F
0C
FC
22
29
0E
0B
03
04
F5
0F
F5
1A
19
23
FD
15
FE
F2
1A
08
F7
0F
FE
21
16
0F
FD
04
07
10
12
31
0A
01
F7
01
F7
18
06
22
2D
1D
15
22
13
0D
FA
03
EE
01
F5
F9
F6
FD
0A
00
02
FF
F5
01
16
1F
F8
0E
16
12
F2
04
22
26
1E
0D
1A
12
02
08
EC
07
0D
03
15
04
EF
EC
02
E0
EE
16
0B
13
12
03
DC
0F
20
19
18
14
0F
18
24
F1
F7
ED
F5
11
09
0D
1E
FB
F5
EF
FB
FF
15
FB
25
06
F8
0F
ED
0D
EE
0C
F4
12
27
0D
1E
17
1D
FC
0C
15
18
0C
04
FB
00
03
F7
06
0A
F8
14
FA
07
EF
F6
EC
0A
F2
F2
1B
2B
01
09
1A
1B
FC
0E
20
07
0A
FB
F5
FF
E4
FA
FD
05
03
13
0F
FD
F9
F3
04
04
01
15
06
0B
FD
F4
11
09
18
20
16
1A
03
16
0E
F0
EA
10
F9
00
09
00
08
FE
EE
FA
0C
FB
13
01
14
19
13
0F
0E
1A
09
04
04
F5
ED
EF
0A
17
00
F2
08
09
EC
FF
FB
FB
FF
EC
F1
F8
0E
F2
FC
08
04
00
02
E3
E3
01
DC
FC
EC
F4
0D
EC
E1
EA
E8
0C
04
F3
EF
FC
04
F1
C5
D4
E3
D2
D9
F4
E4
E7
DE
DE
E5
DD
F5
DA
E8
E9
FA
09
F6
F6
18
18
11
F2
0A
13
F7
DE
C6
EA
CC
E7
E4
EA
E2
D3
F4
ED
E8
F3
ED
F2
FC
E5
FE
F9
F6
0C
10
12
F6
07
11
F7
11
E2
D2
FB
F8
D9
E9
E7
DE
F1
EE
F3
D7
DB
00
FB
E5
02
08
E1
00
ED
0F
02
0B
F0
09
F4
EF
E2
F8
01
EE
FD
FB
DE
04
EA
04
EA
F0
E5
F1
FA
09
0A
F9
FE
F7
EC
F2
EF
12
F8
13
12
FE
03
FC
1E
17
02
06
F2
FA
09
03
E8
0C
FA
01
03
16
E7
02
24
11
ED
F5
DA
E8
F8
F1
ED
0A
F3
07
08
11
F4
2A
26
28
14
12
F8
0E
06
0E
10
10
FA
15
23
08
21
0E
01
12
FB
03
FC
10
02
FC
F2
F9
12
12
0A
25
05
16
0B
2B
08
21
13
1D
1B
03
22
11
04
0D
00
F5
0C
09
12
FB
11
F8
F0
10
01
01
FC
F1
1B
0A
01
02
15
17
FF
09
F6
05
0D
0B
F8
F5
04
07
09
FB
FA
13
0E
EC
F4
EC
FA
F1
F3
F4
0F
0E
06
09
0F
FF
10
10
F8
04
EC
F0
FB
F5
11
F1
01
01
03
FE
10
0A
FF
03
F2
FC
F3
F5
0A
F2
07
0E
F3
FA
25
1E
FD
D6
E3
07
07
F4
13
FC
FC
FF
ED
F5
F7
EE
0A
F7
0F
F9
0A
11
09
19
1F
15
1F
23
23
24
23
1F
02
F9
02
13
0D
13
F7
04
11
F0
18
1C
F9
09
F3
05
29
2C
07
2B
04
1C
16
10
12
10
F7
FE
04
F5
EC
FD
DF
F2
EB
01
0D
F8
F9
F2
06
04
16
04
09
0B
12
0E
0E
0A
1E
06
1C
10
01
00
00
FA
FE
C9
F3
FE
FC
17
08
01
15
17
1D
12
FC
FE
FC
00
01
FA
FD
0A
10
FD
0C
F8
F5
07
15
F0
FC
FB
08
0A
05
17
FE
16
F7
04
01
F4
0A
E9
08
1F
10
16
03
0B
08
00
18
0E
02
0F
05
F0
05
F9
E9
FF
FB
EB
0A
F7
FA
08
02
11
FF
FB
04
FF
F1
0F
07
0D
0C
17
10
0E
14
08
FB
F7
1B
E7
E2
E8
07
EF
E6
FB
E4
1C
0E
FF
00
FF
07
09
F5
FC
F4
EA
E5
FE
08
0F
05
0F
00
F3
12
F0
EB
EA
0D
F4
F7
DF
0B
16
1D
09
0E
0C
06
EC
F9
EE
EA
D1
D9
F3
1E
19
08
00
05
06
16
10
F9
F4
08
27
05
FD
FC
28
FE
ED
0A
EC
E1
CF
D4
CE
D1
AC
C2
F4
00
1A
29
0B
06
F6
F7
0A
03
10
1A
24
07
E9
10
FD
E6
E7
F8
D2
D7
CC
C8
E1
D7
EA
E5
00
07
03
03
13
05
F1
F1
EB
F3
09
FB
0E
F1
09
15
0F
D1
B6
CE
C7
E5
E0
02
EF
F2
F2
04
F6
01
F2
11
F6
FB
F0
FD
FB
F5
11
01
0C
0B
0D
F0
EC
C9
CB
DD
CE
F2
00
FD
F2
0F
00
F6
09
EF
FC
F4
16
03
03
01
DC
F8
01
07
FD
02
F6
F8
04
E3
09
F8
F9
F8
19
F3
F7
E6
F7
EC
F8
F9
F4
14
F0
F5
01
E6
F0
EA
05
0E
F9
FE
F4
0B
20
17
1E
0F
07
F5
F6
FD
0B
FB
F9
08
0A
EB
EE
01
12
ED
FE
E1
EE
F3
EE
1F
FB
06
FF
1B
1F
1B
16
07
F0
F9
02
02
F5
04
FB
FD
09
00
F7
05
FC
FC
F0
DC
D2
DB
F5
03
F4
0D
03
0D
11
15
F9
F6
F3
E5
E5
F1
02
F3
FD
F6
F8
E5
FE
FC
FD
F1
EF
D9
C8
ED
FB
F6
0D
07
21
10
13
1C
1B
0C
F1
FD
E7
E1
EB
F9
FD
14
09
06
09
09
F8
F8
EE
FB
E0
0B
1F
16
16
E7
FC
1E
14
FF
13
16
0B
F5
0E
FB
0F
0D
1C
09
14
1F
17
0A
07
FF
FA
F3
08
F5
1E
FB
08
F4
FA
1A
1C
22
03
FB
FE
16
F8
13
08
0E
00
F1
07
08
13
1F
09
1B
03
0A
08
09
14
04
12
E1
F3
1F
16
0B
11
1B
07
07
13
0C
01
00
FF
0F
09
05
0C
02
25
29
18
04
29
14
04
11
F1
EC
F9
31
0F
07
FC
FC
FB
16
18
0A
03
07
F7
F7
04
02
1D
1C
08
15
09
14
25
2A
09
F6
FD
EF
0B
11
28
12
0A
13
0B
00
F7
08
FC
F6
0A
EC
0D
FA
0C
F9
0B
0F
23
0A
0E
21
33
F8
07
09
00
07
1B
23
1E
0D
16
08
12
17
19
08
04
01
11
FE
0E
FD
F1
0C
17
FC
18
18
18
0B
EF
10
F4
1A
E6
1B
1E
23
09
1A
29
29
02
FD
04
E9
F9
F6
11
16
13
13
15
11
0E
0F
05
03
12
ED
F9
05
15
1C
20
F2
02
EF
EF
0B
DB
ED
F5
E9
0A
FF
FE
0D
F7
F6
FC
15
FE
F1
0A
00
ED
EF
01
04
02
15
02
03
0A
11
0C
EA
0E
E8
E8
EB
01
FD
EC
F4
F5
FD
F5
F4
03
FF
05
0A
02
