F8
04
12
09
14
F7
F6
FD
FC
F7
FF
12
F7
0F
0E
0D
05
F9
08
F6
F4
13
11
F1
10
04
05
14
FF
FA
0D
FB
07
FC
1F
1A
0E
0F
0A
FC
15
0D
27
1F
02
1B
12
19
0A
06
10
16
FA
FC
F0
0C
0E
0A
16
19
22
11
1B
2B
19
21
26
10
07
FB
04
1A
1B
11
1F
20
24
14
09
21
25
F6
F5
02
EC
00
16
12
0E
FC
1A
2C
09
11
1D
11
14
06
13
FB
FB
1B
FB
18
07
28
0E
01
F7
01
03
04
11
F1
FA
FB
1A
FE
11
01
FF
0F
0C
19
06
03
F3
FF
E8
08
0E
16
EA
F9
DB
FD
00
EC
EF
02
09
12
20
FC
12
E3
05
FA
01
FE
04
08
DD
E9
DD
D6
DB
CD
E5
F4
FB
DC
F1
F3
04
D6
F9
F7
F4
FC
FA
17
E8
00
EC
F9
EC
0D
0E
17
F9
11
F1
FE
F2
EB
F2
E9
EA
EB
F9
F3
CC
E7
ED
00
0F
05
16
F4
FC
F5
E7
F7
00
F1
02
01
06
FF
06
F7
0D
1B
F2
EC
DF
F7
F4
D9
DD
C2
FD
F4
0F
F2
07
14
FA
F2
F5
F3
F2
F5
FF
06
F4
FD
11
15
1F
04
05
E7
FF
06
04
E4
EB
C7
EE
F1
EE
F6
EC
14
FF
09
F2
11
0B
18
0F
F6
FC
0E
18
F2
0A
FA
0F
0D
08
06
05
00
DF
EA
F2
EA
F9
07
FD
11
FF
13
FB
10
F9
00
EF
F7
F7
17
25
15
1D
01
10
12
F5
FF
0A
F7
E3
0A
14
F9
05
F3
16
F9
11
08
02
11
FE
F3
0E
F7
10
0D
12
28
17
08
1F
0E
26
13
1D
11
02
19
01
FE
0B
19
00
12
08
F8
03
0F
EF
03
E8
FF
FC
19
29
22
06
FA
03
08
21
02
0A
22
02
E0
F9
08
0F
0A
07
15
09
0C
04
10
FA
F0
FC
EC
0C
20
0D
08
12
FE
03
0D
F7
14
FD
FA
02
DC
E7
FE
F1
19
F9
FD
FF
0D
0C
F2
01
FA
0B
0D
06
1C
07
00
02
0E
09
F2
FF
1B
02
F4
EF
EC
E2
00
01
11
09
FD
07
0E
FE
0A
F0
0E
F7
08
00
09
00
ED
01
05
FC
F1
FD
07
00
FE
02
F5
FE
F8
F4
08
F6
EE
00
10
EC
09
07
F0
01
FB
01
FC
F0
01
03
E7
FC
FF
01
14
FF
E8
08
E1
F5
F5
12
1A
F8
0A
FA
05
F1
FD
F0
0F
25
18
02
14
F3
F5
01
03
0A
F6
13
F2
EB
FC
EC
F3
F4
01
1D
03
FB
F3
04
FB
D7
03
F2
0F
04
17
11
09
17
13
EE
0E
FF
F9
01
F6
09
07
E6
F1
EB
14
F8
EE
08
ED
FC
0B
F5
FC
EE
FF
06
19
15
22
03
03
0E
02
04
F2
00
EF
F3
F3
ED
E5
F2
14
FC
F4
02
F6
F0
F5
E6
C9
D9
FA
FD
19
16
18
11
F8
F4
E3
ED
FC
DE
F0
01
EF
08
05
F8
0A
FE
0F
E9
ED
ED
FA
C8
CA
CF
E0
E7
10
FC
F3
E7
ED
F3
E3
EC
EB
E6
FE
F2
01
0B
13
12
0A
19
FF
F5
0A
F8
F4
DD
E3
03
F6
00
E5
EF
F1
F7
D9
ED
F7
EB
F4
E1
E6
E8
F2
06
19
13
F3
13
06
08
FC
FD
EB
FE
FA
FF
EC
FE
DE
E4
E7
DA
E2
ED
EB
FD
E3
0B
EB
02
09
18
0A
27
07
EF
F9
FA
EC
19
1A
03
06
08
F4
F3
FC
DE
E7
DE
EE
F4
F1
02
EE
F5
12
1D
0F
1E
E8
FA
F6
10
F2
1B
01
0E
23
0E
FA
F7
02
0B
14
00
FD
F6
1D
23
22
0F
21
0F
23
2D
06
20
12
F4
13
10
11
00
FD
FC
12
11
1B
17
14
FD
1A
22
09
1E
27
1A
0E
19
14
0F
10
07
1B
1C
09
FF
05
14
06
F6
08
F7
FE
01
12
16
0A
1B
21
F3
06
0A
10
0D
FE
11
06
19
FB
01
ED
0E
02
0C
05
EE
F5
F3
0A
13
07
F5
0F
13
FB
0F
05
EF
F5
EC
06
0B
EC
F8
00
10
F5
FF
FF
F6
F7
FB
FA
F9
02
FE
F6
0E
0C
F8
F8
E5
EC
F9
F1
F7
E5
F4
EB
FB
FA
E8
F0
E7
EC
F3
E6
FC
EC
F9
EC
07
F0
F5
E5
04
06
15
F6
1F
11
F5
14
EA
E7
07
02
F7
15
F1
02
14
01
FE
EC
E8
0A
FC
08
0F
10
04
FE
F2
17
10
03
27
00
0E
10
EB
D5
DC
EE
D8
F0
FD
FE
0D
05
0A
1B
08
01
05
12
06
FF
02
EB
05
1B
01
00
07
0A
FD
EE
E2
EE
FB
D2
EC
F9
EB
00
F5
F4
0B
00
25
06
F7
1F
01
0A
F3
0C
0E
1A
21
0E
1D
09
FE
10
FC
FA
0C
F1
EA
04
E2
E3
EC
F4
E3
E8
17
03
17
02
F9
EB
F3
1C
17
04
0F
26
09
21
1A
19
FC
F3
F3
0A
02
14
0B
14
F6
EE
F1
FF
0C
F8
0A
F0
FE
07
F4
03
21
0E
0D
00
FD
EE
FF
F7
10
FD
07
FB
0B
FA
1A
11
EF
15
02
F2
F4
04
FF
09
EB
0D
F9
17
31
2A
01
12
0B
F5
02
FD
08
F5
0D
F8
10
F4
F1
04
04
FF
04
04
FE
E9
07
FF
E4
17
0C
03
1C
14
25
15
F8
06
EF
FC
0C
F7
FE
1C
FB
0E
F6
0B
07
00
F1
08
E8
FF
17
F0
E6
04
ED
EB
1B
03
07
FE
FF
F9
08
08
08
03
1E
12
0E
E5
DA
EC
04
13
0B
09
03
F2
F9
FD
08
FD
04
0E
0C
1D
05
01
13
F8
F6
FF
10
05
18
1B
0B
DD
F8
08
06
10
1A
0F
FC
F5
0E
FC
07
05
E5
0D
18
2B
03
16
04
FE
EF
FF
F1
06
E8
F9
F5
E7
09
00
22
12
0C
07
01
EF
E6
DE
03
E0
01
0D
22
2F
05
F8
08
F4
F1
F4
07
DC
FA
F4
1D
13
18
1C
23
24
06
02
F7
12
F0
EB
DD
FE
02
0B
FF
18
02
F8
FD
E2
E3
04
04
E3
11
04
18
1F
18
1E
FC
F6
FE
09
04
09
D8
FB
E2
FC
10
1D
F4
01
0D
E2
11
FE
F0
EF
F5
02
03
0E
0B
21
1D
FC
05
14
FF
E9
DF
F3
EB
E4
03
10
08
23
FB
F6
08
FE
EB
E2
DE
ED
EF
06
0C
20
16
14
14
01
FC
F2
F2
F0
DA
DC
F2
03
FE
09
24
01
FF
E4
E1
09
08
E9
E5
E2
07
FD
17
F9
08
1F
00
F2
15
F4
01
F2
E1
D1
03
FA
DE
F9
11
08
FD
F8
F6
FA
F2
EF
F7
06
0B
21
17
0C
FC
F9
F9
F3
FF
06
F9
DD
E1
E2
EC
EE
F5
03
17
0A
06
EE
E5
CD
EE
E2
04
EA
09
F6
01
FD
02
F9
11
FB
FD
F7
E4
DD
F6
11
EB
F1
03
0B
05
FC
F3
EE
CE
D5
F8
EF
ED
EC
00
07
FC
01
09
08
05
E9
E7
F2
F4
E8
EB
26
E8
FE
FD
F3
09
F5
E0
E3
E9
DD
11
17
FB
08
00
07
F7
F6
14
0B
05
06
F3
07
F4
03
08
25
F4
02
E8
07
E8
FB
F6
03
FB
00
F4
F4
08
F6
EC
F0
EF
01
FD
13
ED
FA
FC
FF
17
00
06
07
02
F6
08
0D
E2
E8
FA
0E
F6
05
FE
06
00
05
0C
02
FC
ED
08
FC
13
0C
00
1C
F8
08
FF
FA
F0
14
F7
14
FC
16
1C
20
08
FA
EA
FF
0C
1A
04
03
EE
1C
1F
FE
05
F8
16
16
FB
00
FA
08
11
0C
ED
FA
01
EC
15
20
05
17
F2
03
00
00
FF
10
03
27
01
0B
01
05
1F
1A
F8
03
05
EF
F8
F0
0E
0B
0F
FB
F3
06
FB
13
FF
0A
0A
03
E7
F8
10
FE
02
00
04
23
10
20
FB
FC
08
0A
04
F4
01
F0
0A
0D
F9
EF
04
0D
F6
03
15
EC
05
09
F6
17
00
1F
05
24
00
05
1D
0C
06
09
02
06
EC
EC
F2
FD
0D
FA
F8
0D
10
0B
12
EE
EF
FC
E5
F8
0C
14
FC
EE
F6
14
FC
ED
F5
F3
FB
F1
F9
13
F6
FC
0D
F0
FA
03
1B
0F
07
FF
1A
0B
0A
FC
0F
29
02
0A
08
FF
F7
F6
F0
0F
F2
0C
11
FC
13
10
F8
0F
12
16
E9
12
0E
26
08
29
18
21
0E
2F
22
22
32
32
1E
16
12
F6
0B
0A
F7
F4
E8
12
11
1B
04
01
18
06
FA
16
09
01
14
0E
13
FF
08
1F
32
49
29
30
35
FB
03
F0
EF
0C
0D
19
00
1E
0E
27
08
1A
10
13
15
FB
0A
0C
FE
07
14
19
FA
05
F8
E5
17
0E
F8
12
FD
00
EC
09
0C
F8
F8
07
06
FC
02
FA
03
FA
FD
16
FB
06
F9
10
FC
EE
06
EF
0B
02
05
0D
12
FA
E5
01
0E
DE
E9
05
FA
FB
F2
F8
07
F6
17
FA
09
10
F0
F2
F6
F3
F4
F9
0A
0A
1D
FE
06
FF
F0
08
0D
F2
ED
10
EB
0F
F8
07
05
FD
0A
1D
0C
0F
11
FB
F9
0C
0B
17
F2
1D
16
FC
1A
F4
FF
0D
15
EC
F4
F3
0D
EF
F8
05
FB
F6
FE
FF
F5
FB
05
F6
FC
F6
EA
EB
F7
13
2A
09
FB
F2
03
20
02
09
14
09
14
0D
EB
F4
FF
ED
E7
EE
F2
06
F9
06
FE
0A
0C
F1
FD
20
14
12
09
FC
FE
28
35
FD
05
F5
11
ED
EB
EC
FC
D9
D8
CE
EE
FE
0E
F3
0A
EA
F7
06
F7
0F
0A
1D
0F
13
FB
2C
18
15
FE
1F
06
04
1D
02
0B
E6
DB
F3
F8
F8
FC
14
1C
07
F4
10
02
E5
11
1C
11
F2
0B
23
0E
2A
31
0B
07
01
29
26
2A
11
0F
EB
FA
FD
01
23
1E
F9
0B
1B
1A
FA
FC
13
F1
0A
02
08
1F
24
0F
0F
1C
35
21
29
1F
14
1B
FF
F8
FB
25
1E
13
10
0E
1E
19
F2
E7
F4
EE
F9
09
17
29
25
2E
22
0D
03
13
0D
13
1D
F8
F8
EC
04
15
18
F6
10
17
FC
EE
EE
F9
FB
01
1C
01
01
23
13
1D
20
00
EE
0A
FD
FC
0B
ED
FC
F5
04
15
31
1F
F3
FA
F5
10
02
E9
F1
03
13
13
13
21
FF
04
EF
EE
F4
03
00
F7
EE
F9
01
0D
01
30
35
0F
EF
FE
12
07
07
FC
F9
FA
16
FD
F9
FF
FE
06
FB
F3
F5
FB
F9
FE
F8
E5
F4
04
25
27
10
0C
01
14
12
08
07
FA
DE
F4
F9
0B
E6
F7
FF
FB
FC
F5
EF
F9
EA
F6
F0
E5
EF
20
25
05
F4
05
08
0B
12
07
FA
F1
FC
01
13
2A
06
03
0E
DF
00
05
EB
0D
F0
EB
FB
FB
03
03
14
06
FC
04
13
18
0A
00
FA
08
03
FD
0A
F4
02
07
E5
ED
02
FA
FB
EF
F8
EC
F5
08
0C
13
FA
00
F8
ED
09
02
0E
F3
FD
03
03
05
03
F7
F7
F6
EC
F4
0B
FF
EB
01
10
0B
F5
0D
11
0F
13
F7
E0
00
F2
FB
04
E4
02
01
FC
12
F3
1B
0A
FE
0B
FD
EB
03
FC
09
19
15
10
10
0A
05
F8
DD
E0
D5
ED
F3
F7
F4
04
07
0C
0E
F2
23
08
EF
F0
0E
0E
13
10
FD
03
1A
14
19
04
12
EE
01
FD
DF
FE
FA
F2
F4
14
F5
01
09
09
FB
2D
19
18
03
1D
17
24
28
2F
13
21
1C
01
0D
F1
F1
F9
DF
E2
00
E6
DB
FF
08
EE
03
F0
17
07
04
21
19
1F
27
37
1D
11
08
25
17
FB
13
DB
E6
F1
E0
03
F2
01
E8
F2
11
FE
04
13
ED
1D
15
F9
17
07
07
1B
1E
0F
13
2C
19
FC
10
0C
EB
F4
0B
FC
1F
1A
16
06
06
05
ED
F8
F5
FD
FC
03
FA
FA
0C
24
F0
F2
FF
05
F0
15
12
08
E5
E2
12
EA
EF
E7
06
FD
F4
11
FF
04
13
EE
0E
11
11
07
FA
F2
0F
05
14
13
F9
11
02
ED
02
F6
F9
F9
ED
F2
11
F5
FC
FD
10
0A
F7
01
FF
0B
FB
FC
FF
00
0D
1E
13
00
F5
11
26
0B
0B
18
13
16
1A
1D
08
F9
14
FE
00
06
FE
0A
06
1F
0F
FA
12
17
2F
2B
37
39
2B
22
23
27
0B
EF
F6
12
22
28
0C
00
EE
EC
05
05
02
F7
04
00
EB
05
E8
F8
E3
09
16
18
15
16
0B
0C
1A
00
05
F2
00
02
EB
06
17
0F
0D
FE
F3
FF
11
0A
F8
E1
EF
E4
ED
F9
DE
E0
F1
FD
FE
F5
0B
00
F8
EF
06
CE
05
E2
E9
00
0D
03
EF
F8
0E
FF
EA
ED
D0
EF
F2
CE
FD
01
FF
02
00
19
F8
FE
09
0C
06
EC
EE
EE
01
03
FC
04
00
FF
EE
07
F9
D3
E4
E8
F6
EE
04
04
0C
13
26
11
1E
0F
05
09
EA
F6
E2
F8
07
12
EF
F0
0A
DE
E6
DE
E0
EE
FB
EE
EA
FD
09
10
1D
12
2A
FB
0C
F4
E9
10
0E
FA
F3
EE
F6
F7
E5
0C
F8
FA
FB
DF
E6
01
F5
0B
F9
1B
18
1B
12
0D
13
F8
07
F3
03
00
F8
05
F0
01
11
20
08
0D
01
F6
F2
DF
EC
0D
03
0A
19
04
13
F0
F5
03
DC
F8
F3
FB
FF
17
FC
09
FA
1E
05
F5
0D
FC
0D
F4
F4
0E
04
0F
1D
02
08
00
E7
E3
CF
DC
CE
F9
FB
16
14
12
0F
F5
FC
F4
08
0C
F2
0D
09
EC
F6
FD
09
FC
FD
FA
F8
EF
D5
D5
DA
E5
08
0B
19
18
25
05
07
05
06
F4
18
F8
E4
E9
FF
0F
09
FD
EF
F5
E5
F2
E2
DB
DA
E9
EF
03
0E
16
1D
1E
0D
F5
1A
12
13
0A
E0
13
F0
EF
F0
FE
0A
FA
F1
F8
EC
E3
FF
E6
F0
FF
0C
19
14
0F
04
19
F5
F9
09
F8
10
FE
F5
11
00
01
FD
0A
E1
D8
F6
E4
F9
EC
E9
0E
0C
07
1F
1E
0E
1A
FD
F9
E9
FD
03
F6
01
FC
09
F6
DD
FB
FD
13
0A
F9
F1
05
ED
0C
ED
0A
1A
16
23
12
F6
FD
F1
09
0F
0A
0F
F1
EA
09
16
EF
EF
11
F6
13
12
04
F6
E9
03
03
05
0E
FE
1B
11
F2
FD
E7
F1
FF
E8
E4
04
F2
FA
0F
19
08
13
F5
00
18
0A
17
0C
09
FB
F1
05
1B
18
05
F8
08
F4
08
F0
09
E8
F5
09
FE
FE
F2
05
E5
02
08
F3
15
04
06
1C
FF
0E
12
07
0C
0C
0B
F4
06
0A
F8
F3
EF
FA
E6
EB
F6
F1
F3
EF
04
05
08
FD
F7
EB
06
0A
12
07
FD
0B
F2
F5
F9
F3
EE
03
0C
F6
09
E2
E4
F5
E4
F9
0C
ED
FA
F5
F3
FD
06
22
FF
04
FD
1F
0F
0C
E3
04
0D
13
13
F9
F1
09
05
F8
E9
ED
F5
11
18
01
EF
E5
1A
18
FA
F7
FA
20
FE
01
FB
F3
F9
EE
07
00
FB
F3
F0
10
08
08
D5
EA
F3
F0
05
F9
EF
EC
09
1E
F2
04
F6
14
07
F9
EA
01
FB
EF
F4
FD
F8
FD
EC
0C
FC
E6
EA
DC
DB
E4
FA
F6
0F
03
FA
F8
02
0D
F4
F2
07
0E
F0
FD
D9
FB
EB
F6
F1
08
FE
F6
01
09
FB
FF
DB
F4
F7
EE
F6
14
F3
FD
25
08
FD
F1
17
F6
F8
F2
F3
EF
F3
F4
02
08
0A
09
05
14
17
F7
10
F3
EA
DE
0B
08
05
08
E3
1C
24
0B
20
13
05
04
08
0F
F7
EE
FD
FB
04
21
33
31
23
0D
FF
0E
E6
EE
F7
01
11
06
FF
F3
07
16
05
17
09
2A
16
2B
18
12
FF
09
1B
05
1D
40
32
12
10
FB
0A
F2
02
FD
00
12
00
F6
E6
EB
EB
00
07
0B
23
19
FA
13
02
02
18
0F
12
0C
05
1B
0F
10
09
FB
FD
FC
01
11
F0
05
FE
03
05
08
FE
FD
02
EF
0E
12
F3
FF
F0
F3
0F
11
10
02
01
08
FC
07
11
0C
F4
ED
F4
F0
F6
F7
F5
05
16
06
01
24
03
F8
1C
03
F7
F5
FA
0A
F8
13
1B
EE
09
00
FF
FA
EC
11
11
FB
FA
FD
F8
02
10
F3
F1
F5
19
11
00
FB
FB
E5
EB
09
E9
0D
09
09
12
01
01
FB
14
10
F6
E7
EC
FE
F1
FA
00
E6
F4
05
1D
0D
18
17
F4
F6
EC
0B
01
05
F7
FD
F1
F9
FA
08
F6
21
05
00
F7
F3
FC
EE
06
E8
ED
E6
EA
0A
03
00
01
FF
EE
F9
12
D6
E4
DD
D9
E5
E7
03
10
1E
16
D4
E8
02
F5
E5
E2
F3
01
E6
09
0A
05
EA
FA
D2
E9
E8
D0
F0
F4
E9
E2
F1
09
F8
FF
19
1A
FC
07
0A
01
FB
EB
F7
F8
F1
FB
07
FF
ED
07
EC
EE
F6
00
F5
E5
00
F2
07
01
0E
06
0B
14
FA
06
01
0E
FC
04
08
0F
0E
F7
F5
F3
E0
EC
F8
F8
FC
04
10
F9
F4
0D
08
01
E9
F5
13
FA
EF
29
0C
FF
0E
FC
06
13
0B
F4
00
FF
16
03
F6
10
11
0B
1C
1D
2A
04
FF
F4
FD
F8
04
20
17
09
11
0A
FB
F1
F5
FC
22
05
22
10
03
1B
0C
18
11
19
1D
1D
0F
0B
EB
14
10
FF
05
FF
0F
00
08
17
FC
03
06
08
28
27
38
27
0A
1A
0B
05
1B
00
F1
06
13
31
07
02
1E
1F
24
FE
FF
F3
18
01
F0
F1
EB
00
F7
1F
2E
1D
07
09
F5
E8
E9
06
0F
14
05
14
F9
1A
1E
09
15
06
FF
EB
F0
F3
F4
E1
FF
FB
F3
06
F8
04
F7
F8
EC
F6
E5
F9
DB
DC
CF
12
FE
FD
FF
04
1D
0D
E2
EE
E3
F3
EF
F5
FB
E9
DD
C6
E4
F9
F5
03
E8
F7
F7
F9
DB
EF
DA
13
07
F1
11
0B
04
04
EE
FE
03
F4
E8
00
04
F3
D9
D6
F6
F0
07
05
FA
FD
04
18
06
EA
13
F8
0E
0C
08
0F
0E
E3
05
0E
16
13
0C
FA
15
08
D9
F4
F7
F9
06
F6
02
EE
FD
09
05
14
05
ED
F9
0C
FD
0D
0B
DB
F8
FC
FE
18
08
12
ED
E7
E5
F3
09
10
0F
0B
EE
DC
F8
FF
01
02
05
F2
16
11
F8
09
F5
E3
F6
1A
F6
0A
08
1B
D8
E6
D9
F9
21
1F
00
08
FB
FE
0A
F5
03
FE
15
0E
06
EE
FB
0A
F9
FB
05
FB
FA
F4
EC
FD
E8
F1
ED
01
30
24
F3
EF
EF
0A
09
FE
EC
ED
E7
EF
14
19
EE
0A
07
FE
1E
10
04
0E
17
F6
DB
EB
0B
1F
1C
0B
0C
02
05
06
00
F3
EE
CC
E2
FB
07
07
0D
0B
FB
F2
05
09
F6
E3
EF
F1
DD
EA
14
13
00
1B
F9
E9
FE
EF
13
FB
D8
C7
DB
ED
0D
15
F6
17
DD
EB
E5
F9
E3
FE
F6
F6
0B
F6
FE
1A
19
16
03
01
1B
F7
E6
16
F1
BA
F8
EF
02
03
FF
12
E3
F9
D5
E1
E7
FF
F1
F8
02
0B
00
FA
17
11
1C
FC
00
06
0C
F5
D4
E2
F8
F0
0C
FE
13
F1
EB
02
E8
DA
FB
E9
F5
00
07
F3
F9
0B
05
F4
11
0E
F3
D5
F7
D4
E9
E0
F3
ED
09
14
FB
FB
0E
04
04
E2
EC
DD
E9
0C
F7
E2
E7
FE
E9
EC
DD
07
E9
E3
F5
F3
E9
C9
F8
01
F3
01
10
02
F0
FC
E5
FE
10
17
04
07
03
F8
0E
02
EC
FE
04
0B
04
F9
FF
06
08
02
F5
0F
F7
11
0B
FD
00
03
01
16
F4
EF
00
FF
F6
FF
F1
E6
F3
0B
17
07
EC
FD
FF
00
11
0B
FE
FB
F7
EF
F7
0F
FE
EC
08
02
04
0C
14
00
14
07
FA
FB
0B
10
FF
19
20
24
0C
00
09
03
F9
F3
03
0C
FA
F5
0C
F1
F8
F4
0D
00
F9
0B
0C
0B
ED
FD
EE
EB
13
08
07
F0
FD
F4
F0
ED
FB
FD
0C
0A
F7
05
04
EF
06
0C
F0
FB
11
EE
F0
F4
0D
01
04
F8
E7
02
0A
07
FA
07
00
05
03
0D
FF
0E
08
EF
FE
FA
0E
17
E5
FB
E9
02
F8
FF
1C
07
F9
E2
F9
09
04
11
F4
F4
16
05
0A
F8
13
09
06
0F
F3
F7
F6
05
F5
FD
F6
0F
FC
07
1F
02
F3
0C
0A
09
17
0B
1F
17
E7
E6
E4
EC
FD
07
12
21
15
09
00
12
10
26
1A
1B
13
0D
13
FE
04
0B
19
04
18
FF
04
F7
13
E1
05
10
1F
09
13
F9
E2
FA
05
10
08
04
12
06
19
06
19
F7
0A
FB
E5
F9
01
FA
03
F3
02
10
0E
16
17
1A
10
FD
EF
11
04
F1
08
FA
FF
F8
02
16
1C
0C
FD
EB
D4
E1
F8
11
09
15
13
05
21
04
08
FF
0B
14
FE
FC
EA
FF
0D
00
EB
FC
FA
FB
0C
F9
07
E7
E4
DF
03
09
14
FF
11
20
F5
FB
00
E9
02
1E
ED
04
F9
12
05
09
FA
E7
FD
07
12
1B
0E
F3
DE
FF
05
16
15
0B
0E
25
27
20
19
F0
FA
13
19
16
1C
04
19
F8
F3
F2
F1
05
FA
0A
02
E7
FE
04
1D
24
17
1C
10
1C
32
24
02
0B
19
0F
11
19
34
0B
03
F6
F0
E7
12
02
0F
07
03
EA
E4
1B
08
24
20
FC
12
17
24
0B
0E
12
1C
19
03
1C
12
EC
09
14
FD
F9
11
0A
10
1C
F3
F0
E9
14
30
15
F2
02
FA
01
09
02
2E
04
14
1A
09
02
EE
07
0C
FF
FB
FA
17
05
07
11
F4
F1
16
0D
15
10
EB
FB
09
03
05
F6
01
11
F4
FD
05
FE
F5
1A
17
01
08
04
F7
0C
0A
FF
EE
FA
20
08
FB
11
F4
F1
09
0D
06
FD
13
F3
10
05
22
F5
0B
09
ED
0B
00
F8
01
09
FB
F1
F9
10
06
24
16
1B
03
FC
08
0D
EF
0D
FA
F1
F9
01
24
15
EF
E3
FF
01
F8
04
EF
F0
F2
FD
F0
F2
E7
F2
F8
F2
FA
FA
1F
1B
0D
ED
04
0F
1A
14
12
F3
0D
01
01
15
0B
F7
E9
08
00
F8
E7
E0
FB
F2
01
12
FB
F6
FE
02
0E
F8
E7
F9
0A
20
FF
EA
01
F4
07
FB
F5
07
F7
FF
FA
0C
FA
E7
EE
E7
02
01
0D
1B
16
06
0D
07
05
05
02
19
06
F1
07
08
F2
04
0F
FE
F1
F3
05
14
07
F7
FC
EB
ED
F7
FB
1A
0E
07
FA
F5
F7
04
F1
27
0E
12
F0
25
06
FF
F3
F8
16
18
00
0C
0A
F5
F2
F9
DE
07
0F
FD
F1
F7
11
05
07
F5
EF
00
0A
E8
FD
04
0B
00
F5
F9
01
09
0C
16
0D
13
F2
F0
FC
FB
04
1B
F9
ED
F9
CF
F6
FF
F2
07
F0
EF
F1
F3
03
0D
0C
09
EB
0C
13
04
F6
09
F9
EB
EE
0E
1A
00
F3
E9
DD
DB
18
0A
02
0A
F3
CF
F4
0A
F3
F4
F1
F9
F8
0F
F8
F7
FE
1F
06
F2
E1
01
FC
F2
DF
FE
F4
F3
02
11
EE
08
0C
1C
EF
0E
22
12
F9
E1
FB
E9
EC
01
17
FC
ED
E9
EA
F4
F5
E1
F1
F7
D7
01
0A
F3
F0
05
11
23
22
16
27
07
EB
FB
E9
F6
F1
0A
15
08
F7
E9
0B
00
E8
E7
09
E2
E6
0E
F3
0E
0D
ED
02
F0
1D
04
15
21
F6
EE
EA
09
08
0D
17
11
0A
FC
01
F0
DF
FA
E9
E8
01
EA
FF
0C
F9
06
08
FB
FC
E3
DD
00
DF
F9
01
F7
03
FD
FE
EC
13
00
20
0B
EB
0B
05
0A
EE
0A
06
07
FD
01
10
EC
1E
18
E9
F0
E8
09
FD
F5
08
10
DF
F5
18
22
15
03
0D
14
23
29
14
03
F5
0B
0C
F3
F1
F5
F3
F9
11
F1
10
0E
0A
13
02
01
F5
08
FA
01
F0
13
01
FC
10
14
EC
01
EE
F0
02
09
F6
07
0B
11
10
1A
15
01
0D
19
12
14
F7
1F
1A
19
08
1D
1D
2B
31
12
0D
F1
F5
F8
0C
F4
07
10
16
F3
16
13
14
0B
26
23
1E
20
0E
15
15
15
21
17
15
24
13
2B
11
03
F6
07
0B
10
04
01
1C
1D
12
16
2B
41
35
0E
1C
16
15
08
19
EA
FF
07
06
FA
01
14
0D
F3
FB
0C
01
F2
FD
04
10
23
12
08
1D
28
0F
14
19
19
22
13
30
37
17
13
13
02
ED
F4
F6
11
13
F2
06
08
0C
E7
F2
E9
FB
10
FE
0B
09
00
06
1A
FF
15
02
13
09
FD
1C
0E
04
FE
05
02
11
1B
F4
03
FB
F4
FE
F7
03
03
0D
F7
06
F2
F6
E3
05
0B
FB
14
0C
19
08
F8
06
10
1A
10
17
FC
FF
01
E6
F9
00
FB
FF
FE
F6
FE
E6
F7
F4
FE
0E
FC
27
F8
06
02
06
F4
F9
02
04
1E
03
05
14
03
F4
06
FA
0C
03
DA
E3
07
E6
FE
06
10
FB
FE
0A
FD
FA
05
01
F1
18
12
28
09
20
0E
FB
F2
DA
EF
F2
06
E6
EF
00
F5
FA
EE
E7
F7
FA
F5
0D
F2
ED
04
F9
02
F9
16
0B
08
1E
1B
09
E8
F9
04
0A
E4
E2
F0
F4
10
06
12
03
0D
03
EF
E9
E8
EA
FA
F2
F9
0C
09
25
27
2A
11
EE
14
F7
D6
F0
07
FF
FD
19
22
1F
FF
EF
05
07
F4
E6
F9
E1
FD
FC
FC
0D
14
28
14
1F
FA
F7
02
F9
F8
ED
EC
0C
03
20
10
10
1B
11
01
F2
EE
EE
EE
DD
08
EC
F8
03
16
08
E7
0F
09
EF
F8
F6
E9
0A
FC
F3
01
01
FE
15
0B
F7
17
FE
0B
E2
F1
FB
F6
FE
F4
F8
05
01
ED
DB
0F
06
22
0A
E0
F2
FA
EF
EF
F9
F9
0C
F6
F6
FE
00
09
F1
08
E8
FC
EB
FA
0C
F4
05
EB
DD
00
FD
FB
E0
F5
F1
F3
FA
FB
09
0E
15
11
04
1A
04
F4
F5
F3
01
03
02
E3
E0
F5
F7
FF
F6
EC
FD
0E
F1
FD
17
01
10
0A
EA
F9
02
19
02
15
E8
EA
E3
0A
EA
05
E4
EE
DA
F5
F3
28
EE
0E
F7
05
04
F4
04
29
0B
0B
0D
F7
0E
F8
E4
E5
F8
07
F0
FE
E6
07
F9
FF
E9
F6
FF
00
F9
0B
F1
0C
02
F1
F8
0C
04
09
11
FA
15
0D
FE
07
09
F3
EC
14
F3
DF
F6
E5
FD
FB
12
FC
F0
EB
04
0B
1F
FF
03
1F
18
0E
26
21
27
1A
24
FE
18
F7
08
FC
18
06
1A
1E
03
12
10
12
E9
FF
0C
FA
F9
EE
04
18
23
0D
09
1F
10
23
18
20
FC
FA
06
11
15
17
35
26
09
02
12
10
00
09
F5
FB
01
F4
10
14
09
20
09
0B
1E
04
15
19
15
13
18
1B
1C
1B
32
0E
1B
02
E5
01
12
F9
02
F5
FF
05
FB
FD
01
FC
06
FB
07
10
15
0C
1C
02
06
F2
FF
0B
0C
0A
FC
06
FD
0A
0C
05
FD
F3
FA
FC
F1
EE
F8
F7
FC
01
02
00
17
08
16
0E
1B
0E
0B
11
0C
02
F3
1A
0E
F0
0F
07
01
FD
0F
FD
E5
E4
D8
E6
FD
06
EE
EE
FD
06
FD
09
0C
03
28
09
0C
F1
FD
17
FE
F9
03
08
07
0D
F9
F3
DA
EC
D7
E1
11
E8
F7
F5
16
ED
0D
F9
11
2B
13
24
16
14
01
03
03
FA
F3
F0
01
FD
FC
FA
02
FA
EE
13
05
F7
0B
11
2D
08
F9
F0
F9
FE
FB
F0
19
02
0D
FA
09
10
FA
FB
F7
08
14
0C
E9
F4
F1
00
F3
F8
19
11
22
0A
14
F6
F1
16
18
FA
F4
EA
EC
03
EF
0F
F4
12
F8
F2
06
F2
00
F2
F6
F5
FE
FD
06
F3
F3
09
F1
FD
05
05
FB
FE
F8
EC
0F
FC
F4
F6
14
10
12
EC
F8
EE
02
04
E9
F8
E9
0C
00
EA
02
0B
F3
0D
D4
E5
12
FF
FF
F9
0E
FA
F6
01
FE
FA
F5
10
F8
F9
E3
21
E3
08
E6
E0
E6
E1
EF
08
01
0E
FB
09
EF
E9
10
0A
10
16
07
F0
0F
02
0C
F2
FE
08
0D
07
FF
12
0F
0C
06
F6
16
FA
04
FD
03
F6
0F
FA
F5
00
1A
15
12
0B
09
F2
14
0D
1A
14
18
13
00
00
20
FE
F5
F7
FA
19
1B
16
1A
FC
12
12
0E
01
F9
FF
03
FF
F3
FD
0C
FE
09
1B
36
0D
06
00
FA
E5
DA
FE
FB
EE
F5
12
F9
F7
0E
F8
F8
07
0B
F2
06
F9
16
01
08
02
0E
14
16
10
13
06
05
06
01
EF
E4
ED
F1
F8
21
F7
02
0D
F4
FC
F0
E0
EA
07
10
0D
05
08
FC
31
25
06
FC
FC
F9
08
FC
E9
FF
E0
0B
1C
03
0A
EF
EE
0C
F0
E9
D9
EB
F4
F6
FD
16
F0
15
21
13
09
20
12
F8
04
FC
DA
D8
FD
FE
0C
F7
FB
09
06
FE
FC
EC
C9
E3
F5
00
FB
F0
FE
02
EB
02
0A
08
0B
02
F4
E9
ED
E8
0C
1E
23
1C
F3
00
24
FD
E7
CA
D5
C6
D3
F5
FA
F1
F4
07
02
FD
05
01
F3
01
D7
E4
EC
FE
09
2B
0B
02
05
2C
09
14
F2
D6
E4
C6
F2
DB
15
11
F8
F4
EF
F6
09
F0
DB
FB
F9
FC
FA
FC
25
30
0B
05
19
03
0E
16
E5
C9
CC
C4
E1
11
03
0B
DF
EE
00
DE
02
E1
F1
00
FD
F5
15
02
16
17
1A
1A
F8
0C
E3
D6
DD
E1
CD
EF
E5
EE
E0
11
05
D7
FB
E9
12
0C
FD
FA
02
01
06
0D
24
01
0C
1C
F4
F8
F2
EF
D9
D1
CD
E1
E7
E1
FF
01
F8
F8
03
04
E0
05
0B
0E
0E
EE
0B
11
06
03
14
12
F7
E0
E2
D6
F8
F4
EA
E8
ED
E7
E9
1D
0D
23
11
0B
F6
F1
03
EB
FB
09
F7
FE
10
0B
1D
FC
E2
E0
F3
01
FB
08
04
EA
F8
F0
EB
F8
0C
13
10
FA
E4
F0
EA
09
11
FE
FB
0A
01
18
FF
F3
EC
FA
12
06
11
19
F4
DD
00
EC
F3
0D
10
F8
F0
08
F7
FC
FC
02
03
EF
0E
EE
FC
FD
F8
F3
00
F8
07
FE
01
13
F3
CD
BD
E3
08
DF
17
FF
08
F7
F7
EC
05
04
FD
00
FE
05
16
15
F8
10
0E
1A
07
13
04
0C
F6
CE
CC
F6
EC
14
F7
04
30
1A
02
03
0B
E8
F9
07
EF
F0
06
FA
F6
02
0E
01
0D
08
00
DB
00
F2
EB
EC
FE
11
0E
EE
2A
04
F8
06
12
FD
19
EB
FD
04
09
0E
EF
0C
FA
FF
F7
0A
06
EB
F3
F8
E7
FF
FC
FF
F9
03
13
0C
F7
FC
F0
01
EC
06
02
FD
F2
11
07
02
1C
13
0D
FA
F7
DC
EE
E9
F2
F3
09
02
FD
1E
21
F3
F5
FC
08
F6
0A
14
EE
ED
FC
FA
12
02
F9
F3
14
EE
08
FA
EA
E2
E7
0B
EF
F4
0E
07
0E
F9
08
08
13
05
16
F1
ED
09
0E
15
18
F8
18
1D
0C
15
FF
E1
DC
E6
F0
EE
F7
0E
11
11
23
15
0F
08
FF
0A
08
0D
18
F7
17
00
FD
10
06
16
1F
05
E4
F2
01
CF
07
09
FA
ED
EC
FE
10
F4
F4
03
17
0C
02
FC
07
ED
F3
FA
EF
DF
E1
FD
F8
07
E7
06
15
07
06
15
14
FE
F5
0E
0F
0A
09
EF
0D
02
E4
EE
D7
D5
CC
EA
D1
F3
D7
04
E1
FB
F9
FD
F3
01
11
04
0F
F2
FC
00
04
03
05
FA
F7
E8
E5
D8
E5
DB
E2
D4
E4
FA
FD
E7
E9
ED
03
00
FA
0E
0F
F7
13
F1
F2
06
04
F2
10
FC
FE
02
12
EC
EE
07
F8
F1
F8
02
0D
0A
0B
FD
FE
EE
F4
05
14
04
F5
01
F4
F5
FB
08
01
FB
EA
E7
EF
00
EA
E4
04
00
E2
E2
D0
FF
04
FA
FD
F8
E9
06
00
0C
FE
13
0B
F9
EC
14
0C
ED
EC
00
F7
FE
04
07
E3
08
EC
EB
06
04
EB
F7
04
07
08
FF
E2
07
11
11
0F
DE
02
03
18
0E
ED
0F
FE
FA
F8
00
DE
F3
EB
F7
F8
0B
0C
FC
16
04
15
FA
F8
03
F5
0A
FD
F4
F8
09
09
0B
23
FE
F7
FC
EB
EB
E3
E4
F6
02
E8
EB
0B
21
0E
17
1F
FF
01
10
FC
FE
F6
F5
FF
F2
00
10
09
FF
F4
E5
02
01
08
FC
F3
0E
F6
FF
0E
1C
03
ED
00
EB
FE
10
05
FC
0B
08
EF
0A
05
EE
FA
02
0A
05
E4
02
14
05
FF
FA
FA
04
EE
01
F8
F7
FF
FE
00
F5
01
ED
E6
11
02
FA
FB
01
FB
02
01
01
ED
E1
F1
FD
FA
FF
03
F8
F0
EC
0A
F8
03
0A
10
FD
FF
E9
ED
FA
08
F4
15
01
0F
FA
F1
08
F0
DC
03
ED
1B
FB
FA
ED
F6
F6
F6
FD
F6
F3
F8
E2
F5
EA
08
FC
EA
F7
14
0F
0D
0D
02
01
F1
F8
EC
EC
12
EB
EF
03
F3
07
EF
EF
1E
F5
F7
DF
01
F9
09
E6
07
FF
EF
F8
FE
03
0C
09
06
E8
DF
E0
EF
E0
E0
E8
F2
0F
FA
10
0D
06
ED
04
FE
F5
F1
FC
FE
13
07
11
07
0F
1F
0A
0C
EE
DB
DD
DD
E2
F3
0E
08
0C
FC
06
0B
0A
17
FD
F2
E8
FB
D1
FC
ED
05
FF
F3
04
04
2D
07
1D
EB
F2
F2
F6
FB
03
FB
F6
11
1E
11
19
F8
FB
09
05
FD
F0
EE
0B
FC
0C
F9
1A
05
35
2E
2A
2D
0A
10
FD
F8
0C
03
E9
16
FE
08
0D
00
FF
08
EC
0A
E6
D5
04
17
11
01
16
0B
1F
0F
1C
29
1E
28
1A
14
02
E9
09
F0
ED
FD
F2
0B
DB
E5
E9
0F
F1
CD
F2
FD
0E
1A
0E
0C
1F
04
0F
1A
1F
09
26
1B
FC
0F
12
F3
F7
00
0C
17
F5
E0
F0
F5
EC
E8
DC
F2
12
15
17
04
1B
1C
23
06
09
FF
13
FF
03
FB
02
E0
EE
F5
E6
EB
DB
E0
F3
0F
E2
ED
E4
F3
FE
06
0C
0A
FD
0E
12
20
FB
0B
F6
0F
F9
00
04
F0
F4
01
EF
EB
DE
FB
09
FD
12
D1
D0
E3
F6
0D
0A
13
04
24
05
0A
04
F0
12
0B
0D
EC
0D
13
FC
06
F9
F1
EC
E3
E6
03
0B
CD
CF
F1
FC
F5
00
FB
FD
FB
F7
04
E9
F6
FD
11
0B
0F
14
F8
02
F0
DD
F2
F8
EA
F1
F9
F2
DE
F0
F3
F4
EC
EA
EC
EA
0A
F5
ED
FC
FA
F9
1B
0D
03
09
23
1D
08
FD
0B
E5
06
03
01
0A
E3
E0
F1
EB
E0
D4
FD
EB
F0
F5
EF
F3
F5
0E
0C
10
1B
0A
12
F0
0C
E8
11
F1
F1
F1
04
EC
FD
E9
DF
E2
E5
E5
EC
F5
06
FF
FF
04
0D
F0
11
F7
23
EF
0B
F5
12
FC
F7
08
F5
FA
F0
0B
00
14
11
07
F9
03
FB
F2
F9
F3
17
F7
13
0A
F0
05
07
19
08
EF
0A
03
DE
01
EC
EF
03
08
09
22
1D
FF
1D
14
F2
0C
00
05
F2
FC
10
01
0F
12
00
0D
EE
03
1E
0F
EC
F6
08
F9
0E
12
F4
05
15
15
09
1B
0E
09
17
02
1A
F0
F9
F0
0A
ED
EE
0E
07
FC
0D
0F
EE
0D
FD
F0
FF
14
20
0B
09
06
F7
16
06
FF
F8
11
08
E4
F5
07
FF
EF
F4
EC
02
E4
EA
FF
09
10
FA
F6
EC
FD
F0
0A
E8
F1
11
EC
F0
ED
14
F0
EB
F9
00
E7
F0
03
0C
FF
F1
E9
E8
EE
F3
0E
FE
00
FB
EE
EC
F8
F8
ED
FC
03
EF
00
FB
11
FD
EB
F4
0A
10
F4
06
FE
FC
F0
F1
00
FA
0C
FC
FD
FD
12
04
13
0F
F6
12
FC
F4
F2
12
0D
1D
FE
09
F4
F8
F1
10
09
F5
FE
EC
F3
12
09
0C
0A
FE
0D
09
20
03
EB
01
FD
03
03
00
EC
F6
0D
0F
E8
0F
00
F5
04
1A
19
0D
FD
0B
10
00
03
F6
E5
F7
01
0B
16
FB
07
F4
FA
06
E8
01
0B
05
F5
06
FC
00
06
21
2E
27
FB
F8
ED
05
EE
01
F3
E7
F2
ED
06
F1
FA
F7
F4
F1
E9
FF
04
03
04
13
09
22
38
1F
0F
01
F4
DA
DB
12
12
0C
03
05
0C
00
16
1D
12
06
F1
E5
F5
E0
F3
F0
00
EB
FD
E8
FF
13
04
06
0D
F1
DC
08
F2
ED
10
07
05
0C
08
25
0A
04
F6
F8
E8
D6
FE
E5
11
EA
E4
E2
F2
E5
F4
E9
DC
F2
EB
F1
0F
F9
19
FA
0F
29
13
1A
FE
02
F8
F9
E0
F9
02
EF
05
ED
02
EE
EE
04
F9
DE
F2
F9
0E
F9
F2
07
18
1A
FD
08
0F
04
08
01
F1
FD
F2
02
02
F0
FF
0B
E5
EC
F7
DD
F4
EF
DD
00
F2
DA
08
FF
00
1A
13
FE
00
08
EE
FC
FE
EC
06
FF
FF
07
FF
F1
F6
E6
02
DC
F5
E5
E7
D0
F2
EC
1C
00
1E
09
08
FA
E8
EA
0F
F5
0F
05
07
F1
03
F3
0D
14
08
0B
FC
EA
F0
DF
D4
C9
D7
E2
14
FF
19
13
FC
FB
03
08
F7
FB
04
06
0F
EB
04
EB
1A
03
0E
1E
11
07
FB
E4
D2
BD
E2
F1
07
05
07
1D
F0
F9
0E
17
14
08
05
08
F5
FB
E0
E4
0F
12
1B
11
0B
F6
13
FB
F4
D4
D8
01
06
F7
18
01
E6
04
FE
F8
FD
0B
14
10
F5
EE
EC
FE
0B
19
24
07
20
11
F5
F5
19
02
DF
07
10
00
09
11
11
EB
07
0D
02
18
1E
1A
E9
F0
F9
0A
10
19
11
25
17
FA
0C
16
1C
FF
E1
02
12
FF
14
01
06
E3
0B
1C
0F
1E
04
FC
E1
DF
F3
15
2B
17
1F
1A
0C
FF
04
07
0C
10
BE
DE
12
E9
F9
ED
DA
F6
F0
01
16
20
16
07
FC
F7
06
19
21
0D
1D
15
06
04
E7
FC
02
EA
E9
F7
FF
06
0E
EB
E6
D6
E0
07
09
FF
1D
09
FD
14
1B
14
27
F7
14
FF
02
EF
EC
0C
07
02
E0
EB
0C
F8
16
F4
EC
DE
FA
EE
FC
02
05
1F
13
FF
1A
0F
18
EB
04
06
FF
E3
FA
ED
07
27
F1
0F
FB
16
0E
E8
07
E9
E1
E7
E5
FB
17
23
F8
17
F4
03
FE
E7
E8
F0
EB
D8
EA
E6
E6
11
00
18
02
18
F0
D8
FF
F3
EF
DC
DC
E5
F0
0E
0D
00
1A
0C
02
E7
FD
F0
D1
CF
DF
F0
02
0F
FF
F4
10
0F
FB
EF
F9
00
E8
E1
EE
F0
EB
12
17
16
07
F7
09
07
F2
E6
D6
E0
E7
E6
FF
0F
01
06
09
F0
FD
FF
F7
06
E5
E3
FD
E2
EB
F6
F9
08
02
12
F7
10
06
ED
E5
E7
E9
E2
E2
05
F7
11
02
06
08
09
F8
F1
0E
00
F4
01
E0
F5
E5
E7
11
FC
F8
00
12
14
19
00
EA
E6
E7
FC
FC
0E
07
03
08
12
0E
18
10
00
F9
E6
05
F3
EE
FF
F8
E6
F7
F0
10
21
0A
17
E3
F4
EC
06
02
02
FF
F2
F0
FA
F0
06
0D
00
FD
E7
F5
11
FA
FA
02
06
06
F8
F1
FE
FD
15
02
F1
EE
09
02
FE
04
ED
FB
F7
EB
E6
DE
F0
E8
DD
17
07
06
FD
EE
0D
09
EE
FE
06
FC
F9
F5
0E
FB
0C
01
F7
FD
FC
05
FE
1B
1A
13
1B
F5
00
FF
0B
FA
17
FE
21
25
05
03
19
22
10
EF
15
0A
F8
FE
FB
F6
FD
04
12
F9
FA
06
F8
FB
EC
F4
F1
FF
10
F4
0F
EC
14
00
EE
FE
F5
EF
F3
F3
12
FC
F7
03
FB
12
09
10
06
03
FD
11
06
FB
11
0F
05
FD
11
0A
0D
FE
EC
EF
E2
11
0D
F4
F2
0C
01
EF
03
03
09
04
03
F3
FE
03
0F
12
0F
01
03
F8
E4
E9
FF
03
12
ED
FA
E5
F2
06
0C
EE
EE
F4
F6
1B
F3
12
F9
F3
FD
0E
FB
07
F8
0B
EE
03
11
F5
0B
F7
E7
08
E9
E0
EE
E0
E8
08
13
F3
FE
0C
FB
FB
EC
F6
08
FF
12
09
10
06
10
16
0B
06
1A
FE
16
FB
F5
F4
F6
EB
FB
1C
F3
0C
06
F5
03
E0
FA
FD
04
0A
1C
0F
12
26
20
13
1D
25
12
08
02
10
00
FB
F3
E6
15
0D
E7
0E
FC
F3
00
D9
0C
10
F6
02
0E
03
F6
FD
0A
0E
28
29
39
24
2D
17
0E
1F
F1
07
F3
FB
F5
FE
EB
02
E9
FC
EC
F1
02
04
F1
FC
FB
09
08
16
15
18
2B
25
0D
1E
26
0F
0B
FE
0C
F2
0E
04
F4
F1
03
F4
E7
EF
04
11
E7
F1
FD
FA
04
0C
19
11
1C
18
26
16
02
1C
FA
00
0F
FE
17
07
ED
07
DD
D8
07
EE
F1
F6
0D
FB
F5
FD
EB
EE
DE
ED
13
10
0C
00
12
0E
0D
09
F8
F8
FD
12
0C
F7
E1
E0
05
02
0D
09
F2
02
09
EA
F6
DE
EA
F6
F9
F2
FA
08
01
00
14
FA
F6
15
DB
F8
0A
D6
CE
0A
F0
FE
F2
07
F8
02
0B
F9
FC
EE
DD
F3
E3
EB
0A
06
03
F2
F6
02
F0
05
06
F3
09
DE
F3
03
FF
F9
08
FF
F7
01
ED
EF
EF
03
08
EF
05
FF
F5
10
10
04
FE
EF
E0
F3
E2
EE
F7
00
EA
01
01
03
06
00
07
1B
FF
F9
1F
10
F5
E1
E4
F4
EE
06
0C
E1
02
E2
FC
F2
05
FC
F8
F2
E7
0E
F1
FC
FD
E8
FD
17
01
FA
12
05
F2
DE
0B
EC
E7
E4
EC
F1
F0
E1
EF
F1
06
FE
E7
03
01
10
04
E6
06
E9
02
F5
FE
05
FC
FA
F6
FD
F2
06
F0
E5
F2
F3
ED
E2
F6
FB
F8
EF
03
1D
0D
22
13
F4
06
0E
11
0A
F6
FE
E3
F1
FD
F2
13
F7
F1
E6
E9
FE
F6
F7
FF
01
1A
01
FC
0F
25
11
0A
F7
FB
F1
EA
09
E7
FC
F3
D5
EA
05
F6
02
01
F6
E6
EC
01
E8
0B
03
01
08
01
18
20
15
15
05
EC
F6
FE
0B
DE
EA
DF
F0
04
09
04
FD
E5
02
FF
11
FB
EC
00
ED
FD
FB
F0
18
05
FC
05
0B
0D
06
F8
03
F7
E1
E1
F0
FB
05
FB
F3
FE
F9
12
09
11
02
E8
02
EE
FE
12
01
20
1E
23
0C
07
F7
EF
08
09
FD
01
FE
FB
F6
0D
0F
0A
18
25
19
0F
FE
FD
FD
E6
F1
04
F5
F1
0D
24
23
17
0B
F9
FE
05
10
18
0A
05
07
0D
15
0C
06
1F
0E
1B
FC
E5
EC
0E
FD
E0
F5
05
14
FD
1E
14
1B
10
05
23
14
0C
05
17
1D
FE
13
03
03
FB
FB
0D
13
FF
F4
F5
F1
F2
1E
09
04
F5
F5
13
12
12
16
26
2A
1A
19
2B
1D
03
17
F8
15
F0
0F
11
17
FB
F7
FD
EE
0A
FF
F4
E6
E2
FC
04
12
F0
F9
20
03
14
05
07
07
13
01
02
F1
11
10
17
14
EA
03
0B
F7
0B
14
F7
05
17
0A
E8
00
1D
19
0B
1B
00
17
06
0B
00
F8
F1
FA
04
00
14
01
EC
FE
F6
F3
04
0A
0D
FE
19
19
F8
FF
1F
1F
21
11
FE
15
1C
02
15
00
FD
0F
14
0F
EE
05
F0
0E
F8
FA
F3
0A
FB
FD
F5
EA
DF
EE
FA
0D
13
ED
FC
0C
09
FB
06
F5
0A
EF
02
EA
0D
14
04
02
EF
0F
04
ED
04
08
00
0B
0F
11
F8
FB
F6
0C
F5
15
14
EF
09
FE
07
0A
F4
14
EE
F7
11
02
F7
0A
F4
F0
0C
EF
07
0D
0F
FA
16
09
09
09
FF
EA
FB
FA
11
F8
0B
00
20
FB
1E
F8
ED
0A
F2
00
01
10
FE
13
06
10
F5
16
FE
17
0B
00
F7
11
F8
F3
06
13
F6
FA
04
05
F2
09
F7
F5
EC
0D
0E
FB
10
F4
E8
EE
03
0F
0A
F9
EB
E6
0A
EF
0F
22
14
14
0F
09
0A
05
09
04
F7
ED
01
FE
FD
10
03
F9
01
E4
06
01
05
14
FB
F4
0D
0A
03
04
23
08
FF
11
10
E9
11
F5
EA
00
01
ED
F4
20
E8
04
03
F8
FB
04
0E
00
0D
0E
08
03
1C
07
14
1A
04
FC
19
13
2D
19
0F
0D
10
07
11
06
02
FB
FD
EB
10
16
11
FF
0A
18
FE
FC
F7
19
02
02
FC
0B
13
1E
16
1B
16
28
18
0A
03
F2
E8
08
00
EA
06
EE
0F
FD
F6
08
09
F9
17
0B
FA
07
FC
1B
F6
0A
23
2D
00
09
10
14
F5
0E
FC
0D
F8
F4
01
FD
F9
07
EF
02
0E
FB
FE
12
0D
01
0C
17
F5
0B
F8
00
F8
04
19
0D
07
24
10
F6
FF
DB
E4
15
FB
F1
FF
07
F5
0C
0D
0C
0F
F8
F8
17
FF
EA
01
06
03
06
09
FF
1A
0B
2D
F5
EE
03
03
17
08
FD
11
F2
11
10
F8
02
02
0C
F9
F8
ED
03
11
1D
15
1C
1C
12
28
03
00
F0
F2
0A
18
0F
0C
0F
02
05
1D
08
0A
FB
FF
00
FE
F2
14
09
FE
16
05
F8
38
F8
1C
1D
1B
E7
0B
F7
17
FB
1F
04
02
11
0A
EB
E1
F4
EA
EB
EE
07
0E
09
F3
F3
01
F5
07
15
14
14
FD
11
0B
F8
E8
08
00
09
F8
03
0E
E5
FB
E9
F4
F2
F1
E9
E8
F1
03
0F
02
F8
00
1A
06
0F
FB
E5
E0
03
FA
FA
ED
02
11
01
05
EA
F1
F0
F4
E6
F1
F6
FB
05
F3
FB
FF
10
0A
19
11
F1
F6
F0
FC
EF
E1
F1
FB
0A
F7
FC
0C
E3
E7
E3
D8
06
F6
F1
EB
04
05
0F
FB
F9
0E
09
08
0D
E6
FC
F4
DA
EB
E5
05
FE
02
09
07
F3
E5
ED
EE
DE
FB
0B
08
03
0A
0D
09
27
FC
F6
10
FE
FD
FC
04
FA
F9
F6
0E
14
18
19
FE
DA
DF
E1
E2
EF
02
F0
FB
EF
F9
1C
1D
14
02
F1
F0
19
03
F9
F8
FF
0E
02
20
1A
1A
17
EF
EE
F0
EE
DD
0F
03
F7
08
09
0B
FC
13
FB
FD
F7
0D
FA
EA
EB
FF
04
00
10
15
13
0B
20
00
FF
FB
E5
0B
00
FE
02
06
08
0B
1D
1E
FB
0C
0B
FD
F4
FD
0E
10
0B
1D
03
1D
0D
14
1A
14
00
0E
EF
0A
11
28
19
11
13
11
14
09
F8
FB
0F
00
ED
11
0E
23
0D
0B
0C
1E
0F
07
11
02
05
F6
0C
F4
0C
F6
FE
1C
FD
F9
FB
0E
F7
06
0E
0C
F9
07
0F
14
23
1D
1C
06
16
00
16
08
08
0A
08
08
F0
EA
FA
F4
0E
F9
FF
0B
09
07
08
0A
17
00
FB
13
15
FC
14
06
FF
19
12
05
18
08
02
FC
ED
E4
E8
F3
07
EE
EE
F8
EE
10
FA
07
FC
E0
D7
EC
F7
F5
EB
E4
FF
F0
0B
1C
18
02
09
08
09
0E
F5
09
F7
F4
F7
F1
08
01
09
FE
14
01
E6
DC
E7
E4
0D
E3
E3
FD
0C
0D
FF
14
F6
ED
01
F1
E7
E2
E2
ED
F8
F5
0A
F9
10
00
0F
1D
19
08
00
02
1C
0C
14
FD
FE
0F
E6
EC
00
08
07
F1
04
EE
16
1C
0D
F7
0B
0A
0C
0C
00
FB
0B
FE
1A
FD
17
07
1D
06
14
27
18
14
11
F0
FC
13
EE
FF
02
03
FF
F6
F2
0E
08
0D
01
F7
FF
F7
0B
FA
0C
F1
04
11
DE
FF
07
0F
05
FF
F0
00
11
F4
FE
F8
F8
F4
0C
13
01
FF
0D
F9
FB
F4
F5
EF
03
E6
FB
FA
EB
0F
0A
FF
F0
0B
0C
FD
EC
F6
E7
E3
F0
09
00
FB
11
F9
0C
05
02
F7
E1
EE
01
E0
EA
F8
07
06
F9
05
F2
FC
0A
FA
04
F2
03
00
F5
E8
14
05
02
EF
21
0D
F1
0C
E8
D0
DA
F2
DD
F0
0F
DD
00
0D
11
0C
F2
03
07
17
EB
E3
EF
EB
DE
12
01
03
1A
0B
F0
F9
FB
07
FE
EE
E9
FE
0C
E7
F6
1A
1F
07
0C
0C
FD
FD
08
E3
CC
D1
E1
F6
F1
0D
13
05
F9
04
F5
07
FE
FF
16
F3
F2
E4
DB
F4
08
26
1B
28
1E
0A
14
E1
E0
FA
00
F5
EC
0E
FF
0E
0D
03
15
FF
10
FD
F3
E4
DE
D2
D2
E4
11
0D
13
0A
F9
08
FC
F7
E5
08
04
1D
F4
08
05
00
06
12
00
FE
07
00
03
FA
E2
F3
DD
F3
03
2D
14
15
06
04
E6
F7
D7
D7
EC
06
1F
0F
FA
16
1C
00
00
F4
FF
0B
05
01
DF
F1
F6
FE
1B
18
03
11
EC
FC
04
E2
E1
E2
0E
E7
16
F3
2F
1D
EF
FA
03
0E
FD
F0
F5
07
E2
CD
D3
0D
16
25
15
EE
0B
ED
E5
D5
EE
D9
0D
FE
FC
F0
0E
0D
F7
06
EE
F2
0E
0A
F0
E9
C7
CC
E4
08
2A
19
F8
F6
F9
E3
D6
D2
F0
10
FF
07
19
07
FF
F6
EF
E4
FC
01
F1
F5
F6
F8
D4
FA
12
22
2F
00
0A
00
F3
CB
E1
DD
F6
EA
07
01
1A
09
FF
0B
D4
DF
E8
03
EC
E3
E8
F9
EF
00
00
1E
05
22
E9
E3
FF
F9
EE
EF
01
00
F2
05
EF
ED
07
05
F0
02
DB
F2
F0
F8
0C
FA
0D
EC
07
10
18
03
05
09
F9
FC
08
FF
07
0C
E5
00
01
0D
03
FD
24
FE
07
FD
12
05
F8
F2
0D
01
EA
FB
1B
03
FF
0D
0D
15
0D
07
02
05
FE
FF
0A
1C
35
11
19
17
09
06
00
FE
04
0F
FA
FD
0A
18
FE
0E
0D
0B
13
1B
12
0A
FE
F0
ED
F9
ED
0D
2B
1F
21
1D
0D
14
FD
FA
EF
FB
0A
13
0D
12
0D
04
08
30
17
27
F7
E2
F2
F5
FB
FC
FE
0D
09
0C
23
FD
06
F2
02
FC
08
0C
FC
F3
06
09
05
0A
14
09
0F
F4
F3
FF
FE
F2
E4
02
EF
0A
10
1D
04
FC
F2
F6
01
04
E9
EB
FC
EE
FE
00
01
EE
F8
02
E3
F1
04
FD
EA
ED
F9
0D
FA
1B
19
09
01
0E
0E
FA
00
EE
E3
F5
F8
01
03
09
FA
0F
06
05
FB
FA
DB
EC
F4
F0
08
05
F5
11
EF
02
07
0F
1F
F8
FA
06
EC
FF
F7
F3
F5
08
13
17
15
F4
00
F7
E5
E1
F4
FB
FF
FE
FD
15
14
0F
00
15
16
F8
FE
05
FB
ED
FB
FF
09
FA
06
FD
F6
E7
14
EB
FC
03
16
FC
0F
ED
15
0B
17
0A
03
0F
1B
17
F5
F1
E7
EF
07
00
0B
FE
F8
07
FB
11
0A
F6
F4
06
E2
19
FD
FC
F8
0A
F9
0A
FC
2B
21
11
08
F5
06
FF
FA
02
0B
05
07
FC
F7
F6
ED
0A
08
FF
F7
0E
0D
FE
F6
0C
02
27
1A
1A
17
1B
21
0A
0D
F3
0D
11
E6
07
EB
F8
0F
F8
FB
07
E7
F1
02
06
07
07
0B
11
1A
F5
0E
0B
08
0F
1A
16
07
24
05
FB
04
EC
01
FC
05
DC
D6
CF
D3
F7
FE
0B
03
14
09
F0
EF
FA
FC
F2
F1
FA
DD
CC
DB
E7
F3
E8
D6
F3
E9
F0
E5
E8
DC
CD
EB
00
03
FD
F1
F2
F7
0F
06
0E
16
F9
E7
EE
F1
FB
E4
E4
0D
FE
D5
EB
03
09
EF
E0
01
EA
0F
F9
F3
F8
ED
0B
08
13
00
FF
13
0F
F6
EC
FA
05
0D
F1
F0
FB
FA
11
01
0F
EC
EC
EF
F5
0E
FF
0A
00
EC
0F
13
0A
08
05
F6
F5
F4
F7
F0
F7
07
0B
14
05
ED
FC
0F
14
01
F4
02
FC
1E
0F
05
ED
00
F7
06
EE
06
12
F6
08
E8
FE
F3
F7
02
0E
F9
EE
F6
E0
FA
06
F4
04
FE
0B
01
EA
09
02
F3
10
11
08
FF
F5
08
0D
EF
12
0A
0D
F0
15
FA
E3
F1
F4
08
F4
EA
EB
F4
FB
EA
EF
F2
F6
F5
F7
FE
0B
14
02
DF
EB
F1
F9
E9
E6
DF
E0
E1
F3
F7
00
D8
DE
F4
D8
F7
F3
F9
02
FB
17
13
FE
12
06
03
00
00
FA
FE
F0
FA
FB
FB
F4
EA
F3
F1
DC
E5
EC
F8
FD
00
FD
E7
EC
01
14
06
E8
10
F5
10
11
EF
D8
F9
E8
EE
F3
0D
06
04
11
14
FC
0D
01
21
0C
08
F5
08
01
E4
F5
FF
10
F9
0E
F9
EF
DF
E4
09
FE
09
01
0C
0B
0F
1B
15
1B
0C
08
16
02
10
01
F3
DE
D2
D4
E9
F9
F1
17
EB
11
F3
F8
FE
06
19
03
1A
07
0D
14
2F
20
1E
19
2B
FE
F2
FB
0F
F5
D2
D5
DE
F8
11
12
E9
0F
24
FB
04
17
1F
12
19
1A
15
26
2E
2B
1A
0F
09
F6
04
F3
0E
FF
F8
E7
EA
18
0D
18
0E
37
22
1C
1A
15
25
13
28
2B
0D
20
29
26
16
08
13
FF
07
08
02
01
FE
E9
F1
11
11
18
1F
15
11
13
22
03
FC
1A
F7
13
F2
00
FB
03
F6
08
0D
0B
06
06
0A
ED
06
0A
F9
02
05
26
25
0F
11
FE
02
EE
F7
F9
04
EA
EC
F3
EA
DE
EA
06
09
10
11
0A
0B
08
03
DC
04
0A
01
05
14
0F
0D
07
F8
FB
FF
01
E1
E3
E9
DF
E5
EE
F6
0E
FF
0C
F7
FF
0A
08
ED
EA
06
09
F9
01
2D
04
F6
FD
EA
FE
EA
F3
E0
EB
E8
EE
F7
E6
ED
06
14
01
00
16
E7
E4
12
E2
0F
01
EC
02
F7
DF
E3
EF
F1
F9
00
02
ED
F3
03
E6
DA
F1
ED
FD
FB
F1
06
16
FD
01
1F
ED
FB
FB
FB
F3
F4
EC
EF
06
FD
0A
04
F2
FE
1B
07
E9
E9
E3
00
F8
FB
F9
01
06
F0
11
08
05
11
0B
05
F1
F6
EF
E5
ED
F4
EC
13
01
1A
FD
F0
DC
F4
E2
FC
F4
01
FC
F7
FC
0B
E5
00
0E
13
15
2C
F9
F6
DE
E6
FC
F3
00
F3
0C
F5
10
E9
EA
F2
FE
FA
01
F7
FE
FA
04
09
13
F1
08
0E
F8
F9
17
F4
F7
F4
E5
E4
FF
0C
EC
0E
E3
EF
EF
F9
FE
FC
FE
17
1E
10
FB
F9
F6
0F
12
11
EB
F6
05
17
0A
EB
F4
E1
EA
07
F3
E6
F4
DF
03
E9
00
0A
0B
EF
0C
F5
02
0D
0C
10
18
F0
07
02
E9
10
12
27
F5
F1
FB
01
F9
02
0A
0C
F8
05
FE
0E
04
F3
04
F9
FE
F2
FF
22
1F
FF
F4
03
00
18
0F
24
01
F6
08
12
13
13
05
0F
07
FF
F8
FF
03
F2
E6
F0
E6
13
2E
16
11
E3
FD
10
EE
06
F8
25
18
F5
14
11
0E
1D
0B
08
10
04
0A
06
02
EA
E9
FA
F2
08
18
19
0B
F6
FD
08
11
F7
20
13
0D
10
29
11
08
1A
F6
01
0E
F8
F9
F8
F8
10
09
FD
F2
F5
0F
2A
FC
F4
F0
F9
F8
0F
03
27
33
2F
2D
2A
22
10
18
15
1B
1A
22
05
1E
0C
21
27
25
FC
EA
FF
EE
EF
EE
10
FA
ED
E8
10
2A
2C
40
2D
54
34
34
27
24
42
24
1C
21
39
30
3C
2E
19
1D
23
07
EC
FE
11
ED
FC
F1
EB
F4
10
15
11
09
24
21
27
1F
32
1A
23
08
00
20
0E
03
18
06
09
FA
09
F8
08
01
12
F9
12
04
05
F6
0E
EE
10
0E
0C
05
16
EF
0E
F5
F7
EE
0E
F3
14
FB
0B
F2
0D
09
FD
00
05
0E
09
07
F3
02
0E
F6
EA
E7
E8
03
01
0F
EF
04
11
17
04
02
FB
EE
FC
EC
EE
F5
00
FB
13
0D
1D
FD
0A
F7
01
EF
FA
EF
E6
DC
07
FE
06
16
1A
23
1C
E9
E9
05
EE
00
0E
FA
F7
F2
F1
04
02
F0
12
F7
E6
D2
CF
E2
EC
EA
E3
FA
DE
EB
04
E4
EE
11
17
F7
05
EE
01
0A
0C
02
FC
E5
FB
F9
E4
EC
D5
E3
E7
FB
FD
FC
E5
F7
EC
F9
E0
E6
E3
02
03
0E
15
01
E4
03
08
EC
0E
04
EF
06
EA
DD
E1
D1
D7
E9
F7
E7
E5
F2
DA
EF
EE
01
FF
00
FA
06
1D
12
F8
FE
03
ED
E4
0F
EA
F2
F9
F0
E4
D9
D5
EE
FD
E4
EA
FC
DC
F9
0E
04
0C
F6
00
FE
0F
0E
F3
07
0E
DC
E5
F5
E7
E6
ED
DA
D1
E5
DD
F6
F4
07
0C
12
11
F7
02
09
15
1E
10
FC
26
10
0F
03
E8
F5
07
DF
EC
F1
D4
CD
D5
E7
DA
E7
FA
14
09
0D
17
16
F9
0C
F6
14
11
15
15
0B
FB
FD
0E
04
E6
03
FF
E0
E2
D2
D6
D8
01
F7
0E
23
14
23
07
FE
0B
13
06
19
0E
01
1F
28
10
00
FB
EA
06
F5
FA
E8
D9
F6
E7
DE
F9
0E
1E
15
1E
FD
FE
F9
EA
F0
FB
FA
1E
26
25
39
20
F0
06
F3
F7
EC
FE
FB
E9
04
E6
E5
F5
11
17
09
0C
00
EE
F1
F8
F5
FA
F6
FA
FF
34
3D
14
04
F3
F4
ED
F9
EE
07
0D
03
04
FE
EE
F4
00
23
1B
10
15
06
E8
F5
E1
DF
D6
ED
D5
EF
FD
08
EF
F9
FE
EC
F7
F0
15
EC
0A
0C
FA
00
16
16
25
04
13
EF
F5
E0
DE
D7
D1
C7
CF
FA
02
F3
F4
03
07
02
02
1C
10
0C
F6
FF
FE
E8
04
16
00
11
FA
F4
FF
DD
D7
EA
CE
D8
C5
F3
FF
EE
E7
FA
F4
F1
FB
0E
1A
F8
05
00
0D
05
FC
15
FE
F2
EF
09
01
FF
E5
E5
DC
CA
EE
06
F6
ED
E8
F8
FF
0B
F7
0C
FF
F5
FF
0D
0B
FF
FE
01
15
0E
E2
EA
F3
EC
D9
DA
CD
EE
F6
05
09
F5
06
F3
F7
1A
04
FA
FE
F2
00
01
13
0A
14
0D
FB
07
F9
E0
ED
06
F0
E0
E4
F8
D7
F3
EE
04
19
18
F9
11
EA
F1
23
1E
17
0E
FF
03
FD
0A
FD
EE
F3
F6
E7
FF
F8
01
F4
EE
DA
F9
0B
07
1D
EB
FE
E9
F3
0A
F9
19
0E
03
0A
FB
05
FA
FD
0A
03
18
0F
FE
04
EF
F7
E3
15
F9
14
00
03
03
E3
B9
CC
DE
0B
0D
1E
F9
F1
FC
FA
F9
F7
F0
FE
11
0E
FF
0F
F1
04
FD
06
E1
FE
F2
03
04
DA
C0
D3
ED
FE
0F
06
08
00
FE
03
06
11
18
02
06
FD
FC
08
08
04
F9
07
E4
0E
14
12
04
F2
E1
EB
F2
F2
F4
FE
0B
01
08
F8
FC
0E
FC
F8
09
17
0C
E6
05
05
09
0C
FF
FB
00
ED
F6
12
FB
E3
FE
E5
09
0B
FD
F3
F1
0B
00
08
F4
08
02
FB
00
F3
0A
0A
1A
2C
0A
1D
07
04
FC
09
F8
F8
EC
EC
04
F4
0E
02
08
01
FB
F7
09
EB
12
FE
F1
01
ED
0B
11
10
F2
ED
11
F4
00
09
FF
E9
F9
D9
E4
F4
F8
E5
0B
F9
04
F6
21
05
17
14
F0
13
0E
1E
28
28
EE
F9
09
F9
02
01
03
0A
0A
09
04
00
08
08
F9
19
10
18
30
17
2D
FC
03
06
14
F7
EE
F6
00
04
10
F3
00
08
05
F0
0E
03
F4
EB
15
0E
04
05
10
0C
23
F7
F2
FE
13
10
FA
0A
E7
12
0F
FE
EE
F5
02
11
F3
F2
07
FF
03
FC
01
13
F4
0A
FD
F7
FF
F9
0E
EF
02
F0
0F
EC
02
ED
05
F1
F8
10
F1
FF
F3
0D
0B
10
3B
0A
20
01
0C
FD
FE
01
F5
02
EF
15
07
FD
1B
FD
10
F3
F5
EE
0D
10
0F
F4
08
02
FE
3E
33
28
31
02
0F
12
08
1B
35
02
FF
06
23
10
02
1B
17
0B
0B
F9
F7
F3
F8
01
13
F6
20
15
41
2E
1D
21
06
0C
2A
FF
17
F7
F8
F4
FE
F5
FC
EF
F5
ED
E9
F9
F2
FA
ED
F5
07
28
16
2B
1F
24
1D
FD
06
10
04
EA
EA
D8
F7
FC
E8
E2
EE
E6
F7
FE
14
2F
26
F6
11
FC
F6
06
06
F8
03
05
F9
EF
EA
F4
FA
EF
F7
EC
F0
F6
EE
05
08
06
0A
20
2D
FC
0E
05
08
0B
2C
F0
0A
0E
FD
0B
0A
FC
01
06
F2
F8
00
F8
11
05
EF
E5
0B
13
03
16
22
07
ED
00
14
04
03
FB
05
16
15
F1
04
0E
F7
05
10
05
11
07
10
04
F9
F8
03
06
1A
13
00
EE
F0
07
14
10
14
01
09
16
20
FD
04
1A
FB
1B
F5
0B
0B
0F
FD
07
02
F6
0E
04
05
FE
00
1E
F3
06
21
18
03
0D
0A
FE
11
0F
20
04
01
12
FC
00
F4
EE
0F
E7
08
0E
0A
0A
19
EC
04
F8
02
FE
19
26
03
05
FD
06
0B
02
08
0D
04
E8
EB
F0
F8
FD
12
0D
0E
04
03
0E
F1
EA
E7
DA
FB
11
33
47
FF
E5
E8
EC
02
1D
FA
27
F8
09
F1
EF
0B
0B
25
16
03
2E
04
1B
FA
EC
D2
D0
FA
F6
16
25
18
F2
00
ED
FC
1A
F6
1A
0B
D4
E6
04
1E
18
21
2A
12
1E
11
FD
F7
E6
D9
CE
05
F1
0B
20
EC
0F
F5
FE
02
08
14
F3
04
E9
FA
06
0C
2D
15
01
16
1B
FC
F4
F5
EA
E5
D8
EC
EB
0F
18
ED
FE
FD
20
1D
0D
ED
EC
FD
06
F4
FD
25
0C
FB
16
0E
F7
09
FF
EB
D5
E0
F1
F2
E9
FD
E5
FC
FD
DF
09
FD
00
FA
F4
FC
05
07
09
17
0A
0A
07
F6
FD
0F
E8
E8
F7
D4
FD
09
1C
0A
04
F5
04
D9
E2
04
04
F4
02
E6
13
F5
17
F6
FB
0B
05
17
E8
E3
E1
F9
DF
E2
F1
06
0A
04
06
ED
E0
F9
D7
FD
FF
EC
F4
FC
0A
FE
00
0D
05
FD
18
0A
F1
ED
E0
DA
D7
F4
05
EA
0D
0D
19
10
E8
D5
D8
E5
EF
F5
FD
04
05
0B
12
FE
09
01
EF
E8
E5
FE
E2
DF
E7
F1
05
E9
FB
FE
12
20
03
06
E9
E7
F6
DF
FD
FC
E1
14
FE
0C
12
E6
F1
03
EA
E0
D1
E4
F3
0E
04
F2
F7
12
19
13
F3
F5
F3
F5
05
DA
D9
E1
E5
EA
1B
F3
F0
ED
DE
EC
CC
DA
E9
E3
EF
1A
F5
FC
12
04
0A
FD
EA
E7
F1
EF
E0
FB
E6
E3
F4
F3
E9
EF
F5
F4
D9
E3
DE
E0
DE
F2
14
1D
03
F2
F7
08
09
04
06
F2
09
04
E9
09
0F
E0
FF
FF
12
FB
E7
F3
DF
D8
C0
E8
D2
EC
15
0C
ED
F7
0A
F2
0F
28
01
FB
1F
11
EB
0B
09
FF
F6
00
ED
FF
D8
F1
F5
BC
C2
D4
F8
02
0B
09
08
0E
FC
09
1B
20
39
32
30
19
FD
F8
0B
15
0B
0D
F9
F7
EC
0B
F0
03
EF
EF
F7
F2
F4
F7
F4
0D
FA
0E
17
14
2C
2C
30
22
25
2D
22
FA
F1
19
04
18
1C
27
2D
1E
FC
D9
F2
F9
EA
FC
F4
F5
FB
14
F0
EA
0E
10
2C
35
33
3F
37
17
29
35
31
1C
21
35
37
12
18
18
00
0B
FA
F9
05
FB
11
FD
F7
07
FF
F9
0A
05
04
15
0F
11
04
1B
17
1F
21
1A
1A
09
EB
1B
06
06
F1
FE
EE
07
