00
01
03
08
FA
F4
05
FE
F7
09
00
FD
F9
00
EA
04
00
0C
01
02
06
0F
F6
0C
05
F2
07
F4
FA
F6
F2
10
EF
0D
F5
0A
04
12
00
12
1D
25
10
0F
F1
FE
23
FF
11
0E
1E
04
F1
FB
0A
08
11
FC
0F
FB
12
1A
1A
FD
05
14
01
01
F9
15
20
0C
08
12
01
0D
07
04
19
FB
05
E6
FF
F7
07
F5
FD
FF
20
F7
10
FA
07
09
14
0D
FC
17
00
1A
12
0F
02
13
02
0A
08
25
11
EE
07
FA
FA
FE
FA
0B
19
02
E3
FB
F1
03
F3
FE
07
19
F7
FD
04
06
F0
F2
F0
03
13
FF
03
FE
FF
06
01
0F
05
0F
16
F9
09
EA
F7
F3
0B
F3
FF
0C
F8
F7
F3
FB
EE
DA
F4
E7
E1
0E
08
E4
F3
F8
05
F9
E8
1D
0C
F4
E4
01
FE
04
03
14
FB
00
08
0B
ED
F8
E7
DA
FE
ED
05
12
EE
E9
DF
E4
EF
03
FF
10
08
F6
EE
EC
D6
FE
12
06
06
F2
FB
F3
0B
EF
CE
DE
EA
ED
0C
16
F8
EE
F8
D2
01
1B
FC
FF
FA
DC
05
F4
EE
E7
0A
FB
03
0A
00
09
06
E0
E4
DA
EA
08
03
1C
05
E8
E4
03
FE
11
0C
13
13
F2
00
EC
F4
0A
00
FF
04
09
21
FD
F2
E7
F1
DF
EE
09
04
FA
EA
E5
F1
F9
1C
F6
16
F9
0F
0B
03
0B
EC
E7
EE
16
15
03
13
05
DC
FE
E8
F8
09
10
04
13
08
EC
D0
F3
03
12
14
08
EC
F8
05
14
0C
02
12
0A
13
FD
08
02
EB
F9
EB
F0
05
06
18
02
0A
CF
E0
FE
18
13
04
13
ED
09
02
07
1D
FF
FE
0C
02
F4
0B
F8
F5
EF
FD
F5
06
09
14
16
2A
01
CE
F0
F1
0F
FE
01
17
0A
33
15
28
0A
10
F8
F2
F7
EA
FA
1B
F6
E7
F8
F1
03
FE
27
0E
E8
E6
F6
16
FE
06
05
FE
0D
11
2C
14
15
07
EE
E8
E4
FB
07
EF
FA
FE
0B
03
0B
20
27
1C
F2
CD
EE
14
07
0C
08
09
08
08
12
0C
19
F6
EF
E2
ED
14
F8
F9
F0
F8
05
01
01
19
07
F6
F5
DF
E3
1F
02
F2
F7
F5
05
23
0C
19
08
F2
EE
F2
00
14
10
F3
EB
F6
F2
FE
F5
0C
0C
FF
E9
CF
E9
06
08
FE
08
FB
05
FC
0F
05
F3
F5
EC
F4
0A
07
FA
02
F4
FE
FB
13
01
13
ED
02
FD
E4
03
EA
13
01
EA
F8
FA
F8
10
ED
07
E8
E1
FC
17
0C
07
0D
EC
04
FB
0C
16
F8
E9
F9
09
F6
ED
15
14
F7
DB
EC
04
F0
09
F5
F1
F8
F3
FC
16
26
12
13
0B
06
0E
0E
04
FE
FC
FD
01
0C
EF
0F
12
01
E0
DF
02
EC
02
09
E9
FB
F5
17
06
21
1B
13
1C
13
F6
15
F6
E9
CF
F0
F2
17
0C
14
12
F8
E8
E8
E2
0D
09
14
01
E6
F9
15
15
0E
0A
00
03
1D
FC
0B
02
ED
F7
F1
FB
02
F9
07
08
F1
FE
DF
E6
F5
01
0C
02
03
EF
01
05
0D
22
1B
08
FC
04
F5
FE
E9
F9
EE
06
0A
13
FD
10
EB
F4
E1
F7
08
10
09
00
F2
EC
F1
F8
00
1C
15
F4
06
EC
EC
E0
ED
CB
12
0D
F9
ED
01
FA
0F
F5
1D
F7
06
16
16
01
EE
F1
EA
E1
F4
FB
F4
EE
F8
E7
DB
FD
0B
DC
F0
FB
03
ED
11
14
F4
0F
19
0B
1B
03
F8
ED
F7
DB
D5
E5
DA
E9
ED
D9
F6
FA
01
34
2E
FC
EF
F0
03
0C
0A
F7
ED
EB
05
F4
EF
ED
FE
F1
ED
DE
E1
18
00
EF
FF
00
08
08
F1
10
1E
FC
F9
F9
14
10
0C
01
F9
05
F3
FD
FC
01
F5
10
0C
F0
F9
07
FF
F4
16
16
14
13
1A
2B
1F
0E
F8
F9
F5
03
FB
10
FE
0E
01
02
EF
F9
01
09
04
FC
FE
0E
0A
08
F1
F9
0D
12
F6
09
FB
0D
FD
F0
EC
FF
06
F4
10
0A
07
01
E7
F5
FC
F4
E0
F6
0B
E5
11
F4
F7
F7
EE
D2
DE
CF
DC
F0
FC
0F
F5
11
09
07
0A
EF
DB
F2
09
02
EB
F1
E2
F4
E2
EE
E0
D4
D2
CD
D6
D7
ED
E5
D7
EE
04
00
03
06
F9
F3
F6
E9
05
E6
FC
F8
FD
F3
F0
EE
E0
C2
E5
EA
BE
C1
B5
CB
C4
CC
FA
0D
01
F9
FE
0B
11
FA
03
F4
02
FC
E6
F3
DE
F9
E0
FD
F6
EF
FA
E3
DE
F2
F4
EC
04
0B
FF
23
07
01
FD
03
FB
05
E3
08
FF
EE
D4
FB
EC
FE
F5
F4
00
E8
E7
F7
02
0E
18
21
1F
15
02
27
08
09
04
02
F4
11
0A
EE
E5
D8
D2
D0
E5
0D
FF
04
0D
FF
F7
F8
FC
0C
1B
1B
11
1C
13
0F
1B
0E
FC
13
F0
F1
14
E2
CE
E2
DB
D6
F3
09
06
EF
EF
06
F9
FC
15
1A
0B
0B
21
24
12
2E
2F
38
FC
05
25
FD
EC
E5
E8
CC
D6
DF
FC
07
F9
EF
0E
17
14
10
0D
FC
F7
F9
0D
18
1D
28
2B
21
FD
FC
FE
F3
F3
D4
E4
CE
E7
DE
F7
22
0A
01
12
F6
E8
F1
FD
F1
EC
E3
02
1C
11
3C
42
15
1E
0C
F3
0D
FE
EF
FD
E6
EC
EE
0A
31
06
0C
06
FD
E6
F9
EB
00
06
FA
F4
17
0D
3F
27
2F
15
E9
02
F2
DF
DF
FD
00
FB
FC
13
1A
22
1B
03
E6
EB
F1
E1
E5
EB
19
15
01
05
18
32
30
02
FD
03
F7
EC
DC
F5
E5
FE
0B
FF
F9
23
14
2A
F7
DD
DE
F2
EB
06
03
04
0F
FE
03
00
F9
0A
05
F7
F5
FA
DE
F2
EF
11
F6
EF
15
23
17
22
05
FB
F8
F5
E6
F4
0D
19
1C
06
16
14
10
18
0F
17
00
D5
F0
08
FA
1E
11
F3
FA
19
21
0F
07
FB
F0
0D
13
F0
ED
1A
F1
F4
12
14
1B
08
0A
08
00
0A
EC
0A
13
05
18
11
05
FE
14
0E
FB
14
FA
F6
03
05
00
0B
FA
F4
F4
FD
FB
19
12
E5
FA
EF
F1
07
31
24
F6
0C
0D
04
FF
04
F9
FD
15
FC
0B
04
15
F8
12
EE
F5
F3
F7
10
1C
F2
F3
04
E1
0F
1A
2B
1B
00
FA
F5
FC
F3
F4
0E
20
15
0A
FC
13
09
F9
00
FF
EC
DE
FF
F3
F7
F7
E5
F9
14
2D
31
02
FB
01
06
F4
E9
0E
00
0E
F6
EB
EC
F3
09
03
FB
04
E3
EC
11
EF
0C
FA
E3
F3
06
16
16
14
19
0B
EF
D9
FD
00
1A
10
F8
04
01
F1
FB
F5
04
F5
EE
08
12
12
04
06
FD
F9
EA
FD
0A
FB
10
F6
F6
E9
FB
E4
FC
FD
EE
0B
EF
E5
D9
FF
05
EE
EF
DA
09
FA
F4
0F
16
F8
FE
07
F4
01
0B
05
11
FF
06
EC
E7
F9
05
E9
ED
F7
F3
0C
17
F9
F0
ED
EA
04
F8
EF
04
F3
05
E3
F0
F3
16
F6
06
16
09
07
0D
07
FF
FE
EE
EF
10
00
0E
F8
0E
13
F5
01
04
EF
F5
10
F9
F1
EE
0D
07
00
1D
15
1C
08
FF
03
0F
11
FF
01
08
F3
FB
F4
F1
08
FF
0D
FD
F5
02
F0
01
F9
F0
EF
02
11
F6
0A
04
01
F8
F6
0B
01
EF
E9
09
F6
01
F8
F2
F7
16
EC
EF
06
14
09
03
E5
EC
F0
E4
EF
08
07
07
00
01
EE
FE
0A
F5
09
EA
EE
FF
02
05
1F
2B
EC
FC
0A
FB
FD
19
E4
02
11
F6
ED
01
06
EA
00
E4
E8
F1
F0
EC
08
F5
CE
EB
FD
F3
08
0B
08
0C
F0
00
F7
0E
F1
F9
F9
DB
DF
D7
F2
EA
F1
E6
EB
D5
F5
E4
E7
E6
D5
EE
FA
11
13
0F
08
FF
00
F5
F8
F8
FD
F3
0C
FF
10
F3
06
09
1A
F6
F6
02
F4
0E
FF
0B
FA
FB
ED
06
07
0D
03
FE
FD
08
13
01
EE
EB
02
F9
E8
0D
14
FC
EF
CE
F4
0C
F9
E9
F7
0F
10
08
EC
0C
0B
12
F4
11
FD
08
F2
06
EB
01
06
F2
1C
24
12
F7
FE
D0
E1
E7
09
00
E6
F3
EC
F9
0A
09
FB
F3
FF
03
00
08
0F
01
DE
F8
F4
F1
E2
F7
28
1B
F6
E9
E5
DD
E6
FD
DD
E4
CA
D6
F2
F0
F0
FC
10
FE
F4
FF
F6
1A
2E
1A
02
FE
F3
09
04
F6
F6
E3
EE
D1
F2
FE
09
F1
E3
BA
DF
E6
DC
F9
F7
ED
0F
F2
01
12
F3
0E
F9
F7
F6
1C
1F
15
21
FD
FA
F8
EC
E1
F5
F9
EA
DA
FD
D9
F3
F5
05
F1
14
21
17
16
F7
11
14
15
19
17
14
2D
01
E9
E6
DA
D8
E2
F5
CB
E2
EB
DC
EB
0B
0E
E3
F0
E4
1A
06
30
09
EE
EA
05
1B
1E
29
16
1F
F0
E1
CD
ED
C5
E6
DA
CE
E5
EF
E2
05
06
10
EE
E9
2F
0C
06
F7
E4
0E
1A
1F
23
03
03
0A
0E
FB
06
DD
E1
04
06
FE
FB
E7
1C
07
1C
06
F7
EA
04
F1
F4
09
F4
0E
15
FF
07
E6
E6
E5
1B
06
0F
24
0A
08
EC
09
F5
FD
01
10
10
FE
F1
DB
E8
F5
13
25
13
24
0D
18
06
F3
D9
D8
12
16
13
09
27
07
04
F4
F3
05
FF
F0
EC
FA
FA
D9
F6
11
10
0F
0C
10
0C
E8
E0
D3
EB
EB
1A
23
08
2C
12
14
F2
FF
14
EE
16
F3
EA
FC
E6
F8
F7
1C
19
13
05
0F
F9
FB
DF
EA
E0
FB
FF
10
15
17
FB
F9
0D
F7
08
10
1E
00
F3
E9
FC
17
DE
19
0A
02
1C
15
06
FB
F5
EA
FD
F6
EE
F7
E0
0C
0A
F2
05
F8
28
09
06
08
EF
FF
07
07
D5
0C
F1
ED
08
FD
08
01
F7
03
F5
09
05
E9
FF
EF
FE
EC
FD
0C
FB
09
E5
FC
F2
14
E6
F7
FB
11
F8
F6
1D
FC
EA
FC
0E
03
F6
0C
04
FC
EA
EF
DC
08
ED
01
FB
02
E0
DC
FA
0D
EB
07
00
16
28
07
F7
ED
E9
F3
DF
EA
FC
F9
F3
E4
FA
E3
FC
FC
0F
ED
14
EA
DE
F8
F8
0D
F2
F4
FC
03
FD
FF
06
ED
ED
F5
01
F0
03
0F
F0
02
EC
FF
F4
04
FD
FF
09
FD
DF
1A
05
1C
F8
E9
FD
0D
F6
E8
10
FB
01
02
16
0D
38
0C
EF
05
E7
F9
18
09
F4
F3
06
EA
12
0D
FF
04
FE
DF
F1
FC
F1
E8
10
07
16
F6
1B
22
1B
04
05
F7
F6
09
19
F7
F3
FE
FD
09
F8
FB
0F
04
0A
EE
12
17
06
1B
17
13
13
00
0C
14
16
FF
F0
FE
02
0F
09
FA
F2
02
FF
19
20
2E
0D
F5
F7
02
23
09
ED
0A
16
F8
F9
0B
17
15
FD
F6
F0
FA
0D
0F
FB
09
E9
EA
E7
07
0C
1D
09
0D
10
FC
1A
26
13
E7
FF
14
FE
EA
0C
09
0A
24
FA
FA
09
FC
0D
F4
0D
F9
F0
0E
13
1A
EE
F6
0A
13
22
04
00
00
09
04
09
FB
FF
F3
11
FF
FC
00
F8
FF
16
F2
FF
0C
07
07
06
0C
F6
10
FD
0E
F5
D7
CE
D8
E6
D6
04
13
F7
FD
FD
FC
12
FB
16
FD
16
0D
13
09
F8
FE
0E
37
F9
FB
FD
10
07
F8
18
DD
FA
F0
F1
DF
F8
E6
D2
DD
E6
E0
E4
EC
EA
F8
03
FB
EC
F4
04
1E
0B
0B
F5
05
06
F3
1B
FD
F8
D0
D9
00
DE
FE
F8
0D
F4
EA
1B
F0
EF
0A
02
FF
F8
05
11
00
0E
F8
10
0C
03
F5
0A
EB
EA
F3
EC
C9
F7
F0
E1
CB
C3
C8
CE
FE
F6
10
1E
05
EE
F5
08
09
02
EE
0A
EF
00
12
EF
14
10
FB
07
FB
F5
0C
01
02
0E
FD
FE
EF
EE
F5
F3
10
F8
FD
0F
F7
01
EE
0F
EC
0C
FE
F6
F9
E9
EF
00
03
FC
E7
E4
EC
D4
D3
D0
FB
FA
E7
E2
FA
F2
F3
09
03
FA
06
0D
FD
FC
E1
E0
EB
F8
E3
EC
E2
DE
CE
EC
C0
CE
E5
F5
EB
D9
F4
F5
10
FE
F4
E6
FE
F7
06
08
14
FD
F4
0B
11
E3
E2
F1
DA
D9
E7
DE
AC
F1
F2
01
F9
FB
05
E8
FE
FB
EA
23
EC
FF
FC
12
0C
EE
F6
0B
01
0B
ED
FA
EB
E7
E9
F3
FA
D6
EB
FB
0E
EF
DD
F2
FC
FC
05
0D
09
DA
FF
F7
06
EB
EF
07
05
FC
E8
F3
F9
F1
FC
FC
F4
0C
F7
F6
F8
FB
F4
06
EA
10
00
FA
0A
06
FD
07
FE
03
FC
08
1C
E1
F3
ED
D9
02
FB
04
FC
F4
09
0B
07
05
FC
02
0B
01
15
FF
17
0E
EB
08
E0
12
F4
F8
0F
F1
F3
FE
E9
FE
F3
00
FC
0C
FD
FF
F3
FB
E4
F3
F3
F2
0B
16
F7
0B
08
EF
EF
01
F9
F9
15
F7
E9
FD
F6
ED
0B
19
F9
EB
04
E7
E8
00
FC
F5
FD
F5
FF
03
DE
FA
F5
FC
EF
FF
D5
F3
0E
08
0B
03
F2
F5
FF
FD
04
E5
EC
DA
FB
F4
06
FD
09
F6
00
06
F1
03
0A
02
F5
FF
E5
FA
EE
EC
02
F3
0A
0A
14
1C
FF
F9
DE
EF
E9
F8
04
F4
F5
F3
FE
06
1B
F9
02
0A
E2
ED
DB
F2
07
11
F1
00
10
06
21
0B
03
E4
FA
02
F4
FC
FA
EE
EA
EC
F8
F9
F6
E5
0B
FA
EE
DC
FF
EE
E0
08
05
12
1A
10
1C
0F
14
12
16
29
15
F7
13
FF
FA
F2
CF
F1
FB
0A
0B
F9
EF
DE
E3
0A
08
10
0B
0E
11
1A
13
1B
21
0A
1F
08
06
14
05
04
10
FD
E3
EB
EF
0D
F1
F1
FB
DE
07
17
04
16
0F
0E
0B
0B
1C
F5
1D
19
0C
1A
17
19
F8
01
EC
05
FF
0B
F1
D7
0C
FB
F2
F6
E8
E1
F5
FA
0C
1F
12
01
0E
F9
F3
03
0D
0A
14
01
F7
06
EC
09
F7
D8
F1
DF
FF
03
10
EA
EE
D6
FA
E6
FA
1D
02
10
16
13
0C
0B
0C
23
27
07
09
0A
E4
FF
FC
E8
D1
DB
09
F0
06
FF
02
E5
F8
05
00
0B
1A
15
12
00
F9
FA
1B
14
11
F6
00
FC
F2
E1
EC
D7
DD
CE
FA
E5
12
FA
03
0B
E9
F5
0D
06
FB
FF
FB
F1
FA
10
11
07
EE
D7
FF
F1
E0
E1
F6
DD
C4
FF
11
F3
E1
EA
1C
04
EC
FF
EA
EC
E6
E5
E5
DB
E7
FA
FB
00
FF
D9
E2
E4
DF
D0
E8
CB
ED
F7
F6
F9
04
0C
FC
0F
F7
FA
DC
E4
E7
ED
E9
E6
E9
04
ED
FE
F9
EA
E9
F3
DD
F0
DF
F7
FB
F5
04
02
1B
0C
EE
FB
FC
EF
E3
E5
F7
EE
FB
DB
EF
E9
08
06
0B
F5
EE
DC
EB
EA
F1
F1
1B
0E
F3
02
F0
07
00
ED
E5
F8
FD
09
EF
FA
E3
FF
F7
E8
F8
FA
F8
EB
08
E7
07
FD
00
FF
1C
F1
0A
05
00
FE
FC
FB
F8
F2
FA
FF
F5
07
02
F9
EC
FD
02
06
1D
12
03
0C
01
00
F1
F4
FC
FC
0C
FB
F0
10
DF
EE
11
F5
04
17
12
0F
F1
FC
F9
EF
0A
04
17
FB
0A
F0
0E
04
1E
03
01
04
EC
11
0A
12
F6
FC
E2
0C
FA
0C
FD
F9
F9
FE
F1
08
13
0F
FC
13
09
F1
F6
F2
07
10
12
F9
0D
0E
0B
09
FD
07
0F
19
0B
F5
F8
F4
04
FB
0E
F3
08
14
F7
F9
F2
FC
DC
C4
E0
F7
FB
F0
FC
F7
11
FD
09
14
EC
04
FF
FD
E6
EB
E7
11
D9
03
F3
FB
E7
FB
DC
0F
0A
F8
14
10
01
0B
01
00
EE
14
03
0B
12
07
10
01
10
12
12
05
08
03
FB
F5
0C
FA
0E
02
FB
F7
FD
F4
FB
FA
F3
12
F9
11
12
09
0F
04
EA
F4
02
02
05
F4
F6
0F
1D
17
FD
01
E8
E3
F9
0A
F0
F4
07
00
F0
F0
EF
F5
04
00
F3
EF
0E
06
F4
EF
F9
E9
F6
ED
ED
FC
EA
D7
FE
DA
FF
FA
02
13
0D
13
06
F8
01
F8
F5
02
E1
EA
E5
DE
E8
D6
E5
F3
05
FF
F9
FA
FB
E8
EE
DF
F3
DD
E4
E8
EB
EC
FF
F2
F8
EC
F5
F0
DA
E0
EB
E5
EF
DF
FE
F2
02
F9
FA
DD
F5
E5
BF
CB
D7
DD
DD
E7
F0
FC
00
0A
14
02
E9
01
E5
E9
DA
F1
FF
FC
14
FD
13
F4
FB
E2
EB
FE
E3
DE
07
EC
F3
D6
EC
ED
FC
01
E6
F4
F7
ED
DE
F3
FF
02
02
09
13
FE
F9
F8
0F
0E
0F
F5
EE
F1
0C
07
0D
07
FC
F9
04
08
F6
FB
EA
BD
E8
E3
EC
FF
F8
06
FA
07
11
FB
13
FD
18
1C
09
0E
0C
FE
0A
21
20
08
22
10
02
F5
E1
D9
F2
F5
EC
F3
F3
FE
F3
F7
07
12
16
23
1E
12
1B
0B
14
08
1F
32
13
F7
06
00
FF
EB
F8
EA
EC
0B
07
0A
0F
0F
F3
07
F4
17
09
08
1C
21
0F
01
10
08
05
28
04
28
F4
E9
04
F9
FC
07
FC
0E
21
FD
15
06
F3
06
19
1D
0C
FE
FF
14
06
14
FC
00
07
31
24
04
0D
03
EB
09
C4
01
1A
23
F6
1A
08
0D
07
13
0B
FD
08
E3
F6
04
FB
1A
0C
04
0F
29
39
0D
02
F8
04
E2
D9
0F
15
0B
14
14
1B
F2
04
FB
03
F7
F8
F4
F9
DD
0A
04
08
20
22
FF
F7
27
14
0A
08
EC
E7
FB
FD
E7
10
10
FF
10
1A
14
FB
F6
E7
F4
DE
E5
EF
07
FB
00
FF
F0
F2
19
17
0B
F6
E8
D2
03
06
E8
ED
F4
00
12
20
0C
FB
F5
E9
F7
EB
F3
0E
17
0E
FA
FA
1F
00
22
12
F6
F3
01
E1
ED
06
F9
06
FA
09
1C
16
05
1B
F4
EA
ED
FF
FE
04
0F
F3
E5
F4
18
EA
15
01
FD
F1
FA
EC
03
01
F5
FA
F2
F8
09
0F
01
F6
ED
EC
F5
FB
E5
00
07
0E
F5
0F
01
F8
2A
FF
EE
00
01
FD
EE
0A
12
FA
F2
1E
19
14
18
DC
F7
E3
06
05
FE
F8
FE
00
FA
02
18
F7
02
04
04
F9
DB
E7
F3
F9
00
12
06
16
0B
0F
FD
00
ED
FA
F5
F0
F9
FE
EF
F5
E1
15
02
08
F4
16
0F
12
DF
FB
E3
F3
FC
1C
01
05
04
04
09
03
01
FF
05
01
03
06
02
F0
10
06
14
F7
F2
EF
FF
F4
EE
F1
FC
02
01
F7
09
FF
EF
10
F6
FF
EC
F9
E9
F6
FA
02
F9
FE
06
F7
1D
F7
F7
FC
FD
04
EE
F5
F3
FF
01
00
00
16
F7
ED
EE
EA
F7
02
EA
EA
FB
FB
05
05
F3
F9
0E
F7
EF
0E
01
FD
E5
FA
1C
1C
10
03
F6
0A
04
F8
FB
F6
0A
FC
01
F0
09
06
F3
0E
11
2A
0A
12
01
13
EE
10
0C
EE
F1
0F
0A
FC
F6
12
0C
08
07
F0
0B
00
00
10
EF
0D
26
08
21
0C
29
1F
E5
11
06
0A
06
F6
EA
D9
FD
F9
FE
03
FD
F2
16
04
02
F9
EE
EF
05
13
2C
11
14
20
18
F8
FA
F9
EC
06
10
FA
08
FC
E2
C9
E7
EA
DD
E8
E2
F0
F2
F8
07
FD
0C
F8
FF
05
EE
1C
14
0D
E9
EF
F9
06
F2
FC
03
19
0A
F6
E4
DC
F4
EE
10
E4
D8
F2
DE
FA
E7
EE
0B
F0
00
FB
03
06
F2
F0
F9
11
F4
07
E6
F1
0A
0C
04
EB
04
15
EF
ED
E1
F1
EE
F4
F2
F2
FE
FA
F6
05
FF
F2
07
F2
FF
EF
01
12
F6
0C
F9
F7
0A
EC
0D
0D
06
FB
EE
F2
12
0A
0B
F3
0C
F4
0F
10
ED
ED
EE
F7
06
EE
11
F3
FA
04
EA
F5
E8
EA
00
F0
FE
E6
01
05
F1
F4
02
F5
02
F2
F3
E8
10
EE
FC
08
F2
02
17
F7
03
F4
07
F7
FB
F8
00
18
13
E6
08
04
E6
FF
10
F2
11
1B
FE
F5
04
10
FF
FF
03
07
09
F3
E5
26
24
15
03
F5
05
20
FC
07
FD
F9
FF
05
F2
0A
06
16
04
1A
FE
F4
00
FC
00
0A
FD
EF
16
01
0A
F4
10
E7
03
0B
0A
19
08
F6
0F
02
E9
FE
F5
EB
FE
E7
20
09
F6
1B
0C
12
F9
07
F5
FD
16
0B
DA
00
ED
F4
11
05
FF
1D
00
0D
06
F0
0B
F8
FA
00
0F
F1
1A
F7
08
EE
EF
FB
13
F3
E8
EE
06
08
06
08
FB
0E
F5
FD
1B
FA
0C
02
03
0E
01
01
E9
F1
10
13
F1
FE
E4
07
09
0E
01
12
EF
01
FE
01
E9
EF
FA
FA
FC
0F
0F
EF
F7
ED
02
03
DB
F2
03
FB
E6
F2
E9
F8
0E
F8
FB
17
13
F4
0A
F7
F6
E3
ED
15
13
12
FF
0C
08
07
F8
D9
C6
D8
15
12
ED
FD
E9
FB
01
F9
1E
0B
12
00
F9
06
E1
FB
03
15
0E
15
0A
1C
02
05
12
E2
C4
E1
09
02
E5
DF
E9
10
ED
F5
09
F0
F5
FC
0C
F1
F6
0A
10
2B
21
2A
02
19
19
09
17
FD
D4
CA
FC
0B
FA
F7
FD
0F
05
0A
FF
07
FC
06
F0
F8
05
F0
25
16
21
1D
0C
13
FD
F5
08
DD
D5
C7
E4
01
ED
03
09
08
FB
03
04
13
08
FA
EF
04
F0
F9
1B
0E
29
04
00
1A
F9
22
01
0B
08
02
E3
FA
FC
F0
0A
1F
18
0C
F4
F0
05
0A
F2
08
FB
00
25
2A
12
25
1D
0F
0B
10
EF
07
E1
16
FE
09
E8
0F
F6
19
FB
FD
F5
02
FB
03
F3
01
15
FE
18
21
29
29
06
F7
F4
F2
F4
F7
EE
02
0E
EA
F3
F7
01
09
FC
0D
03
05
FC
03
EA
13
02
04
14
0A
1B
FB
FD
FE
05
EC
03
F3
CD
FF
10
05
06
08
13
0C
14
0D
FD
05
F8
EF
0C
08
0F
09
25
09
1D
0E
EB
F6
FD
0A
FE
F9
01
EE
E1
01
EF
0D
0D
06
09
09
00
FF
0D
03
F4
0E
FC
25
08
F5
03
02
E0
EA
EA
DD
FD
0B
FB
D3
D1
E4
EB
F1
05
0C
F9
F7
1D
00
FA
F9
09
0A
26
1A
FD
08
E5
F9
F0
F9
EA
DE
EB
FD
ED
D2
E4
00
E9
FB
FA
20
03
1C
FB
11
06
06
06
03
F3
F6
FF
EA
E8
E2
FA
09
F6
FF
FE
FC
F0
EF
F4
F6
0F
0D
EB
04
08
01
01
0E
F3
F5
01
E4
03
FF
02
F2
EC
01
F0
F1
06
F6
EC
E6
EC
02
DD
04
0E
09
FE
F9
14
00
EF
F9
F6
FA
E9
F6
03
F2
F0
0C
ED
07
FF
ED
F9
FF
F1
F6
DE
F9
D9
08
EB
08
07
F6
FD
04
F9
F8
0C
FE
FC
FD
FB
01
00
02
01
F1
F8
EE
FD
FD
0F
E6
F8
FD
F7
0C
0F
07
15
03
04
FF
FF
07
F5
10
11
F5
F0
10
08
FC
E9
F8
0D
12
05
0A
12
12
18
06
03
08
FD
07
E6
F6
19
0E
FE
F3
05
F0
00
F3
F6
03
01
08
FD
F0
E4
09
0B
01
12
1D
09
0C
FB
08
0A
0B
EE
DF
E6
1C
12
0A
06
04
01
18
09
0A
00
12
EE
E1
F9
E5
08
0A
F3
E5
EE
EC
E8
13
F9
FA
0C
FB
FE
03
13
FB
1B
F6
0A
E5
11
01
ED
ED
FC
12
E2
F4
FA
FF
17
02
FA
F8
09
F4
F0
F1
09
FB
F3
09
0A
0F
FB
E7
F3
F3
03
F6
E7
11
09
E8
E7
DD
0B
1A
0D
1A
0C
0F
FE
FE
FA
04
13
FE
0B
0E
F7
03
02
F3
0C
F6
FC
FB
07
11
00
00
F2
FE
03
11
EE
0B
F9
FB
12
03
11
F3
F5
F3
EF
EE
01
E3
D8
E1
F2
05
F4
00
E6
18
19
0F
ED
EA
F3
EB
E2
EE
EF
EF
04
13
07
0A
EC
03
F0
F2
F8
F0
EB
03
0A
F3
D5
D0
E3
F4
F7
0A
19
F2
09
05
ED
EA
EE
EF
FF
00
0F
01
1B
02
EB
08
0A
06
09
F5
F6
FE
F9
DB
F9
0C
F7
02
05
05
18
13
F3
FF
10
E4
E9
EC
0F
F3
26
1E
FB
0C
12
05
02
F7
01
1A
28
0D
0A
FE
0B
05
01
07
24
0F
19
FD
15
F0
E7
0B
F3
F5
09
FB
E6
2B
00
01
2D
24
1E
2C
0A
20
08
11
14
11
EF
0C
F1
FF
04
03
04
1F
F7
11
03
09
15
07
17
20
18
34
2F
2D
28
1D
0A
17
0F
FF
12
10
FB
E7
12
07
EE
05
FB
F9
0F
EF
F9
F7
0D
FF
07
2D
22
2D
19
30
1E
0A
02
02
F8
00
FA
12
07
F5
05
0D
0C
FC
E9
DE
DF
FC
05
F3
11
0F
2C
3A
13
19
10
02
F4
15
03
13
F9
FF
FC
15
FE
F7
01
FA
15
FF
15
E5
EB
0A
FE
F9
07
28
21
26
0A
FF
0F
FA
0D
03
FB
06
13
07
12
14
21
02
03
08
EE
EA
EB
FA
FB
FE
12
EF
0E
27
0F
16
EC
1C
0E
07
F5
04
F3
03
07
FE
10
1C
1D
1D
03
FA
E6
D3
EB
06
EE
F9
0E
19
0C
04
F4
F5
FA
F7
F9
F0
05
E9
18
07
09
1A
10
17
17
10
F8
E3
C1
BC
D2
20
0B
F7
F2
04
05
04
E6
FA
EE
F2
FB
11
F4
17
1E
17
F6
0D
09
19
0D
02
EE
EF
D1
C0
DA
EE
FC
00
FE
12
0B
0C
EE
09
E0
08
F1
0F
04
FE
11
F8
F6
F9
02
18
15
0A
F1
E7
EB
E4
E5
25
2C
0F
13
03
24
0C
0A
EB
FC
E1
EE
ED
F6
F5
FE
06
04
0B
FF
0F
02
02
F8
F7
FE
F6
0C
13
33
F5
FB
EF
1F
01
12
09
FA
01
E9
E2
E0
ED
04
FF
EB
FA
16
15
F5
0E
07
00
0D
FB
01
12
2B
FD
06
FA
DE
00
11
07
DB
DB
F2
DB
EE
D9
02
03
FC
0F
04
06
16
F9
0C
14
F6
01
1A
FF
08
02
0E
EF
00
00
24
01
FB
EB
E4
D6
E8
EC
F0
F5
ED
12
14
1C
07
10
03
08
00
00
06
EE
09
22
FA
00
0A
F9
2D
0B
0E
EE
EC
E8
F4
DB
EB
E9
F2
F7
1F
17
1D
0D
FF
FE
FE
F6
F6
FD
E2
0D
F0
04
0E
1B
18
07
08
F1
FE
F8
EB
E5
E5
DE
F1
14
12
F8
F3
F8
F6
06
04
E8
FA
DE
E0
03
F8
01
14
FF
F5
0E
F5
09
FE
F5
00
F0
FB
0C
FA
F2
06
12
03
E3
F0
E8
09
ED
FD
F0
E9
F5
F0
F2
03
F9
00
16
11
10
12
FA
EF
F6
FE
F6
F4
FC
07
05
0E
FD
F2
07
06
00
DB
E7
0C
F4
FD
EC
10
DF
0F
F6
F8
05
FE
FA
1C
FF
17
EB
05
0F
0E
FE
14
F9
F2
05
21
0D
F9
ED
16
EE
FB
FB
07
09
09
03
1D
FD
16
19
05
24
0C
EF
FF
01
20
0F
00
04
E8
06
0B
FB
DF
18
F6
03
F6
F1
11
1F
0E
1B
24
0B
0D
06
12
26
08
24
20
1A
11
F6
05
0C
E6
DA
05
EF
F7
E7
FA
07
05
0B
FE
12
0A
12
05
FF
10
09
FF
09
08
0D
07
18
F3
FA
F5
E4
DD
FF
00
FB
07
0B
F6
10
11
02
F0
ED
08
0D
17
1D
0A
F5
ED
FA
D7
E2
EC
F5
09
F7
F0
E9
E7
01
FF
08
E4
15
F9
12
ED
0B
F3
03
18
10
01
05
F2
F0
06
DD
02
F1
E9
00
FB
0F
E8
F3
FB
02
0E
02
EF
0A
FB
EC
EC
F7
FB
08
F6
07
01
FA
11
F1
F9
EE
EF
F1
09
FF
F3
02
F9
03
EF
12
0A
F0
13
F9
F6
12
FD
0D
05
00
04
0A
08
0B
14
22
0E
18
04
07
07
22
29
18
05
02
13
0A
2F
08
F6
0D
02
F9
F1
06
16
F4
09
0E
1C
03
11
05
26
1B
2E
2D
18
1E
2A
1E
23
1F
04
07
F6
0D
17
04
FD
03
0D
00
FF
0A
06
1B
07
31
32
1D
1E
1E
33
2A
0A
0E
FE
00
FA
F0
06
FF
F5
15
0E
0E
0D
F7
14
09
E4
FA
02
19
12
12
07
1F
08
0B
16
FE
16
07
12
1E
F8
0B
01
05
F7
F0
DE
F7
01
06
0D
F1
04
F2
FB
14
1D
1A
0B
05
11
F0
ED
FD
F4
08
03
0D
08
18
0B
19
05
F4
14
EC
F1
14
0D
02
0E
EF
F8
10
19
13
FB
EA
E8
EF
09
F8
09
EF
F5
0F
FD
0A
0E
EF
0B
F8
04
09
F2
FF
10
18
FC
0D
21
0D
17
13
EA
00
F9
07
07
EE
FC
04
EB
FA
FD
EE
DD
DD
EC
D9
F9
03
03
EF
21
11
16
F7
0D
04
04
E6
FC
03
12
FA
F4
FA
FA
E3
F2
E1
D7
CF
E4
D9
D3
E9
C9
E5
E1
06
0A
0B
05
06
11
12
E8
F1
06
F9
F1
F4
F3
08
0B
FA
F5
FB
D9
DC
DE
EF
D9
F5
EB
04
0A
E5
F8
14
0E
F7
0A
08
FF
01
07
EF
FA
E1
FA
E3
FD
06
FA
FE
01
0B
05
01
E8
F0
FE
02
02
E5
07
01
0F
0B
0F
19
05
F5
FE
DE
F3
E1
E9
0E
04
0E
FF
F9
FB
12
18
06
05
01
17
0C
D7
09
FE
0B
03
F4
00
FD
07
EE
00
E9
04
08
FB
FA
F3
FC
EE
03
FC
F9
FA
F5
EA
04
FE
06
D9
F6
05
12
09
FA
ED
17
F5
EF
EC
EA
F8
03
13
ED
F0
04
EF
FD
E6
13
10
0A
01
08
10
F0
F4
EA
FC
E7
F7
E0
EA
04
FE
DB
EF
F2
F3
04
FA
FE
04
01
0C
E2
08
EB
F9
13
09
12
F9
09
18
11
FC
01
EF
E4
E1
09
05
E9
F9
E7
EF
F5
EA
01
F2
FD
F1
F1
F9
07
F5
08
0C
1B
19
10
27
F0
EF
FE
FA
FA
0D
F6
F8
F8
EA
F1
ED
0B
FD
02
0F
F9
03
F6
FF
18
14
03
15
0C
00
32
26
EC
02
F5
FE
F4
0D
00
09
E9
FB
E6
FB
FA
10
EC
17
0B
F9
FA
FB
E9
07
FA
0A
FC
05
23
28
13
1D
F3
0C
0B
0A
11
0B
0F
1F
16
05
0E
1C
22
0D
1D
14
09
02
FB
EF
EF
F0
FC
28
0D
F8
00
E7
E3
EE
08
05
FE
F3
13
28
0F
1C
1F
36
23
18
10
17
19
16
E8
07
08
03
F6
19
1A
00
12
11
FF
F4
F9
14
FE
07
0B
29
24
20
3B
32
25
26
1B
06
F3
08
FB
02
F8
15
0E
0F
07
01
FD
F7
F9
0B
13
07
06
FE
23
15
2D
17
2B
1A
1A
08
02
19
09
1B
F8
F8
F5
20
22
06
0E
08
14
F7
F7
1A
0B
1D
20
F6
FF
1C
2D
04
09
03
02
0E
0A
0F
14
F9
13
18
03
10
0F
16
0A
01
14
02
EF
09
27
1A
05
EC
F6
0C
F0
FA
F7
FC
FE
EE
F9
0F
EF
0B
F8
05
FF
13
1C
12
18
0A
13
FA
F7
00
03
0D
13
00
E5
F4
F5
F0
E0
F7
E2
F3
F5
05
1C
F9
ED
02
EC
03
FC
1F
22
F2
10
0E
0B
07
F2
F4
E4
EF
E4
D7
CF
EA
F0
E8
D4
E4
D5
DB
D5
E2
FA
05
0C
F4
FB
FB
13
0E
F4
FF
01
F1
01
00
F7
F2
04
F8
07
14
F6
F1
11
07
E4
03
FE
2D
0C
0B
01
0D
FB
FD
06
FF
FD
04
FF
FE
EE
00
0C
F3
07
15
FE
03
01
F7
00
F0
E7
0F
F4
F9
FD
EA
EF
04
EF
FF
EE
F8
02
F5
F1
03
FC
01
FC
FB
F1
13
F3
13
F5
0E
EC
0C
0E
14
11
14
F2
FC
0A
00
F0
EF
14
14
04
0B
13
F1
F0
10
12
ED
E7
03
F6
EA
E1
E0
00
FB
09
F3
01
11
1C
0B
FB
01
10
13
0D
F7
0C
03
0D
FB
FD
E5
F8
15
F8
F1
FC
0E
13
10
1E
16
23
22
1D
20
28
11
FC
F0
EF
F1
EC
FD
F9
0A
01
EE
07
0C
EB
0A
EF
F3
0C
FB
F3
F7
FB
0A
F6
06
FD
0A
00
FD
0C
0D
13
DF
ED
0A
F3
F3
F6
09
E4
00
0F
E2
FF
F8
ED
F3
F0
F2
06
05
12
22
01
13
16
FE
02
24
15
2C
2D
09
FA
02
F9
E7
FB
19
F6
FC
06
FC
F3
F4
F8
19
FB
12
10
FC
01
F6
FB
0C
F6
02
12
16
2F
20
0E
0E
00
05
F9
22
09
17
05
0E
10
EE
E9
F2
E0
ED
F1
FB
FC
EB
ED
00
04
09
12
36
04
1B
FD
FF
1E
F6
09
07
14
0F
09
0A
0E
FB
04
E6
E2
F0
E2
E4
F9
FB
EF
F3
EC
0E
FE
0D
13
1E
0D
0A
15
1B
E7
14
16
1C
0E
08
0A
F1
F5
FE
E8
EE
E0
E0
E2
F3
D8
EF
ED
FF
1A
26
28
27
23
F7
1A
13
DF
F5
FE
F1
1B
20
19
FA
1B
F2
DC
B7
E8
EE
E7
DC
F7
ED
11
ED
11
12
21
07
E6
F1
09
18
F1
0B
E7
03
03
0C
05
08
11
0A
E0
CA
E0
00
FF
F9
03
17
FC
F4
F1
F6
15
0E
F2
FF
23
F1
02
F2
12
FA
04
1B
1C
18
1D
30
FA
CF
03
0B
E7
F8
00
05
EB
EC
FB
EE
F9
0A
14
02
01
04
07
EB
F9
10
04
11
0E
2E
3C
1D
07
F4
0F
18
09
F8
05
F8
FB
04
F3
07
00
07
16
06
0C
F1
FB
E0
0E
F9
12
09
0D
17
21
2A
FB
F8
05
F8
05
FA
FC
0A
13
01
F7
0E
12
E8
02
1F
F6
EF
15
03
13
FB
F6
13
09
14
13
12
13
FF
05
FF
0F
08
09
0D
EE
FC
0A
2C
28
ED
F8
FB
10
0F
16
07
E6
F7
06
1D
1D
FF
1D
10
17
1E
1B
FA
FA
01
1B
FF
F2
0F
01
FD
10
F1
0A
07
F3
F3
18
D5
E5
08
0D
0D
FE
F9
0B
04
12
1D
19
03
FC
ED
12
FF
09
06
0F
1B
06
E3
E6
05
12
F6
0E
EB
04
FE
09
EC
07
FF
F8
18
11
23
0F
FB
05
FC
F5
0F
06
06
16
0C
08
F4
FB
E3
12
12
FB
F3
ED
05
EF
F8
F0
0B
F5
24
20
02
FE
0E
F7
04
05
06
12
F2
11
F4
E6
F6
0A
0B
14
F6
0C
FC
F3
E6
DF
EE
06
02
FD
FE
1C
04
05
FE
E0
FD
F6
01
03
05
EF
E9
DC
EB
00
F9
F2
07
FB
E3
07
F9
DD
DD
11
06
E8
FF
F6
08
06
ED
FA
03
15
05
00
09
07
E2
E9
0D
09
12
FC
01
F1
F7
F2
F9
E5
E8
F4
F7
E2
FC
F8
F8
F9
F3
1C
05
01
06
17
0A
F1
D5
E0
F3
FD
EE
F9
01
FC
F7
F3
FE
ED
E9
0B
FE
F8
F5
0C
E8
F2
19
18
08
05
15
02
02
FE
DC
E2
0C
F7
EF
F7
07
18
FD
ED
FB
F2
0E
01
05
FD
FF
09
04
0E
08
14
24
14
0A
05
0A
F0
DD
FF
13
07
F4
F4
EF
02
FE
06
F9
E7
E8
F4
FA
02
EF
FA
13
F3
06
01
FD
0F
1B
05
0E
F6
F0
E8
03
14
0A
FE
FA
16
ED
EB
01
E6
DC
DA
F1
EE
EF
E2
D5
FA
E4
D6
FA
E9
D1
E7
F8
10
EF
EA
F7
04
0C
07
0A
F9
EC
ED
FC
EF
F0
FB
E2
E1
E5
E8
DB
DD
D2
BF
C9
DA
C8
F3
DB
F4
E7
EF
F3
09
09
F9
FD
04
F5
16
04
EE
F6
EE
15
F0
E4
07
EF
E1
FD
F1
F8
02
10
1E
0C
16
F6
0A
EE
10
FD
10
F2
07
FA
ED
0B
F4
0C
0E
14
EC
00
FB
0F
F8
13
F0
05
13
F9
F4
F2
06
F8
FF
03
0B
FF
EC
10
0D
FD
0D
11
FE
10
23
F5
FF
01
FE
13
0B
F6
F9
F3
F3
F3
14
05
FD
F0
00
09
F0
0D
FA
EC
F2
F1
F7
F0
F5
06
03
F7
0B
01
21
14
0E
FF
DD
03
FF
F2
F4
F8
F7
EF
05
F1
F6
FD
00
00
10
0C
0A
F9
F7
01
F8
07
05
29
22
12
F7
08
14
07
F7
1A
14
FC
FB
E9
EA
F5
F1
06
1A
25
1A
0E
F3
10
0F
F4
F1
15
06
21
21
0F
01
02
06
04
F0
DF
DA
E3
C7
DF
0C
1F
04
F8
FB
0A
F7
18
0B
2D
16
16
09
FA
00
0B
FC
EF
05
E6
FE
F6
EF
EB
ED
0A
DC
24
05
FD
04
EC
04
0E
07
06
15
05
1E
F9
08
09
07
09
F8
08
E9
FE
0B
09
F8
F2
03
0C
E8
14
27
0C
F5
FE
15
EE
1A
2B
F9
15
16
01
11
10
03
02
FD
0D
FB
F2
1D
02
09
04
F5
EF
07
04
FC
0A
0A
06
EF
EF
22
31
01
16
07
01
09
F5
F0
F9
05
10
11
17
03
17
12
06
09
0C
E7
D5
F5
EE
07
12
14
08
1F
18
04
02
0C
F7
02
EE
FD
19
0C
F8
F9
16
01
FB
F7
0E
0D
13
EA
D2
F3
F3
0B
0F
0D
15
1B
16
03
07
E6
E3
FA
12
FA
10
0D
F8
0E
14
00
01
0F
13
15
11
D3
D5
EB
FC
0F
08
15
29
36
08
EC
EF
E8
DF
FD
F6
12
12
0B
26
22
19
0A
1B
11
04
FD
F6
D8
BB
D4
E2
21
05
15
18
28
0C
03
DF
FF
ED
E2
FF
04
11
FD
1D
1B
24
05
14
EF
F6
EA
E5
F2
C6
F0
F8
08
F4
FE
1E
13
0F
FE
DC
F8
E9
F9
F6
06
0A
06
17
24
13
1C
15
F9
F5
F3
F8
D4
D9
0C
DF
FD
EF
0B
1D
1A
0D
F8
DF
DF
E5
06
E6
E0
0E
0D
14
2B
03
0C
09
05
FE
F7
0D
F5
EF
FB
06
F8
07
06
14
19
F7
F6
EE
F8
02
EB
E8
F9
E2
08
2D
1D
0C
06
09
F1
0A
FD
12
14
02
CF
01
F6
0A
17
14
0B
18
FE
F8
0C
F9
F0
EC
EB
E6
14
16
15
F6
FC
F9
03
FC
F7
F6
0A
E1
DC
15
F5
0C
21
0F
06
14
F7
02
0B
FF
E1
E4
E4
EF
09
FC
0E
E1
E0
EA
FD
E3
04
01
F7
F0
FB
0D
04
11
13
1C
1D
F2
F1
F4
ED
EA
DF
E4
E1
00
08
04
0D
E0
F9
03
07
04
06
15
E3
F4
E4
07
14
1C
F6
08
0F
24
15
06
F9
F7
EA
F9
EE
F4
09
F3
F2
06
02
F3
01
FC
F9
E6
FE
DE
13
1D
FF
F7
F2
F0
03
0E
F0
FB
0C
FD
F0
E4
EF
02
03
16
03
EB
04
06
F7
01
EF
E7
E7
03
ED
22
18
02
F0
E5
FA
17
FA
09
FD
FB
F1
FF
0A
01
E5
F7
0B
ED
18
F7
FC
06
EA
EB
E4
ED
E6
FB
F7
0B
F7
F0
FF
EB
FF
0D
09
01
F1
FC
F9
DB
FE
FD
12
FE
FA
1A
F7
02
EB
ED
D8
ED
FB
FA
0E
F9
F9
FD
18
FB
04
FD
13
F0
E7
09
F5
06
F9
07
02
0C
04
1D
0E
F9
DF
CD
E4
EC
E1
0D
0C
05
F0
1D
13
1E
22
1A
27
14
00
12
F1
EE
01
11
00
F7
03
F6
EA
EA
D5
DA
F4
E2
DA
F4
F8
F8
F3
F3
08
08
0C
05
2E
24
25
36
02
05
1C
12
0D
01
01
01
07
05
C7
F9
F3
05
0B
04
EF
13
F8
0E
EF
0F
0A
1E
0F
1A
1F
00
00
FE
F3
F9
F6
02
04
1E
11
F8
EB
F7
16
F6
03
0D
09
0F
F0
F3
F1
14
34
0B
0F
F5
19
08
FE
0C
1C
00
06
09
2D
16
0E
FB
FF
0D
02
F2
FA
FD
01
F0
FE
0B
FE
EF
0B
F8
05
02
05
08
F7
05
E9
06
EF
EC
EF
02
03
FC
0D
04
FE
FB
FD
0E
12
03
04
FA
14
F3
02
E4
F0
F0
E8
E5
F5
F5
ED
08
E3
06
F5
E1
F6
E9
F3
00
F6
02
0C
ED
EE
F2
F6
07
E9
F3
F2
F7
EE
D3
F4
CF
D7
FC
F9
00
0D
04
E3
F1
DB
FF
07
01
F7
0A
10
F5
F7
03
05
14
F6
EB
F9
F7
E2
DE
04
FF
F4
EA
F9
1E
19
10
0B
F0
21
00
0A
14
0E
14
04
0B
07
06
F2
05
07
FB
05
17
FF
0A
F6
FF
07
10
15
05
06
07
04
FB
1B
2A
1F
18
FB
0A
18
02
16
02
F2
0A
0F
FD
08
0C
FD
F2
06
FB
FB
FA
EB
02
EE
13
F7
03
04
01
FE
1A
19
F8
12
F7
F3
0C
F5
F2
08
1A
0A
F5
F9
EA
FD
DC
E3
F2
E6
E9
E8
FF
ED
E5
F0
00
08
00
0F
FA
09
17
08
FA
EF
FF
F9
08
F6
F2
07
08
05
F7
E1
FD
E4
FE
E5
FA
F9
02
ED
0E
FF
0B
0E
07
08
FD
FD
F3
10
F2
02
1E
F8
01
04
0D
0A
F5
F0
F1
EC
D8
EE
08
ED
E8
FE
05
F1
06
EA
07
F5
11
1F
05
FD
DF
0E
0A
0F
E6
FD
11
05
01
F6
F3
DE
E4
DB
FC
08
05
14
0D
F8
02
14
FE
E1
19
0F
10
E8
FB
D7
08
07
E0
F0
F1
15
FA
FD
02
F7
ED
01
E6
07
0C
0C
04
0C
08
04
EC
D7
FA
06
0E
05
D8
EA
0A
0F
01
FE
0D
F8
0A
EF
03
EC
FB
F9
00
03
00
17
03
0A
FD
04
E9
D8
0F
06
04
E7
03
EF
EB
06
F0
FF
F9
02
FD
01
18
21
01
12
FA
10
EF
FE
0C
04
06
0E
FB
01
F7
E4
11
F0
03
E2
F2
FB
E8
00
03
07
01
1B
26
11
FA
0E
FD
07
01
03
10
0F
E5
F1
EF
13
11
06
02
05
FD
E5
DD
00
F0
F7
08
05
0C
23
29
1C
07
09
17
15
F0
F8
09
F5
E0
E0
E0
0A
1E
0C
01
05
04
09
08
F1
E9
F2
F6
FC
10
1A
1D
00
10
02
06
FF
11
05
FD
F4
DE
E4
F0
0A
FF
10
FB
FD
06
EC
FD
0F
12
0C
0C
10
12
FC
18
10
0B
08
04
0C
EF
FC
EF
F8
0D
03
F0
23
1C
1A
0C
FE
F2
FA
F5
F6
FB
01
F9
02
15
11
06
12
0C
02
F4
0E
EF
08
FA
0D
F4
0D
17
01
FF
0E
EF
E2
FF
EA
04
05
16
20
24
0F
26
0A
1C
FA
15
14
F7
08
07
EE
13
0E
15
22
2A
1E
F8
F8
05
FB
F0
0F
05
1F
03
0D
0C
23
09
FE
E5
03
12
1B
00
F6
08
EA
09
F5
07
19
08
17
F4
0F
12
F2
04
F6
09
19
2C
18
FC
10
07
F2
E5
EB
F3
F8
FA
FC
F0
FC
19
12
02
1D
F2
03
14
FC
EC
FA
EF
09
F2
0C
FB
15
F4
07
01
F6
F2
01
FD
14
F0
0A
FF
17
11
03
F9
17
EF
FA
F6
FF
EF
EA
12
10
04
14
06
05
0A
E7
0A
0A
05
13
E5
06
F1
11
09
F6
F8
03
1A
F5
F4
F0
10
FD
13
02
F3
F2
FF
EB
F7
04
03
F7
01
EB
FA
02
05
FE
0C
F2
FE
15
12
FD
0A
F7
E3
0D
F2
ED
0F
0E
EA
D9
DB
CE
D8
F4
E6
0A
F6
FD
0E
F1
FD
FD
0E
EC
EF
0D
F1
F4
F3
E9
E5
1A
06
EF
FA
ED
0C
0F
D5
D6
CE
EA
DB
E4
D8
F9
D0
E0
F5
FB
15
E0
E0
E9
E9
E5
EE
E7
E6
EF
06
EC
F6
0F
00
14
16
E3
DD
E7
E1
E0
E2
DF
E8
EF
DA
B9
E6
EA
EF
D6
DC
F1
EB
0E
09
06
05
12
02
08
0E
FB
F0
03
0B
EA
03
F4
E8
F3
ED
E5
F1
FE
D9
F5
0F
E6
FF
09
02
02
FD
EE
14
05
00
10
F7
0B
F4
0F
F9
F0
F8
EF
FF
00
F6
F0
0A
0F
F2
FD
08
0E
F6
0F
F6
F9
FC
F5
FB
04
F0
F6
05
0B
00
04
09
FC
FE
0C
FA
01
F3
FA
FD
02
F8
0C
09
09
EF
EB
EE
0E
F6
F6
F9
F1
04
04
F9
11
DC
E4
0C
01
15
20
02
0C
2C
1A
0F
04
08
FB
F3
0A
0E
FD
F8
0F
FA
0E
0A
FC
04
F3
09
08
06
15
01
08
36
27
29
1C
23
22
16
05
24
12
10
F4
FC
E3
F2
FA
15
02
01
F3
F1
FD
0D
EC
EB
07
23
1C
14
2A
29
1B
39
0C
26
07
F8
F8
1B
FB
03
05
11
01
10
1B
FB
E8
06
FF
15
23
18
F9
EB
F3
06
02
0E
19
1D
0B
0F
25
22
20
29
15
07
13
F2
FC
06
1C
0E
07
12
FE
FC
0C
1A
05
12
FA
EB
0B
09
02
02
1A
FD
13
F5
08
13
0D
09
F4
0E
EF
04
04
0A
0B
DA
F7
EE
09
0F
F8
0A
FE
F9
07
F2
EF
09
01
F3
08
02
EE
FC
F7
FD
01
02
F4
CA
F2
F2
1D
F2
F2
D9
EE
F4
FF
0A
F4
EC
05
11
F4
04
FE
FA
0B
0B
EE
F6
F0
E0
F6
F4
E2
BE
EC
ED
06
F3
EE
EE
04
FE
0B
FD
0C
F5
0D
0B
0C
04
F1
0C
F8
F1
06
FD
FA
F7
FA
FD
F5
C8
F2
21
03
F4
E1
EB
F6
F7
01
F4
F8
08
E9
04
FD
14
F8
E8
FC
EA
04
05
15
00
1B
F5
E9
C6
07
15
E7
FA
E9
F3
0E
F3
FE
DC
EB
F0
EB
E8
F6
0E
0F
FE
FD
13
06
13
0F
FA
03
F0
D4
FC
F3
0B
E8
F9
E2
F7
01
EB
D9
E2
09
F1
E3
08
1C
09
0D
2B
14
07
04
04
22
06
DE
EC
DF
EF
EE
09
06
04
F7
EE
11
E5
F2
EE
FA
FD
01
F1
F9
14
1F
28
01
F8
FD
15
1C
FF
CF
CF
EF
EE
FD
FA
0E
FB
0D
FF
E5
EC
DF
E6
FC
F1
DC
F3
F3
FF
19
25
16
FA
10
02
ED
F4
DF
CC
D4
E6
F9
07
04
EB
F1
F5
16
10
FF
02
F2
EA
D7
EB
0C
19
21
0B
0B
12
E0
DA
E8
FE
DD
01
EA
F8
F8
F6
F6
DE
0F
EC
FD
0E
EE
EF
D5
F3
DE
C9
F4
E2
F2
0A
10
04
06
F8
F8
F3
FC
FC
03
17
1B
0B
FE
F9
04
FA
1A
17
F2
FA
E0
E3
F5
DA
D8
EA
FD
0A
F6
F2
0B
F4
05
04
12
18
08
17
FF
11
13
04
E9
EC
25
1E
19
0B
F8
09
D4
F0
F4
E7
E4
05
06
0D
13
FC
18
FC
0D
1A
2E
1E
17
0A
19
F9
EB
FD
0F
1B
1F
0F
FF
04
FB
F0
D7
F5
02
08
21
1F
23
0B
08
FC
10
16
12
14
F1
F6
ED
F1
F2
13
1F
21
12
28
0F
09
FF
E7
E7
06
09
EF
06
0C
26
32
09
FF
13
FE
14
13
DF
FD
F1
F4
F9
08
13
0C
30
10
0B
00
09
02
F6
EC
FD
08
F2
0A
18
21
19
0A
01
F5
16
E7
10
FF
08
05
EF
0F
32
1A
07
1C
0C
0C
FF
FA
F9
EE
07
EF
04
FF
21
0E
16
F7
15
0C
08
00
00
E4
0E
F1
0B
08
24
03
11
F3
0F
FD
0E
15
0D
05
F6
FC
F4
0C
05
06
26
0C
0F
21
10
0B
07
F6
EF
13
F8
EF
02
0F
FF
04
13
26
16
13
05
06
16
10
02
F0
16
00
11
FD
FB
06
36
12
0D
F5
04
F7
04
09
EF
FB
0E
14
09
0D
04
0E
F5
01
16
FA
E4
E8
F6
10
ED
FA
10
13
01
20
F9
F4
11
FD
09
00
FC
2F
F8
13
0F
0A
0C
FE
FC
E7
0B
05
03
06
0E
0E
E9
F0
0E
05
0D
F9
0E
00
F2
0D
0C
FF
01
08
EE
E4
DD
FF
02
DD
FC
ED
EB
F9
FF
F7
F6
DD
E5
FE
09
04
FC
F4
F0
0E
0E
EE
FB
FF
F7
FA
F3
0F
F7
FA
EC
F3
FB
FC
F5
0F
12
EC
F4
F2
F1
09
01
FC
0F
EC
F1
0D
02
0B
02
FE
F4
FF
F2
F6
DC
D8
EB
E1
D7
E4
E2
0A
26
1D
EF
E4
D6
D8
F2
E2
FF
F6
05
FB
02
F6
EF
11
05
E9
02
EE
EB
ED
FD
E3
F7
15
15
20
2E
39
18
F5
01
06
F4
E9
EA
F3
0D
F4
0C
F5
0A
0F
0C
F5
FB
F7
D0
CE
DA
D5
EA
FE
0B
1A
2F
15
30
1B
1B
FF
06
E3
E0
F1
E1
F8
06
13
FB
18
0D
F3
E2
06
10
0E
C8
D2
EC
E5
E7
F5
07
12
17
1C
FF
F6
F6
01
FB
F4
FA
FE
F7
11
01
F7
06
06
01
E8
00
04
01
EC
FB
E9
D9
E3
04
F3
0D
04
1E
ED
08
06
03
E8
0E
FE
FC
F6
0B
D9
DF
F8
DC
F5
F4
FB
F7
FA
EE
E1
D2
CA
DB
0E
08
23
16
17
FF
FB
F7
FD
FB
FC
18
F8
09
E2
CB
EB
E6
FC
F8
08
12
FE
0A
E8
CE
E6
E1
FF
0E
08
07
0A
FA
09
E8
E3
E3
07
F1
F1
18
FF
DF
01
11
05
16
1C
06
10
18
17
FD
F5
FD
05
0D
1A
18
EE
FF
0B
00
D3
FB
09
F9
03
ED
F2
E8
25
20
1B
27
0A
2D
14
31
24
0C
F5
08
1B
17
14
05
F7
F7
F7
1C
DF
0A
15
34
15
EA
09
0A
13
2D
2C
26
29
2E
13
27
16
ED
E0
18
13
14
07
F1
03
EA
FD
0E
F4
1E
21
37
FA
01
F1
0F
11
0B
09
04
05
08
07
E2
F0
C4
DE
F7
11
11
03
03
01
F1
F5
E6
F0
18
05
1D
06
0B
F9
F2
FE
F9
D5
E3
C7
CD
CC
D6
D3
CD
F8
11
14
15
1A
0F
03
F0
FE
06
FF
0D
F7
F8
F0
01
1B
DC
D7
D6
C5
C6
C6
C9
DD
E4
EA
E0
FB
F3
FD
02
00
12
14
0B
14
F6
01
24
1E
13
07
00
F9
E6
D0
D0
E0
CA
E4
EB
DF
FF
05
FB
00
05
0E
03
1A
06
22
13
07
00
12
09
15
FE
02
0C
04
E8
C3
E2
F2
F0
10
08
13
00
0D
08
08
12
FC
02
FB
10
03
06
07
1E
11
F4
26
19
11
E6
09
03
E7
E8
03
00
00
27
0D
10
03
06
05
FE
F5
EE
07
14
FA
14
00
F9
1F
F3
43
14
0F
F3
F9
EE
0B
0D
0D
FA
0D
FC
F0
00
09
F2
FC
0D
F8
FC
03
05
EC
FC
04
EB
17
0F
16
02
FF
0B
C3
FA
05
00
FC
01
FB
0B
F4
03
F6
0B
07
08
04
F9
FB
EB
F6
00
FF
EB
15
05
F9
12
0F
EE
D4
FF
23
0C
FD
0F
05
FB
E9
0D
F5
12
F0
07
04
0B
E4
E9
FF
E6
F5
F5
0A
16
FB
03
F1
D6
0E
F0
10
14
F9
17
0F
0B
0A
0F
EC
EC
ED
EE
05
16
14
FC
E3
F9
F8
F4
FE
F2
23
FF
07
FF
0D
F2
02
19
16
03
F0
08
F3
E9
FE
00
05
FC
FC
07
0A
09
E9
FA
E6
1F
F8
00
12
F1
15
18
06
0A
F2
FB
0A
01
FC
00
E4
05
05
E9
F6
02
0F
1D
1C
05
23
FD
23
1A
0E
40
04
E9
F0
06
E7
EE
2E
03
0E
03
F0
EA
F9
F7
00
00
EB
17
1E
FB
23
12
FD
07
05
E9
0C
39
2B
F7
FC
0C
F0
11
11
0B
07
FA
06
F6
FE
0F
0B
01
FB
FC
09
1E
05
F1
11
F3
F0
F8
0F
10
03
04
FC
09
EF
DA
F6
EF
0F
0F
06
07
F1
FB
15
0B
06
10
12
FF
E4
01
F3
FB
EC
0B
E6
FD
0A
FE
01
EC
F8
FB
F9
12
EB
17
E2
DB
DF
D2
D8
18
15
28
16
F5
F7
04
0B
08
15
12
03
01
EC
F2
09
02
01
12
09
1C
27
15
33
10
10
08
00
FA
F2
1B
0E
FD
FF
EC
FB
E0
03
13
F4
12
EC
11
F8
FE
FE
0F
07
F3
FB
12
EE
FB
F5
09
EF
15
FC
F4
11
07
14
F7
0B
06
0E
F1
00
00
00
F7
F6
F4
F1
F2
12
FC
15
FE
F0
FC
08
0A
16
F8
E8
E4
EF
12
06
F2
0E
03
F3
FE
FE
F8
05
12
FF
EF
06
0E
01
13
F4
20
1B
09
11
23
FD
0F
EF
09
09
25
19
1F
05
03
F3
0E
F2
F0
09
FA
02
0C
FA
ED
1F
0F
06
FF
01
FC
F8
F3
05
EE
FF
F8
0D
15
1D
2D
17
15
F6
07
0A
F0
0F
FB
03
ED
E1
EA
F3
F6
E5
EF
D6
EF
F1
E7
02
08
08
10
14
0F
FD
15
1E
0D
15
FE
F4
01
01
F2
11
0F
E4
E2
E0
E3
E1
05
01
02
06
EA
FF
EA
EF
F4
01
F3
14
05
23
FC
F2
FD
15
17
FC
1F
09
11
F0
F3
03
F6
02
FA
04
00
13
F8
23
12
01
06
F5
00
19
19
1B
0A
0B
00
06
11
EE
0A
F7
0E
10
FF
F6
0F
F8
F3
15
00
06
07
0A
FD
EE
F8
F6
F2
1F
1A
18
0B
02
E9
06
1A
F8
0C
E9
10
F9
0A
FA
FB
14
FB
15
13
08
FE
0A
E3
01
F0
06
03
1B
11
FB
0B
DB
09
FE
13
0C
04
F2
03
F5
FE
F9
13
24
0F
0F
1C
16
1E
03
F2
F8
EC
F5
1F
30
35
27
EF
00
EB
0A
0E
0C
00
11
0C
13
1A
23
14
19
16
05
12
F7
0C
F0
EE
E4
E7
F6
1F
35
25
26
EF
E0
E5
0B
20
18
0C
FB
FB
21
1C
0C
12
28
0C
F6
08
09
F7
FD
05
07
E2
F2
26
2F
37
10
0D
E4
FF
FA
1A
15
F5
F7
01
25
24
32
08
12
0D
E6
E7
F2
11
07
F2
F7
06
0B
1E
36
17
11
09
E6
E8
E0
F4
04
F6
F8
FB
0D
02
10
F6
FA
EC
FE
F8
0D
03
0F
10
F5
06
FB
0D
0A
28
19
E9
E3
E4
F0
E8
D3
F0
F7
FC
07
F4
0A
06
FF
DB
E9
06
1B
14
0A
0A
06
0E
F1
FF
0C
FC
FE
F2
F0
DA
F1
EA
D0
EE
FA
14
0B
E8
E7
DF
F4
F9
F5
00
20
2F
02
01
01
0D
0D
1A
18
13
EF
E6
E8
F5
FF
04
D0
07
F4
05
EE
FB
EF
F2
06
FA
F9
00
1A
12
04
F1
EF
FE
1E
FE
05
00
FD
F4
0E
FF
0E
F8
ED
EB
0D
EA
FF
03
00
F8
E7
0C
02
0C
16
15
10
F5
F5
0A
1B
FF
09
FE
EC
03
EC
02
22
F9
F6
EA
12
01
13
07
F8
03
F8
11
06
06
1A
0E
1F
1E
0C
FA
14
09
04
FB
F6
EC
05
F7
05
04
E1
02
F7
02
FB
0C
10
08
02
10
12
1A
0F
01
22
FB
FA
09
FE
07
0A
02
09
0C
11
07
13
F7
F5
06
F4
0B
0F
0E
06
0E
FD
F3
02
0B
FC
01
0A
F8
04
FA
F4
F3
E7
E3
FC
F5
F3
05
F2
FA
03
F8
FA
0A
02
00
F7
F4
06
03
FD
11
FC
FD
0A
17
06
03
FA
01
FB
00
F5
07
07
EE
DD
02
0B
F4
E6
FB
FE
F8
0D
05
03
06
EF
EC
FD
10
12
14
18
15
0C
F8
FA
F6
EF
05
EF
E6
FE
07
F7
01
13
0C
FB
07
01
08
08
EC
FE
03
07
F6
00
04
FE
05
FD
F2
DF
F5
F4
00
F2
0A
03
07
0D
06
0F
FD
12
1A
25
08
F8
02
00
FF
16
01
F1
FF
1D
14
1C
09
F7
FD
F7
0A
FA
1D
06
F5
FC
08
FE
13
EB
FD
FF
0B
04
FA
09
1C
09
0F
15
0C
1B
1D
18
0C
08
06
F5
FC
16
10
0A
F2
EB
F8
EE
EC
F3
03
F3
FC
F8
0D
FC
00
05
1B
12
1F
0D
17
0E
12
13
21
06
20
14
01
0C
F8
12
0D
00
00
04
0C
F9
FD
14
15
F6
01
FC
12
F0
FA
0C
08
FA
0D
09
10
16
1D
F4
FF
FC
05
00
EF
14
05
11
FA
F7
F8
F2
F3
F0
F8
01
09
08
0C
08
F3
F6
ED
13
EE
F8
13
FA
06
00
EE
FD
0B
0E
0D
0F
F1
F4
05
00
EB
00
12
F0
15
12
08
D2
EB
00
17
FD
04
25
01
03
0C
09
F7
0A
ED
0D
FF
FC
0B
FB
E7
F4
F5
08
11
04
00
01
F3
04
FC
EB
F2
F4
D7
E5
F7
EC
F5
11
14
06
11
00
0A
F1
0A
02
EE
F1
10
15
07
E7
F0
EF
1C
08
0C
FF
E0
FA
F8
E1
E8
EB
F8
EB
09
07
12
06
07
06
F1
E3
D9
F0
E6
F1
03
F8
F4
09
06
18
05
0E
FE
FB
00
FE
F7
F5
E1
E3
FE
1A
F9
F9
F3
07
FD
E7
E0
D1
E4
EE
F1
FA
1C
05
FB
09
06
0F
06
FB
F8
EC
0E
F2
F3
D2
02
01
FC
FD
F4
FD
00
FB
EA
E3
F4
DB
EE
FB
F9
EF
0F
11
FE
0A
FB
01
05
07
0C
FA
E7
E9
EB
11
07
F6
FE
00
F3
E1
E3
F3
F1
02
F7
03
F9
13
F4
EB
0D
09
06
F1
F6
0D
E4
FE
DE
EB
01
F0
1F
27
FD
0A
EC
FB
F1
F7
F5
FC
0F
F9
FB
FA
05
0B
F6
F8
F1
FB
00
ED
FF
EA
E9
0A
E4
04
FE
06
EB
E4
12
F4
DF
02
FB
06
17
06
1F
06
0E
F5
03
F0
05
17
01
16
FF
EA
F6
02
D2
F7
F3
09
F4
F6
F5
19
EF
12
0F
05
02
10
08
12
F7
07
08
ED
09
13
08
05
FD
EA
EF
F9
C4
E5
E6
FC
14
FB
EB
F1
1F
03
F0
04
0F
FB
F4
0F
F7
01
FF
F1
02
FE
0B
15
F8
1E
21
0E
DE
F0
E0
F1
07
0E
08
02
13
09
F5
FA
FC
01
F2
EA
FF
02
FC
FB
F3
F3
18
1A
1F
1C
2A
2A
21
08
FA
F7
0D
03
09
07
16
0D
10
0E
10
EA
F6
FA
02
EA
0C
E6
E9
FF
03
01
07
13
30
2A
20
28
0F
10
FC
FC
F5
ED
13
0C
02
F6
F9
0F
0A
1D
03
FE
09
02
F8
0B
03
F9
F7
EF
09
1E
18
1B
12
16
EA
FE
EB
10
FE
F4
0B
02
0E
03
05
08
1E
F0
F5
06
F7
01
07
F0
EA
05
F8
28
1F
0C
1B
0D
FC
F6
02
F5
F9
0D
1E
07
0E
2A
19
0C
FF
F7
EF
10
05
EF
EC
DF
FE
DE
F0
20
1D
25
FA
0A
FB
EF
E8
EC
14
08
06
1A
06
18
1F
14
FB
F4
FC
F0
FE
DC
DB
F1
F9
06
F4
14
07
07
0D
FB
F4
F9
E0
F9
11
FD
18
12
1B
26
21
F9
EB
F0
04
FB
F9
E5
FE
ED
F5
03
22
12
2B
19
F3
01
15
E8
D9
FD
06
19
13
F7
0B
28
19
0D
F3
F2
01
FF
F7
E8
01
07
00
04
14
2F
01
15
09
F8
F6
EC
EE
EF
EF
09
1C
03
02
18
14
FF
F1
E9
00
F5
0E
EB
15
11
0C
0F
30
1A
01
09
0D
F8
17
F4
04
F4
18
16
04
F3
F9
18
FC
0D
13
EF
0B
F0
05
10
FD
13
12
14
23
07
03
05
07
09
EE
FA
09
00
0B
06
FF
03
F1
FA
13
08
00
F3
08
03
EA
ED
F0
09
F4
04
FC
03
22
F6
15
EE
ED
0C
E9
E9
F2
0A
F4
07
FA
14
07
FD
03
FA
15
ED
16
F3
17
FE
EE
E8
04
0D
15
E6
14
F8
0D
FB
DA
D6
E1
BF
E9
F6
02
01
12
F5
02
FA
03
F9
08
0B
12
FB
ED
FD
FF
0B
FB
F3
0D
0F
05
12
02
D8
E6
D5
CE
D5
E0
FB
EB
D4
E2
0B
0C
F2
F4
F4
FD
17
EF
DA
DA
ED
E2
FE
F0
00
03
EE
09
02
FF
03
0C
11
F1
F9
EE
00
F1
F0
E3
ED
E4
02
04
F3
F4
06
1A
14
0B
F8
EE
F7
F1
F8
06
F1
FE
0A
16
F2
FA
E5
09
07
FB
08
03
E8
FB
0F
F9
F6
04
F8
EB
F1
07
0C
FA
FD
FB
0A
F5
F1
F6
F8
0E
11
0D
0E
09
FB
0D
00
13
0E
EC
05
FF
0E
0C
FA
12
00
0E
02
10
ED
0B
0B
0B
11
F0
FC
FC
0E
06
01
E9
0A
E7
07
14
F5
F8
E2
07
06
FB
F9
FB
08
F6
00
EE
F1
0B
F5
F1
07
EF
EF
F5
F1
EB
FB
FD
15
F3
F8
F6
16
07
F2
FA
E7
02
EC
04
F0
FB
EC
07
10
FB
20
18
0E
F4
FD
EA
0A
F0
0B
DA
CD
D2
DF
E4
DF
E8
DF
DA
F6
F3
F3
F3
EC
07
EC
08
FC
F6
24
07
F4
FE
FB
14
FC
EA
EC
F8
18
1B
06
F4
F9
F1
F0
FF
0B
EE
E8
FE
DC
E8
FB
F8
01
F4
F9
FC
0F
07
F8
FD
0E
F4
F8
03
EC
FD
15
0C
0B
F6
00
FC
F8
07
FF
12
F2
E4
FD
03
08
F6
07
12
18
02
19
FC
17
16
0F
F2
04
F5
F1
EE
07
FC
05
F3
FC
F6
08
06
00
F3
F4
F2
13
0D
0A
09
1E
01
01
1C
11
15
02
F3
0D
00
10
08
0E
08
FF
00
FD
03
02
02
F3
D2
EE
EB
0D
1B
E8
E1
0D
13
11
08
13
01
0A
F9
05
F8
10
0E
FF
0D
F8
FF
FA
F1
06
F9
E7
EA
ED
07
FC
0C
F8
E9
F6
18
F2
10
0B
0D
14
F2
04
00
0B
2B
18
13
F8
05
03
F1
F9
F6
F3
E4
F9
07
0D
FB
E9
E5
F7
F7
ED
EF
03
03
FE
03
E1
EB
F7
0B
29
25
F7
FE
EB
F0
04
0C
EC
E7
06
0D
0F
04
03
04
04
ED
17
F7
18
13
F9
ED
DC
E1
EA
F7
1D
19
FC
FC
F6
FF
FB
F9
E6
E5
08
0A
1B
1B
0E
EF
E4
05
F5
F3
F8
EE
E8
CE
DD
D7
D1
FD
13
FE
04
F0
F8
07
F7
FF
F3
1E
0D
01
0E
F3
23
E6
E2
EB
F0
DB
DC
EA
B8
C6
E1
E6
DD
00
08
04
F9
E4
EC
0A
E4
ED
FF
01
0E
F9
16
EB
01
03
F3
F3
D8
D1
C1
CA
DC
EE
E8
E2
FD
F6
0C
15
22
01
F1
0D
F4
17
0D
0D
33
F4
FC
FD
FB
F9
00
D7
E7
DF
D5
DB
E7
EB
12
05
F8
04
0D
14
04
F0
EF
FE
F3
FF
09
18
1E
FE
0F
F6
F7
EE
F3
F4
EB
FD
E6
1F
FA
16
0A
19
0D
07
06
F8
E8
ED
E6
EF
F8
07
0E
12
FE
0E
F0
0C
0E
F6
FB
F7
FC
0D
06
FF
19
0A
04
2B
13
00
03
F2
EF
FF
E9
08
EE
FD
0C
09
FE
15
0B
1B
FC
05
03
02
F7
F7
F1
12
0F
12
22
21
1D
01
F9
E9
E6
FB
E1
F1
F5
06
F9
07
01
0F
02
14
08
02
15
EE
03
FD
02
07
05
0E
28
14
0A
EF
E2
E5
DE
FC
04
FD
04
1D
14
0D
00
1A
FE
18
F1
12
02
EB
F0
FA
13
F8
FC
1C
04
15
EA
07
F7
07
F3
10
00
FF
18
10
15
0C
0C
00
18
19
07
FC
16
08
06
EF
F7
10
03
09
F0
0F
F9
13
09
FF
16
05
07
19
0D
1E
03
0F
F9
F9
F6
F9
0B
0F
04
37
F1
05
F1
FC
F0
E2
E6
0C
0C
FF
0E
07
0B
F9
19
0D
FF
00
FE
0D
03
02
F8
0F
F9
F3
05
04
02
15
F6
F1
07
F4
F9
FE
04
FA
F9
F9
FF
FF
FD
FB
F2
E4
F7
0D
F9
F5
01
F7
02
EA
FB
0C
16
E9
F0
DE
F4
03
E1
F4
06
F3
F6
FE
E4
FD
04
1B
FE
F5
16
00
05
02
09
13
07
FD
18
03
FF
11
11
EE
F5
01
FD
06
FB
F2
F0
F5
E6
E5
D5
E9
D8
EE
05
1F
1F
12
EE
FF
11
E5
0B
13
FD
18
1F
00
03
FE
F3
EA
11
13
11
FB
01
F8
D9
F1
F4
11
02
01
00
F8
F3
F6
05
F3
09
06
0E
FC
07
0A
F6
05
08
11
10
11
07
04
ED
FA
EF
EE
FB
15
0F
0D
F3
F8
