06
10
FB
01
0D
09
03
06
01
EF
01
FC
10
10
07
12
F6
12
11
FF
F0
F9
FB
00
EE
04
F8
FB
F6
FC
ED
F5
02
0F
18
F5
0B
F4
EF
FE
F5
EE
FE
00
12
0B
F8
F2
F2
F9
FC
15
07
F8
0E
F3
EF
04
F5
0B
17
02
F1
07
E8
0D
EB
FE
EF
FB
12
0C
15
0D
FA
FA
00
FA
FF
E5
ED
0D
F4
10
02
05
21
FF
03
FE
05
E3
F4
F0
06
0A
FD
F6
F0
F9
FD
F2
EB
E5
08
17
18
02
1A
F2
04
12
02
FD
2C
11
23
E3
E8
E5
F6
0D
F8
FB
09
0A
01
EA
F4
F1
08
E8
ED
EC
F2
0D
10
02
17
1F
04
F8
12
FF
04
0B
15
06
14
F9
FF
0C
FE
0A
F4
0A
00
FC
F3
06
DF
FF
07
E9
F9
1B
2B
03
0F
F0
EC
10
EF
05
FB
FE
1D
1D
15
0A
12
11
2D
12
13
1A
17
FA
02
0B
EB
00
03
01
FA
FA
ED
09
0F
FC
07
EB
03
F8
00
12
1C
14
0A
17
18
18
16
10
10
1A
FE
FF
F7
FE
E8
F9
FC
ED
F6
ED
FB
16
18
F7
13
02
FC
06
14
11
27
05
10
13
27
16
26
0D
0D
03
01
E8
DD
D2
02
14
FB
13
0B
1C
17
FD
19
03
11
00
10
15
1F
20
1F
FF
10
02
12
13
FB
08
F1
F0
02
D1
11
F7
0E
17
0E
1C
20
0F
12
1A
05
04
21
1C
00
27
0F
02
13
0A
13
17
18
06
FC
FA
01
EC
12
00
F8
07
19
00
0D
0B
02
1C
04
FB
07
15
FF
10
0D
0D
00
02
28
07
31
0B
23
22
0A
18
12
0E
F0
14
3B
25
24
18
12
FE
03
F0
E8
EA
09
0D
03
0F
F4
10
1B
08
14
10
15
07
0B
1A
1B
10
11
1B
25
19
1E
14
FD
F1
E7
DA
E4
D6
F2
FB
10
0B
F6
09
10
F8
19
1C
01
EF
F2
E4
EB
0B
FB
0A
03
0D
FE
FF
FD
F9
F7
EB
E6
D7
FA
03
10
01
03
0B
F8
0C
EE
F7
D7
F2
DF
EC
FC
07
E6
F4
F0
EF
F9
F7
E7
E5
EC
D0
EB
DA
E9
0A
F1
07
EE
F0
F3
E9
EE
F0
00
EB
0B
0F
17
00
16
10
21
E1
FE
DB
EC
EB
03
F0
F6
EC
E5
FE
EF
EB
07
F1
E6
F7
F5
EF
03
F8
DE
03
05
FB
13
F1
0B
02
F4
F9
E2
F0
02
E8
F0
FB
07
FF
12
FE
FA
E4
FA
EE
F1
05
F1
EF
E5
FB
0D
00
1F
F1
05
ED
F0
DC
08
F2
E7
00
04
F1
FD
E7
04
08
F5
FC
E7
EC
FB
F9
FB
EF
DF
F2
F3
F6
F9
20
0B
D9
DE
F4
F6
F3
F0
E9
F1
ED
FD
FE
02
E6
F1
F8
EA
0A
FF
F4
F2
0F
18
1A
FF
0B
01
01
F2
F9
E9
0F
15
05
01
FE
F6
FC
EE
F1
F3
02
10
0E
FF
01
FA
09
05
09
2B
0A
FD
F7
FC
1A
F9
09
17
20
1C
21
11
0D
0D
F0
0C
0D
FA
0B
F8
F9
03
02
F9
FF
1F
2F
11
F9
03
F6
F8
FF
19
F7
0F
24
1C
24
1A
0A
0F
0B
0E
0A
13
0A
F8
0A
11
FA
04
FD
FE
21
21
02
04
F9
F5
0E
F0
FF
10
36
27
16
20
13
08
17
01
FA
F6
10
0A
23
26
04
13
1B
18
21
08
FD
09
F2
05
FD
0A
FC
FB
09
1D
0D
1D
05
17
02
00
08
04
02
0C
0A
07
1A
F6
13
17
0A
00
E0
F9
11
11
02
08
17
0A
0E
05
1E
2F
37
11
14
1B
0A
1A
FD
17
15
0B
21
07
0D
02
E2
F5
FA
EB
F6
01
04
FA
EE
FC
17
27
33
13
1F
22
22
2D
2D
37
35
18
39
1D
34
32
2E
0A
07
1B
10
FA
12
FB
F4
F7
01
F7
03
F7
06
02
24
0B
08
13
14
32
1B
1C
11
1F
1E
0F
1C
01
0D
10
F5
FE
F6
0D
09
ED
0F
02
FB
FA
10
0E
FE
F8
F5
0E
F6
F6
F4
06
10
04
08
F0
F1
F4
F3
F7
F4
F9
F3
06
01
01
09
F6
FD
0C
00
23
04
1B
21
17
05
06
F7
0E
20
22
11
1A
0D
FF
11
F0
02
FB
0D
F8
0E
04
0C
06
1C
0D
FC
17
2E
24
38
28
17
20
06
F1
FB
17
14
24
04
06
17
EA
F6
F5
0B
01
F2
14
07
0B
16
FB
08
0F
12
0F
35
1E
12
1E
13
03
1A
28
16
14
14
15
04
00
F3
F4
F2
0D
0C
F3
EA
0E
EA
21
FF
F8
17
1D
18
18
09
0A
F9
21
09
1A
15
08
11
0D
20
0D
00
E3
00
11
F5
0A
02
08
02
21
FB
12
EF
FA
FC
E6
F5
01
03
00
FC
0E
0C
03
07
19
1E
00
0E
00
F3
12
0A
01
17
04
16
07
11
FF
05
FD
F3
11
05
05
EC
F1
0D
ED
FF
0B
EF
07
06
13
09
FD
ED
12
F7
E1
05
04
FD
FB
06
E9
EB
F2
0B
FF
F5
FA
FC
03
FA
EF
EF
EE
F3
04
02
06
27
19
04
1F
14
F5
13
09
F5
09
EB
0A
EC
F2
FD
06
FF
EF
07
02
0C
EE
EC
03
05
02
02
06
1B
F6
EA
FD
FF
FD
1F
19
E3
FF
16
FE
FB
F1
F9
15
02
01
06
F9
F2
00
0C
FC
FB
E9
03
04
28
F8
08
00
0B
1D
0B
17
F0
F7
E9
EF
06
FD
0E
0D
1C
06
06
EB
FC
ED
03
E6
F0
F9
08
1E
47
1D
10
00
1B
09
1C
F3
EB
EB
F3
F2
FB
13
18
1A
23
07
E3
EF
F0
0D
00
EB
FE
F4
F5
F7
1A
05
FE
02
1E
1B
13
1E
06
1A
0F
14
10
0C
38
26
00
F8
C7
F3
E7
ED
E4
FE
F2
03
05
06
10
11
EE
F1
05
00
0B
22
17
02
13
2C
1A
25
2D
0E
04
E8
E5
EC
F9
F7
F2
DD
ED
F9
01
00
FB
EF
FB
1A
10
02
1B
20
1E
24
1C
16
21
0F
1E
0A
EE
DF
D7
E4
03
F0
F5
F5
06
2A
2A
20
FF
02
F3
FB
16
1A
02
0E
17
24
0F
13
12
18
F6
F3
ED
DB
D8
EF
F0
03
F8
F8
14
17
31
16
07
F6
0B
F1
FB
09
22
1D
F7
FD
EC
08
06
FE
DF
F4
D3
E8
FB
F2
F2
0D
08
04
03
0A
14
19
02
DF
E5
0C
F4
ED
07
06
07
FE
03
EA
F5
F1
FE
EC
E0
F6
04
FD
0F
FC
FF
FB
04
18
08
06
1A
FD
03
04
07
19
FF
09
EF
F2
EF
F0
F0
0E
F7
CC
E4
F8
F9
FD
08
00
FA
0A
03
14
FE
ED
07
FC
04
14
1A
0C
00
01
0D
0B
07
EF
0D
FA
1A
EA
08
F0
F3
0A
24
09
0C
21
06
20
FC
EE
08
08
10
F1
14
12
06
FC
1B
F9
F9
11
13
10
2A
19
18
17
14
07
11
0A
11
13
00
0F
F7
00
07
08
12
04
0A
0A
F8
00
ED
FE
05
07
08
1F
09
17
11
16
14
06
F8
F6
FF
F9
F4
ED
03
0F
EC
12
EF
FE
1E
05
E6
F3
E3
F7
07
04
FE
0A
FC
1F
18
F6
00
05
02
10
FD
0A
EE
F8
ED
F0
E6
07
FB
F2
ED
0E
FC
ED
FA
EC
E6
EF
FC
11
FD
FE
FF
FE
0C
1E
0D
07
F6
FD
E5
02
FF
F0
EF
03
14
00
FD
FF
10
17
F1
01
00
0A
06
F5
02
04
1B
00
FE
06
0E
1F
1F
F0
07
F1
01
06
06
0C
F2
14
ED
EC
EF
F9
FF
06
F8
1B
0D
01
F3
24
1E
0D
FC
2A
15
08
2D
10
0D
19
0D
0D
04
18
FF
EF
F2
F1
FE
0D
04
FB
09
FD
1E
1D
1B
0E
1D
08
18
29
1E
3F
31
25
21
28
19
EB
09
0C
FB
00
FE
FE
EE
F0
19
FB
12
19
1D
29
21
0C
0D
10
FB
00
00
0D
08
27
19
26
10
0B
00
FD
08
05
FC
0B
12
F9
00
11
FD
03
F8
05
F8
EA
E7
03
F8
04
0E
04
12
06
EE
0D
EE
0A
FE
ED
FC
12
F7
F7
0B
FF
01
E0
EF
FD
12
01
FB
F8
11
14
FF
DA
D0
03
FC
F4
E6
DC
E0
12
10
F7
04
0F
10
F2
02
E9
E5
F5
F3
FD
07
EE
FE
F8
0B
F8
FB
F9
FF
ED
F3
EE
D9
DB
CD
E8
E8
09
12
14
0E
15
0A
EA
01
04
F8
E8
EB
E2
FA
04
19
08
14
FD
0A
ED
F6
06
FE
F0
02
D9
F8
DF
0E
02
07
09
13
F8
08
08
FE
F8
02
F1
0F
09
14
22
11
12
F3
15
F5
F2
EB
F1
FE
DC
DC
EA
F4
FF
08
F3
F7
00
FD
F5
ED
E4
F1
F6
FF
1C
05
2D
0C
1D
02
05
0D
20
0E
0D
11
00
E0
F1
F8
00
EE
EA
0C
F8
DE
ED
DE
00
E0
03
03
00
06
08
09
EF
0B
07
FF
FD
18
09
1F
09
E0
17
08
01
EB
F3
F8
0A
FB
DF
06
DD
00
03
F1
FA
EA
EE
0F
FA
FB
E6
05
EC
01
E6
15
F1
05
FE
02
10
E1
FF
0C
F6
F8
FF
0D
E7
01
0E
FA
FB
EC
F4
FC
EA
00
03
E6
FA
F4
05
ED
10
07
ED
EA
E7
F0
EB
04
03
FB
16
0E
FF
F7
00
06
0A
EB
0F
F5
F7
E6
07
FD
FE
EE
04
F1
11
FC
E2
F9
FA
FC
13
0D
FD
04
E9
F1
03
04
EB
F6
ED
E2
FA
F9
03
0C
EA
F7
F8
EA
19
20
EC
E5
DD
0F
F5
E2
ED
F4
17
FB
04
10
FB
07
13
09
FC
F3
EC
F7
03
13
15
09
16
00
04
DE
05
D4
02
07
EA
07
F5
FC
06
F9
FE
0C
06
FF
20
25
15
1B
20
22
0C
08
12
0C
18
08
11
10
FD
FF
EB
0D
F1
F9
F2
2C
0F
1C
1F
11
1C
1F
06
08
21
1A
0B
1B
03
0E
F8
14
F7
08
FA
09
DF
DC
EC
FE
E4
06
FF
2A
21
1C
09
1C
1B
04
00
02
04
F5
08
11
07
09
0B
06
05
0F
0C
01
E9
F0
EB
04
E0
F1
00
14
21
1A
F3
0F
FC
06
EE
E6
FA
07
EC
ED
01
10
F1
13
16
EE
FD
03
DA
FE
FF
FB
DB
03
F2
16
0C
FF
07
F1
0E
0D
0D
01
10
FE
0A
12
EA
F5
09
03
04
F6
FA
F3
02
FA
F0
05
F7
05
0A
1E
08
F1
F8
09
FD
EB
03
EE
06
16
0F
F0
04
02
04
FC
F1
FC
07
0E
EF
FD
10
EE
E1
08
FB
08
F7
FB
14
09
03
0B
10
E5
06
0A
F7
0F
FB
EB
F2
FE
02
11
13
17
0B
F2
FD
1E
0B
F1
01
F8
FA
19
F1
00
EE
09
F8
0A
06
02
FB
FC
F8
EA
01
F7
FF
15
0F
EE
09
0D
0A
F7
ED
0C
12
FD
EF
10
F3
0C
FA
0B
FE
FE
FF
1F
FC
FF
F8
01
08
FB
0D
16
01
05
06
FA
17
FB
0C
F3
F5
F6
FE
FD
F6
0D
16
1C
19
01
01
15
05
15
04
FE
00
1C
23
1E
1F
1D
F9
04
05
FF
FC
FA
0D
F3
E4
F1
FA
05
F3
0A
00
0A
F2
0F
06
12
0C
0A
1F
10
0F
1D
1D
03
01
14
F0
0C
14
F8
10
11
EC
F5
EB
FE
FF
0B
02
15
05
04
09
0E
09
21
1D
2A
1B
1C
17
12
FB
07
FC
FD
0E
F3
F6
FC
F4
F0
04
F5
F9
06
07
F2
09
FE
E7
F2
02
00
19
F9
FC
FC
FA
0B
08
F4
ED
F8
0C
0B
1C
10
FD
0B
0D
FF
0D
09
F2
E8
E1
ED
D9
E1
D6
E1
F2
EF
00
DF
F6
F7
DD
F1
F5
FF
FF
F3
FF
13
2C
02
F1
F9
0A
03
EE
D1
FB
D1
C9
DA
E5
D3
E7
EA
EF
E3
EA
F0
0C
05
F9
13
08
F2
EC
0E
EC
F0
EC
FB
D7
CE
ED
E2
FE
D8
E5
E8
F0
E5
ED
E3
F0
02
E4
F7
EE
04
00
F6
05
F2
FB
F5
F4
F3
F7
04
FF
09
09
FA
0C
EF
F2
14
0A
0A
ED
0F
EF
03
F6
08
F5
EF
EE
F0
F8
01
F9
F9
03
10
F4
07
F8
12
F8
F4
F7
F9
F8
0D
F1
F9
E9
F0
F9
F6
F5
FD
FA
EE
FF
06
0E
F4
EC
EB
FB
E0
0D
08
11
FC
1B
0A
16
16
FE
10
10
00
FB
E7
F0
FA
E4
E9
F4
FD
F9
07
03
0F
09
F2
FC
E3
F2
F3
E6
DC
DA
F2
F8
13
FB
10
0A
12
07
FD
F6
02
F9
03
E1
F5
04
14
FC
00
1E
F3
FA
E9
02
E4
EF
D6
ED
D5
F9
0E
FE
09
F4
09
11
F9
08
08
FE
ED
DF
EA
1A
F3
10
04
0C
F5
F2
E8
FF
D7
C7
CE
EB
F2
07
1E
FC
1E
1F
07
13
F9
11
FE
09
F7
F9
05
17
0A
FB
04
EE
E1
F6
E5
C6
D5
E7
F8
F6
EC
04
05
05
0C
F0
FC
F5
EA
F3
FE
E6
E0
01
0F
F7
F4
EF
EC
E4
F5
EF
EE
D0
ED
01
0B
F6
0A
F7
06
EA
0E
00
06
F8
09
00
F6
F2
F4
0A
08
E4
EE
FC
D8
E0
ED
D9
D9
08
F5
F8
13
06
01
ED
F1
EC
FC
02
FC
14
05
F9
00
09
E7
F2
E4
02
0D
E5
D9
EC
F4
EE
FB
F6
1B
1E
FE
08
F1
03
EA
EE
FD
1D
12
03
0A
0E
F6
E3
E4
E0
E0
F4
0E
FA
02
D4
D0
EA
E8
0D
01
06
F8
FA
FD
F2
FB
FF
12
18
03
11
17
01
F2
F4
E2
D0
CF
F2
F7
F2
01
EC
E3
EC
06
14
03
0D
09
09
F9
0B
F6
0C
1F
12
20
0D
1A
FF
05
FB
DF
CD
FC
F2
F7
02
F0
E3
DE
F5
0B
FF
0D
07
FC
EF
0F
18
11
20
14
03
0C
14
02
00
EB
D5
DE
EB
06
F5
F8
FE
E5
E1
D8
F3
03
0B
0C
0C
07
04
0B
FC
08
14
0D
19
05
10
18
DE
E0
E5
C9
D7
F2
15
00
F3
08
F0
D3
E9
F1
09
F8
07
EE
02
1D
02
0B
06
13
03
16
EA
E3
D9
F1
EE
E0
F0
FE
0C
1A
EF
F6
08
00
EC
F9
EB
FD
FA
0E
06
F3
0E
FC
09
05
F9
F0
DE
DC
E2
E1
F8
E3
EF
03
F7
F5
07
EC
10
15
03
DC
09
F3
F3
08
F3
EA
FF
16
0F
03
02
FF
E2
F5
F1
05
E8
FC
FD
04
FB
07
FB
EB
10
E6
E7
F6
01
16
07
0E
04
DF
EB
FE
F2
F1
F7
E8
DE
EC
E1
F3
06
07
19
08
00
FE
E7
EA
FC
0E
F7
F7
0C
0F
07
03
F4
F8
F5
0B
04
05
08
05
0C
0D
00
00
09
1B
04
FE
0D
FB
F5
E3
FF
06
EF
02
F2
ED
01
EF
F0
F2
F1
F6
F7
03
02
07
FB
F9
F7
10
19
19
12
F3
0A
0C
13
E5
E7
FF
12
F7
16
FC
F0
F8
E9
FB
04
EF
F3
0A
14
13
20
0E
F8
F6
04
FA
F5
F7
F2
04
13
E2
FB
17
0D
01
08
FB
F4
06
01
05
FD
0A
04
FE
F2
F9
16
FA
0B
F1
F3
09
EF
0E
00
0A
0D
03
E6
FB
05
EF
FA
01
15
02
F6
09
04
FF
0A
06
05
F6
0F
11
F8
0B
11
FF
05
1E
F7
EA
F8
0B
EC
1A
F1
F1
0F
F4
02
EE
06
F7
07
EB
02
E9
14
18
16
00
F8
FA
FD
0B
1E
19
EC
EF
00
03
FB
03
EA
FA
FB
FE
01
F8
1A
FA
FD
EA
F1
E7
07
09
00
03
05
FA
EF
0C
F9
0E
EB
0A
0F
F1
00
F5
EB
E8
F8
F1
00
EB
E3
EF
DF
E3
EF
00
F6
F6
07
EB
08
06
D1
E4
F4
DA
FD
10
13
F8
11
12
1D
FD
F8
EA
EF
0F
FC
E9
09
DD
00
07
F0
09
02
EA
F4
02
DB
DF
13
ED
EE
00
F6
06
04
F0
E9
FF
DD
E2
CE
F3
EC
F0
EC
F5
0D
1E
E0
EC
FB
F8
E5
F0
D9
E7
FF
07
09
0D
11
03
01
07
0A
F1
F8
F9
00
09
F6
07
05
F2
0C
01
F3
04
F7
01
F0
10
FE
13
0F
EE
EC
0D
FA
0C
04
08
0E
0A
14
03
17
F8
F7
FF
15
F6
FC
F8
E4
F9
07
05
20
16
18
00
F2
EE
07
F8
10
FF
08
06
02
13
0C
F3
03
F8
ED
F7
E5
DA
CE
E6
1A
11
F8
1C
0C
29
30
24
11
FC
F8
EE
F8
F6
F1
FD
FE
F0
FA
F8
DD
D8
EF
E9
C9
CC
ED
EC
0D
1E
0E
24
1C
1A
21
28
FE
FD
FB
02
0D
FF
FC
F6
FA
DD
E8
D0
F3
DB
DC
E1
FF
E5
08
0D
FD
05
0A
0C
09
14
08
11
01
F9
04
14
F4
FA
12
DA
12
E3
E1
DF
E6
08
F9
FD
F4
F4
11
15
10
00
0E
F0
EC
04
11
E9
E1
EA
EF
17
F9
02
FD
0B
EB
F1
D8
EE
EA
D8
07
10
F5
09
03
18
F4
05
01
FA
02
15
FB
EE
F0
F5
D8
01
EF
FF
EE
FD
10
E8
D2
DC
EA
0C
0D
F9
0D
F6
0F
03
FD
FF
13
09
0B
F6
11
09
E8
E9
D5
EE
02
F7
FB
0B
F2
E6
F7
F9
00
F8
0B
FC
0A
06
09
EA
08
10
ED
0E
F9
18
01
0B
FF
E5
FB
02
17
ED
0F
00
0D
EB
E5
E6
05
04
FD
05
FB
01
0A
04
E6
E9
05
15
02
04
04
0F
05
F7
ED
FD
FC
0B
EF
09
00
ED
E9
17
F4
12
03
FC
10
0F
1E
F0
E0
FE
0C
04
FD
0F
F8
06
04
D2
E8
EA
16
0C
E3
01
E9
FA
06
16
EE
10
02
0B
FF
1A
04
FB
EC
ED
F3
EA
08
08
08
18
02
E6
F0
16
FE
0B
12
08
01
1E
F5
11
0B
F9
F4
FC
0D
26
FA
F0
07
FA
F4
01
F8
1E
15
37
1F
E6
E9
F1
F9
09
0B
F6
ED
0E
10
02
10
F1
F5
F0
01
02
F4
0A
FA
ED
FB
F6
F8
07
08
20
14
F3
D7
E8
23
0A
0E
CF
07
FD
03
05
FB
05
FC
1B
FC
18
FB
EF
02
F3
E8
04
05
F2
FB
0A
14
08
DF
E6
14
FD
0E
ED
10
04
16
00
16
0E
21
04
15
F7
EE
EB
0C
FE
FA
12
04
04
09
07
0D
06
F0
06
F2
EB
09
E1
0A
0B
04
0B
0D
1B
0D
25
F8
F7
00
F2
FB
05
F1
EF
0E
09
F1
0C
EB
0F
F6
05
01
0D
02
DA
FF
FF
10
17
27
24
37
0C
F5
D5
EE
F1
08
EF
EB
00
FA
09
F8
10
FA
00
F5
06
1B
00
F4
D1
E3
FF
15
FF
16
30
0C
F8
D2
D6
F3
FD
FF
F5
01
F1
E7
F8
0F
11
0D
1A
E6
11
FD
0A
0A
F7
F6
10
FA
06
21
31
27
EB
CA
E1
F2
F2
F2
F5
E8
03
F4
03
0E
F4
E7
01
E7
F7
09
15
10
FB
07
F3
03
09
0F
0B
1B
E8
E0
ED
F2
E4
D4
ED
E0
E6
05
05
01
00
DC
00
07
F2
12
0B
FF
FE
04
F5
0C
14
FD
16
0A
11
01
F2
F0
DF
F9
EE
F5
EC
0A
F8
F3
F9
D8
15
EF
15
FF
EE
FC
EC
F1
F6
06
13
04
22
27
09
FD
00
FD
E2
00
E1
FB
00
E8
16
FF
D2
EA
11
EC
09
FF
F8
13
F5
E7
01
0B
F5
21
0A
01
0D
07
FB
0E
EB
E8
0A
00
FC
F9
00
06
E9
EA
00
FB
11
12
F0
0E
E9
FD
F7
ED
01
02
12
11
0A
13
EF
E0
ED
F0
F1
F5
FC
03
F5
DD
E4
F5
11
1A
F1
07
FF
E9
07
FC
E5
EA
E8
FC
FB
0E
F6
F5
FB
02
E0
EF
E7
DC
E2
05
08
06
FC
02
FE
1B
0B
0E
EE
FF
FE
E6
D6
C8
F4
CE
F0
E9
EA
FB
E3
E3
E0
EE
DF
D8
E9
03
14
FD
13
F7
08
00
F8
FA
FA
F1
12
EC
07
F2
08
FE
F3
10
ED
FD
03
14
F0
EE
ED
0C
FD
FA
15
03
F9
F9
FD
F8
ED
EC
F4
0C
FD
09
F1
0F
12
F3
14
10
F9
10
E4
E9
FE
13
11
F1
FF
F2
02
EE
05
09
07
09
13
04
0B
08
F0
F1
09
0F
24
07
21
11
0E
06
0F
04
0F
F8
05
FB
01
10
25
1E
FD
FC
10
F8
08
EF
12
FE
02
0A
04
FA
FF
DE
EA
02
FB
F5
0E
17
17
22
1D
25
32
09
0B
0B
14
FF
EE
08
01
FE
0E
0D
0A
EC
EF
E3
F3
17
F5
E7
F4
03
00
02
08
2C
21
23
02
06
EB
FE
F8
0D
EC
F9
F2
EF
ED
E5
27
F1
07
17
F7
F8
ED
FE
E7
F0
FE
0B
07
F5
04
00
EB
02
01
E0
02
01
E6
19
00
0A
05
F9
04
ED
EA
0D
04
E6
E4
07
0F
1D
05
F8
EC
FB
DB
DB
DC
DF
FB
EA
F4
EC
0C
08
FC
08
ED
E9
06
01
F1
03
F7
FF
FF
13
01
1D
1D
FF
04
E6
E7
E0
E2
DB
F9
EB
F9
0B
14
0E
F1
FD
11
F8
0E
08
D5
0F
09
06
FD
0A
05
14
1B
EE
FD
F3
FA
D9
CB
E6
DD
E9
E4
F6
FC
05
E9
09
16
F6
00
04
E9
E5
02
FB
08
13
16
02
0B
F5
FD
FB
F4
DE
ED
E5
EB
F8
E9
F3
FC
0D
F5
EF
05
09
ED
FE
E4
05
02
16
01
E0
03
1D
10
0D
09
E3
F3
F5
E1
E0
E0
EA
ED
02
06
EF
06
EE
E1
FD
01
FD
ED
D7
00
EA
05
04
FC
07
0B
E0
EB
FF
07
F6
FB
D4
FF
D6
D2
07
0B
EB
FE
01
05
EF
29
16
FA
F6
E6
03
F5
EF
0E
07
FE
FA
F3
E7
00
03
E6
E8
E4
C9
EF
E2
F2
00
E7
EC
F4
E6
01
04
F2
06
02
04
F6
F4
00
DE
F5
02
FD
0C
F0
FF
23
0A
F8
D9
E0
03
FA
DA
F7
F2
EA
11
F5
09
F9
1D
0B
F8
06
0F
04
EC
D8
01
FD
F6
02
FA
15
18
1F
ED
EB
EC
C0
E0
EE
E6
11
0F
06
00
F0
16
FE
F5
09
0D
06
F2
FC
03
EA
FA
F5
11
2C
04
04
FA
FA
07
E7
06
03
05
FB
D7
01
FF
EA
0F
F6
11
14
1D
0E
F7
FA
F6
F4
1C
FE
1B
11
14
F6
FE
DD
DD
06
EF
F7
F2
16
F8
0C
FB
F3
FB
F6
FC
F7
21
24
FF
FD
0A
01
F5
FD
25
06
12
FB
F1
EE
EB
F2
FC
D7
01
F3
EB
05
F0
EC
E2
05
FF
06
04
0E
18
21
08
E9
0B
F9
FF
1A
0D
02
01
FE
0F
2F
FE
F9
EE
F2
EF
FA
0A
F4
EF
F7
DF
FA
18
04
14
16
1A
E4
EF
EF
F7
F7
00
FD
00
0A
FE
07
E5
E7
FF
01
0E
0A
05
F7
F7
F5
F8
01
F5
05
15
FB
10
E7
EF
0E
F0
08
0A
15
FC
FA
11
0A
FF
FE
F4
F5
0A
E3
E0
F9
EA
DD
DB
EA
09
0D
00
02
08
02
FE
F8
01
0F
14
1B
10
03
F0
09
E7
10
FF
E9
03
F8
F1
0A
EC
F9
D9
05
07
F6
08
E3
F6
03
FB
F9
FF
1B
0C
0B
FD
05
17
EE
EF
04
12
EF
FF
EF
0B
07
01
EB
E1
EA
FA
01
F0
0B
E7
F4
E7
F1
F5
0C
FE
10
FE
06
12
F8
F8
0E
EC
FF
F1
0D
06
FC
F8
E8
F4
00
F4
F5
03
DE
F0
EC
FD
F0
11
12
0C
17
08
21
04
0C
ED
FF
F5
14
E3
0D
F0
F6
0E
FD
FC
02
FF
04
E0
05
F8
07
F1
F5
F5
14
0B
F8
09
15
FF
D1
DD
04
09
F6
12
04
FE
0B
F1
F0
E7
F5
01
0B
EF
DD
EE
E1
FE
E9
13
11
18
E4
F8
FC
03
E1
FC
F7
0F
03
02
0D
FC
06
0B
04
06
12
0E
09
FF
F4
FB
04
16
FD
F7
11
04
0D
07
0D
0D
12
0F
0C
F9
F0
0E
F2
F1
ED
04
0C
0A
01
F0
08
F4
FA
EE
F2
DE
18
14
09
04
F7
E8
E1
00
0E
09
0D
11
0B
F1
0D
07
06
01
02
14
02
0A
ED
FD
0E
EC
F6
0F
08
F5
01
0A
01
0C
14
FD
0F
EF
07
EF
F7
0E
02
0C
12
08
E7
F2
00
FD
FE
18
23
16
04
F3
F5
0A
06
06
EC
F3
F7
FA
0E
0F
04
0F
EE
11
1A
0D
FD
FC
F6
04
07
00
13
FB
1E
14
06
F2
17
00
FB
E9
F4
0C
F1
F3
01
09
EE
0C
FE
F2
FF
14
FF
F8
F9
ED
21
1A
0E
0D
01
05
09
04
FD
FC
12
14
01
0C
21
00
0A
EE
ED
F0
ED
F1
1C
F1
F8
DD
FE
F4
FB
08
FE
FE
F9
EF
00
0F
19
0B
F1
0D
0E
F9
27
F7
04
04
F2
0F
FC
0F
FF
FB
E1
E2
F5
E4
FA
08
F8
FD
09
FE
0C
FA
EE
F1
09
F5
1A
19
15
11
02
08
16
F8
F0
0E
0D
FA
F8
F7
F0
F4
F4
10
FC
12
F8
10
F0
F8
06
F0
F9
05
F5
09
00
12
13
11
F4
18
08
17
FF
F9
19
0B
FA
0E
11
15
1E
18
FE
10
F3
01
F7
FC
0B
0F
F7
0F
13
24
24
16
F7
0C
07
27
FE
15
0B
F0
FE
15
FB
0A
19
14
04
00
F3
0D
F4
06
FA
F1
0A
FC
02
15
1C
F7
07
0B
12
08
16
ED
0F
EF
05
0B
FD
09
07
F7
E7
EB
E7
0A
EC
E8
FA
07
E0
E3
F6
01
0F
03
00
0A
05
0B
10
FA
14
F0
02
09
0D
1E
23
F8
DE
DC
F7
E4
04
F2
F0
E6
EB
ED
F1
05
FC
11
13
0A
F8
01
FF
FC
16
01
14
1F
0E
19
06
0C
DE
D8
FC
00
17
F9
05
F5
FD
EE
F9
04
F4
14
05
EF
F8
E1
E2
0A
0F
0C
13
1F
22
2B
2A
F5
EF
F2
FF
10
0A
0F
01
F8
F9
14
16
1B
FE
FA
09
FB
04
F2
EC
23
05
1D
10
1B
28
09
09
F2
F3
DE
EE
FE
08
21
17
FD
14
32
16
14
E4
F6
09
04
ED
E2
FB
1B
1C
17
19
00
FF
05
09
E6
EE
D0
E2
05
00
21
13
F6
F8
27
13
08
00
EE
03
14
0C
FD
07
09
02
05
10
01
01
14
0A
E9
D4
CE
E8
FF
03
04
FB
09
01
04
1B
F9
FB
F7
F2
F8
09
F2
E7
1E
08
10
F5
00
01
0D
11
EE
DB
D4
FB
10
06
0E
FD
FB
FB
0F
0A
E6
F0
ED
0F
12
0F
01
FB
0D
13
14
F9
FE
10
0F
EF
EA
F6
ED
07
03
0F
0A
F5
F1
07
06
0B
E6
0B
01
F4
ED
EB
EA
0D
08
14
12
F7
16
16
F0
01
E4
CD
F1
07
1F
16
05
02
04
FE
EF
E5
0C
0D
06
06
0E
F6
EA
19
22
FD
05
F0
04
FA
E6
F2
DA
EB
F8
FB
14
FD
04
F5
03
DD
03
02
0F
08
05
F9
11
07
FF
06
13
06
EE
E9
00
04
FD
EB
00
E5
0C
F8
1E
FD
04
03
F5
EE
E8
05
00
15
10
15
0D
22
0B
17
19
FC
01
F5
F6
F5
FB
F4
0B
11
FE
06
0D
23
02
09
ED
0D
F0
FD
20
0D
13
F3
14
EB
F1
1D
15
F9
EA
05
E5
E9
06
FD
0A
0D
09
10
17
16
01
F1
06
04
08
14
04
0C
1B
14
13
F9
14
02
E6
F1
D7
DB
05
E8
F4
10
0A
09
F9
0A
0A
12
F0
FB
01
12
F9
F4
F2
F2
F3
FD
FE
14
21
07
09
02
E6
F3
05
10
07
07
F6
F9
F3
F8
F8
FA
06
08
06
15
F7
04
EC
01
E9
F9
14
FC
08
08
07
03
09
EA
FF
0B
0F
FD
FE
FC
0D
1E
09
03
0C
16
0D
02
FB
1B
EA
0E
F2
0C
0F
F7
03
15
FB
12
18
11
19
1A
1F
21
1C
10
1C
2D
14
1A
20
26
11
1A
E9
EF
15
FB
EC
F8
03
F9
02
07
FA
0C
02
13
0C
F3
11
37
33
0A
0E
15
10
ED
FA
03
1A
0B
0D
E4
02
05
FE
05
0D
03
14
0F
12
FB
07
F4
F9
FF
FD
0B
05
F7
03
10
09
0F
F5
12
F3
10
F4
02
09
02
07
F1
F7
13
00
03
05
FC
ED
18
0A
02
FB
0F
15
FA
10
04
03
15
04
13
FD
23
09
EA
12
0B
13
EF
10
06
F2
F8
F4
12
02
12
FD
0D
17
03
1F
23
00
13
03
FE
17
FF
10
03
1C
F0
0E
F5
FE
0D
08
09
ED
F6
0A
FE
FD
11
02
F7
F1
FB
FA
F6
0A
F3
E2
0D
08
10
16
F9
12
29
09
F4
05
EC
0F
EC
E8
00
FC
FB
E1
F7
07
F0
E7
F4
04
FA
ED
0C
FE
FA
05
0F
F4
12
13
24
19
19
05
13
FD
F8
07
F3
E1
E4
D0
D8
DA
F3
E1
F8
09
F8
F6
EF
00
02
F2
0F
10
F8
0B
23
22
1A
13
E7
ED
12
15
EC
00
E9
E7
F7
FD
E5
FC
EA
F1
07
F8
FE
E0
FC
FA
F9
F5
06
06
09
2C
2A
0D
17
09
D7
06
E6
EA
0B
D8
F8
F9
FF
05
E9
FA
FD
07
EB
F5
F9
EB
F6
FC
F7
09
1A
3D
30
05
18
00
ED
E7
F1
D4
F5
F7
EC
FF
F8
04
07
0F
06
02
F4
ED
FD
F8
00
06
FE
11
07
1F
42
2C
05
11
F2
E3
DB
D6
E0
E9
F5
09
10
06
05
03
FE
F9
D8
DA
D3
E0
E8
FE
04
F6
1D
1E
14
10
F3
00
FF
EF
D6
E1
B9
E3
08
FD
11
00
14
33
0A
04
EA
CD
D3
F7
D7
F2
FE
FC
00
2E
0D
01
09
F9
F0
F5
D2
E7
DF
EB
05
05
F7
1A
10
2D
23
02
0B
E2
E7
E8
DF
E7
ED
E5
00
21
F2
0B
FA
0D
07
FE
F9
E6
F1
F3
06
11
09
02
17
0C
0C
04
0B
FC
F2
D8
E5
08
08
F9
21
25
01
FE
EB
F7
F2
FC
FE
DA
FC
05
ED
03
F8
07
11
1D
1C
2A
09
FC
01
0D
FD
0C
FF
1B
FA
02
09
F2
0B
02
EF
0C
0B
D2
F5
02
EF
FD
F8
FB
1A
0E
02
20
20
06
F7
F6
F0
EE
0F
07
12
00
F4
D4
EC
FB
EC
FD
04
CA
DB
02
FC
FE
FC
17
08
0C
0A
2F
1A
0B
FD
01
F4
00
EE
EB
E2
E2
F5
E0
F9
F3
03
03
FA
D6
E9
EB
05
12
FD
09
02
0F
12
08
23
F1
01
0A
05
DD
F4
E9
CC
D3
05
CF
E8
06
E4
01
08
D4
F9
FC
EB
05
0D
02
F7
15
16
1C
F8
04
EB
F5
F5
00
DE
DA
D6
F3
FC
E4
F5
ED
01
E1
E2
FB
EA
02
04
FF
01
0E
06
0C
F5
12
FC
04
ED
17
11
F3
06
E7
E8
DD
F9
FC
F2
13
FA
E6
D6
FA
F0
08
FE
07
FB
0C
06
08
FF
00
0E
E5
F1
1C
04
06
F9
D6
DF
FA
F4
EF
10
0B
0D
EF
E2
E9
F1
02
FB
08
F5
FC
10
FA
F1
06
07
03
11
09
0A
F8
EF
FB
EC
E4
FE
FF
01
06
F8
FB
FD
E1
EF
F7
E1
F4
09
17
01
06
12
01
1E
02
06
05
F4
E3
F1
F9
F8
F5
F7
FF
09
FF
05
FA
08
FD
1C
00
07
FF
F3
0C
EC
FF
18
09
03
18
09
10
0B
F5
F8
D6
F3
EE
10
03
EE
FC
FF
13
F4
01
EA
FE
02
04
0E
EE
0E
0B
01
0D
15
1D
FF
02
04
02
E8
FB
18
EC
E7
F7
00
FB
11
09
EB
EC
FB
E6
F2
F0
1B
03
07
F2
13
0C
0C
16
08
FD
16
06
FD
18
00
F8
14
03
04
11
0C
18
07
EC
DC
F0
DF
D7
F6
05
F6
EE
F1
F1
01
1E
08
FE
EA
FF
FF
FE
0A
F8
07
1C
FC
F7
FA
F9
04
EE
F8
D2
E9
F3
EE
EE
EE
D4
C7
C1
DB
F1
EB
E1
EE
EF
13
08
05
F8
EE
FF
0D
FD
07
FE
F5
0F
0E
0A
E4
F1
0B
ED
01
FB
FC
D9
FB
EA
E9
E9
F8
10
09
FA
03
FB
FD
FF
13
02
F6
F7
F9
05
F5
10
12
FD
00
03
F9
0A
F1
EB
FB
04
FB
F5
EF
0B
14
F9
03
0B
EF
13
05
11
04
12
EE
07
00
01
1A
FB
F8
13
F9
19
FD
E8
EE
DB
10
FC
18
10
0E
E8
EA
F4
F7
0E
F8
FF
0E
02
03
F7
00
08
F1
ED
0F
14
1C
08
04
FE
14
F1
15
F7
F2
17
0F
01
EF
F0
FC
EE
FE
03
F5
DE
FE
EF
1D
1C
02
FC
ED
EB
12
EE
01
01
F3
F4
12
F3
0F
09
0C
ED
06
02
11
02
EE
0F
0D
FC
0F
0F
00
10
1B
F8
00
12
EE
0A
F3
01
0B
EE
06
05
FB
FC
0C
16
04
04
09
1B
16
F9
FD
DC
F5
17
FF
0A
18
FD
F5
EB
F0
0B
0C
0A
0C
EA
05
EC
0A
F8
0F
EB
E7
F3
F7
F4
0A
FB
FD
F3
00
08
F4
FE
0B
16
19
11
FB
06
0E
F8
EE
0A
FE
03
0D
F8
14
EF
F6
DD
E8
F0
ED
F6
20
FD
09
01
03
03
F4
03
11
00
F2
01
E9
EB
FB
F0
03
02
F6
08
E8
F3
E1
DD
D5
FF
06
03
16
EB
00
0C
F6
12
04
FF
FC
FE
00
F3
EA
01
0A
0A
11
0B
F3
04
EB
D8
E5
F9
F3
FD
0A
FA
03
03
09
04
11
02
0F
06
ED
ED
DE
0C
01
04
15
0D
16
15
F5
DA
E5
E4
D5
E6
EA
E0
FF
05
F6
FF
15
FC
FC
09
FB
ED
D1
EB
01
F3
12
25
0E
25
0E
FB
E6
D1
EB
F7
EF
E5
D6
D1
F0
F7
19
F8
17
1B
11
EF
EA
D9
FD
05
1F
18
10
1D
FD
F3
00
E3
F5
F9
FE
F3
EE
D0
C8
DD
04
09
09
02
08
08
F5
F5
E0
F8
06
0A
0B
15
21
FF
02
FB
FF
FA
FA
FA
F5
04
FC
E7
D4
D4
EB
F9
12
08
FF
FC
00
FC
E8
EC
0C
20
1F
FA
0F
06
EA
09
0E
EE
13
05
1C
04
02
F0
E9
E6
EF
EA
F7
F7
15
FD
01
02
00
FA
07
1D
21
0E
EF
FD
F6
F8
F9
14
0F
FA
01
F6
F4
F1
DA
ED
07
0F
F8
EA
E8
00
01
F4
FC
00
15
1C
1C
04
F1
F8
00
ED
F1
0C
0D
04
07
01
0C
E0
E6
E9
05
F8
12
F9
EE
EC
F6
0C
0F
14
0B
1B
0E
F6
F1
F9
00
06
12
15
00
1A
07
EA
05
ED
CE
DA
E4
F2
12
FB
05
E5
0F
F3
10
0C
04
20
08
14
E7
0B
02
13
F4
F0
F0
02
F0
FE
09
DE
E8
DD
DD
EC
F2
0B
08
E4
E8
ED
F2
08
10
1D
11
0B
0E
F2
0B
01
EA
FE
F1
00
08
00
F5
EF
E1
F9
F8
EC
21
FF
0F
F9
FE
E2
E4
F0
FD
0F
0A
0D
F8
09
EF
0B
EC
07
E9
F9
01
0D
02
EE
E1
F1
07
0A
17
0C
13
F0
FF
04
EC
F7
E8
F0
F9
0E
03
10
08
08
0A
F6
F6
0A
1B
E9
EE
EB
EC
13
02
F3
12
12
09
EE
FD
F1
FF
01
E8
F7
E9
0D
FE
10
EF
03
1B
F4
EE
F5
E4
EB
EF
06
E7
F1
03
E4
15
0E
10
E2
00
0C
07
EC
ED
F1
F7
F9
04
09
FC
08
FF
09
F4
01
F4
FF
00
DA
00
10
FA
0C
02
0B
FF
07
F2
F6
06
0C
FF
0B
F8
08
F4
04
F8
F2
FD
FA
F1
06
04
F9
D8
D8
FA
E4
FB
0F
0E
07
11
1B
24
1B
14
E9
E6
12
0C
EE
13
03
0A
FD
FC
FF
DA
F6
E6
D0
CF
FA
02
06
08
F3
0B
E2
EB
17
0C
0E
F6
F0
D7
06
12
01
03
0F
EB
FC
FC
E2
DC
DD
D4
E7
E0
EA
F9
FB
02
00
0C
FD
EA
F1
FF
ED
DA
DE
D0
09
FF
E6
F3
FB
F0
0C
F5
FA
0C
FA
05
03
10
0E
F6
FE
FF
10
F2
04
0E
0D
01
DE
DE
DA
E8
E8
03
F3
EF
E1
EB
F2
00
EE
F5
03
20
0C
F3
01
F5
F6
0F
07
14
01
F0
03
04
04
01
F0
10
0F
FC
F2
17
09
0D
F4
F8
12
06
0A
FE
FC
F8
F7
0E
FD
EF
05
0B
FF
F1
FE
19
15
01
12
07
FF
FB
0C
06
F2
F4
FB
18
00
F9
13
19
23
06
12
FE
07
14
09
14
04
09
04
F0
14
F0
F3
11
FD
0E
03
04
F8
EF
FC
FA
10
F5
11
02
04
05
F6
FA
07
FC
F4
FE
E9
13
FA
E5
F6
11
12
FC
F3
0A
03
0F
0A
F2
F5
D3
CE
D3
D3
EC
EB
F5
03
11
F3
07
0C
0D
F9
F0
F3
F3
17
14
F7
FD
11
0A
21
10
F9
02
F5
DA
E7
CD
E5
D9
E0
EC
E8
04
E8
09
F8
14
14
ED
FD
E6
E9
16
16
F9
11
F7
0C
1E
0F
FB
03
09
ED
E4
D0
E0
FA
E5
CE
E8
0E
F3
03
02
FA
0D
FB
11
F7
FB
15
09
10
FF
01
FF
16
16
1D
22
16
F9
04
FA
D0
CF
CC
D3
FB
03
F1
1F
01
FD
F1
02
F6
F4
FD
F7
11
01
FA
00
0B
29
27
15
0D
19
08
00
F3
EB
D1
CE
F9
02
F5
16
F9
F6
ED
E5
0A
12
F6
06
F8
0F
ED
0C
0C
13
17
2C
1F
17
FD
F2
F3
EC
C1
D4
E3
06
16
0E
1C
F1
F4
F5
EA
F0
03
01
FE
F0
05
E6
00
F5
19
1C
11
19
19
0E
15
DD
E7
E1
E9
06
0E
00
10
F9
EA
09
EA
11
05
F9
EC
00
F8
DC
EC
09
10
1E
05
12
21
16
00
0D
B4
D4
D3
15
05
F3
11
E4
FF
E3
F8
10
07
F4
09
E7
ED
F6
DC
E5
F0
F7
1B
1E
2C
37
21
EF
D4
DC
CC
02
04
06
FF
DE
06
0D
06
F3
FA
DF
F4
06
E7
EA
E9
EC
0B
10
0A
19
16
25
00
04
E0
E9
CA
F1
EB
FD
FF
FB
FD
EF
11
03
04
05
F3
03
E7
EE
F9
F9
06
FF
01
0B
07
1D
F9
00
FE
08
E4
EB
DE
E8
13
EC
08
F3
E8
EF
FE
EB
F9
F0
EB
F3
EF
06
FF
FA
FC
12
0A
01
FE
00
E6
DE
05
FA
F2
03
DE
E6
16
13
15
EF
07
F5
04
F0
E4
08
F9
08
F8
17
FD
F8
0F
FB
EA
E0
F5
F4
01
06
04
F3
D9
E6
1F
08
0D
0F
0A
FA
EF
F0
F7
01
F0
F3
10
10
0C
FC
F6
02
FC
E9
E6
F5
F9
0F
04
DF
E5
E3
0A
FA
FA
EA
EB
07
FF
FB
03
FC
E4
FE
ED
F4
0F
E9
F3
01
FA
EA
EC
FC
03
06
11
F7
FD
D9
15
05
05
F9
E5
0A
0C
EE
0A
0B
03
FB
FD
FF
0B
EA
F0
04
FA
11
00
05
FD
ED
F6
F3
F5
EF
09
EE
EA
F0
F9
E2
15
15
0E
F2
FC
F2
FB
01
FF
FF
04
08
10
0A
07
0C
F0
09
04
F8
EB
F9
F7
E6
F7
0F
01
04
0C
0D
0C
0D
0B
00
FC
02
D9
F3
FF
FD
F7
EF
05
07
02
F5
F7
EE
F4
FB
FF
0E
10
EC
FF
02
0A
F7
FC
FA
09
ED
0B
E1
F5
F9
EB
E0
FC
13
05
16
F0
01
F0
06
02
F7
06
06
03
0B
05
FC
0C
02
01
12
0B
08
EE
FD
ED
EF
0B
F3
04
01
ED
04
EF
16
FB
EC
F3
1A
13
00
F8
17
F6
F6
FF
1B
F9
FE
0A
ED
F8
04
02
F3
E8
ED
FD
05
FF
FE
FB
01
12
04
FA
03
2A
2D
F9
F7
F8
02
0F
F4
07
09
06
0F
F8
E7
F7
EE
FE
E8
EF
F4
FD
FF
0C
F2
0D
FA
03
F8
20
2C
17
F2
FA
F5
F8
F3
17
FE
FA
00
FD
EE
E2
02
21
17
02
FF
01
0E
17
F1
0F
F0
F5
F9
0E
15
38
17
11
27
21
19
07
1C
0A
2B
21
0D
05
F2
12
0D
FC
F5
08
06
0C
FB
ED
F1
FA
12
FF
F4
0D
1E
1F
00
1F
02
F5
F8
FE
12
22
0E
02
0B
13
F9
FF
FD
0B
F9
00
FB
FE
EE
F4
EE
EF
F6
05
FD
08
10
FA
FE
F6
FA
EB
EE
EC
09
F4
0A
F1
13
03
F9
01
F6
FF
FA
FA
0C
F3
10
10
F6
03
FA
DF
FA
0C
FE
FA
DC
F3
FE
08
EA
14
09
F9
03
08
F4
FA
0B
F5
01
04
ED
ED
06
02
FA
16
02
05
18
24
12
01
F9
03
FA
0B
17
FF
14
18
05
06
F9
EA
FE
FD
ED
F5
02
0B
FC
0E
14
13
0B
F5
14
22
20
00
00
09
05
F8
09
F6
15
01
0F
FB
FE
12
11
1C
EE
EC
13
EB
F2
15
F4
10
12
17
09
13
F5
10
F3
F8
04
E0
0E
08
20
27
13
FF
16
00
FC
F7
00
08
F1
05
FF
05
16
01
F7
F3
F9
F4
F8
E4
F2
F5
F1
F5
FA
FA
14
0A
10
0D
24
1C
01
EC
FA
11
02
03
FC
03
FE
F5
ED
DF
02
D4
08
F0
06
F0
DD
E7
EC
09
FC
06
F9
0A
04
F8
08
F9
F8
08
F4
F3
F7
FD
0C
F5
DF
DD
F9
FC
03
FC
EA
E3
F4
EA
06
06
05
F4
0F
0A
FD
14
13
FE
F9
F3
EA
0B
E1
02
E7
FA
E6
D7
E9
EC
F5
FE
FB
E8
DF
E9
FC
07
FB
0B
09
02
F6
E1
F1
FC
E8
03
FC
EA
03
FF
EF
09
F3
E4
01
0C
10
E7
01
DD
DF
FF
09
ED
FF
F8
FB
F4
07
E3
DF
F4
12
0D
F7
ED
E6
02
E9
ED
FD
FD
00
08
07
F6
00
F0
DA
E2
FE
03
F7
F4
EA
F7
F9
CB
EC
C6
03
0E
07
D3
FD
FB
F8
12
F6
05
04
FD
03
EE
F1
E6
D5
F2
05
02
FE
E8
F5
FA
F0
E9
F0
E4
F8
02
FB
D7
FA
0B
11
07
17
0F
0F
06
0A
F9
F0
ED
E2
E8
09
F0
01
F7
FE
F3
F3
E5
F4
D2
EA
FC
0A
DF
EB
17
1A
17
FA
0A
07
16
F9
F9
0A
EB
F5
09
FC
F9
12
12
F6
F7
FF
F6
EE
F8
F1
FF
00
F7
FF
13
1F
19
2C
14
13
04
06
0E
0A
15
0D
02
1E
09
07
13
08
0D
1C
F2
12
DF
E9
FB
FA
0A
EE
F5
0D
0E
1B
10
18
17
0D
12
19
15
22
07
22
F3
07
00
0C
0A
F0
F5
F1
DF
01
03
F7
FF
F9
F9
04
FA
1A
14
1A
1F
16
1C
13
1C
0E
19
1C
15
0B
EF
F4
FF
DB
DC
05
DC
FB
03
05
0D
F3
F3
FD
0A
16
16
05
28
1D
27
05
06
04
12
F8
11
0D
F5
02
F8
E1
EF
DF
F2
0A
07
FF
06
FA
12
E9
FA
06
1B
1A
16
14
10
0F
0D
02
08
1A
F7
F9
10
FB
E3
09
FA
F7
F3
FB
FE
E9
EA
F7
0A
06
FD
05
11
1C
15
11
07
FE
0F
22
0D
F1
04
13
00
02
F0
04
FA
FE
D8
10
EE
E8
14
FD
E7
FC
EE
01
0E
EE
F0
FC
F0
E8
E9
02
0A
03
09
06
0D
F4
F0
0D
09
0C
08
10
04
1C
09
F9
E4
FB
FD
E3
E1
F4
FF
E2
E6
FC
06
F9
04
FD
06
11
FA
FC
F7
FC
13
00
0D
0C
F2
05
ED
12
08
09
0A
05
FD
EA
ED
FD
04
F4
00
F6
FF
F2
02
03
F8
04
08
F7
17
F5
E8
13
F1
00
FD
08
F6
FC
FA
ED
F5
F9
E7
D9
F4
E5
E4
F9
DC
EE
F0
17
02
FC
23
06
02
08
F1
07
F8
0B
0F
F1
13
01
0A
19
0F
F5
FE
E5
FD
F0
00
E3
E8
03
F8
1F
24
24
1D
0A
17
FF
09
FD
11
FC
0E
E4
18
FA
14
FA
07
14
02
F6
14
07
00
1A
FE
01
06
00
1B
1C
0B
01
F9
23
0F
06
F1
08
FE
04
24
05
1E
07
F7
19
10
1E
0A
15
02
14
EA
F5
00
E6
0F
1A
F5
F4
F4
11
09
FF
05
0E
13
F6
ED
EC
F6
13
E3
0A
19
FF
1B
0C
F0
FF
FC
F3
09
07
17
F3
F0
ED
05
F5
F5
FB
F9
EC
11
EE
FE
FE
ED
0C
F2
EE
EC
00
F8
10
06
F3
11
12
0A
03
FF
04
0A
FE
FC
05
09
12
F9
EE
FE
02
11
FD
0F
1C
1D
1C
08
0F
1C
07
F6
1A
1B
1B
08
16
34
00
09
03
EC
06
F8
EE
04
0E
1E
FD
F6
00
10
27
45
31
4E
25
21
02
FD
17
06
28
1A
23
14
08
FE
10
12
1B
EC
04
F2
12
FF
06
0A
EF
F8
01
12
0E
02
06
FB
1E
10
05
0D
E5
0C
0F
1D
0F
19
1B
05
FA
0D
FB
10
E9
F7
EA
EF
EE
F2
00
0B
00
0D
06
11
15
04
0C
32
1A
10
17
23
29
FB
1A
F6
0C
EF
0F
14
14
08
01
F0
E9
06
10
12
19
10
23
10
09
F8
21
28
13
23
09
0A
ED
EC
F1
E5
FB
FA
15
EE
FD
EE
EA
E1
EF
03
F7
01
FF
1A
F8
04
01
10
F7
01
FE
F5
F7
DB
C7
C0
C4
F9
EE
EC
04
14
EF
F1
C8
F9
11
10
21
03
0B
FB
F6
FC
DF
E3
E6
F8
DA
C9
BD
AF
B4
BD
C5
FC
FE
F4
0F
08
00
F2
FC
DA
16
01
F8
1A
01
02
08
DD
EE
C3
C3
D6
C8
D3
D4
EA
F7
EC
FC
0E
17
FE
18
1F
02
F8
FF
05
05
F6
FA
14
F2
05
FB
0E
E3
DF
F6
DE
DD
F1
EE
0F
01
06
0C
21
06
28
08
13
09
10
2D
FD
ED
11
F6
FA
EE
0B
EF
0B
0F
04
1E
0E
1D
05
F1
09
F6
F7
13
14
23
27
02
0B
0A
1A
21
F7
F2
11
12
F4
EC
DF
01
F2
04
1D
01
22
F6
0E
0C
0B
FF
02
29
2A
44
2C
02
0A
14
03
F3
F6
FB
FE
08
ED
DD
F1
0A
02
FE
19
FB
11
FC
FD
09
03
0A
F7
F8
24
41
1F
FD
EF
07
01
EF
E7
C8
CC
F0
00
09
16
1E
FB
20
0C
F5
07
04
02
06
16
07
16
13
26
15
12
16
0A
FE
F6
F6
FC
EC
EA
EF
E3
F5
0E
01
08
1B
1A
0D
02
11
19
08
0E
0B
FE
FD
F6
F9
40
19
FA
E7
F9
0F
EE
F1
02
F3
FA
F9
0C
04
0C
1C
08
11
FD
FD
00
FC
02
22
03
01
0A
26
2C
FE
F1
03
00
19
1A
23
16
E5
FB
08
1B
FF
F0
05
00
1B
16
0E
04
0E
1E
02
00
06
0F
56
27
18
01
E4
04
30
28
23
12
FF
0B
09
F5
E8
F0
EA
E8
E7
00
FC
01
1A
23
0A
ED
FE
28
33
3A
24
29
DB
10
2B
1F
25
10
16
25
03
19
00
0A
FA
EB
E2
0F
12
FE
FE
18
F7
16
1E
34
48
21
04
01
F5
19
06
20
F7
09
F5
04
FE
07
0E
1E
0D
F9
15
0F
FC
FC
EC
08
18
FE
0D
20
10
12
E9
F1
E9
0A
EE
FD
09
05
07
F4
13
02
19
0E
13
EF
E8
03
F9
F5
E6
EF
F9
1B
16
11
FB
FC
FE
E9
15
DF
F3
FE
E8
17
17
0E
05
00
02
10
0B
FB
FB
01
DB
E0
EF
FB
02
F0
F0
F6
E6
02
0D
FF
00
F4
E5
0C
FD
FE
F3
EB
F6
FF
0C
FA
FF
08
EB
FA
E2
E5
FF
0B
FF
DE
EB
EE
E7
ED
0B
F1
0E
05
F6
1E
E5
D8
E5
0B
19
03
06
FF
E0
E8
00
E0
EA
DD
DB
EE
F8
EE
F1
03
F0
FA
05
F8
EC
0B
DD
F3
DC
B9
C6
F8
E8
E6
EC
F3
FD
E4
ED
E8
07
EF
F1
F2
E4
F0
E0
0B
E6
EB
FE
01
FC
1A
FF
EA
0B
DF
E4
EF
F4
E2
FD
FB
0C
16
FC
EE
01
04
06
04
0C
09
13
09
0A
FE
F4
0F
0D
F8
F5
F7
0C
02
F9
FA
05
EA
03
FF
2A
15
11
F5
02
04
0E
12
FC
16
17
0B
12
ED
EF
F7
FC
0D
05
F8
1A
F9
06
F9
02
FA
0B
03
21
22
2D
F4
F9
06
19
12
F7
0F
01
0F
03
00
FD
FD
0E
F5
EE
03
08
EC
00
10
F5
FF
ED
0E
F5
FF
F8
F9
0B
08
08
07
F7
EF
FC
0D
F1
F2
F3
12
01
06
F4
FF
FB
F5
F9
19
0F
07
0D
1C
0C
ED
1E
2F
33
1F
06
0B
25
16
0D
F1
02
05
00
0B
FD
12
08
14
0D
FF
09
1B
19
04
02
04
02
F0
0B
0B
33
41
1C
12
09
09
03
FA
EE
ED
F2
05
10
19
03
03
10
13
01
F4
F2
20
2D
0C
05
14
2E
2D
32
21
32
0B
11
FD
FB
F8
14
FC
F7
FC
12
16
0D
0A
0B
09
0A
0E
08
11
11
1B
0E
F9
11
17
1F
05
26
FB
05
E7
D0
EB
2E
2D
07
06
EE
F4
F2
FF
03
09
F8
FD
07
0F
23
1A
F4
04
02
FF
FD
0E
0D
E7
E5
01
EA
F3
0A
21
26
F9
F8
17
FD
FF
19
FE
0E
18
0B
10
1B
26
03
FF
0D
01
F0
F6
FD
06
00
EE
0F
F2
F7
0D
0D
F3
23
14
1B
06
19
19
18
0A
28
26
05
28
1D
FD
07
07
EE
09
0C
F6
F3
01
F7
E6
E0
E7
F8
FF
FE
F3
09
36
1D
01
14
FF
15
23
17
0E
13
FF
FF
13
F4
FF
F6
00
F7
18
E4
EC
DE
0D
1B
18
01
FB
0B
34
06
18
09
09
20
19
FB
0D
EC
F2
F6
0D
F9
FB
20
04
01
17
02
EE
FB
EA
FB
13
02
05
12
11
33
03
13
0A
16
04
F5
EE
E6
FC
FF
F9
18
FF
12
FB
05
FD
FC
F4
F9
EE
0F
0B
FB
03
0C
0F
FC
0A
10
01
07
14
08
FD
FF
07
09
FE
1F
1E
22
2A
0B
06
15
07
E0
12
12
FA
12
10
0C
07
02
0D
FD
0D
01
FF
F1
00
F5
EF
0C
FB
07
17
14
10
13
1B
2B
1B
02
06
FE
03
0D
26
F9
1A
14
09
06
ED
FD
0B
EC
FC
FF
FB
FE
FD
07
08
16
F8
FF
05
1C
01
F3
F5
13
E6
12
19
EF
05
FF
07
FC
E8
FE
F1
E1
05
F0
12
14
10
0E
03
29
19
21
01
0E
04
FB
EC
FA
F0
06
DF
FD
0B
E5
F0
ED
F9
DD
F2
FE
08
EE
FF
08
FB
FA
11
0B
FD
0C
0D
F1
F2
0A
10
F7
0F
03
F9
FC
13
FD
06
F0
F3
08
00
12
02
E1
F7
ED
F3
0A
09
04
F7
FA
11
0C
FC
11
F9
0A
02
1A
EB
0D
0A
F8
D0
FF
ED
E6
0A
E7
01
F7
EA
FD
EE
FD
E9
ED
08
FA
FE
02
E6
FD
06
E5
08
07
13
F6
0A
F8
F2
ED
F2
04
0B
FD
08
E6
F1
FC
0C
05
09
FA
EC
FF
ED
E8
E6
ED
0A
F0
FE
1A
F3
15
F9
F8
F7
FB
FF
03
F8
0D
F5
F1
09
EA
F5
01
07
F8
EC
FC
E9
06
00
FB
FF
F1
0C
F3
05
1F
FF
E5
FC
ED
F7
F4
07
00
0C
FA
FD
0F
EF
07
EE
F6
0B
17
F1
08
EA
05
01
0A
F7
EB
FD
0D
F6
19
F9
0F
00
02
0B
12
1A
22
16
09
08
FB
0B
10
FA
09
F0
16
02
12
F9
FC
F6
EA
1B
F0
0F
08
02
F6
17
01
1F
12
0A
16
04
04
F8
F5
03
F0
05
F4
F0
EA
1A
12
F0
EE
10
ED
0C
0B
1A
15
03
07
0F
10
0A
FF
11
17
00
11
0D
13
08
FC
E6
F9
FF
0D
07
0E
DF
F7
FC
07
0B
0C
2D
0E
04
04
00
04
29
1F
05
09
21
01
19
12
0C
09
EF
FB
19
0B
F1
EC
0F
FE
0C
14
E1
01
18
30
14
1D
30
16
22
17
2F
28
11
FE
02
24
06
18
1B
23
2C
0A
F8
03
E9
F9
07
FF
EF
E2
E2
1E
1F
1F
2B
1B
16
11
0D
15
2A
18
1A
03
0F
2C
1D
21
24
28
07
0C
09
EE
05
FE
02
01
17
F9
0A
15
29
FF
FF
FB
05
14
1E
15
FE
1C
FA
FE
0B
05
1E
15
FC
FA
11
F3
14
EE
00
EE
13
ED
07
03
EC
07
0B
0E
04
1A
0E
0A
00
12
01
F4
FC
F9
FA
F1
F4
09
FF
FC
F5
09
05
09
FF
03
FA
10
FD
F1
FE
16
0D
0A
19
16
14
11
0D
00
09
17
F7
EB
F8
F8
FE
F1
04
FC
F3
01
FF
03
00
17
FC
14
13
11
16
20
12
07
01
14
F4
0A
1A
FA
15
F4
E7
E2
FC
F2
0A
FB
FA
20
FB
16
1A
1F
F9
04
12
FD
15
28
13
09
28
26
1E
32
00
10
07
1C
FE
EB
16
EF
FA
15
FC
09
FB
F9
EF
0A
F4
18
0D
FD
F4
03
01
0C
15
01
1F
13
18
1C
01
0E
FD
12
07
F7
04
11
FE
FA
EA
E4
F1
18
00
F7
F6
FC
17
FD
03
14
00
17
20
1D
2E
00
10
1E
FF
0D
F8
F5
FA
00
FE
F1
FA
03
13
E9
08
01
FC
17
0E
F7
01
FF
08
DF
F4
FD
01
FB
FF
FB
07
0C
E9
F1
F0
FA
00
09
FB
FD
FE
11
08
E6
F9
F6
FE
11
F9
0B
F1
04
EA
0E
ED
F2
0F
17
17
18
08
13
03
EA
F0
F7
F1
02
F9
FD
F9
04
0F
05
FD
F6
EB
FE
F5
FB
FC
FA
ED
06
F6
15
23
18
1C
FA
13
00
F3
DD
01
F5
02
15
0E
FE
08
F2
E7
07
06
F8
00
02
FD
08
08
0B
E7
E6
1E
27
30
F7
FB
F5
E9
F2
EE
F3
FE
FD
03
0A
08
FB
0C
0E
0E
05
12
F9
04
FE
08
02
F8
0E
1C
34
2C
E7
02
06
DE
F4
F3
FF
F2
FB
0D
0F
F6
F1
17
27
21
25
10
0A
18
09
FF
09
E5
ED
09
19
1E
01
EA
E9
00
05
EA
EE
F2
F7
11
F1
FD
0A
0B
2D
2F
1D
0F
00
0E
F6
DA
D7
EC
05
FE
0D
FF
E7
03
00
F3
FF
00
D3
0D
08
0E
00
F7
E8
17
2E
1E
15
F7
01
FA
FF
E8
E7
EE
D6
CA
D3
E4
0A
F7
16
15
FB
DE
ED
E6
08
FB
F5
F6
E9
1A
11
17
FB
00
E8
EB
ED
F7
E0
EE
E9
D6
FD
E3
E4
FF
FE
2C
F2
DF
F0
E8
ED
E6
FF
00
08
24
24
0F
F3
E8
D8
DC
FB
E0
02
FD
FB
F0
F2
ED
F0
E0
06
2E
11
F2
EC
06
FA
E8
F8
FA
00
18
F8
0A
E0
E4
EA
DA
FF
DE
00
E5
0C
06
FE
F7
E5
F2
02
1F
1A
EE
EF
EE
08
E7
02
EF
0F
07
00
E2
E6
E4
F4
F5
E7
FF
FC
03
FE
00
DD
F7
F4
0F
08
07
26
0F
18
FC
02
E4
07
EC
07
F7
06
08
EC
E5
04
ED
0A
F9
09
19
0F
E7
F6
E1
E4
04
EF
FA
FF
FA
05
F5
04
FA
14
EE
00
EB
EC
EB
12
15
02
10
1C
F8
13
04
F3
05
E9
F1
E1
EF
E7
EE
0F
F8
FE
13
05
F3
10
F6
ED
EB
10
F9
11
0F
01
29
1F
1B
0A
09
06
E7
07
F3
01
FA
18
D9
0D
03
0B
F7
09
00
10
FD
ED
06
17
1C
FC
20
1C
12
04
08
1C
02
00
E7
E4
F2
06
F1
F2
F8
FE
ED
01
F3
FF
09
13
11
00
0B
F9
09
FE
FE
1E
11
08
02
1A
00
0C
07
EE
FE
EE
01
08
17
02
05
10
0B
F3
EA
08
07
00
FE
FB
0D
17
13
1A
05
12
FD
03
05
08
F0
EC
02
F8
F9
0E
1D
0D
24
0D
FB
1E
25
1E
0D
05
27
FE
06
20
17
00
01
0A
FF
E9
04
F9
09
E9
E3
F5
0C
F3
FE
EF
EA
FD
15
0D
27
2F
1A
16
08
11
F8
F2
01
1B
11
FF
08
EC
FF
15
11
F7
E6
F8
F9
F3
06
0F
02
12
24
00
1A
31
16
09
F8
09
22
20
12
20
FB
0C
06
08
EC
FA
F1
08
F7
F8
0F
08
FE
08
F0
FC
F7
E3
FB
F3
05
01
F0
03
24
16
F5
E7
0F
F4
FA
E8
E0
F0
10
ED
EC
03
03
F6
00
03
EF
F1
03
F1
FE
0E
FC
F3
F4
F3
F9
FB
13
FB
EE
12
F9
FE
03
05
0E
14
F0
F1
F7
EF
02
F1
F9
ED
05
03
0A
06
FA
02
04
10
FF
0B
ED
01
00
35
2E
21
0F
18
07
12
02
07
EE
06
0B
08
19
07
09
10
F5
00
E3
D4
EF
E2
FA
E1
D7
08
09
13
2D
13
2D
1A
1E
0A
ED
F9
0A
07
E5
F3
F7
E5
01
EF
F8
F6
D6
F1
ED
01
E0
02
E4
F9
10
ED
F9
09
FA
EC
11
07
13
F9
F1
EE
EA
DB
FC
F2
E0
E7
D8
D6
C8
FF
06
19
17
21
0D
ED
F8
E4
F4
E8
13
F1
EC
16
00
06
F9
11
1A
01
02
F7
F0
F7
DC
DE
DA
EA
13
06
F3
ED
EE
FE
09
F9
FB
0E
EB
F6
01
E0
FB
E3
06
FD
02
F7
1B
D8
CE
EE
E3
E6
E2
CF
C2
EA
EB
FC
0C
2D
1B
07
0C
F4
EF
F0
F0
05
F0
EB
F0
FF
F4
E8
F0
EB
10
DB
DD
D9
DE
BB
D6
DD
0C
0A
19
25
21
27
11
14
0A
FF
E1
00
D2
DD
0E
EA
F3
FD
F9
F5
00
D4
DE
DC
D2
F9
E9
F6
01
FF
18
16
09
15
05
14
05
F4
FD
F1
ED
E9
0F
0A
11
FE
21
05
CE
D7
CD
F5
F4
F5
0E
01
E6
F8
07
F4
EC
19
F2
0B
10
FB
05
F1
EF
07
FB
11
11
F0
FD
EF
DF
DB
EE
F9
0B
1F
04
FD
E3
EB
03
06
F8
F7
F0
10
0A
2F
19
15
09
01
F2
0E
0A
FF
E8
D6
FC
F4
F9
09
F0
00
03
F7
05
0F
10
FC
19
01
13
FF
FF
2C
03
2D
03
DC
F9
04
0E
01
1C
E6
0C
07
E7
EE
F5
F9
D7
E7
29
08
F4
FD
0D
F9
EC
07
EF
01
FE
03
0C
03
08
EF
03
D9
F6
E7
F5
FD
03
E6
F5
FF
F5
0C
22
12
0F
0D
F6
05
ED
EF
02
D5
E6
DA
09
F7
E9
03
19
FF
0A
F9
10
F7
EF
08
F7
F2
0A
0E
00
F7
F4
F7
F9
F3
0D
0A
D8
CF
F0
02
11
E9
F7
18
F6
EA
FA
02
0D
04
04
04
FF
12
F5
17
07
F3
04
EF
06
EC
E6
E0
E5
EB
DA
EE
0E
F8
11
19
0D
E1
16
0B
FE
06
03
F8
04
1C
FA
F9
F5
EF
10
FA
15
DE
E9
D0
C2
C8
E8
F5
F1
D9
07
1C
FD
FA
13
0D
05
F7
03
02
07
02
00
05
F1
10
0A
21
FF
D8
D3
B2
B7
EB
E2
09
09
F9
1B
13
08
DD
13
0A
F1
FA
0B
13
19
0B
F4
F5
12
24
2A
20
12
CA
D7
B8
C6
CF
ED
09
01
05
FF
FD
06
E8
04
F2
11
FA
0B
14
12
0B
FB
15
19
15
12
0F
E2
BF
AB
B2
C2
C8
E1
16
03
05
0A
F6
04
F1
FB
FB
00
10
04
07
11
12
07
FA
23
0A
F7
FC
ED
C2
A2
C2
DE
DC
FC
12
16
0B
F3
00
04
0A
FD
13
FE
00
11
FC
FA
F5
0E
17
03
F9
F5
EA
C8
A3
C3
E3
CD
07
E9
F3
13
09
FC
16
15
FD
F8
0A
04
F7
01
06
FD
14
F7
0B
F5
DB
E7
C1
CF
C3
D7
DD
E8
00
F4
FE
21
0D
0D
F6
05
00
F3
FE
F8
03
F9
03
F2
FF
F9
F4
E2
F5
D3
E7
D3
E1
E0
F1
E9
E2
F4
F2
00
F0
FE
F3
F9
0B
2E
12
F2
F3
FE
F7
EF
E0
FC
FD
06
00
01
F8
F4
E8
00
ED
F7
FD
0D
F1
F2
F6
FC
04
13
F0
03
11
F9
01
FF
02
E3
F7
F8
F9
1D
0F
0F
1F
32
07
F3
00
EF
EC
07
F8
EC
0D
02
0C
ED
1C
05
19
27
05
08
07
02
02
15
02
35
1B
45
51
31
14
0B
FB
05
EA
13
04
0A
08
ED
13
FF
F6
F5
E3
E4
04
0A
0F
10
FF
09
FF
27
19
08
18
10
00
08
FE
FE
E2
FE
09
F7
FF
F9
04
0A
14
F8
06
14
10
01
0B
14
EE
10
FB
F5
0E
F2
FD
13
04
FD
11
F8
07
F4
F7
ED
10
00
F2
FC
09
0E
0A
09
EF
EB
E9
FF
02
FC
F5
F5
0A
FE
07
08
F0
E3
FB
06
FB
02
0D
F0
08
0D
04
FE
FB
E6
0C
07
09
0E
16
F5
F2
FA
10
17
01
06
07
FA
F0
EC
F6
07
FF
F7
F3
0C
06
FC
F8
FC
04
EE
F2
04
E9
E7
FA
F5
F4
FF
0D
F2
00
13
03
0C
11
21
11
F5
E8
F1
FA
1A
F2
03
0C
DC
FC
00
01
FC
E2
E5
04
F8
E4
E5
EB
02
10
F4
07
10
FD
0A
FD
F3
01
D8
D1
F8
F4
0D
F1
15
F9
17
F9
00
07
01
F3
F9
F2
FA
F4
0E
19
F9
15
FA
06
F6
14
F8
E9
ED
EA
EC
00
12
FA
E6
04
01
E3
F1
E9
0B
02
F1
F9
07
F3
10
FC
0F
15
15
07
FD
05
05
E8
EF
E8
04
0E
08
E2
F3
D8
F2
E3
ED
FE
E5
FC
F3
04
F0
F6
07
04
11
ED
FA
06
FF
01
F2
F8
DC
E1
EB
06
02
E2
07
E2
DD
DC
E8
E7
F3
F7
F5
05
11
F3
FF
00
EA
F3
EA
EE
F4
FC
F8
DE
D7
E4
FF
0B
E9
06
E7
E3
FB
F1
F1
EB
02
F2
13
10
14
FB
F4
FA
F6
02
ED
FD
ED
01
E3
BF
D8
DA
01
01
F3
E9
E7
D6
E3
01
07
FD
F1
0E
16
0B
17
07
03
1B
03
05
06
F3
0B
EB
F3
D2
DD
03
F1
EE
EA
E5
FF
D0
F3
08
EA
E7
E9
03
11
19
1A
E5
F4
12
0E
F7
00
0F
F3
F2
DD
C6
DB
DF
EB
E8
0B
E8
F3
F8
0F
17
04
E1
F0
FB
F2
12
15
EE
0C
0C
08
08
02
F6
D7
E0
EE
FC
F4
06
20
0F
F5
EE
E9
EE
1C
0D
02
07
E8
E7
F2
04
0B
0B
F9
1C
FA
15
EE
D0
FB
E9
F5
DC
F0
0E
06
00
F1
EF
0D
07
FC
07
E9
F0
03
E8
05
EF
F7
FA
11
14
0F
00
D6
E8
CB
DA
EB
F8
04
EB
12
05
E6
0F
0A
F6
FC
06
05
EF
09
0D
0C
F2
08
0C
03
16
FD
E6
C7
C0
C6
F5
D1
FC
F2
00
19
14
F6
07
FE
F5
F4
F4
FB
FB
08
F6
01
00
17
F6
03
E9
FD
CE
E2
EE
E1
08
F5
10
01
19
17
15
F8
FE
11
EF
11
EF
F0
E4
F5
1D
1E
12
17
19
F9
F1
EC
D7
F5
E3
11
07
17
F6
17
1F
0A
01
12
0D
F9
14
0B
F1
F3
FA
FC
0B
06
13
17
0F
0F
F4
DF
FC
F9
08
FD
01
1E
13
07
18
0F
12
13
08
FC
0B
03
F3
FF
01
F1
0C
10
04
13
0A
EB
DB
E7
F9
0A
18
1E
02
1B
09
00
00
F9
10
0A
FE
06
F9
FA
03
EC
F9
05
F9
0D
25
1E
0F
EC
F9
1A
27
0D
0D
1E
1F
0B
FF
13
04
06
04
0F
F5
0F
1C
FC
FA
FD
FC
ED
01
09
16
F6
05
FC
F6
F1
0F
29
13
17
1B
12
1D
16
15
02
F4
03
FC
02
19
03
08
07
03
F3
15
06
FD
06
F3
13
F5
01
08
0B
07
09
23
23
00
00
14
FA
EE
F5
0E
13
EB
FF
0E
EF
E7
FC
E7
F4
E2
FC
04
EE
F3
E8
02
06
10
30
1A
1C
F6
F9
03
03
04
F9
FC
0A
DE
E5
09
EF
F9
E9
01
F7
FB
0E
02
F2
FE
F1
07
FE
02
EA
03
FD
FF
13
12
0E
0B
F3
F0
F1
F2
0E
F4
F3
EA
F9
EB
DB
E6
02
F4
09
D8
D9
CA
DA
F1
EA
0E
0B
F3
F2
15
07
FF
F3
11
F4
14
0C
0C
03
0B
0C
F8
F7
EE
FC
08
ED
0A
ED
FB
EE
FE
F1
07
FC
F7
06
11
14
0F
FF
0F
F6
13
F4
F6
FE
F6
FF
04
EB
0F
F0
05
F6
EF
F0
11
11
EF
05
FB
0D
0F
FD
0E
F7
08
