F5
EC
0B
05
F6
14
F7
0E
0A
EF
0D
ED
F9
FD
EE
14
FC
08
EE
0C
FA
F1
03
0A
12
F4
F6
04
06
08
0B
FB
0D
0D
EE
FE
F8
FE
E9
F8
F7
F3
EF
D4
DB
E0
02
FB
E9
EB
DE
FE
F2
FE
04
F5
06
EC
EC
F1
FB
EB
EF
E5
E4
EB
E5
DF
D0
DE
C7
EA
F1
F2
09
0F
FE
E6
01
DA
E6
07
10
06
01
EF
F1
15
0D
EA
E1
E5
F6
06
1C
FA
06
00
F1
FC
F4
01
FA
EA
EC
11
03
FD
E8
FA
0C
06
F9
F7
EC
E9
05
EE
FD
FC
15
2E
20
23
1D
11
02
18
0E
02
01
EB
00
0A
09
12
FB
10
FC
FE
14
FA
EF
F3
DE
DB
FE
FD
05
1D
1C
09
FC
FF
F7
DC
E1
F6
FF
FE
ED
08
EA
F2
E5
FC
D3
E7
10
0B
FC
CD
EF
F4
11
1D
00
04
F2
F8
F8
F9
E5
D5
EB
FB
0A
11
0E
F5
10
01
F4
F3
FC
10
06
E6
FA
FF
EB
1A
FE
11
0B
0B
09
06
EE
D5
F2
E5
F6
08
08
F6
10
EE
F9
03
F5
E8
E8
F5
10
E3
03
E1
F6
11
17
14
00
0E
14
13
EA
E8
D6
F5
15
08
0B
01
08
FD
0C
F1
F5
D3
DF
15
0E
E4
EB
ED
E0
13
02
00
F6
F3
10
15
F7
D7
E8
FA
01
01
1C
0D
FD
03
F9
F3
EC
DF
FB
08
F6
05
E8
F6
07
00
03
12
00
10
00
0F
FE
DB
CC
F5
F5
00
F8
F3
FB
FD
14
15
0E
D6
02
04
ED
0A
F5
F6
E9
0C
0A
0C
F7
14
04
21
FC
F2
E7
F1
F8
F8
F2
E8
EE
08
FD
16
24
19
0A
01
F4
ED
EB
F0
00
F2
0E
1B
0D
0F
F5
22
08
EA
00
F2
F4
0D
F0
F4
03
07
0C
03
31
06
FB
DF
0C
03
E0
05
F9
0F
FB
09
13
11
F4
17
05
06
0C
0E
E5
12
FF
09
FA
06
11
0F
24
0C
16
05
1D
05
F8
F9
F6
17
00
04
07
F5
03
00
01
17
FC
0A
14
FF
FB
FB
F6
F5
F9
FC
05
09
D5
0F
06
EE
27
09
0D
0F
22
0F
08
08
F1
0A
11
11
16
F5
FE
16
09
F6
00
DF
FC
0A
0A
01
F5
FA
00
FF
1D
FA
E6
09
18
14
F6
F0
F1
F0
1B
15
FD
05
04
05
F9
E6
EC
E4
E2
06
FD
1A
F2
E8
05
03
E6
F1
F8
13
FC
04
E5
D9
F4
0A
11
1D
F9
0B
13
0A
05
01
DE
E9
F8
03
0A
09
0B
E6
F5
FE
F8
00
F6
F4
01
FB
DA
DD
05
19
1B
25
0E
FF
E8
01
14
F3
F6
EF
F7
28
17
03
1F
ED
02
02
DA
EE
D8
F5
EC
E1
C5
D4
19
31
1A
20
F5
FB
03
0A
01
06
04
FC
13
00
04
F5
03
02
02
FC
F3
FB
D3
F3
E8
E1
E6
FF
2E
29
19
1C
03
F8
F2
11
F5
07
FB
EE
FD
F9
0C
FE
07
10
08
F5
03
FB
02
ED
F2
EC
00
F4
1D
FD
20
02
ED
07
09
07
03
01
02
03
29
0F
F2
02
F4
EF
04
F7
F3
FA
ED
FA
DA
DF
E3
F7
FC
03
01
FE
FC
09
01
0C
04
FB
03
26
14
FC
FD
FC
11
FA
F8
F8
0D
08
02
FA
D2
D7
F2
FC
DF
F8
F9
06
0A
FF
F7
FF
12
16
F8
06
09
F5
F9
17
17
F1
05
07
0C
DE
D6
EC
D7
C0
C2
D6
FE
F4
13
1C
08
02
FA
F6
F1
14
05
03
11
FD
06
22
ED
F3
FB
F9
0F
0C
F7
F3
D0
CA
C0
C8
D7
E9
E6
FB
0A
07
0D
01
11
F3
01
F0
FC
0B
0C
F7
F5
11
0A
0D
03
16
0C
F2
F5
E2
F7
D8
E0
E8
D7
C9
D2
D4
DA
D8
F6
00
E1
E7
EE
F5
F3
FA
F6
F9
F9
13
08
14
0C
0B
09
FA
D5
E6
E2
E2
F0
F6
F7
F0
EC
DF
D9
DC
06
02
0E
F8
FE
FA
00
07
0A
F8
03
F5
F6
0D
FA
EE
01
FD
06
F6
FF
F5
F7
05
06
04
13
02
02
FD
EC
08
10
02
F0
12
05
0F
09
03
FA
06
0B
02
F3
F4
EC
F7
00
0E
F2
EC
0D
14
EE
FA
04
10
0A
14
10
0C
0A
0C
EE
04
10
EB
EA
F0
0A
0F
07
04
00
E2
EE
D9
D4
D7
E8
03
00
06
DA
E2
FB
08
0B
EF
09
EC
FA
00
0D
FA
F8
E0
ED
0B
02
0E
F8
E3
FD
F4
D9
EC
F5
FC
F6
11
13
18
02
E7
EF
1A
F7
09
F1
FE
EA
12
E8
F9
DA
E9
E2
FF
FF
13
0F
F8
14
07
FC
06
05
04
14
20
00
07
17
01
FF
01
F7
0E
F4
F9
E3
FF
DF
FC
05
09
0F
15
12
02
07
ED
F8
F6
FB
08
07
11
0B
0F
09
F5
01
EB
10
06
F8
EB
DA
0D
FE
09
0C
0D
04
14
13
F9
06
E7
F6
0C
05
11
12
FF
21
0E
1B
02
F6
F9
F9
FF
18
F6
F0
08
0E
03
FB
FF
15
14
FD
15
15
F4
FC
13
23
24
1D
1F
0A
22
16
08
F6
FC
0A
FA
06
D5
F4
0D
FE
0D
08
07
FC
0B
1A
1A
10
0E
1F
1D
2D
18
32
13
24
19
24
28
0E
03
14
FD
F2
FD
EB
0F
03
EA
F3
FA
F8
1F
1B
04
10
16
1C
09
23
FD
FA
06
FE
07
0A
FF
F0
11
04
1B
0C
E7
11
FE
05
F6
F8
1A
04
01
0F
05
08
E5
EF
EC
ED
EB
EA
E7
DF
C7
CF
F6
F1
1B
16
23
13
04
0F
02
13
FE
07
01
F2
00
01
E4
E1
E0
EC
EA
E5
DF
DD
D4
BE
C2
C2
E7
10
FB
F9
05
1F
0B
16
F6
12
10
02
F9
FF
EA
E1
E5
BF
DB
E9
F5
F0
E0
D2
E6
BF
DC
B1
E6
FD
05
04
0D
0C
EC
0C
14
FE
FC
F4
F4
01
E1
CF
E2
DC
E2
EE
F8
00
ED
F6
E6
DA
CD
B5
CF
FE
FC
10
08
0F
02
00
ED
00
F3
F3
F7
EB
EE
E1
E0
F9
06
F3
FB
EF
00
E9
D6
ED
CE
C3
E7
05
11
26
07
0A
E7
EA
DF
DD
DD
E6
DC
EA
EE
F6
ED
E4
F0
FE
09
F1
02
E7
F0
DD
D0
E6
07
0B
09
F3
F7
0A
E6
D6
E4
F4
EF
E3
03
FE
F9
E8
04
FB
F0
FC
F2
E6
F5
E8
0B
F4
F2
FC
04
1E
F9
04
07
E0
FF
D0
E0
FC
FD
0F
1E
F9
12
F6
07
F8
F8
FC
08
FD
F0
F5
FD
DE
07
07
06
2A
F7
FA
FE
E7
E9
0F
EC
FA
E7
EF
07
07
F8
10
F4
00
F8
F7
FF
EB
11
1A
18
E9
F7
10
13
FD
EE
F6
13
04
E2
F9
F1
0A
FA
F6
F1
F8
16
1B
12
F8
ED
FB
FA
09
F0
0A
01
04
FC
0A
06
21
0E
10
05
0D
0D
01
07
09
0E
1C
05
02
09
1A
07
18
02
1A
07
06
0E
F9
0F
06
0A
17
07
14
03
F5
02
F3
0C
16
24
0B
08
0B
1A
13
1E
09
1B
13
10
04
09
16
0B
15
FF
17
F5
11
0D
07
F7
09
F0
00
14
17
1C
F2
0D
FA
FC
04
19
10
0E
FE
12
03
08
F9
FE
17
FA
16
02
17
F6
01
F8
11
F5
06
EF
2F
0E
0F
00
FF
FF
03
0A
08
EF
10
FA
FD
04
F7
1A
11
15
14
02
02
F5
FF
F9
F0
08
14
DA
05
F9
01
15
06
F7
05
F5
EF
0A
0C
0A
F4
02
0D
FA
05
F4
FF
04
03
06
EB
0C
04
00
E2
09
1E
14
06
10
10
00
09
06
22
24
0A
2E
1E
10
26
04
08
05
01
FE
08
07
F9
ED
FD
11
08
0D
0E
06
EE
22
21
12
0B
06
17
28
22
2E
1B
16
09
37
15
F8
00
03
ED
14
11
F2
04
F6
13
0C
15
FF
09
0D
00
07
0F
F9
1A
24
23
FE
00
09
FA
0A
F8
0C
FF
06
0C
ED
F3
0C
0A
F7
0A
06
14
0A
03
EC
11
11
FA
FE
FC
FC
10
03
EE
07
F4
06
09
F6
0E
01
F6
11
0D
0F
F2
F1
EE
0D
0B
F1
03
FC
FB
01
F5
F6
F4
EA
ED
0A
0F
F3
D1
D7
E0
E6
FB
04
F7
03
0A
F8
F9
04
05
FE
0B
FA
03
ED
F8
FD
D8
F7
08
1D
03
1E
09
0A
1F
ED
E9
EF
F1
F4
13
20
FC
FC
EE
FC
0F
14
FE
FC
00
20
02
09
04
09
14
1A
16
03
15
08
FF
09
0D
F3
CB
CE
DE
16
F5
FB
08
ED
09
12
13
2D
09
E2
FD
F7
15
F9
FE
01
19
12
FE
06
12
FD
FF
DB
DA
D0
ED
03
F8
14
F4
F0
0A
16
1D
17
16
04
1C
FD
FE
00
08
02
09
F4
17
09
07
04
F2
0A
F6
EF
F0
FE
24
0A
F2
1D
F3
18
18
04
22
17
27
13
09
0A
01
0C
F5
0E
F0
FC
FE
F4
10
F4
EF
E2
E7
F9
16
F9
E6
0B
EB
2A
3F
03
2B
11
18
0A
0E
09
16
1A
F8
04
0C
08
FF
00
0D
0C
EF
EF
BF
F6
09
03
EC
1E
E3
03
1C
19
09
0D
11
FB
09
07
1C
05
11
F9
0D
05
15
03
00
0C
F7
FC
D5
E2
11
F6
01
F5
FF
2A
17
0F
00
F0
F3
F2
E7
EE
E6
E4
E8
FC
FD
25
12
02
12
F8
F9
F7
BD
EF
11
ED
15
06
03
0A
02
F5
E1
C7
D5
D4
CA
EE
C7
D8
E6
16
00
14
0F
13
FA
EF
F9
E0
C3
EE
0B
09
F1
16
03
EE
EB
DF
C0
C9
D3
C6
D3
DC
D1
F3
F7
FC
08
0F
13
15
F9
EB
FB
DD
F6
10
09
F0
12
10
E6
E9
DE
AC
A6
D7
ED
D9
F3
F7
03
07
06
12
FB
FB
07
F6
E7
FB
F4
EB
17
2F
08
F7
01
03
0A
FA
C9
CC
C6
F5
E3
00
03
0C
03
0A
F3
F3
11
F5
00
F2
03
F1
E8
FE
19
17
00
12
03
13
0D
F6
DF
E7
03
06
FF
06
07
F6
10
0B
19
FE
11
12
F9
05
0E
FF
EA
F1
07
02
01
F6
FA
15
F7
01
FC
07
1F
FC
1E
FE
10
06
01
08
14
FD
01
F3
ED
0D
FF
FE
03
03
18
F0
28
0D
F7
08
0C
0C
1D
21
15
FD
FF
11
ED
FE
11
11
00
03
01
0B
12
F9
14
09
1A
02
1A
FA
19
1E
07
1A
16
F8
12
14
02
FC
F8
ED
E8
EC
14
00
FD
F5
FF
13
03
16
FB
01
FB
F1
13
EC
FB
03
F0
FA
FF
23
1F
01
07
0C
F9
09
FA
EF
0F
09
0E
08
0D
14
FE
1C
FA
1D
05
11
1F
11
FE
0A
E7
F7
16
23
13
12
18
0D
FF
F3
04
06
F0
0B
F5
17
06
14
00
F8
11
1E
2E
2C
FD
05
FD
06
13
EF
00
24
2C
0A
18
16
0A
F1
E6
F2
01
F5
F6
FB
EC
02
09
0A
10
0D
03
11
FF
29
01
0B
05
FF
19
11
00
0A
0B
F7
F2
05
EB
03
EF
0D
F5
00
F9
E3
03
0A
F6
EF
0E
2B
12
0A
ED
09
FA
FF
23
0F
13
13
11
17
02
DE
04
F5
F1
05
00
E4
FE
F0
F5
05
FF
02
1B
F3
02
0F
01
03
12
F8
06
EB
07
FF
0F
19
F7
F8
FE
F2
FB
0A
FD
0F
00
EF
FC
0C
09
12
FF
FE
F9
F7
F1
00
12
F8
11
13
21
07
0D
12
0E
F2
00
07
01
16
FA
11
0F
F7
05
FF
EB
09
F1
F1
06
10
02
01
EF
FC
F6
EF
1F
FF
FF
13
F8
19
09
07
13
03
F6
EF
F8
F3
02
EC
FA
03
E9
E9
DE
11
28
11
F3
0A
13
F4
04
EA
00
FC
12
F3
F6
F8
DF
D9
E7
FB
04
EE
0E
FF
09
03
02
F0
05
F6
EF
FF
FB
04
02
0C
14
FB
F2
EC
07
0D
F7
00
02
04
FE
F9
0A
F3
0D
F8
E2
00
0D
1E
02
07
06
F7
11
08
F4
08
00
FC
EC
F3
F9
0F
F2
ED
EF
04
F3
EC
01
ED
04
FE
12
F8
ED
F4
FF
F8
14
F0
ED
09
FB
0D
F7
F6
F4
E4
F4
EF
EC
DD
FE
EF
F2
F9
F7
F6
FA
F1
E4
FC
F6
F9
0B
F2
FB
10
FC
F7
F7
EC
FE
F7
E4
DD
EF
E0
F5
F1
EA
F2
ED
ED
F1
D8
F9
E3
D4
BD
D6
D8
08
F7
0E
06
F7
0B
14
EC
F5
EE
E3
E6
C0
E4
CC
E4
D8
E3
EC
BC
C8
CB
CE
D3
ED
E8
03
FC
0C
FB
F1
02
F0
09
FF
FA
E4
EC
DD
D1
DD
EA
DD
DB
F8
CC
BF
C7
C1
C6
D0
EF
F3
EC
EE
09
F5
15
18
FB
F5
02
E6
F0
E7
F2
EC
08
06
13
05
02
16
EE
E1
DC
ED
DD
EC
F6
F1
FD
0E
E3
FE
27
15
0C
EE
08
FE
F5
DA
F2
07
FB
F6
FA
0C
01
1B
0B
16
0F
1D
07
FE
1B
21
09
FC
EF
02
1E
F8
02
0A
FD
12
ED
F9
D3
EE
F4
F7
F0
1A
FF
18
26
01
10
06
F6
02
0C
02
10
1B
15
D9
02
F5
04
00
EF
F9
FD
ED
EA
F5
08
F8
03
F8
11
0E
0C
01
1F
F5
F5
18
F7
0F
0A
FB
01
EA
FC
EB
FF
0E
09
01
FF
F8
10
12
0D
06
F5
FC
01
FC
1E
1B
1D
10
11
18
FD
EF
07
F8
EF
FD
E2
FB
EE
F4
15
05
EE
DF
FD
0E
05
EF
FC
1B
11
19
19
08
2D
18
FC
15
0A
F6
02
F1
05
E3
ED
FA
F6
FF
04
10
00
10
F9
22
04
05
0D
17
08
19
08
06
10
1E
0C
11
EA
0E
FF
0F
08
ED
12
F3
08
0B
10
17
0F
03
0D
1A
16
11
0E
02
F0
F6
01
0A
01
FD
0F
FF
07
05
05
02
F6
F7
02
15
F7
0E
F9
14
00
14
16
13
F9
ED
01
EA
02
F1
F7
03
F9
FC
02
00
0F
18
FD
0A
06
0F
2D
25
0E
FC
F5
FF
00
0C
F7
00
0E
0A
F0
E9
D6
D0
D6
EC
EE
F6
22
13
FD
04
0B
14
FC
05
20
1F
06
FE
EB
F4
D7
FE
04
F2
F5
0A
09
E8
E7
E9
EC
F8
15
24
16
1C
04
FB
1B
02
15
21
09
13
FF
FC
FA
05
F3
FC
FF
0A
01
F8
06
E1
E8
FA
F2
F6
1C
20
1F
FB
FF
17
0A
0B
07
22
1B
27
06
EE
FD
F4
F6
E8
F1
FC
18
07
0B
0F
0F
1C
05
14
1E
10
FC
FE
FE
16
0B
01
F8
00
00
1A
F8
FD
E7
F3
E8
F9
EA
F5
EE
01
F5
01
0B
23
08
03
0B
F5
F9
02
F4
F8
02
08
09
1C
10
00
01
F7
01
E9
02
0A
D9
FC
F1
FE
F8
F7
F7
18
00
1A
F7
FE
DF
E6
03
FF
D3
E2
EE
0B
07
08
01
06
ED
F9
F2
0B
D4
E2
E1
D9
F9
01
F4
FF
F8
05
EA
04
F8
E0
EB
F4
00
E7
F4
F7
0D
0C
FA
0B
DF
DB
FF
1B
11
EB
E4
FA
F9
E0
F6
10
F9
EF
E7
EE
F6
ED
E4
00
ED
10
EF
17
FF
E8
0D
0A
E9
F9
E2
FD
FB
F1
06
F2
E3
F9
E4
F9
0A
1B
F1
F5
F7
0F
F1
E2
F0
DD
F8
0B
0A
0B
0D
EC
0A
F8
EA
0F
0C
F9
F5
FD
FD
FF
0C
05
F0
F9
F1
04
0B
0B
05
FC
FE
08
04
F6
FE
0D
EE
01
0D
DE
E5
F5
15
1E
07
FF
13
F2
ED
F7
E3
01
07
0E
FB
08
0C
0E
0F
13
18
24
01
E9
12
00
FD
EC
FB
13
0F
04
F3
FC
11
04
05
FC
08
FA
F8
14
1B
0E
03
08
11
09
02
FF
F3
ED
0D
FA
05
F2
F9
E4
0D
F6
FB
12
0F
F9
02
1A
04
1C
08
0C
22
03
11
FF
07
11
0C
F5
02
FD
F2
FD
02
F6
F6
10
F3
FE
0E
F5
E9
FD
ED
09
F5
12
15
0D
1A
23
11
09
FC
12
F0
FB
02
F0
F1
0F
F2
00
05
00
09
ED
0B
FA
04
FC
EE
06
FE
03
10
11
F7
FB
FA
F2
EE
F7
F4
FD
FE
0E
FE
0B
EC
FE
FD
06
10
13
08
16
1A
16
0A
F5
10
19
28
21
19
0A
12
17
18
F2
15
10
F5
EE
0B
02
11
0A
0C
F4
01
F1
05
0D
F3
15
EB
14
03
11
1E
31
0A
1D
FF
14
0A
01
FB
1B
1B
EC
FD
F0
EF
10
11
F3
1A
1B
0F
1C
0E
11
0D
F6
12
07
03
18
01
07
EF
05
03
01
EC
00
E1
FD
EF
F3
03
0F
0E
EF
0E
FF
0B
05
12
07
15
2A
1F
13
13
15
1E
11
FC
FA
FD
E8
F5
00
11
01
EE
EC
0C
04
FB
FE
00
E5
E7
05
03
02
20
0A
06
07
0A
11
04
09
02
16
08
ED
06
F1
0C
0C
FD
ED
12
1C
E8
F5
EB
06
00
10
21
16
0E
02
FE
05
FB
06
05
F4
ED
F3
02
F0
0E
26
3F
25
21
01
00
06
07
0C
FD
12
1F
0B
0B
0C
E4
FA
F0
F5
10
F2
0B
0F
F6
F4
09
F6
1E
1E
43
25
20
E5
FC
08
FC
09
05
05
0A
0F
F8
F8
0C
11
FB
FB
F9
FD
FD
FD
FE
02
1F
16
2B
47
33
29
14
12
E8
EB
01
0F
10
1A
0C
F2
01
FD
0B
F4
09
FD
09
F8
FF
09
13
04
14
00
1C
1E
33
10
09
FA
F2
EC
F6
22
15
10
F0
0B
07
FD
FF
14
11
F5
F0
F4
04
EF
05
FE
E6
E8
F6
1E
34
35
F4
FB
08
E9
0E
1C
0E
F7
E8
E5
00
FC
FC
F1
0B
16
02
FC
F3
F3
E9
F2
E5
E1
06
F0
04
0A
1B
FD
0B
07
10
F3
00
F7
EE
F0
FA
03
FD
FB
0C
19
FE
F2
FF
05
0C
09
EB
EB
DC
E3
EB
17
08
09
FB
13
0D
F9
EC
CF
ED
EC
00
FD
02
12
0E
24
17
0F
06
09
0F
EB
F0
EE
D5
D5
F3
03
14
00
1D
1B
00
E8
E2
DD
E3
E1
02
F7
E2
FC
03
03
FC
0B
09
EB
EC
FA
E3
DC
E7
0A
EE
EE
0B
17
08
1A
F3
E1
C1
C6
DF
DA
D8
FA
02
02
07
1D
F4
FD
E1
FB
EF
F7
EF
F0
F3
01
10
12
F2
FC
05
1C
F8
E1
E1
DC
D3
E1
F8
E3
E9
EA
08
06
08
F7
F7
ED
FB
E7
E2
E5
F8
0A
23
15
FD
F2
0D
11
1F
1A
01
FB
F2
D4
DB
E7
F7
05
17
03
F3
F5
E4
0B
07
EF
F3
F9
03
0D
11
13
21
12
FB
05
2C
19
13
05
FD
F7
F7
F2
E6
E3
03
F8
E0
0B
FD
F6
FA
0B
01
0A
13
08
1A
06
05
FF
F4
FC
14
0D
18
28
1E
1A
00
F0
EF
11
FD
11
10
12
0C
15
07
16
1C
0B
1B
08
10
04
08
F6
0D
09
2D
2B
31
24
17
0D
04
FA
FB
FF
0E
01
FE
04
08
1C
01
21
0F
23
1E
F4
01
F4
0D
1D
07
22
1B
2F
2A
1B
0C
27
21
14
06
05
FA
FE
FB
04
19
02
06
17
32
3B
2B
08
04
07
ED
14
13
1D
27
0F
1E
10
00
15
15
17
18
02
06
0B
06
0E
09
06
21
18
25
0F
FF
FB
F0
0B
04
FA
13
21
25
07
EC
F2
12
04
07
0B
14
0C
05
FF
FF
08
18
01
08
10
17
13
17
0D
F9
07
F2
F2
F5
11
F0
E4
F5
EB
06
00
19
10
0E
18
14
12
11
0C
FC
0E
FE
EA
E6
F0
03
1E
03
18
F5
ED
07
10
08
F3
EB
FB
1D
1C
2A
08
26
17
FA
FF
20
19
F6
09
FF
FE
D9
D6
F0
FE
F0
0F
12
F8
14
06
10
11
11
1A
10
2F
1E
0D
02
08
04
04
28
28
0C
12
14
11
1C
17
07
0A
FB
10
F8
ED
F9
FE
12
0B
FC
17
23
14
1E
17
1B
10
1A
0D
04
00
18
25
21
0D
F5
13
FF
F7
0E
0B
0C
13
10
F1
0D
F5
13
EF
FF
0D
FB
02
F2
F8
FA
12
0F
01
EC
FE
0F
F9
EE
05
11
0A
13
F6
0B
FD
FE
13
06
F6
0C
FA
06
ED
00
04
01
09
03
10
19
F4
0D
1A
15
25
1F
FE
21
0D
F1
F8
F1
F5
04
00
05
1B
0A
FB
ED
F9
1E
F1
10
0A
F9
02
FA
23
21
2D
18
29
19
2A
18
06
09
01
01
F8
F4
03
E7
0E
05
F2
02
DF
E5
F7
D7
E0
EC
07
F4
EB
05
04
E5
0E
1C
0B
0A
01
DD
F6
0C
03
ED
22
0B
EA
F8
E1
F0
E5
E0
E4
E6
EE
FB
E6
FB
F4
FB
FC
F9
1E
11
14
19
01
FA
F6
05
10
0C
1B
FE
00
D7
F3
EB
CC
D2
D6
E6
FC
EE
E7
EA
FF
F0
1B
0A
1B
FC
F8
0D
0D
0C
0F
FA
FA
F2
F8
0C
08
E9
F9
FD
E6
E4
CE
F3
FE
EE
01
00
10
00
12
24
18
0C
08
F8
14
06
00
1B
19
09
EF
FC
0C
FC
E5
03
DE
EC
EE
FF
05
06
0D
12
0A
1A
10
0E
FA
01
0F
24
1A
24
0D
04
E5
07
ED
06
0D
01
04
F8
ED
D9
ED
F6
12
24
20
F7
0F
01
14
04
08
10
08
11
40
16
0E
FD
0C
FF
03
F4
FB
12
D7
F0
EE
DF
08
05
24
10
07
FD
03
FC
F2
FE
0D
02
14
20
34
20
2F
0C
00
04
0A
F7
0D
E7
E0
DB
EB
F1
05
0E
04
29
1F
19
EE
E4
EF
FB
FB
1D
0A
1B
2E
31
00
20
10
00
1F
23
0B
F6
00
EC
FD
05
11
1A
04
18
2E
18
10
03
F2
F3
13
12
1B
28
34
0B
05
F8
F5
11
35
18
1D
05
04
11
0B
FE
0D
1C
13
0F
06
07
06
F6
05
EA
04
13
14
32
0C
F2
02
11
F7
0A
05
27
25
02
02
07
F2
04
E9
F8
EB
F9
12
04
FB
F9
F9
F0
03
10
01
06
EF
F2
EC
01
FB
FE
15
08
1B
0F
ED
EE
03
06
EF
F0
EC
FB
24
02
F3
09
F0
E3
EE
00
06
10
F3
EC
F9
EE
FF
EF
FF
F6
03
F3
0A
0A
F6
01
F6
FB
F4
06
05
03
E4
E9
EF
E0
EA
FB
F6
E9
DF
E6
E5
0B
FC
12
1F
16
17
10
20
F2
F7
FA
FD
F8
09
E8
05
F7
F7
02
EA
D9
EC
01
DB
EC
E6
F4
F4
0D
12
FB
FD
12
F3
02
08
FD
05
06
07
F9
EE
03
FB
04
EA
FA
EC
EE
F4
FB
D2
CE
DE
EC
16
01
1F
03
00
F2
F9
FC
06
FB
14
FF
1A
0E
0B
F3
E4
07
EF
01
00
ED
02
F5
CC
CF
D3
FB
0D
11
F4
11
03
E7
E0
02
F9
EF
0F
28
04
01
00
F9
0B
F6
FC
23
FB
FA
0C
DC
DA
EB
EB
F9
00
08
FD
11
F1
CA
F2
F8
EF
FA
1B
03
03
EB
FD
F1
15
F3
11
03
0D
F7
E9
E8
F4
F9
EA
F1
16
0D
11
EF
D4
EF
ED
04
F2
03
07
13
0F
1C
14
18
09
0E
03
07
F9
E5
EE
EA
E3
E3
F6
0C
19
0B
15
FF
EB
04
11
FE
F5
0E
FC
EB
FC
04
00
11
02
FE
F4
F4
F0
F7
E1
D6
E1
F3
09
02
F2
FF
0A
FE
F9
E1
09
03
0C
02
06
E9
F1
0C
0E
05
11
01
F8
02
DE
E2
DC
E1
ED
F6
DD
EF
EA
F0
ED
F3
EF
FA
00
02
19
F6
ED
F3
E4
F4
04
11
00
0F
0D
0B
04
05
F9
F8
F2
FE
01
E9
09
0E
0A
EF
10
1B
FA
08
16
F3
17
FB
F3
04
1E
0F
26
13
1E
1F
02
04
0F
FF
08
03
0F
00
ED
FD
EF
09
F6
04
0C
12
22
11
0B
1B
26
4E
2B
2B
2C
36
2A
26
F4
10
20
1E
12
1E
EB
10
04
11
0A
F9
FF
F1
04
FD
1A
1C
08
32
0F
2A
24
25
36
11
2C
15
FF
F5
F5
03
03
05
FD
FF
01
F5
ED
ED
F8
11
EE
F4
12
10
02
EF
0F
0A
16
15
02
F3
F1
14
05
0A
F7
12
06
0F
0B
F4
12
F7
0C
00
F6
0D
0A
00
ED
09
10
FD
08
F2
03
E4
EE
EB
08
10
0D
0C
18
E8
F5
00
13
07
FA
0F
02
ED
04
ED
EF
0B
10
F5
2B
16
0A
F3
09
17
05
0B
14
05
1A
04
0B
F8
F2
11
F6
04
0E
FA
ED
EE
E7
F6
0C
07
04
FE
0C
0C
05
FE
F6
0D
03
08
05
FA
EE
04
F9
12
FF
23
10
08
04
F8
F6
EF
F9
E9
F3
1B
05
F9
12
1E
09
17
11
F8
13
04
FB
F7
0E
0B
0A
02
F4
1E
21
19
FF
11
02
04
FF
ED
FC
FC
E1
EE
FF
08
1B
0B
09
10
F4
17
14
13
1A
FF
06
F7
FE
FE
1E
16
EF
19
FE
F7
F3
02
F2
E8
F4
F2
F8
F2
00
00
F4
E2
0B
FE
FB
08
0F
EE
F4
FF
F6
11
FE
F9
E8
0C
F0
FA
F3
E6
E0
F5
F3
FC
F4
F8
0C
02
ED
E7
F2
FF
09
06
F0
05
ED
ED
FB
F8
13
F4
F0
0A
EC
15
06
F3
DA
F5
04
06
01
08
21
F5
EB
F0
F1
F4
F1
07
F2
EB
EC
F5
E7
F6
FB
03
12
F8
F6
0D
F1
DD
DD
E6
03
EE
00
13
22
04
E5
ED
F9
E3
EA
F5
F2
FC
02
FE
F9
07
F2
08
FB
E5
FE
11
E6
DE
FF
00
02
0E
11
22
24
ED
E4
F0
DB
E5
EF
EC
F7
ED
06
F0
FC
FD
09
D1
E3
FD
13
FA
02
F2
1D
14
08
08
06
27
05
0A
E3
E6
EC
ED
FA
EC
E3
EE
09
0A
0F
EA
F5
F8
0C
F5
ED
0F
07
E9
04
11
1D
0A
1E
1C
FB
EB
FE
EE
FA
FF
EF
E8
14
FB
17
11
15
18
11
1D
F5
FD
F1
F1
0E
E5
FE
F6
03
0F
17
15
07
FD
F9
FA
13
F9
01
04
FF
FC
05
F6
19
00
05
05
14
19
F9
FB
01
FE
FF
FF
0E
10
20
1A
19
FD
04
FC
10
08
FD
EA
F0
09
0E
F1
F1
00
14
19
0E
1B
01
02
FD
15
00
0B
1A
0C
10
00
1F
19
08
03
22
17
F9
09
FC
06
F1
F7
EF
F3
FE
38
1B
17
0E
ED
0F
07
F5
EC
FD
F9
0C
0F
20
17
1D
03
02
FF
06
F6
FD
09
FC
F9
F7
E6
F5
2F
10
F4
04
EF
0C
19
F0
F0
F3
FC
FD
1D
1B
15
23
0F
FD
07
06
07
FF
FE
EF
F8
F3
0A
0B
23
0B
1B
F0
E7
0A
10
00
EB
F6
09
FA
07
FC
11
18
13
F4
E7
05
F4
09
F9
F3
F8
0B
0B
24
16
F7
F1
04
E6
EA
E0
10
FA
F7
0D
05
FC
14
0B
1A
03
11
FD
FD
07
FA
FE
05
13
14
1E
21
1E
08
05
0F
04
FF
08
11
10
F6
05
FC
0A
0E
1B
06
FD
EF
14
F6
14
F8
11
F3
0E
00
24
0C
F4
F3
F2
0F
1E
07
05
05
FA
ED
0C
11
0A
10
1B
00
09
F2
FF
01
FF
22
01
0B
03
2B
24
13
09
09
F5
02
FC
01
FD
06
0B
F7
0E
EF
FE
02
F8
17
F6
FE
00
12
0C
14
F1
0C
21
1B
2E
30
19
F5
FC
FB
04
13
09
EB
FC
FC
DF
08
ED
EC
FF
F1
04
F2
E6
EC
F7
EF
F6
03
11
21
2C
1F
04
F7
F6
08
EE
EB
E2
CF
CB
D9
DB
F9
05
E4
09
FF
09
02
12
F2
02
FA
11
10
0D
25
2B
23
25
0B
00
0A
07
1C
F3
09
F6
E7
D5
E2
F0
EE
FF
E1
0D
00
FC
02
05
ED
DF
F4
03
E9
12
EF
ED
FE
F6
05
EC
FD
1A
F8
FC
FA
06
21
06
ED
0E
0E
17
19
22
F9
05
FA
18
13
F1
0B
0F
FC
F5
F6
F0
F8
F3
F8
07
FE
FB
18
FA
0B
0B
03
01
F2
09
F8
11
0F
03
F8
1D
0F
09
F6
07
11
0D
00
0F
0B
F5
0F
01
F2
14
07
12
F4
04
09
F4
FA
04
0B
0C
F4
05
06
13
FA
FB
FC
02
F2
FE
06
FB
0E
02
F6
FF
19
F6
09
13
10
FF
01
04
15
18
12
09
23
1B
06
23
0E
0F
00
FC
F7
F9
00
0E
F6
14
FC
02
0B
00
13
FA
FE
06
EB
F5
EE
06
FE
01
04
0F
18
17
1D
18
21
FC
03
02
0F
F1
F2
FF
EC
03
F9
15
1F
0A
F0
E4
E9
F9
17
10
12
05
0C
07
FA
0C
1D
FE
06
0C
1A
0D
12
EF
0F
F7
0C
0C
19
13
08
FC
E8
07
04
FC
F7
05
19
14
29
14
11
03
05
05
1F
13
0F
EF
E2
FD
FA
FA
04
00
00
15
29
FA
F2
EB
F6
F4
E3
1A
19
29
20
14
00
1E
04
0B
F5
14
FA
EB
F4
FF
11
08
F5
13
EF
FE
F3
EB
09
FC
E9
EA
04
0C
FD
0C
13
16
ED
01
FA
00
19
0D
06
13
ED
F2
14
14
E6
F0
EA
F1
E8
F8
00
0A
EC
FA
F0
02
1B
0A
10
F8
F0
01
EB
F5
ED
01
0C
1A
19
FE
10
02
E5
FF
E8
04
F4
05
F4
E9
F0
E4
EB
03
01
16
0C
EB
E9
C6
EF
F5
D5
E0
04
0A
11
E2
21
F1
06
FD
1B
06
EB
F7
0A
F1
05
FD
FE
0F
10
19
FA
DC
E9
E1
CF
D8
EA
DE
F7
E7
FB
F6
FC
F5
FE
13
1A
00
F9
05
07
E4
FF
03
1A
1E
16
11
FF
E8
E4
F8
E4
C6
E5
CF
DF
FE
06
0C
1A
03
02
08
19
FA
E3
0B
FB
FA
15
1E
16
16
17
08
F6
ED
F0
EE
F6
FB
D2
EA
ED
E5
EC
F3
14
0B
18
03
12
FB
F4
07
16
12
01
04
11
01
FB
F9
07
12
01
E7
06
F9
0F
FB
F1
DB
ED
FF
10
14
09
0B
F9
19
13
17
0A
1E
01
1B
10
E8
E3
FE
FA
ED
01
0E
F8
1A
00
F5
E8
CF
E9
F6
15
F9
28
0C
03
FF
F9
FD
19
08
F9
FF
FC
EE
F2
EC
E3
F5
18
17
1D
0D
19
1B
EF
E4
DC
FE
06
1A
10
FF
F2
FE
FC
0E
10
11
08
F5
F5
E9
E7
E7
FB
EC
06
14
0A
14
0E
0A
0B
E7
EF
07
F3
FA
E3
11
02
09
10
12
10
17
09
F7
F1
EB
F7
00
09
F0
0A
F8
F5
00
0B
0A
00
D9
EE
F8
F1
F7
04
10
FF
02
F3
FE
0C
0D
0C
F6
E8
06
07
E5
F0
FE
0F
EC
F5
FF
FB
FF
0C
E3
E9
F1
06
EF
FB
FC
10
F1
E7
F8
F9
10
F3
F8
E6
09
0A
08
0A
FD
0A
0B
12
00
13
F3
F8
E7
F5
16
18
1C
F0
12
F5
02
E5
ED
F2
01
EB
0B
0F
08
FB
01
FF
EF
F8
FE
FC
FA
13
EF
FD
EF
F6
01
0A
08
F1
05
F0
E5
F7
FE
04
0B
02
0E
07
07
FA
08
FB
01
0E
F4
F7
07
00
05
0A
EA
FE
F1
09
06
F7
ED
EE
E6
ED
07
EC
F9
04
0B
FD
06
FF
11
FB
02
14
EF
12
04
F0
F9
F3
FC
13
0A
01
EF
07
F8
E8
E1
E2
F9
01
F6
12
13
13
1B
1C
01
19
FB
14
0B
0E
F9
FF
F4
DF
F4
FC
FC
13
08
06
F0
FB
DF
FA
ED
FB
0D
14
13
01
FF
06
14
07
02
01
E6
0D
ED
F3
EF
E5
ED
07
11
09
FE
16
14
FF
EC
FF
1F
02
F8
03
ED
F6
E8
F9
00
0C
06
00
04
D3
D5
EA
D9
EB
F3
FE
10
FE
0E
E3
FC
01
F6
F6
04
0F
07
10
F5
06
11
EE
F1
F6
01
05
14
11
0E
1C
FD
17
02
0D
12
F3
11
05
09
0C
F7
F0
0E
20
19
10
1F
F9
1B
07
01
06
F1
0D
16
04
FD
14
08
F5
F0
EC
0F
F1
FE
08
09
0F
F6
04
FC
05
0C
25
12
15
FE
FE
E9
05
0D
0E
04
01
03
12
17
F0
14
EE
FB
12
05
11
12
06
02
FB
F1
0B
00
F8
FB
F7
01
0F
10
F3
03
F8
ED
0B
10
11
11
F9
04
07
F2
12
EF
01
FA
11
17
0F
03
12
EF
02
F2
0B
1B
FF
EF
F3
09
F7
F3
16
0B
FB
FE
07
FA
F5
14
0A
10
0A
06
FB
16
FE
06
06
0D
09
F7
06
01
F1
03
E5
E5
11
F6
10
14
F6
F4
09
FB
0F
0A
11
F7
FC
07
FD
0E
21
1F
27
07
04
19
02
F9
F8
F7
04
F6
F2
FE
FD
09
F7
17
01
05
1B
14
F2
13
E9
F3
FC
0D
2C
12
1C
F9
09
FF
01
07
F6
FB
FE
E4
FB
FF
04
0E
FD
F8
FC
F5
14
22
01
05
F6
0B
FC
11
0E
10
FC
FE
DE
FF
FE
0B
13
11
F5
02
E5
00
10
EE
E8
EE
EA
F3
1D
1A
FD
EE
FD
F7
ED
E9
00
FF
F2
F6
F4
EC
03
06
0D
03
1E
F0
F6
0A
FA
FE
FE
E9
EE
F0
09
0A
FB
F9
F5
F7
0A
FE
EA
F4
F7
0E
F2
04
FA
07
FE
15
01
00
0B
F8
F7
14
F0
E5
E6
EE
F2
EF
E3
FF
F5
F2
FC
01
ED
FC
FB
E6
EE
E5
F5
09
11
08
0A
01
1A
F5
FB
F4
04
D6
D4
FF
00
02
FF
ED
18
F8
0F
F1
16
18
12
EB
E8
FE
FA
17
2C
09
08
20
02
F7
0C
FF
F9
E3
D9
D4
E4
04
F6
EA
13
FB
10
0E
00
EC
E7
EB
EE
EB
09
1C
04
02
05
0F
FC
0D
09
13
07
00
DD
BF
DE
FE
0A
09
01
28
F1
F5
EE
0A
FA
EE
0A
00
14
15
0E
08
FA
15
FD
05
F8
FF
0B
04
E7
B0
F9
0B
F2
14
03
28
FC
26
10
FC
05
EF
10
0E
14
24
FC
15
11
19
0C
04
0C
27
29
15
18
CD
E8
08
FE
02
17
0B
17
03
14
04
FC
F0
1B
FF
14
06
F5
0A
07
0B
14
09
0E
0C
11
1D
F3
C9
DE
FC
DB
FE
FA
FE
E5
FE
F1
00
FB
0E
06
1E
0B
13
0B
01
1A
1B
0F
03
0F
03
13
01
CD
E0
D5
DF
E0
F8
EF
FF
11
0A
15
FF
07
F8
00
0B
18
0F
00
16
0A
17
FB
01
15
02
FF
FE
DB
D3
D7
E3
00
FF
FF
FF
23
F5
FF
14
0D
F2
0D
1B
10
0E
FB
0C
19
0A
04
12
02
F9
1D
F9
F1
D6
DD
E9
0B
0C
08
0C
22
1A
02
19
19
04
F1
11
F8
03
0F
06
0D
0E
13
FB
0B
F2
F6
05
F9
C3
E9
E9
11
0B
14
10
1C
FE
17
01
17
F6
02
F7
F7
00
01
07
12
EA
06
03
ED
F3
00
EE
D9
F2
E6
FF
FF
15
02
13
FC
10
F9
F4
EF
0E
04
FF
06
0E
F6
FC
0A
F8
F7
FD
E7
03
05
E3
ED
D8
EF
E9
ED
07
F8
0E
F6
14
FD
F5
F3
F5
03
F9
13
F7
00
F3
E5
EB
F0
F8
F8
F1
00
F9
E6
E8
04
FE
F4
F9
10
E9
F3
00
ED
F6
EE
04
EB
F8
EF
16
F8
FF
02
F2
FA
FC
F2
EA
FC
DC
D6
07
F8
F5
F9
05
04
E4
F9
E1
00
07
FA
EE
04
13
FB
0C
13
F7
0A
05
EE
E7
E5
F4
F7
F6
DD
F4
F5
E4
0D
FC
F3
0A
00
F8
09
EF
F9
EE
07
FE
08
F1
0A
12
10
FD
FE
0D
E4
F0
E6
ED
08
04
FF
0A
07
06
08
20
1D
0D
FB
ED
FE
07
FE
FD
F1
EE
F5
FA
02
F5
01
15
00
01
00
04
ED
F4
FC
F6
05
0D
E9
EF
16
10
F1
F4
F1
F8
F4
E5
E8
0C
FB
EB
0C
09
FC
00
F6
EB
05
D8
E8
FB
E0
02
06
14
F4
F3
05
14
26
1D
1E
1A
FA
07
10
F2
EB
FC
09
0B
F4
E0
05
01
00
FC
22
11
13
0E
F1
0F
11
0C
F7
ED
E8
0F
01
E2
03
0A
F8
FF
E3
FA
EA
E2
06
00
FA
07
0D
07
F6
0C
F9
0A
12
F0
F7
01
0D
05
EC
03
14
ED
ED
F8
01
14
02
07
F9
EC
0B
08
10
06
0F
0F
F3
0B
FD
0B
07
0A
11
03
0F
F0
FC
FD
05
09
03
F7
08
EF
02
FE
0A
1F
FA
00
1E
F7
F7
0A
0A
00
FD
08
0B
EC
01
04
EB
F6
1B
F6
19
08
09
1D
08
14
13
20
04
07
FD
12
FB
1F
FC
FD
02
0A
FD
14
F6
10
0A
07
19
0D
21
0E
1A
2B
22
16
2F
21
FB
FC
0C
07
15
1B
14
23
08
07
02
10
0D
0A
FC
F2
13
F9
F0
15
00
11
FD
0F
03
05
12
FC
06
FD
01
07
F9
F9
00
00
0C
FB
0D
13
03
10
10
FC
11
F8
FE
0B
F3
06
FD
01
09
0C
01
19
04
00
02
F6
09
FF
0C
FF
03
F7
13
1E
1A
04
F3
FC
22
01
EA
FD
F7
FE
12
11
03
08
1B
16
1B
22
26
1A
11
11
16
09
05
19
19
3C
2F
F7
09
0C
04
10
FD
0E
14
F9
0C
F1
FB
0D
12
15
09
1B
21
1E
0F
14
05
07
05
06
0F
28
18
04
E8
F3
0B
11
0D
FE
1F
07
19
17
18
25
FF
1A
23
1A
0A
08
FD
11
F7
0D
FE
18
05
23
12
2C
14
07
0C
1A
13
26
18
16
12
1B
26
18
19
1C
22
15
F8
F9
11
F5
F9
0B
13
00
04
15
33
FA
04
13
FE
27
19
21
0B
1D
10
FB
08
0C
FC
FB
FC
FD
EF
01
F0
EB
FE
06
EE
02
FF
16
42
FD
F1
EE
F9
FA
17
16
11
0C
F9
F5
EE
DE
E3
DD
E9
EB
E2
09
0A
05
0D
00
17
00
FB
15
23
1A
06
0B
F3
F0
16
E8
F1
DB
D7
D4
DE
CD
CC
D7
17
0B
EA
ED
FC
E9
EC
06
FB
FB
F1
E6
1C
F1
01
F5
00
ED
FE
E1
D3
FF
DC
F2
EC
EF
EE
11
11
15
08
F2
F9
06
F9
DC
D4
E4
E8
0B
16
F4
07
E8
E4
F3
EE
DB
D6
E1
F1
02
F7
FA
0B
FA
12
05
1A
0A
0F
03
05
DC
EC
E8
ED
EF
1E
0F
F3
EB
EF
05
EC
F4
F8
EA
EF
DD
EF
F6
08
15
18
13
1C
0D
FE
EE
FF
DE
D9
E5
F2
EA
F7
F7
F1
08
FF
1A
FD
08
01
02
EF
FD
08
F8
06
17
F8
F7
F5
FD
F8
EB
0A
EA
07
F2
1E
17
2F
FC
01
F9
06
21
25
FA
0F
0E
14
04
FD
F4
0A
0E
14
EE
06
12
FF
07
F9
FB
EA
DB
FD
10
2D
07
18
02
E6
1B
14
04
18
EB
F8
F0
F4
F5
0C
EE
03
FE
0E
00
11
F3
09
00
E9
03
25
13
13
F6
F3
FD
F4
08
03
F8
0C
13
03
0C
F5
FF
F5
0A
F9
08
07
10
1C
01
0D
EB
FB
FC
21
2D
1A
F5
04
FA
05
15
01
FA
0A
04
09
F2
F5
EC
FD
FC
FA
E7
F1
05
FA
07
F1
EC
00
08
22
0A
0A
F2
ED
F3
EB
0C
1D
1D
F6
EB
F5
01
F2
F5
FA
0A
F1
0D
08
01
F4
FB
FE
F0
FA
21
0B
18
01
F4
EB
FA
E2
07
1E
05
06
05
0B
05
07
EE
EC
E7
04
06
F5
F1
F0
FE
E8
08
F6
21
29
04
F8
F5
14
F3
F6
09
30
F3
F3
03
0C
F9
02
FD
02
05
F7
ED
F6
F9
09
08
15
0C
1C
21
29
0C
F6
0D
0B
09
12
04
20
00
11
FB
1D
F9
EE
00
F8
08
15
0E
08
0F
0A
1B
04
1C
04
FF
13
ED
08
F1
04
0D
05
11
25
1D
2C
36
14
10
16
19
06
12
15
22
11
15
13
30
35
0E
1A
0D
0B
04
16
F4
08
0D
FD
F0
0C
11
0E
26
24
18
36
23
2E
24
4C
3B
3A
28
1C
1A
1F
24
15
29
00
EF
F1
F9
06
03
0C
0D
ED
E4
F7
0F
28
1A
23
1E
0F
19
39
19
20
0D
05
16
08
03
13
F4
07
09
F0
EC
13
11
FD
F9
07
00
F9
00
09
05
0E
FD
00
F4
F4
02
0E
F9
07
ED
0B
EE
04
F6
07
06
FF
02
F5
00
0A
FA
F4
0A
F6
FC
E4
E7
ED
F8
FE
FA
09
D8
E4
E2
06
EA
E6
DD
FA
E7
0E
FA
ED
0C
00
13
0A
FE
F2
0E
F6
EC
EE
DC
DD
EE
F4
E7
F6
F2
E1
FE
E6
FA
08
07
F4
ED
F2
00
FC
F4
00
11
08
F1
F4
06
E4
D8
EA
EB
EB
E9
E6
E4
D2
DD
E1
DC
02
01
05
F8
0C
E0
ED
E7
F4
FF
F9
14
F6
FF
22
05
10
EB
F3
00
EC
F1
E9
E5
F4
DD
D5
01
F0
FC
03
DE
0C
F4
FB
18
06
FD
ED
EE
E6
FE
FA
F7
EF
07
F8
E8
E5
F9
F7
ED
04
F9
E2
E4
E3
02
0D
07
01
F0
01
12
17
F6
FC
08
17
00
FE
0E
F1
F7
EC
06
19
16
1A
FD
16
17
16
13
05
17
09
F8
02
07
1A
0E
17
F4
12
FB
02
F8
00
EC
F3
F4
FA
FB
03
0B
0D
14
F9
0F
20
05
00
01
1C
03
01
15
06
1E
0F
09
E5
09
12
07
0A
00
F0
FD
0C
F9
01
13
F2
01
ED
0C
F5
FC
0B
02
FF
0D
FB
0B
25
1A
0B
0F
FD
F0
F5
F2
DD
F4
FB
FD
0D
F7
07
EC
00
FF
E9
E1
F1
0A
04
23
FE
0C
FA
07
0F
25
25
08
F9
03
04
08
F6
E2
02
01
17
FB
F5
FE
ED
E8
F4
FE
10
F7
08
12
1F
04
00
F9
10
37
20
F1
EB
F5
FE
1A
10
FB
09
18
06
01
FE
17
FD
F5
09
15
FD
11
FD
05
00
FC
01
03
02
17
03
23
F2
ED
00
12
20
0E
16
1C
05
0E
1E
1E
1C
F5
F8
02
10
00
01
EB
01
F3
F5
E6
E2
FA
F5
FF
EE
E8
02
1F
30
2C
12
20
1E
10
08
1E
19
FB
01
08
12
F8
F4
05
F3
04
02
F3
CA
D6
E7
FF
E7
FB
DE
11
36
1B
1A
25
18
0A
16
06
0F
F7
02
05
11
03
11
F9
08
09
06
00
CF
E8
D7
FE
FD
04
E3
18
1E
FD
01
EE
0C
FC
FF
08
1C
13
03
1E
21
1D
0E
FE
ED
F8
F9
E9
E5
E4
E3
00
08
F6
DB
0E
ED
E9
04
05
0E
EF
0A
F9
0B
03
1A
06
12
02
FD
E3
EA
00
F3
F1
F9
CB
F5
FF
05
00
DE
05
D9
F4
FF
FF
0A
07
08
EE
10
11
0A
1F
FD
FC
0E
07
01
F2
F0
F3
E3
ED
F9
FD
F1
1E
F4
EA
D4
F3
09
EE
05
F6
FD
EE
FD
0B
07
FF
01
F7
03
05
07
EB
06
EF
EA
E8
0A
19
08
EC
F8
0D
D6
E5
EB
F2
F7
E1
E0
F4
ED
F4
FF
07
FA
EF
FC
0D
F2
E9
EF
DD
EC
FF
F3
15
FF
EE
07
E5
F1
E6
EE
EC
D8
E7
CF
E7
F4
E9
02
F3
EF
03
05
F1
EB
09
01
17
12
10
EE
0D
14
FA
15
FD
ED
E6
FE
F8
E8
DD
F8
D9
F4
F5
08
FC
F4
FE
05
FB
12
13
0D
13
12
15
FE
12
F8
0A
09
0A
0C
14
0A
FB
00
EC
FF
EF
FD
0B
EB
F5
F7
ED
18
1C
05
06
0D
1F
0A
F9
EB
F1
02
0D
03
FB
0B
08
1D
FC
FD
F5
17
F7
08
F4
11
05
17
18
05
14
10
0E
F5
FF
0C
03
FD
07
0C
13
17
0F
1B
26
14
27
13
FA
0F
1C
F7
F2
F7
19
12
06
0D
FC
0E
15
1A
0E
FB
E5
F1
06
02
11
04
07
1C
2E
F5
1F
0C
28
17
06
03
09
0E
17
00
18
13
1E
2A
02
2E
33
11
ED
0B
F7
13
04
FB
F3
F9
04
FB
F0
EE
F6
0F
04
E8
F7
ED
D8
FC
0A
FF
FA
1A
18
FC
FE
EB
F2
00
03
F3
F9
F5
09
ED
03
FC
FF
FA
F5
00
00
F1
EE
FD
04
F0
F4
F5
F5
14
18
03
16
FE
14
07
EC
03
0A
12
0B
FF
F8
FB
13
ED
03
03
FC
F1
EE
04
F3
08
F1
FB
FD
08
0F
12
01
EC
FA
03
07
12
ED
FA
0D
09
F3
0F
12
FB
F9
FE
F7
E0
05
F1
ED
04
FC
0A
F0
1A
11
0A
10
03
0B
F7
FA
F6
04
F6
05
F7
08
10
F1
15
14
01
0B
1D
E7
DC
F9
F8
E2
DF
DF
F7
F2
F1
09
0A
08
0D
F0
FE
FE
10
F6
F6
EA
0A
1D
0C
E4
04
03
2A
FE
F5
C4
CB
C7
F7
F1
F7
EB
EE
FB
EF
F1
FB
FF
FF
01
09
0E
0A
0B
01
0F
16
F8
FC
EA
1A
F5
F3
C9
C3
D7
CE
DE
D2
EB
F9
FD
0F
F5
1A
22
F4
F9
1F
1C
05
FB
EF
0A
18
05
11
0D
20
08
02
EE
F8
D5
A4
DC
D7
E2
FC
DD
FF
DD
F1
11
05
12
1D
12
21
0A
07
0C
13
03
12
17
06
24
1C
05
EE
E1
D1
C2
C4
E0
FD
01
E6
D8
FF
0D
EC
EB
FF
02
17
06
FA
06
E9
FF
FE
02
20
27
20
01
02
E3
C4
B1
D0
D0
DE
DD
F0
DF
F8
EA
D7
F2
12
22
26
07
05
ED
00
FD
11
0F
15
10
19
1B
1F
FF
F9
C0
B6
C2
D1
DC
D6
05
0F
16
09
03
07
08
0F
F9
0D
FD
EB
FE
15
F5
15
1D
20
22
1B
03
0F
CB
C4
CB
E3
F4
F9
F8
0A
1B
F2
0E
11
0E
03
12
FA
11
04
F5
0A
F9
FE
19
18
FD
09
F9
FC
E1
DF
DA
E6
F3
D8
EB
05
0B
0E
FF
2E
10
FE
0B
F9
13
F1
EE
0D
03
0D
0A
1F
12
03
0F
FE
FF
E8
EB
E6
E2
01
E3
FB
FB
0A
FB
1B
01
FF
0E
F3
09
FE
FE
F9
FD
02
0B
23
0F
05
F3
EC
F6
E3
F8
E4
F1
F8
1B
0A
FC
02
0C
15
07
EE
E4
EF
FD
E9
FA
F8
03
0E
12
09
01
02
12
F2
EF
FF
F9
01
08
FF
1E
28
08
FF
F8
19
06
E1
E5
EA
F4
06
FE
F0
F8
F6
0B
0C
19
06
EF
FA
FB
FD
F7
ED
15
F9
10
1E
0E
EC
FD
F6
06
08
EF
FD
08
02
01
06
03
03
08
02
0E
F1
13
FF
10
17
FE
03
1F
25
03
19
17
13
F5
13
0C
07
E2
EF
FA
F3
0B
19
FE
0D
08
E5
FD
F3
0E
07
0A
1D
1A
19
25
0C
2A
0F
0A
12
FB
F8
10
14
0F
F9
07
F2
F0
F8
11
F1
08
F7
09
F4
0B
17
0A
07
FC
19
03
0E
16
10
FD
1E
F1
F0
00
0E
F8
01
F5
FE
09
E7
00
15
0A
EE
03
0A
08
12
F1
F7
EC
03
01
F1
2F
17
15
F6
F6
F0
FD
0B
EA
F8
09
04
FE
02
FD
DF
EA
EC
01
09
12
04
00
07
06
13
FC
FA
1A
0F
0E
10
E8
F3
F5
E0
F0
F6
0D
E7
04
FE
F5
DE
E9
FB
11
0B
E9
E6
F1
0A
FD
ED
DF
1D
29
E8
EA
03
FA
E9
08
FC
14
F7
0C
F6
F6
05
F8
F6
E2
FF
FD
04
F6
F8
0A
F7
DC
EB
15
24
07
F9
F5
13
06
F4
03
07
18
F5
E1
F8
F3
0E
EC
FE
F9
F1
FF
E8
03
02
0A
FE
EF
FB
08
FE
1E
0D
14
07
12
F6
12
03
FC
FE
01
07
EE
09
F7
F8
E9
F3
F6
E9
F3
10
FE
F2
FF
F7
04
1E
20
13
00
0A
FD
02
09
1B
23
F8
05
EE
F0
E5
E4
EF
01
03
E6
FA
EE
0F
0C
FC
02
04
05
FC
21
F3
F8
01
08
E8
EE
ED
0F
F0
E7
F3
F7
F6
E0
F5
0E
01
F6
F5
FC
00
FC
F8
ED
F8
E3
D9
05
F0
01
F1
EF
FA
FD
0E
19
09
15
F1
02
09
ED
09
11
00
12
EE
FE
0D
FD
05
FB
0B
FD
25
F3
10
03
01
F0
F8
0C
EA
FC
02
01
F0
E3
F7
FB
14
10
17
1F
1B
FE
02
06
00
19
0B
F4
EE
EE
0B
07
F1
0C
06
14
0B
0D
FF
0F
12
F8
FF
00
08
E7
03
F4
03
FA
FA
0B
F9
F8
FE
F6
FB
01
13
0D
F0
F3
F2
00
F2
03
F3
EE
F8
00
E9
E2
FD
04
08
03
04
0E
11
F1
F0
F9
00
E9
F0
0E
FE
02
08
FF
09
0F
FC
E7
09
E8
EB
DD
DD
D6
D4
EE
01
02
F6
F5
F5
F4
F6
EE
DB
EA
E4
EE
03
EF
FA
10
18
00
E7
E2
04
DB
D8
CA
F6
CA
D3
DA
F1
F1
08
E7
17
EE
07
06
EC
15
F2
FC
DC
EE
ED
F9
F6
FA
06
F3
FB
F9
FB
F9
FD
F6
EF
FC
E0
ED
07
00
22
15
FD
0E
19
01
05
F9
FE
01
12
09
ED
17
05
03
F0
F2
00
FF
F3
FD
FE
FB
E8
0B
FA
FB
FB
FC
FF
01
05
F8
1A
0C
0C
E5
01
10
10
07
10
07
04
10
03
0F
17
13
FF
EA
01
00
EA
11
F2
0A
FE
04
05
02
01
F9
F9
02
07
07
07
FD
FE
F3
16
15
02
20
00
19
FA
08
F6
01
F7
10
0A
F8
1B
05
0E
07
14
EC
14
FF
0E
F3
1A
0B
04
F3
17
FF
03
09
1C
12
FC
0E
0E
03
00
15
12
0D
FB
05
18
0C
15
04
1D
03
FE
0C
EC
EE
EC
FD
00
FF
03
0D
0B
0C
F5
07
FF
06
15
07
1B
FE
01
FD
12
10
09
F1
E5
01
12
F3
02
FD
E0
F8
F9
F8
09
F5
00
13
08
E1
FB
F1
0B
25
EE
06
0C
13
0B
1B
F3
E2
D6
17
FD
08
0F
E7
D3
F6
04
1B
12
04
11
01
00
E8
E1
06
0F
F8
EA
EA
F8
01
1E
14
00
F2
FC
FC
01
15
07
F4
E4
E6
F9
F8
09
FE
00
FA
14
ED
E1
F4
12
01
FA
01
F0
15
2B
26
0D
06
F7
FD
F6
12
1B
08
D5
07
FE
06
FD
0C
07
F1
FB
FA
DD
03
FC
05
F9
E3
19
27
0F
09
16
03
06
FA
13
15
FF
FE
E3
0C
1C
1B
0A
F9
04
FC
F9
E7
DC
04
FB
13
EF
F5
0A
FE
13
12
0E
1A
E2
F4
14
04
FA
FF
04
F6
06
22
FA
EB
EC
01
00
D8
F7
08
11
F2
F2
F2
11
03
08
14
1F
D7
D4
E9
00
EC
05
E4
EC
11
FE
FC
04
EF
F9
18
05
F0
06
0C
06
FD
E6
F0
1E
F4
ED
FE
F1
EE
E6
E8
F0
E9
F3
E4
ED
01
F6
06
0F
FC
1D
0A
12
F5
E2
E9
10
08
F6
13
10
0E
F0
FB
FA
02
00
10
EF
14
10
EE
ED
F4
EA
02
F4
22
17
15
1C
F9
ED
DC
FF
F6
E8
E8
E6
FF
F5
FF
FA
EB
F7
EF
16
06
10
F7
EF
07
E5
04
FF
08
29
1F
FD
EA
FE
F7
EE
E5
E3
08
FD
FC
E5
E7
FF
F3
16
14
03
04
FB
E8
F4
E7
FE
F5
FC
00
20
23
0F
F5
E5
E4
E5
E1
E8
06
F0
F4
F2
FF
ED
FC
0B
16
03
FD
0F
FA
03
FF
ED
FF
FE
1D
0E
17
F5
03
E8
E7
FD
E0
ED
E8
EA
FD
FB
F9
0B
0B
1A
15
12
0B
F3
E7
F0
29
00
0A
12
05
0F
14
0C
00
ED
DE
00
E0
CE
EE
F5
FF
05
05
00
00
F6
12
04
14
FA
D7
F7
F8
FE
F4
FA
1C
1F
18
05
12
19
EE
04
F0
DC
DA
ED
E4
E9
05
FA
25
03
10
FE
04
19
E5
F1
F3
06
02
F7
F9
0C
19
27
0F
10
0B
FE
E4
E9
F5
F9
01
FD
EA
F8
F1
F6
01
14
03
FF
F9
F7
EF
F8
E8
FA
FC
EB
1C
09
16
20
1B
15
04
DB
F2
F9
FA
F9
F2
EE
04
0B
F5
0F
F3
FA
00
EE
F0
F9
F1
0D
06
12
0E
F8
21
F6
07
0D
0C
E8
F8
01
05
01
07
F7
13
EF
01
EF
09
06
FF
15
0B
EF
EE
ED
FF
14
06
02
13
03
0B
0A
F5
FD
17
E7
F5
1A
22
02
03
EE
11
0E
EE
EE
0F
05
0B
00
05
EC
ED
0E
EC
0B
05
07
FD
00
0C
02
0E
12
F2
06
F1
EF
FB
11
F9
02
EF
F8
14
1C
0E
F8
09
19
F8
0F
01
F5
21
F4
02
06
29
15
1A
36
03
23
0A
EE
FA
12
FB
14
05
0E
EB
06
0D
16
08
08
0D
18
2B
12
33
1B
04
0C
0A
20
25
09
29
19
16
FA
0E
05
EF
05
00
00
F4
18
F5
09
02
02
02
0D
05
08
17
11
02
08
06
06
0B
23
FE
1C
03
12
F9
0D
FD
03
05
F7
F3
06
00
EB
FA
15
1F
1E
F8
EE
F4
FD
01
F6
11
1B
09
FD
FD
F5
06
0E
FD
07
02
10
F7
08
FE
16
E4
FB
FF
0A
FC
04
F9
01
DD
FD
E4
F6
EB
E7
0B
E9
07
05
EB
10
01
16
17
06
FC
FF
EE
05
01
19
35
11
12
FC
E7
02
EC
F8
F1
01
FB
FE
04
08
F9
07
F8
00
07
FA
0F
20
F4
FF
E7
21
0B
0E
21
16
06
0C
F2
04
08
ED
F5
F6
FB
F5
05
09
00
F6
00
05
F5
10
11
F5
15
F7
03
10
26
20
18
04
FC
0D
F7
0D
10
FC
15
EC
0D
FB
09
0D
06
05
02
0E
02
00
01
F9
08
F4
0C
01
FF
0C
13
0F
FC
FB
F1
F0
00
FF
ED
01
FC
F2
FE
FD
F9
06
FF
00
05
0A
0A
18
20
03
07
FC
E3
00
FC
FC
F8
F7
12
00
EF
F4
E5
EA
FB
07
0B
02
FF
0B
F7
13
01
F1
FE
0B
17
29
10
E2
E4
F7
1D
F7
0D
F8
FE
03
F8
E2
E3
03
EF
05
09
1A
FE
10
06
09
E6
F6
FA
13
1B
31
08
DD
F6
F6
0C
04
0D
F3
F8
07
03
05
EE
0E
0A
F4
0B
FB
07
1E
11
18
00
CD
FC
F1
14
23
E5
EC
FC
F6
05
EF
0C
F6
0E
FF
E8
EB
15
0E
FE
13
0A
11
F8
18
15
19
04
F4
0D
03
F4
1B
01
EB
02
02
EB
01
E9
EB
01
F2
04
08
FA
13
F3
11
F2
EE
03
0A
08
18
10
F0
ED
1C
F9
E7
06
F7
EB
F7
EC
DC
FD
02
00
FA
0E
0B
1F
02
0C
03
08
E3
02
0A
11
FB
05
FC
FD
FF
F3
02
EF
0B
01
EC
F4
F2
ED
01
17
17
19
0D
16
17
02
F2
05
E3
F6
E5
06
06
0C
05
F6
00
F1
13
FF
F4
D5
E7
DC
E6
E9
05
19
0C
FC
07
0C
0E
0A
F3
F4
F5
E5
FC
02
FD
0A
04
03
12
09
0F
E8
DA
F1
E0
E1
FA
0D
1C
2A
23
06
1F
1A
F7
F7
F6
ED
0C
F3
FD
EB
E8
F5
FE
EA
10
18
06
E1
FA
D9
E9
ED
DE
08
18
22
26
18
FA
FF
05
EE
03
F8
F7
FB
F5
EA
03
0A
E9
0B
0F
06
F0
E3
E8
D7
E7
E3
EF
07
FE
0C
18
FA
18
07
F3
F1
08
08
F0
EA
01
FD
FD
F1
FE
06
00
FA
04
F1
DD
E3
E1
F6
EE
0F
00
03
08
0F
0A
07
FC
F0
F3
14
F6
F7
FD
E4
02
04
00
0B
EB
09
0A
08
EA
EE
D9
EE
FF
FD
EA
FE
12
10
0F
15
F6
F1
EC
ED
F9
E5
F1
F3
E9
0C
10
F8
F2
01
13
EB
FA
F0
F7
EB
F2
F7
FD
FD
00
F5
03
12
08
F3
FF
FF
06
F4
02
E4
F9
FB
FE
F4
0A
FD
02
E9
F4
F6
EC
00
07
03
FD
FB
14
11
05
12
21
FA
F7
F9
E5
04
F3
FB
FC
DF
F3
EE
0C
12
04
08
04
04
0F
09
07
15
16
20
0E
17
01
05
02
0F
04
15
08
0D
0F
EC
EC
EA
F2
F1
FD
FE
04
E1
0D
FE
19
25
14
0F
31
17
2E
37
FF
0E
FE
EA
03
EB
E5
F0
F4
FA
0F
14
06
FC
F8
F1
F8
0B
00
13
FD
FF
2B
2A
1E
1C
1D
0C
24
F9
F2
02
14
F7
F7
0C
04
00
04
0D
07
F0
F6
02
11
F1
F7
05
0D
F5
05
ED
13
EF
13
FA
FA
EF
0C
00
F2
10
F6
EC
F6
F9
ED
F0
07
07
01
06
FD
05
05
06
03
04
E8
EE
F9
ED
0D
06
15
17
FD
02
0A
F9
FA
06
E9
F9
FD
EC
F4
EF
00
0D
10
F8
E6
04
F2
03
E1
01
0D
15
0D
0D
10
13
FF
ED
DE
0B
F9
06
F7
F1
F7
F0
08
F0
0C
F7
F7
F3
F8
E4
EE
00
DF
09
04
11
FD
12
0E
F2
FC
05
08
02
ED
DB
F4
26
1C
16
FF
08
14
01
DA
DB
04
FD
FE
E3
11
1E
0F
F9
0B
11
0C
0B
F6
FF
04
0A
F7
03
06
FF
E3
EE
ED
ED
FA
0B
02
15
F7
EB
FE
FD
F9
FA
01
07
F4
EF
02
0B
F5
08
FA
F5
F8
03
0C
1B
FF
D5
E9
EC
02
13
F0
F4
FD
0A
FC
F4
09
F2
F3
09
F6
13
F8
05
F7
E3
DC
F3
E6
F9
0A
F6
03
C9
D5
F6
ED
EB
08
DF
01
F8
F1
00
DA
F0
F7
F5
FC
F4
0A
E7
F2
E7
EB
F7
E9
F1
EE
01
06
EF
E4
F9
FD
15
FF
EC
FE
08
DC
F1
06
F3
07
02
17
FC
01
E9
FB
F6
FA
EC
E8
FF
F8
EE
FF
F6
F0
E8
0F
F4
F6
EC
02
DB
E5
E2
EB
F0
0E
11
00
10
E4
EA
F5
E4
E6
EC
00
15
EA
0B
E2
DC
DE
05
10
F5
0A
F3
E5
E2
F2
F4
06
0A
FC
12
14
11
16
00
F5
04
EF
07
F9
11
F7
F5
E9
C7
D0
FA
F0
00
D8
E5
04
F9
03
F2
FD
F0
F4
EE
F6
01
FC
12
FB
06
EB
16
0A
04
05
F1
04
E0
D7
E5
08
12
E4
00
FF
07
FA
00
01
EF
01
0F
FD
F8
05
F7
0A
EC
09
FB
01
09
29
20
43
25
ED
E7
FA
13
05
E6
01
FE
0C
F7
EB
E4
F3
FD
F4
14
FB
F1
09
02
F2
05
0A
01
1A
05
3B
1C
06
04
FE
09
0B
F3
E5
14
0A
09
F8
EF
F5
FF
FB
18
18
FA
FF
FD
03
00
02
02
13
09
21
1D
0B
07
21
E6
16
0E
08
0E
F7
14
14
1D
21
1F
19
10
06
0E
10
F0
EE
11
EA
07
F6
E6
1C
23
FB
FF
08
F0
FF
01
E9
FA
F6
01
1D
0B
12
1F
02
07
1B
1A
12
F1
E3
11
FC
06
01
F7
10
1F
0D
00
08
00
FD
FE
F7
F7
06
17
05
2B
11
1F
23
03
1F
21
17
FE
F7
0B
02
00
FB
FF
1B
22
09
F3
F9
EA
F6
0C
FF
05
08
09
0C
19
04
06
F5
15
FC
01
12
F8
13
FA
19
01
0D
FC
02
1F
F7
01
10
13
0B
EA
E9
EC
E9
FA
0E
0B
1D
08
F8
06
F4
07
12
0F
E9
F3
11
FC
FD
F4
F6
07
FD
FB
FF
F7
F2
F8
04
E7
0C
FC
F9
16
07
0E
FC
0E
F5
FB
F9
FF
F7
0F
17
0B
0E
FF
03
EA
17
0B
07
1E
ED
F5
FE
04
03
0D
07
09
1B
F1
0A
08
0E
0E
11
03
07
0A
0B
FD
10
0F
06
F7
10
0D
04
05
EC
0A
02
1F
FA
0D
06
15
FE
14
F1
04
F1
0D
0A
12
00
12
13
19
F8
05
F2
FE
1C
F7
00
0D
ED
E0
EA
0D
1B
F2
05
FC
05
0E
07
02
F4
F3
FE
00
EC
F8
FF
0B
01
D4
D9
0D
04
FA
05
0A
FD
DE
D0
01
04
FD
FA
0B
04
FF
ED
DE
E0
D4
EF
EF
C2
CE
DE
FB
DE
F9
F4
15
F8
09
06
F0
FE
EB
E5
DA
E4
D0
E0
DE
F6
DA
DD
D5
BD
DC
DE
CE
C8
C0
BE
C8
CA
D7
E0
10
FA
14
FD
FF
EF
E0
EB
E4
F8
ED
D9
DF
F7
D7
D9
E5
DC
E4
D1
E1
E2
EA
D9
DE
DD
D7
F1
0F
EF
EE
08
01
FD
03
F5
14
06
E5
E0
F3
00
FC
FF
F8
DF
05
FD
FB
F0
EB
02
0B
FC
F3
FC
F6
F0
04
0F
09
F6
12
F5
FE
11
01
05
13
FA
FB
08
F7
00
05
FC
11
FF
EF
01
0F
03
F0
FC
14
0C
F1
14
12
0E
0D
F0
11
08
0B
FA
01
13
0F
FF
F7
10
F9
12
1A
FE
F6
02
F8
FF
FA
06
F2
10
EE
FF
F8
0A
08
19
0B
FF
F7
23
0E
11
0D
08
1E
FC
F1
FC
FA
31
F6
F9
06
12
F9
F9
14
02
0D
F3
10
12
13
F4
1A
F5
14
08
11
05
1E
17
0A
11
0A
07
FB
F7
13
0B
F8
0C
0E
0C
F4
15
0E
05
F1
FB
FF
F1
FB
EE
FE
F8
21
1A
F6
21
08
1D
16
05
14
03
0A
11
0A
F5
FE
12
02
0F
28
04
FF
24
F7
FF
0A
04
F0
05
04
1E
08
FE
F8
F9
01
0C
10
19
1A
05
05
07
EB
FE
3B
0C
1E
12
0F
0A
EE
FC
FA
07
1A
0E
03
FB
E4
F8
FC
EA
FC
03
19
0F
0F
17
05
07
0B
01
41
0B
FD
05
FE
08
ED
0B
14
F9
14
FE
11
F6
02
03
F3
FF
16
00
09
00
04
0C
F6
09
1E
12
3F
15
04
1E
10
1D
0F
12
0B
0A
1E
12
09
08
12
00
05
10
09
03
20
03
11
0B
1B
14
1E
3C
26
33
FF
01
08
14
11
39
FD
06
0F
08
FA
FA
11
1F
17
03
04
00
FA
1F
16
1B
0C
08
13
1C
11
0A
F7
18
1B
1F
31
40
0E
FB
F5
FE
05
16
15
09
F9
D8
ED
F6
05
F9
ED
0A
0E
02
18
21
13
18
06
08
23
26
2A
17
25
17
EA
FD
FE
10
FB
F5
DC
EC
E6
F5
01
F4
03
FB
1A
1C
10
1F
19
20
0D
05
19
2B
0A
36
20
F1
EE
24
07
FB
E9
EC
D9
E0
D9
FA
EA
FA
EC
00
05
11
0E
0A
27
FE
11
FE
0F
24
F9
13
0C
13
06
1B
FD
0E
E4
D4
E8
FF
F6
E9
F5
EB
EF
16
27
1E
06
20
2A
28
FF
16
F6
FC
F4
10
00
21
12
31
0C
F0
EF
F7
0E
F3
0F
F5
FF
0D
12
0E
0E
0E
1A
02
05
14
09
0D
00
E1
FE
14
07
2A
27
27
35
01
FF
F4
F4
07
01
F8
11
00
19
18
08
22
FB
13
12
03
08
1A
02
E4
E3
EC
11
18
2E
41
5D
2E
0E
1D
14
00
16
0D
15
F5
0C
F9
12
26
15
1A
30
FC
10
FC
E8
0E
DE
DB
E7
0B
14
28
37
2A
27
1D
05
FB
F3
03
01
00
F9
06
07
1E
18
11
22
14
10
15
E7
F3
E1
D3
E1
FC
FF
1B
26
27
1F
07
11
F6
07
08
12
FB
FB
FE
17
F8
2D
2E
12
04
F3
02
F6
F7
E1
F4
DC
F7
ED
01
F4
06
1B
0A
0A
03
03
F9
13
F5
F8
0F
FF
2C
12
01
FE
FE
EF
F6
FA
1E
E9
DA
EB
E7
D3
E1
DF
05
00
09
14
FF
FA
02
1D
FA
00
FB
0D
01
1F
02
FA
F2
F0
E3
04
27
04
F0
F5
F4
DC
E9
DB
E1
E6
02
17
FB
0B
0A
1C
11
11
0F
04
22
09
15
F6
F6
0F
EE
FC
0B
FA
07
F4
E8
F1
F2
F4
E7
FE
0A
04
0B
0B
0E
F9
FB
F7
EC
06
0F
07
FE
FF
EF
F1
0E
F9
18
07
06
DF
17
FA
03
00
F2
02
02
14
11
19
1C
FB
0A
FA
F5
F6
0E
F1
EC
11
05
F4
F3
04
10
17
EB
FB
FD
00
16
1B
04
24
1F
1A
07
16
10
FF
19
F0
F2
06
1C
0D
F8
1E
F8
F0
0E
FC
1A
22
F6
0C
31
1A
0B
02
F1
17
F1
F2
F0
FF
17
01
02
07
1C
19
F8
E3
F2
F0
01
08
14
FA
FA
0E
FA
10
12
23
03
FE
19
14
F9
08
12
E7
0A
F0
F1
18
FE
06
25
19
0B
F7
0C
04
01
08
07
F0
1C
05
19
FD
15
09
19
04
0C
28
0D
EC
1B
22
07
26
27
FD
12
0F
0F
F1
F2
0A
