1D
1A
02
C8
29
C9
FB
26
E7
EA
21
E7
32
16
20
C1
1F
F3
E4
1E
43
03
F2
B4
03
FE
24
0D
D6
B2
EC
11
F8
E7
F3
DF
E1
E5
13
15
B3
D4
02
E0
36
23
FC
21
18
FD
15
09
E6
D9
22
3F
12
FD
C8
0F
DA
21
0C
F9
19
FB
2A
0A
F8
1C
E6
FB
17
CE
F1
DF
B0
1C
FE
D3
F4
17
20
16
E1
B7
E1
CD
E4
D6
00
8C
D9
D6
25
F6
BD
1A
19
DA
D4
42
F8
DB
1F
F2
EA
F3
27
C3
06
19
22
1B
F0
9D
09
E2
1F
16
EE
EE
FC
01
F2
F6
17
E9
