36
BA
FE
EF
DE
ED
E3
9D
0C
D0
DC
10
0E
05
F0
23
1F
26
E7
06
03
1D
F5
F9
EB
E8
D2
06
E4
3E
DE
DD
14
FB
D7
C2
1D
C6
F7
EC
E6
E0
2B
18
23
2B
16
DB
ED
C6
13
AB
E3
E4
F6
DC
E0
1E
04
C2
B2
1D
18
20
F2
25
D6
24
0D
1F
1B
D0
A3
F2
21
02
F4
BF
D6
19
0A
04
EF
DE
00
01
D9
0B
FA
2D
26
DD
ED
E1
F0
1C
F0
BE
2D
1B
19
2A
24
E1
FA
D3
00
14
BF
09
DF
C4
1E
D3
EB
2B
C3
C2
21
FB
0F
EC
BC
AC
47
F3
C2
30
