41
0A
46
1B
2C
0A
D7
E0
11
E8
A9
E5
09
FC
02
F0
14
F6
B1
21
0C
B2
42
17
DA
FB
F6
1A
F3
F3
CD
0F
E3
07
0A
DF
28
37
01
0C
4D
11
F1
EE
3F
E0
EB
D2
E9
F6
E2
EB
D7
FB
37
F0
02
34
FA
18
41
1E
0D
D5
E5
D8
E4
EB
ED
CF
C3
2D
29
E9
25
E4
C7
F4
E0
11
01
08
EB
13
FE
D4
06
29
CE
03
02
D1
FD
08
1A
F2
F5
30
1F
D4
30
3B
CC
D2
F3
DE
CF
1C
C9
EA
D9
EE
1B
23
F2
0C
F2
23
E2
D9
C4
C7
14
23
2B
DA
1C
DD
DF
C1
D9
28
FF
1E
FA
27
19
BA
F4
D1
EA
11
17
B8
12
C8
39
00
BB
EF
CA
B6
14
19
10
17
CD
1E
00
03
17
E4
10
E6
BE
F1
11
11
04
18
14
1B
CC
C5
E3
2A
E9
FE
D4
1A
1B
FA
14
81
B8
DF
DF
D6
F0
ED
0D
00
FE
17
B1
EC
F2
27
E3
11
24
20
F5
1B
D1
EB
23
D0
A7
1D
C5
1D
0D
18
1E
B1
1A
2B
05
D2
1B
CC
28
C0
F5
D5
B7
FE
1B
96
1E
1D
EA
E8
18
0F
EB
2B
27
00
FE
D1
F9
47
22
23
CA
02
3B
CC
D4
19
E7
0D
DF
F4
