E1
DA
21
0F
E4
F7
DA
E2
F7
26
DA
22
F9
28
C6
2E
D4
25
BA
D9
0A
DF
38
D6
0E
22
E9
DB
E9
03
24
FD
FC
D3
FA
F5
DD
35
00
1F
43
03
02
E4
E4
1D
B1
D9
DB
CE
23
EF
00
C4
19
4D
2D
21
BC
EA
D8
E4
0D
FC
DF
0C
10
1F
04
D2
25
D2
D8
0E
28
21
01
29
B6
FB
E3
07
DF
B5
EE
F1
1D
0D
1F
14
B3
C8
FA
E8
CB
0B
E5
20
10
1A
D9
F8
03
F1
05
05
12
E2
2C
03
18
D5
21
0C
D8
DE
03
DC
D6
27
A7
FF
21
F4
51
0A
1E
F9
