C7
18
1A
04
D1
10
29
EC
F8
CE
05
1F
D5
BE
E0
EB
C2
B9
11
1C
04
05
0C
CA
E9
F7
DD
F0
B1
B9
08
31
08
AD
22
31
EE
F1
08
EF
15
F8
F9
12
DE
09
18
FE
F9
E8
0B
01
DF
14
E5
9D
DD
0B
FB
DC
EB
EA
FD
20
F5
02
DA
20
30
F0
D5
F4
ED
D5
DD
1D
FE
16
ED
1A
05
CB
E1
E4
11
24
CE
EC
DE
08
E1
AC
ED
2C
12
A0
23
2D
CA
FB
BF
FA
08
D2
FF
EA
EE
E1
2B
26
4A
E8
FC
18
24
2F
E8
CF
F1
E9
A3
03
08
D4
CD
A2
D2
DA
F8
28
EB
14
C9
B5
CD
F8
09
D2
FE
C3
AB
0F
1B
E6
BD
F9
DE
01
26
03
FE
BF
25
0B
CE
22
DE
19
C3
BF
F4
0E
18
2E
10
D4
0E
2B
BD
12
2C
13
D0
09
2B
AB
CE
0B
14
D3
24
18
B1
EF
23
DD
C3
25
A5
1C
19
EC
03
1D
16
FE
11
14
D2
16
06
0A
F8
F1
06
E3
F0
AA
CC
00
17
D1
0F
11
0F
F3
F8
F4
15
08
FE
FE
C5
1D
26
03
CD
0D
DA
DC
D0
BC
DB
1B
10
0B
FC
EF
A0
1A
F3
0D
1E
0E
D0
F3
EC
F3
93
0D
A3
E3
0D
ED
ED
AA
