D8
0C
2E
C0
FE
23
01
D6
B7
08
EA
14
B0
05
1C
BF
C6
D1
22
F0
D5
08
E1
21
CC
C5
EC
E0
27
05
0F
14
D4
D5
D5
19
17
D6
00
EA
E9
F6
FD
2C
F5
E9
FD
DC
12
17
BB
FE
07
06
EB
CA
F6
28
32
20
C5
0A
05
EA
DB
13
FC
2D
C5
12
AA
21
33
CB
D6
0C
02
20
0F
C8
05
D4
F9
19
31
E8
2A
11
12
D4
CD
01
00
E8
10
BE
E0
D4
A9
FE
E7
E6
1E
D0
F7
21
1D
1A
CA
D0
D8
1C
07
29
FB
1F
E7
15
25
A8
92
F5
D6
0A
C6
1B
21
C7
