1F
05
CB
DE
CF
F8
14
E6
0F
3D
0C
EB
02
04
1D
30
DE
23
10
EB
0E
D8
A7
14
F6
28
05
16
26
00
0D
2A
14
05
0C
FD
23
F4
00
04
C1
D1
F8
D1
DE
D0
20
2A
15
23
03
D7
D7
EF
AD
0C
12
CC
19
D3
3E
E4
19
D0
E5
F4
CE
ED
27
EA
26
01
CD
0E
C9
1B
D3
F8
19
00
19
D5
13
07
D5
21
1D
0E
EA
37
1B
14
0D
E8
B8
1C
FE
E5
26
E7
D1
E4
91
41
14
E9
F9
E2
20
16
F8
F3
AE
25
12
C3
2C
EA
11
F0
B3
18
30
39
07
A3
E9
25
