82
0F
CE
ED
21
19
EA
F4
CD
41
29
14
2D
CB
E3
EA
35
D4
00
F6
D5
EA
1E
2B
20
13
03
DF
FE
C9
DA
BF
20
15
29
C3
F6
32
E7
CD
4C
1F
C5
DE
D5
F2
1D
02
13
FC
22
FE
18
14
DC
C6
EF
1D
17
02
31
BB
F6
F5
E5
DE
09
E0
D1
0C
27
D3
2B
11
C9
D0
07
BF
C5
2C
E7
13
DE
F9
EC
10
D0
E3
09
A6
0B
3A
F9
F1
C7
09
05
CF
FF
E3
1C
D7
2E
28
22
CF
2A
10
AB
0F
D4
FC
0A
EE
F5
26
C3
3C
05
24
23
F3
E0
C5
F1
AE
34
E1
